<unk>	0
<s>	0
</s>	0
▁t	-0
go	-1
le	-2
▁a	-3
▁b	-4
he	-5
di	-6
la	-7
re	-8
on	-9
▁m	-10
▁go	-11
▁k	-12
▁s	-13
in	-14
▁y	-15
lo	-16
at	-17
an	-18
▁le	-19
en	-20
▁di	-21
▁o	-22
▁the	-23
wa	-24
tš	-25
er	-26
▁ka	-27
▁p	-28
▁ya	-29
▁tš	-30
▁e	-31
or	-32
ga	-33
it	-34
▁f	-35
we	-36
▁c	-37
is	-38
om	-39
▁n	-40
es	-41
▁ba	-42
▁an	-43
▁se	-44
ha	-45
ion	-46
▁of	-47
ic	-48
ro	-49
ed	-50
al	-51
▁in	-52
▁w	-53
▁and	-54
▁ma	-55
se	-56
ho	-57
▁mo	-58
ent	-59
▁to	-60
▁M	-61
ing	-62
▁re	-63
▁tša	-64
ka	-65
ba	-66
▁T	-67
et	-68
ra	-69
iš	-70
▁bo	-71
st	-72
▁ga	-73
ut	-74
▁be	-75
pe	-76
il	-77
▁th	-78
▁S	-79
▁A	-80
▁d	-81
▁ye	-82
ct	-83
ar	-84
me	-85
ation	-86
▁h	-87
▁la	-88
ou	-89
▁wa	-90
▁tše	-91
ng	-92
ve	-93
ri	-94
etš	-95
▁B	-96
ong	-97
mo	-98
ko	-99
ge	-100
ment	-101
ot	-102
▁D	-103
▁sa	-104
▁K	-105
▁C	-106
ana	-107
▁for	-108
▁ke	-109
ur	-110
un	-111
▁me	-112
ele	-113
ja	-114
▁P	-115
ly	-116
ile	-117
ke	-118
ol	-119
▁G	-120
▁I	-121
▁The	-122
▁is	-123
▁dit	-124
ce	-125
na	-126
šo	-127
▁pro	-128
▁na	-129
fe	-130
id	-131
▁gore	-132
▁bja	-133
pa	-134
ona	-135
ers	-136
te	-137
eng	-138
po	-139
ane	-140
du	-141
▁ha	-142
ith	-143
▁that	-144
ya	-145
ir	-146
▁con	-147
bo	-148
▁on	-149
▁kgo	-150
im	-151
us	-152
▁tla	-153
šom	-154
▁or	-155
ate	-156
hla	-157
▁g	-158
be	-159
ts	-160
tše	-161
▁Af	-162
▁,	-163
▁ts	-164
tša	-165
▁R	-166
ma	-167
ša	-168
pp	-169
▁st	-170
ter	-171
▁Mo	-172
li	-173
▁as	-174
▁de	-175
▁are	-176
wego	-177
ver	-178
lwa	-179
▁with	-180
▁goba	-181
▁N	-182
ity	-183
▁we	-184
kgo	-185
hi	-186
▁L	-187
res	-188
ill	-189
▁fa	-190
ul	-191
iti	-192
▁.	-193
▁yeo	-194
her	-195
▁com	-196
▁sw	-197
tšo	-198
▁su	-199
etše	-200
hlo	-201
as	-202
ci	-203
▁al	-204
olo	-205
▁E	-206
tšha	-207
▁ge	-208
ch	-209
nt	-210
ort	-211
ano	-212
ab	-213
ric	-214
rom	-215
op	-216
lat	-217
▁by	-218
▁W	-219
ig	-220
▁Go	-221
ela	-222
▁Ma	-223
kg	-224
lic	-225
sa	-226
qu	-227
▁hlo	-228
iša	-229
▁at	-230
▁it	-231
▁you	-232
ess	-233
▁ex	-234
ist	-235
um	-236
ire	-237
▁te	-238
▁v	-239
▁will	-240
long	-241
if	-242
▁ne	-243
mme	-244
išo	-245
ta	-246
art	-247
▁H	-248
ive	-249
fa	-250
ust	-251
▁ta	-252
▁kg	-253
atš	-254
any	-255
th	-256
▁tl	-257
ding	-258
mp	-259
▁O	-260
ction	-261
up	-262
uth	-263
▁gomme	-264
so	-265
ice	-266
lao	-267
tši	-268
ete	-269
▁swan	-270
ago	-271
▁un	-272
▁Di	-273
to	-274
▁hla	-275
▁F	-276
dimo	-277
▁po	-278
▁šom	-279
ld	-280
lela	-281
ure	-282
est	-283
ant	-284
phe	-285
▁swanetše	-286
▁Afric	-287
▁wh	-288
▁tšwe	-289
▁have	-290
▁app	-291
▁tshe	-292
ll	-293
ad	-294
rika	-295
tšhaba	-296
▁not	-297
▁r	-298
▁mat	-299
▁was	-300
▁pe	-301
▁en	-302
▁from	-303
ome	-304
▁bao	-305
and	-306
▁wo	-307
ušo	-308
▁Se	-309
▁pa	-310
ang	-311
▁bat	-312
▁pele	-313
no	-314
▁So	-315
▁tšeo	-316
▁tse	-317
tšwego	-318
▁Ka	-319
cc	-320
tšwe	-321
▁res	-322
▁Afrika	-323
▁ao	-324
▁he	-325
ne	-326
one	-327
de	-328
hu	-329
gh	-330
ther	-331
our	-332
ngwe	-333
▁In	-334
iv	-335
ume	-336
der	-337
▁Re	-338
▁lo	-339
▁i	-340
ss	-341
▁bjalo	-342
pha	-343
▁ti	-344
orwa	-345
▁im	-346
for	-347
wana	-348
tle	-349
ational	-350
ions	-351
▁yo	-352
▁this	-353
udu	-354
▁has	-355
cial	-356
tšwa	-357
ula	-358
ated	-359
erv	-360
gwa	-361
▁nya	-362
▁South	-363
nd	-364
▁prov	-365
▁bona	-366
etša	-367
em	-368
kolo	-369
hle	-370
▁tlo	-371
▁ho	-372
kare	-373
ub	-374
▁kga	-375
ilego	-376
erm	-377
▁fi	-378
hom	-379
ici	-380
eri	-381
▁dira	-382
ans	-383
pho	-384
pi	-385
fat	-386
▁inc	-387
ations	-388
▁ad	-389
port	-390
ble	-391
ene	-392
▁batho	-393
fo	-394
ck	-395
tho	-396
▁Le	-397
etšo	-398
▁fet	-399
▁lego	-400
oro	-401
▁setšhaba	-402
ata	-403
ident	-404
felo	-405
▁comm	-406
jo	-407
▁tšwa	-408
red	-409
▁comp	-410
ki	-411
▁Borwa	-412
▁š	-413
▁ile	-414
pelo	-415
▁kudu	-416
kwa	-417
ry	-418
▁Th	-419
▁mm	-420
išwa	-421
ich	-422
emo	-423
lete	-424
▁moka	-425
▁must	-426
▁do	-427
pedi	-428
mb	-429
▁ca	-430
šomo	-431
▁dir	-432
lago	-433
▁ra	-434
ities	-435
▁Bo	-436
▁which	-437
▁dik	-438
ru	-439
▁phe	-440
ilwego	-441
baka	-442
ical	-443
lelo	-444
ak	-445
han	-446
▁hwe	-447
wn	-448
able	-449
use	-450
lu	-451
▁seo	-452
atla	-453
▁pol	-454
ds	-455
▁U	-456
▁mor	-457
▁were	-458
▁gona	-459
▁whe	-460
form	-461
▁part	-462
leng	-463
edi	-464
▁fo	-465
si	-466
▁off	-467
▁li	-468
▁Kgo	-469
ments	-470
hut	-471
ult	-472
▁so	-473
she	-474
▁wor	-475
tšego	-476
▁pla	-477
▁other	-478
▁cou	-479
ena	-480
▁Ba	-481
onom	-482
▁bon	-483
lop	-484
▁ro	-485
▁their	-486
ence	-487
▁also	-488
ny	-489
▁l	-490
▁can	-491
▁gape	-492
velop	-493
▁co	-494
pect	-495
ollo	-496
letšo	-497
ous	-498
gan	-499
ine	-500
gat	-501
▁cont	-502
▁been	-503
▁who	-504
end	-505
▁J	-506
▁tlha	-507
ide	-508
je	-509
ance	-510
▁akare	-511
ff	-512
ces	-513
▁dis	-514
iši	-515
ary	-516
belo	-517
▁rena	-518
ted	-519
irelo	-520
am	-521
ign	-522
rolo	-523
▁;	-524
▁our	-525
ies	-526
▁acc	-527
▁sub	-528
ren	-529
▁man	-530
▁no	-531
▁am	-532
ps	-533
▁ar	-534
ution	-535
▁all	-536
▁pre	-537
hwa	-538
▁yona	-539
ite	-540
▁ntle	-541
per	-542
▁din	-543
loko	-544
vern	-545
▁any	-546
▁tra	-547
▁morago	-548
▁set	-549
gis	-550
▁De	-551
▁ngwa	-552
sion	-553
▁Africa	-554
▁SA	-555
▁leb	-556
igh	-557
▁rec	-558
▁1	-559
diš	-560
ay	-561
ni	-562
▁Com	-563
▁godimo	-564
▁ph	-565
ok	-566
▁-	-567
▁Ke	-568
reng	-569
ape	-570
ublic	-571
letša	-572
▁dip	-573
▁serv	-574
ree	-575
▁us	-576
▁kget	-577
gra	-578
stit	-579
▁sho	-580
heo	-581
▁African	-582
▁develop	-583
ber	-584
▁We	-585
▁This	-586
▁applic	-587
gwe	-588
ally	-589
▁may	-590
lha	-591
▁inv	-592
▁St	-593
pt	-594
ugh	-595
▁mai	-596
anyo	-597
▁dina	-598
ilwe	-599
▁tho	-600
cil	-601
▁leo	-602
▁bohlo	-603
▁Con	-604
▁moo	-605
▁gare	-606
▁fe	-607
phodi	-608
ens	-609
▁form	-610
▁V	-611
haba	-612
▁cons	-613
dimošo	-614
ense	-615
part	-616
▁Pro	-617
king	-618
▁Y	-619
min	-620
atši	-621
eny	-622
ors	-623
phodisa	-624
che	-625
int	-626
▁Ge	-627
ue	-628
▁nago	-629
dit	-630
▁inter	-631
cess	-632
▁out	-633
vernment	-634
ast	-635
bedi	-636
▁meet	-637
▁sego	-638
tse	-639
kelo	-640
od	-641
otse	-642
helete	-643
fatša	-644
▁It	-645
aneo	-646
swa	-647
ates	-648
tla	-649
felong	-650
▁mmušo	-651
wi	-652
als	-653
▁under	-654
ffe	-655
▁maemo	-656
▁maba	-657
▁nako	-658
▁dume	-659
▁your	-660
rol	-661
▁kgopelo	-662
kga	-663
kiš	-664
▁inclu	-665
rest	-666
▁ditš	-667
erson	-668
▁bu	-669
icip	-670
kgwa	-671
led	-672
▁requ	-673
ject	-674
ced	-675
pres	-676
▁they	-677
ission	-678
tha	-679
ina	-680
kgat	-681
▁nngwe	-682
▁Me	-683
tain	-684
very	-685
wo	-686
sed	-687
▁To	-688
ople	-689
pedišo	-690
▁bjo	-691
▁male	-692
▁memb	-693
▁reg	-694
▁dipo	-695
▁qu	-696
▁gago	-697
ish	-698
gago	-699
▁its	-700
▁dikgo	-701
▁bego	-702
ph	-703
▁bohlokwa	-704
lego	-705
wago	-706
▁dingwe	-707
▁akaretša	-708
▁inform	-709
pon	-710
▁ri	-711
▁kop	-712
ši	-713
▁new	-714
▁tshedimošo	-715
▁people	-716
▁count	-717
geng	-718
▁nyaka	-719
ila	-720
huta	-721
▁sc	-722
kologo	-723
▁mošomo	-724
ks	-725
rans	-726
▁mong	-727
▁provin	-728
lwe	-729
▁Comm	-730
lation	-731
▁hwetša	-732
ific	-733
▁len	-734
kgolo	-735
ise	-736
▁molao	-737
ia	-738
▁kgwe	-739
▁there	-740
mogo	-741
ag	-742
▁commun	-743
▁one	-744
▁fela	-745
hlan	-746
ys	-747
ild	-748
▁dire	-749
▁Mr	-750
wane	-751
▁spe	-752
pport	-753
▁ch	-754
▁šoma	-755
▁motho	-756
▁maatla	-757
ti	-758
ices	-759
▁more	-760
hek	-761
all	-762
▁swana	-763
▁dika	-764
▁these	-765
▁amo	-766
▁into	-767
fsa	-768
lect	-769
ating	-770
▁gagwe	-771
les	-772
▁up	-773
▁met	-774
stitution	-775
ari	-776
elo	-777
ach	-778
rough	-779
▁gab	-780
▁Dit	-781
▁naga	-782
▁person	-783
war	-784
bela	-785
ised	-786
▁maga	-787
ledi	-788
▁ev	-789
šomi	-790
ration	-791
▁imp	-792
▁mon	-793
▁tsela	-794
išano	-795
cy	-796
omo	-797
und	-798
▁act	-799
▁exp	-800
▁such	-801
ality	-802
loy	-803
▁ag	-804
golo	-805
▁kgolo	-806
▁lebaka	-807
anego	-808
▁public	-809
ifi	-810
▁mola	-811
▁mabapi	-812
▁Ga	-813
▁gro	-814
▁taolo	-815
kong	-816
▁cha	-817
fense	-818
uld	-819
▁pres	-820
ved	-821
▁thu	-822
kgoni	-823
▁bole	-824
▁sy	-825
mm	-826
miš	-827
▁dinya	-828
▁legis	-829
of	-830
▁meng	-831
▁ass	-832
iz	-833
kala	-834
conom	-835
nyane	-836
▁perm	-837
rent	-838
phelo	-839
▁should	-840
ora	-841
▁mme	-842
▁aga	-843
ctions	-844
hlopha	-845
bollo	-846
ket	-847
kemiš	-848
▁Tš	-849
▁where	-850
▁j	-851
its	-852
▁bet	-853
▁Cape	-854
cu	-855
ca	-856
ctor	-857
▁ent	-858
▁tsen	-859
keng	-860
▁national	-861
ie	-862
▁karolo	-863
hire	-864
▁late	-865
wer	-866
gela	-867
▁sus	-868
▁tume	-869
▁application	-870
ged	-871
medi	-872
▁mar	-873
▁Mola	-874
▁Mna	-875
▁process	-876
ini	-877
▁if	-878
▁development	-879
▁Pa	-880
ould	-881
ract	-882
▁pha	-883
hip	-884
ism	-885
ran	-886
▁but	-887
išene	-888
▁af	-889
ener	-890
galo	-891
▁two	-892
konom	-893
▁dipa	-894
▁tšona	-895
wan	-896
ional	-897
▁mohla	-898
ert	-899
dic	-900
ures	-901
gala	-902
▁emp	-903
▁Kgoro	-904
▁through	-905
▁trans	-906
ries	-907
▁government	-908
upša	-909
▁appro	-910
▁information	-911
▁ac	-912
tšho	-913
ud	-914
get	-915
ning	-916
uring	-917
▁fin	-918
▁would	-919
ater	-920
kgatlo	-921
▁kgat	-922
▁mang	-923
▁work	-924
rib	-925
stem	-926
gilego	-927
mit	-928
▁abo	-929
konomi	-930
otheo	-931
▁Molao	-932
▁kgona	-933
▁police	-934
▁ab	-935
▁mana	-936
▁mongwe	-937
uk	-938
ffect	-939
▁lefa	-940
oun	-941
▁ob	-942
pela	-943
▁tee	-944
▁need	-945
▁said	-946
▁thom	-947
hireletšo	-948
▁magareng	-949
ural	-950
▁iss	-951
lega	-952
letšwa	-953
▁inte	-954
▁time	-955
▁diti	-956
▁over	-957
kara	-958
pala	-959
▁term	-960
▁bile	-961
▁fase	-962
age	-963
▁per	-964
▁sha	-965
el	-966
ase	-967
kom	-968
▁rom	-969
unicip	-970
▁"	-971
fore	-972
gelo	-973
ting	-974
▁num	-975
▁tloga	-976
▁lefelo	-977
▁tšea	-978
▁members	-979
▁Z	-980
duct	-981
tshe	-982
▁had	-983
io	-984
llo	-985
▁ap	-986
ving	-987
▁tha	-988
▁econom	-989
ek	-990
ial	-991
▁As	-992
▁dita	-993
▁when	-994
▁than	-995
▁year	-996
▁lebele	-997
▁require	-998
▁service	-999
▁maleba	-1000
▁He	-1001
wing	-1002
ility	-1003
partment	-1004
▁suspect	-1005
ded	-1006
the	-1007
tlo	-1008
polo	-1009
▁his	-1010
▁pri	-1011
▁import	-1012
▁Un	-1013
tšhab	-1014
▁App	-1015
ining	-1016
▁maloko	-1017
▁dec	-1018
▁ditirelo	-1019
▁sp	-1020
kome	-1021
▁maf	-1022
gy	-1023
▁An	-1024
▁gabotse	-1025
ban	-1026
sepala	-1027
pele	-1028
mi	-1029
▁child	-1030
▁hloka	-1031
ives	-1032
▁est	-1033
▁bodi	-1034
▁ban	-1035
▁efe	-1036
▁maphodisa	-1037
kgwe	-1038
▁sec	-1039
ard	-1040
gon	-1041
stru	-1042
▁follo	-1043
▁det	-1044
▁respon	-1045
ful	-1046
tern	-1047
▁feta	-1048
▁mafelo	-1049
▁employ	-1050
len	-1051
ents	-1052
ular	-1053
▁ref	-1054
▁Setš	-1055
▁being	-1056
▁bokgoni	-1057
ght	-1058
▁thi	-1059
mente	-1060
▁country	-1061
kedi	-1062
hon	-1063
▁Min	-1064
▁bašomi	-1065
ress	-1066
▁ditla	-1067
▁dilo	-1068
▁well	-1069
▁mengwa	-1070
▁phetha	-1071
▁system	-1072
▁within	-1073
▁lefelong	-1074
lf	-1075
bile	-1076
▁fun	-1077
▁Act	-1078
▁bus	-1079
sela	-1080
▁pho	-1081
elelo	-1082
ithut	-1083
▁after	-1084
▁bohla	-1085
▁them	-1086
▁tlho	-1087
▁eupša	-1088
▁progra	-1089
▁des	-1090
ative	-1091
kišišo	-1092
isi	-1093
rit	-1094
oropo	-1095
▁lebo	-1096
pos	-1097
▁loc	-1098
▁bolela	-1099
▁nakong	-1100
▁Molaotheo	-1101
▁tshepedišo	-1102
ola	-1103
▁Setšhaba	-1104
▁mot	-1105
▁conc	-1106
abl	-1107
etšego	-1108
▁dint	-1109
homo	-1110
onelwa	-1111
hool	-1112
▁fihle	-1113
petšo	-1114
▁docu	-1115
▁made	-1116
gement	-1117
▁about	-1118
▁nete	-1119
uto	-1120
▁plan	-1121
▁state	-1122
ven	-1123
▁Par	-1124
▁National	-1125
▁2	-1126
por	-1127
▁tšwela	-1128
▁oper	-1129
gar	-1130
alth	-1131
enyi	-1132
ited	-1133
▁Constitution	-1134
kag	-1135
▁both	-1136
▁nyake	-1137
ms	-1138
▁only	-1139
▁tir	-1140
▁conf	-1141
▁dirwa	-1142
▁prev	-1143
▁invest	-1144
▁kgwebo	-1145
▁thuša	-1146
karetšo	-1147
karabelo	-1148
duc	-1149
▁rea	-1150
▁again	-1151
▁tikologo	-1152
ween	-1153
▁swa	-1154
etšwe	-1155
mela	-1156
▁area	-1157
▁kgetho	-1158
dudi	-1159
kget	-1160
ision	-1161
▁Tona	-1162
▁terms	-1163
▁contin	-1164
▁mešomo	-1165
resident	-1166
▁between	-1167
ip	-1168
ves	-1169
ound	-1170
▁For	-1171
isation	-1172
▁Commission	-1173
ty	-1174
▁her	-1175
▁diphe	-1176
bok	-1177
dir	-1178
ues	-1179
▁col	-1180
▁em	-1181
▁hum	-1182
▁kot	-1183
▁meetse	-1184
put	-1185
wat	-1186
reat	-1187
▁šomiša	-1188
ual	-1189
vel	-1190
alwa	-1191
▁mas	-1192
ister	-1193
▁fiwa	-1194
▁Applic	-1195
▁Mm	-1196
pego	-1197
iness	-1198
▁mokgwa	-1199
▁support	-1200
rate	-1201
▁use	-1202
▁bana	-1203
ib	-1204
vir	-1205
sure	-1206
urban	-1207
▁tšhireletšo	-1208
os	-1209
▁min	-1210
▁relat	-1211
▁arrest	-1212
senyi	-1213
▁foko	-1214
▁tumelelo	-1215
nete	-1216
▁poss	-1217
ulo	-1218
ners	-1219
ourt	-1220
▁organ	-1221
▁effect	-1222
▁number	-1223
ws	-1224
ition	-1225
▁intern	-1226
pen	-1227
nolo	-1228
▁bjale	-1229
psha	-1230
▁mabaka	-1231
va	-1232
atlala	-1233
▁dumele	-1234
kemišetšo	-1235
▁provincial	-1236
ined	-1237
▁areas	-1238
▁tšhelete	-1239
rero	-1240
▁tseba	-1241
istration	-1242
ight	-1243
▁establ	-1244
▁services	-1245
ishe	-1246
ass	-1247
▁Na	-1248
▁day	-1249
▁khu	-1250
jale	-1251
walo	-1252
▁kno	-1253
PS	-1254
▁tseb	-1255
▁Ex	-1256
▁ve	-1257
▁dite	-1258
▁dinaga	-1259
▁ut	-1260
cut	-1261
ragalo	-1262
▁kgone	-1263
ale	-1264
▁rece	-1265
▁ditho	-1266
▁lenaneo	-1267
▁President	-1268
▁ditšhelete	-1269
▁19	-1270
lato	-1271
▁Mot	-1272
▁cor	-1273
▁disc	-1274
▁bobedi	-1275
▁If	-1276
dišo	-1277
▁Tshe	-1278
▁cert	-1279
▁mpsha	-1280
▁office	-1281
ret	-1282
▁ele	-1283
ising	-1284
viron	-1285
ety	-1286
rin	-1287
urg	-1288
▁non	-1289
▁prom	-1290
▁project	-1291
day	-1292
▁legislation	-1293
masepala	-1294
ron	-1295
hout	-1296
ings	-1297
▁used	-1298
hlankedi	-1299
▁ekonomi	-1300
kan	-1301
ount	-1302
▁gam	-1303
▁sepe	-1304
hie	-1305
ten	-1306
▁some	-1307
▁woo	-1308
ara	-1309
uswi	-1310
▁fao	-1311
▁vari	-1312
▁There	-1313
▁:	-1314
diša	-1315
ditše	-1316
▁nt	-1317
▁take	-1318
lwago	-1319
ote	-1320
pat	-1321
▁fir	-1322
▁gan	-1323
▁medi	-1324
▁permit	-1325
pana	-1326
tšhe	-1327
▁mafelong	-1328
▁Department	-1329
ins	-1330
hila	-1331
▁car	-1332
atšwa	-1333
▁Coun	-1334
lan	-1335
oto	-1336
▁BI	-1337
kane	-1338
▁boi	-1339
▁school	-1340
▁maikarabelo	-1341
ulat	-1342
▁feto	-1343
▁thek	-1344
▁Council	-1345
ory	-1346
gile	-1347
▁facil	-1348
▁Jo	-1349
rime	-1350
▁sta	-1351
cture	-1352
▁boit	-1353
▁ident	-1354
des	-1355
hamp	-1356
▁hlohle	-1357
▁mmalwa	-1358
▁provid	-1359
vironment	-1360
▁No	-1361
▁botse	-1362
▁report	-1363
ily	-1364
▁val	-1365
ically	-1366
setšhaba	-1367
▁business	-1368
▁profense	-1369
bi	-1370
ats	-1371
ond	-1372
itiz	-1373
▁sign	-1374
▁nageng	-1375
▁community	-1376
eno	-1377
ner	-1378
▁allo	-1379
▁many	-1380
fatana	-1381
ists	-1382
rame	-1383
▁gat	-1384
▁int	-1385
▁let	-1386
▁she	-1387
▁seng	-1388
▁sephe	-1389
▁kgauswi	-1390
▁latelago	-1391
▁management	-1392
ste	-1393
lement	-1394
▁water	-1395
▁maphelo	-1396
▁kwe	-1397
▁lef	-1398
▁wit	-1399
feren	-1400
▁land	-1401
dust	-1402
hata	-1403
ness	-1404
▁diko	-1405
▁those	-1406
pit	-1407
▁what	-1408
ention	-1409
▁mehla	-1410
▁phatlala	-1411
set	-1412
padi	-1413
▁very	-1414
▁dihla	-1415
gononelwa	-1416
sele	-1417
▁cre	-1418
▁cur	-1419
eneral	-1420
idente	-1421
presidente	-1422
▁netefatša	-1423
komelo	-1424
▁tlase	-1425
▁tšhom	-1426
▁dikolo	-1427
▁Application	-1428
▁my	-1429
▁aro	-1430
▁men	-1431
▁dijo	-1432
dišano	-1433
▁Durban	-1434
▁ditaba	-1435
gi	-1436
▁(	-1437
pla	-1438
▁ng	-1439
▁pur	-1440
etšwa	-1441
fatšo	-1442
tlalo	-1443
▁cent	-1444
▁hlokom	-1445
com	-1446
vers	-1447
▁activ	-1448
gae	-1449
▁eme	-1450
ority	-1451
hic	-1452
ics	-1453
▁three	-1454
▁maikemišetšo	-1455
hl	-1456
ned	-1457
sta	-1458
▁bi	-1459
▁gu	-1460
▁equ	-1461
▁Serv	-1462
▁speci	-1463
atšhaba	-1464
▁before	-1465
▁responsi	-1466
▁att	-1467
▁mab	-1468
▁Mmušo	-1469
fatanaga	-1470
▁including	-1471
eti	-1472
ord	-1473
rat	-1474
šele	-1475
ished	-1476
▁Minister	-1477
fi	-1478
sadi	-1479
▁fihla	-1480
▁ensure	-1481
▁ngwaga	-1482
ego	-1483
▁Be	-1484
▁vis	-1485
▁ntši	-1486
▁pedi	-1487
▁gammogo	-1488
▁šomišwa	-1489
longwa	-1490
▁tlago	-1491
▁Ta	-1492
stan	-1493
jalo	-1494
keiti	-1495
▁deli	-1496
▁dula	-1497
▁thoma	-1498
▁economic	-1499
▁following	-1500
▁kakaretšo	-1501
▁tšweletša	-1502
hlanong	-1503
▁Tirelo	-1504
homišene	-1505
tšhabatšhaba	-1506
wini	-1507
▁bas	-1508
ified	-1509
▁most	-1510
▁citiz	-1511
▁ebile	-1512
▁local	-1513
▁bontši	-1514
co	-1515
gatša	-1516
▁beak	-1517
▁high	-1518
▁certific	-1519
ute	-1520
▁def	-1521
ditšwego	-1522
▁against	-1523
▁tlhabollo	-1524
ges	-1525
ued	-1526
cept	-1527
kego	-1528
▁like	-1529
▁polic	-1530
ente	-1531
land	-1532
ganyo	-1533
▁main	-1534
▁make	-1535
▁order	-1536
▁lefase	-1537
▁motheo	-1538
▁bea	-1539
▁gwa	-1540
▁own	-1541
hamphan	-1542
▁municip	-1543
▁dinyakwa	-1544
▁mengwaga	-1545
▁dinyakišišo	-1546
ath	-1547
▁beca	-1548
▁vehic	-1549
▁botlalo	-1550
kela	-1551
palo	-1552
urity	-1553
▁hlalo	-1554
▁mananeo	-1555
wor	-1556
▁Ro	-1557
▁kaona	-1558
ifikeiti	-1559
lin	-1560
▁fele	-1561
▁stru	-1562
▁first	-1563
za	-1564
pri	-1565
▁Ne	-1566
arch	-1567
ffic	-1568
▁les	-1569
tsheko	-1570
▁kgoro	-1571
▁tirelo	-1572
▁amogela	-1573
▁mathomo	-1574
let	-1575
šwa	-1576
▁Ch	-1577
ecut	-1578
▁just	-1579
▁rele	-1580
▁boletše	-1581
▁bohlatse	-1582
▁ok	-1583
▁Pol	-1584
▁hloma	-1585
etšwego	-1586
▁ditshe	-1587
▁during	-1588
▁mehuta	-1589
era	-1590
▁ext	-1591
▁tswa	-1592
▁assist	-1593
▁Kgopelo	-1594
ese	-1595
ants	-1596
▁dib	-1597
▁SAPS	-1598
▁stat	-1599
ditšwe	-1600
▁swane	-1601
▁suspects	-1602
ked	-1603
ken	-1604
atho	-1605
▁sto	-1606
okelo	-1607
▁admin	-1608
▁offici	-1609
▁repres	-1610
▁environment	-1611
▁international	-1612
ep	-1613
omen	-1614
▁adv	-1615
▁fur	-1616
▁Prov	-1617
hansele	-1618
▁dithoto	-1619
arm	-1620
ler	-1621
anago	-1622
▁hlat	-1623
▁bosenyi	-1624
tee	-1625
reed	-1626
▁sit	-1627
▁dist	-1628
xt	-1629
ani	-1630
kiša	-1631
▁And	-1632
▁You	-1633
▁ame	-1634
▁taba	-1635
▁human	-1636
hamphani	-1637
▁investig	-1638
hara	-1639
▁invol	-1640
▁regar	-1641
▁shall	-1642
dirišwa	-1643
▁document	-1644
▁kgahlanong	-1645
▁―	-1646
anya	-1647
▁sen	-1648
▁thuto	-1649
▁commit	-1650
▁mathata	-1651
rong	-1652
▁sur	-1653
gatšo	-1654
▁bolo	-1655
rge	-1656
gaka	-1657
were	-1658
▁Set	-1659
▁indust	-1660
00	-1661
ug	-1662
▁clo	-1663
▁They	-1664
▁dipe	-1665
▁fire	-1666
▁matš	-1667
▁temo	-1668
▁apply	-1669
▁dipha	-1670
▁nnyane	-1671
▁Is	-1672
▁inf	-1673
▁kat	-1674
▁diri	-1675
▁letš	-1676
▁required	-1677
SA	-1678
cted	-1679
unya	-1680
▁yoo	-1681
vaila	-1682
▁bang	-1683
▁lear	-1684
▁house	-1685
▁tliša	-1686
▁sengwe	-1687
yo	-1688
burg	-1689
come	-1690
ofolo	-1691
▁then	-1692
▁level	-1693
▁access	-1694
reas	-1695
▁nat	-1696
▁lead	-1697
▁dikgwe	-1698
▁3	-1699
▁cla	-1700
▁Kapa	-1701
idence	-1702
▁group	-1703
▁thušo	-1704
▁pot	-1705
▁educ	-1706
▁dipho	-1707
▁availa	-1708
ris	-1709
ring	-1710
▁hand	-1711
panego	-1712
▁tsena	-1713
▁Ad	-1714
▁jo	-1715
ible	-1716
▁know	-1717
editše	-1718
▁legislat	-1719
▁province	-1720
oropokgolo	-1721
▁Mopresidente	-1722
▁La	-1723
diši	-1724
▁ins	-1725
letše	-1726
ilding	-1727
▁swara	-1728
hekwini	-1729
▁health	-1730
▁materi	-1731
▁member	-1732
▁sehlopha	-1733
▁Te	-1734
▁appo	-1735
▁lefe	-1736
pportun	-1737
▁akaretšwa	-1738
▁fihlelela	-1739
▁Government	-1740
bs	-1741
irs	-1742
gase	-1743
▁ful	-1744
▁auth	-1745
eletšo	-1746
▁elect	-1747
eration	-1748
▁ngwana	-1749
▁Khomišene	-1750
▁represent	-1751
ulu	-1752
bišo	-1753
bopego	-1754
▁nnete	-1755
ecutive	-1756
wantšho	-1757
▁available	-1758
ons	-1759
pro	-1760
ency	-1761
▁mela	-1762
▁regis	-1763
▁foromo	-1764
▁mangwe	-1765
gn	-1766
way	-1767
elwa	-1768
hola	-1769
▁law	-1770
ccess	-1771
mmušo	-1772
▁stand	-1773
▁sephetho	-1774
cing	-1775
▁cle	-1776
▁kwa	-1777
▁tax	-1778
▁tema	-1779
▁bangwe	-1780
▁provide	-1781
▁opportun	-1782
▁lek	-1783
phara	-1784
pital	-1785
▁long	-1786
▁right	-1787
▁world	-1788
▁years	-1789
▁respect	-1790
▁implement	-1791
ont	-1792
udi	-1793
▁bar	-1794
▁did	-1795
▁ret	-1796
laodi	-1797
▁Town	-1798
▁lemo	-1799
▁impro	-1800
ination	-1801
▁itšego	-1802
pet	-1803
ious	-1804
relo	-1805
tšhi	-1806
▁add	-1807
ament	-1808
▁each	-1809
▁diffe	-1810
▁concer	-1811
▁training	-1812
ac	-1813
ses	-1814
lano	-1815
road	-1816
▁place	-1817
▁product	-1818
▁certificate	-1819
ghts	-1820
hopo	-1821
kano	-1822
▁eba	-1823
ended	-1824
▁thekgo	-1825
▁present	-1826
▁arrested	-1827
▁particip	-1828
hen	-1829
dulo	-1830
iven	-1831
▁par	-1832
ering	-1833
▁open	-1834
▁prof	-1835
▁These	-1836
▁partic	-1837
▁communities	-1838
rd	-1839
ched	-1840
maga	-1841
elele	-1842
▁capa	-1843
▁leba	-1844
▁strate	-1845
▁because	-1846
tšweletšwa	-1847
ils	-1848
wed	-1849
ills	-1850
▁pay	-1851
▁supp	-1852
▁polit	-1853
▁letšatši	-1854
ere	-1855
ili	-1856
▁bj	-1857
išin	-1858
tšeke	-1859
▁Tlha	-1860
akanyo	-1861
▁laetša	-1862
▁perform	-1863
▁Maphodisa	-1864
▁countries	-1865
▁swanetšego	-1866
ft	-1867
cip	-1868
ets	-1869
khu	-1870
sel	-1871
ganya	-1872
▁children	-1873
lie	-1874
▁Co	-1875
reign	-1876
▁Bodi	-1877
▁demo	-1878
▁gole	-1879
entshe	-1880
ama	-1881
▁Or	-1882
▁pass	-1883
▁dipalo	-1884
▁sk	-1885
latša	-1886
▁palo	-1887
▁tlwa	-1888
galago	-1889
▁bophara	-1890
▁semmušo	-1891
▁particular	-1892
kat	-1893
ori	-1894
▁now	-1895
▁occ	-1896
graph	-1897
ively	-1898
▁appe	-1899
ession	-1900
▁submit	-1901
▁tlhahlo	-1902
▁mokgatlo	-1903
▁'	-1904
gin	-1905
irm	-1906
▁Pre	-1907
ually	-1908
▁Cent	-1909
▁Park	-1910
▁leko	-1911
ancial	-1912
ithuti	-1913
eb	-1914
hat	-1915
iše	-1916
lla	-1917
▁sea	-1918
▁could	-1919
▁produ	-1920
letšego	-1921
Thekwini	-1922
▁fokotša	-1923
▁fetilego	-1924
anta	-1925
▁Cha	-1926
▁meas	-1927
▁reco	-1928
utions	-1929
kes	-1930
gato	-1931
hono	-1932
ross	-1933
▁kweš	-1934
▁pract	-1935
▁section	-1936
▁without	-1937
EC	-1938
iew	-1939
par	-1940
▁him	-1941
▁sol	-1942
wards	-1943
▁kgope	-1944
▁leloko	-1945
▁security	-1946
ima	-1947
gist	-1948
▁data	-1949
▁tech	-1950
▁want	-1951
▁mohuta	-1952
▁resour	-1953
▁social	-1954
▁beilwego	-1955
bu	-1956
agi	-1957
din	-1958
sing	-1959
▁determ	-1960
▁policy	-1961
▁programme	-1962
ict	-1963
ently	-1964
▁lets	-1965
▁tiiš	-1966
▁marri	-1967
▁Municip	-1968
▁include	-1969
▁interest	-1970
aka	-1971
ind	-1972
lele	-1973
emong	-1974
▁kant	-1975
ultural	-1976
▁romela	-1977
▁activities	-1978
▁tlhokomelo	-1979
af	-1980
mar	-1981
spe	-1982
▁Wes	-1983
▁maj	-1984
▁alle	-1985
▁found	-1986
▁setšo	-1987
▁waste	-1988
▁badudi	-1989
▁condit	-1990
▁issued	-1991
▁tlhago	-1992
▁further	-1993
▁bosetšhaba	-1994
ye	-1995
lim	-1996
▁Am	-1997
▁put	-1998
ately	-1999
kgoba	-2000
▁Sele	-2001
▁case	-2002
▁mabo	-2003
▁kgeth	-2004
▁quest	-2005
▁Service	-2006
išitšwego	-2007
▁On	-2008
▁get	-2009
tered	-2010
▁priv	-2011
▁realo	-2012
▁success	-2013
▁dumelela	-2014
bers	-2015
mano	-2016
šole	-2017
▁Sub	-2018
▁ofe	-2019
▁kago	-2020
▁seri	-2021
kagano	-2022
lelano	-2023
▁indic	-2024
▁tlale	-2025
kut	-2026
ufa	-2027
abin	-2028
kany	-2029
olla	-2030
▁199	-2031
▁mma	-2032
▁proper	-2033
▁control	-2034
ches	-2035
pano	-2036
soci	-2037
tiki	-2038
▁hel	-2039
other	-2040
▁bene	-2041
▁hist	-2042
▁post	-2043
▁soci	-2044
▁laola	-2045
▁various	-2046
▁didirišwa	-2047
urn	-2048
utha	-2049
šong	-2050
icket	-2051
▁prin	-2052
▁tšho	-2053
▁dithek	-2054
▁establish	-2055
fic	-2056
val	-2057
▁et	-2058
ying	-2059
▁ona	-2060
▁way	-2061
ators	-2062
▁peleng	-2063
▁different	-2064
ral	-2065
▁Mat	-2066
▁che	-2067
▁lin	-2068
▁fedi	-2069
▁mahla	-2070
▁design	-2071
▁mekgwa	-2072
▁current	-2073
▁mohlala	-2074
▁citizens	-2075
cus	-2076
upa	-2077
ontle	-2078
▁name	-2079
▁kgale	-2080
▁kotsi	-2081
▁ditiro	-2082
bab	-2083
lig	-2084
less	-2085
▁bor	-2086
▁mil	-2087
▁coun	-2088
▁peri	-2089
▁agree	-2090
▁Kwa	-2091
▁nom	-2092
▁see	-2093
▁indi	-2094
▁role	-2095
▁selo	-2096
▁tour	-2097
▁initi	-2098
▁mmogo	-2099
kgopedi	-2100
▁nyakago	-2101
▁hlokomela	-2102
dy	-2103
bil	-2104
eni	-2105
ling	-2106
ters	-2107
▁cas	-2108
hwaro	-2109
▁City	-2110
▁Diti	-2111
▁road	-2112
▁integ	-2113
▁Provin	-2114
▁basadi	-2115
▁ditlha	-2116
▁molato	-2117
uku	-2118
▁Do	-2119
bour	-2120
▁how	-2121
▁here	-2122
▁means	-2123
▁tšwetša	-2124
▁tšhomišo	-2125
cks	-2126
fof	-2127
rob	-2128
▁air	-2129
▁ses	-2130
▁bora	-2131
▁melao	-2132
▁boleng	-2133
▁conduct	-2134
▁eThekwini	-2135
kra	-2136
▁UN	-2137
rimin	-2138
▁fana	-2139
▁nale	-2140
▁Court	-2141
▁lefsa	-2142
▁lewat	-2143
ability	-2144
mon	-2145
gana	-2146
anong	-2147
▁call	-2148
▁leka	-2149
elelong	-2150
▁tšwago	-2151
ledišano	-2152
▁vehicle	-2153
▁hlohleletša	-2154
mes	-2155
line	-2156
tast	-2157
▁Met	-2158
molao	-2159
orong	-2160
▁fapa	-2161
▁same	-2162
vement	-2163
šomong	-2164
▁benef	-2165
▁relev	-2166
rolwana	-2167
▁proble	-2168
▁building	-2169
▁melawana	-2170
▁programm	-2171
oko	-2172
▁Ag	-2173
▁Al	-2174
▁Ar	-2175
hips	-2176
read	-2177
▁All	-2178
▁rob	-2179
emedi	-2180
▁days	-2181
▁help	-2182
ertain	-2183
▁mofsa	-2184
▁refer	-2185
ference	-2186
▁comple	-2187
▁rights	-2188
▁Western	-2189
▁special	-2190
▁functions	-2191
ze	-2192
▁Kom	-2193
▁dri	-2194
▁flo	-2195
ffici	-2196
hlego	-2197
išago	-2198
ustom	-2199
▁Dikgo	-2200
▁dipro	-2201
▁month	-2202
▁Merero	-2203
▁direct	-2204
▁ikemiš	-2205
▁ditsela	-2206
▁filwego	-2207
▁kgopela	-2208
▁Khansele	-2209
▁tšweletšo	-2210
hwe	-2211
nes	-2212
uma	-2213
hold	-2214
ille	-2215
oura	-2216
▁end	-2217
etape	-2218
omela	-2219
▁leng	-2220
ential	-2221
kgetho	-2222
tšwago	-2223
▁matla	-2224
liament	-2225
▁fapafa	-2226
▁meeting	-2227
▁thibela	-2228
▁financial	-2229
▁mohlagase	-2230
▁Ho	-2231
▁aim	-2232
▁fam	-2233
ebete	-2234
▁care	-2235
▁dife	-2236
▁dith	-2237
▁four	-2238
▁court	-2239
▁Police	-2240
▁address	-2241
▁employe	-2242
▁mekgatlo	-2243
▁tšwelela	-2244
▁important	-2245
ls	-2246
cies	-2247
crib	-2248
▁cal	-2249
▁cop	-2250
▁rat	-2251
fairs	-2252
kutlo	-2253
tšišo	-2254
▁bong	-2255
▁dits	-2256
▁lengwe	-2257
▁necess	-2258
▁ditokelo	-2259
▁provided	-2260
▁Ti	-2261
city	-2262
work	-2263
▁phi	-2264
▁tso	-2265
nolotši	-2266
▁Maloko	-2267
▁political	-2268
fer	-2269
iss	-2270
ises	-2271
▁pat	-2272
lelwa	-2273
▁Comp	-2274
▁back	-2275
▁deta	-2276
sebišo	-2277
uation	-2278
▁prote	-2279
etapele	-2280
▁šomago	-2281
▁account	-2282
▁ditiragalo	-2283
kha	-2284
▁At	-2285
atal	-2286
▁Bot	-2287
▁amog	-2288
▁atta	-2289
▁includes	-2290
▁relevant	-2291
▁dipalopalo	-2292
ap	-2293
uch	-2294
berg	-2295
ived	-2296
▁Len	-2297
▁Man	-2298
▁dia	-2299
▁tsh	-2300
▁rema	-2301
tšhelo	-2302
▁achie	-2303
▁dipapadi	-2304
▁programmes	-2305
gg	-2306
ster	-2307
▁eng	-2308
▁vio	-2309
▁Dire	-2310
▁laol	-2311
▁mafa	-2312
▁mult	-2313
▁sent	-2314
▁amoge	-2315
▁kaone	-2316
▁visit	-2317
▁foreign	-2318
velopment	-2319
▁sebopego	-2320
▁Tonakgolo	-2321
lho	-2322
mor	-2323
ods	-2324
▁Po	-2325
▁sm	-2326
▁Mar	-2327
▁meb	-2328
lleng	-2329
▁sona	-2330
šeleng	-2331
▁hloko	-2332
▁media	-2333
▁Public	-2334
▁request	-2335
iki	-2336
▁Sa	-2337
kudu	-2338
puty	-2339
tion	-2340
ward	-2341
ordin	-2342
▁chan	-2343
▁lega	-2344
▁life	-2345
▁mots	-2346
ording	-2347
▁subse	-2348
hlongwa	-2349
▁lehono	-2350
▁perman	-2351
▁result	-2352
▁relations	-2353
rs	-2354
ace	-2355
ton	-2356
vid	-2357
▁En	-2358
▁ce	-2359
lošo	-2360
▁Ban	-2361
kanyo	-2362
▁baka	-2363
▁down	-2364
▁kala	-2365
▁abela	-2366
▁exist	-2367
▁given	-2368
lamente	-2369
ramelao	-2370
▁Bodikela	-2371
▁challeng	-2372
▁mašeleng	-2373
rid	-2374
▁ru	-2375
alwe	-2376
ards	-2377
▁kho	-2378
▁adop	-2379
▁city	-2380
▁kgon	-2381
▁past	-2382
bility	-2383
▁experi	-2384
▁merero	-2385
tšhabeng	-2386
▁another	-2387
▁contrib	-2388
▁appropri	-2389
▁legislature	-2390
ato	-2391
▁Sc	-2392
hing	-2393
semb	-2394
yalo	-2395
▁Dik	-2396
▁Din	-2397
inted	-2398
walwa	-2399
▁impa	-2400
▁pego	-2401
▁reas	-2402
enance	-2403
▁Batho	-2404
▁šetše	-2405
ulation	-2406
▁kgobok	-2407
▁thekga	-2408
▁bontšha	-2409
▁dirišwa	-2410
▁princip	-2411
▁maikutlo	-2412
▁previous	-2413
mat	-2414
▁rev	-2415
išitšwe	-2416
▁parties	-2417
▁fapanego	-2418
▁responsible	-2419
urs	-2420
eter	-2421
orth	-2422
raka	-2423
rict	-2424
▁pos	-2425
vered	-2426
▁dise	-2427
▁hlab	-2428
▁yena	-2429
lopele	-2430
▁taken	-2431
hlelelo	-2432
▁kopano	-2433
▁molaong	-2434
▁schools	-2435
▁subject	-2436
intenance	-2437
▁setifikeiti	-2438
eto	-2439
orm	-2440
dium	-2441
fala	-2442
olof	-2443
▁Phe	-2444
▁gra	-2445
melwa	-2446
ports	-2447
▁does	-2448
▁lona	-2449
▁šupa	-2450
sembly	-2451
▁accom	-2452
▁needs	-2453
▁dinako	-2454
▁bophelo	-2455
▁contain	-2456
▁maemong	-2457
▁working	-2458
ification	-2459
še	-2460
dula	-2461
togo	-2462
krasi	-2463
▁cost	-2464
▁moya	-2465
atives	-2466
public	-2467
▁offic	-2468
▁instit	-2469
ger	-2470
▁sh	-2471
▁ple	-2472
▁disa	-2473
▁dithe	-2474
▁large	-2475
tasteri	-2476
▁around	-2477
▁khutšo	-2478
▁skills	-2479
▁registration	-2480
Af	-2481
HA	-2482
bed	-2483
ange	-2484
bana	-2485
gale	-2486
reen	-2487
▁basis	-2488
▁power	-2489
▁Karolo	-2490
▁kgatha	-2491
▁possible	-2492
▁bagononelwa	-2493
RS	-2494
gs	-2495
vi	-2496
bor	-2497
men	-2498
▁Ph	-2499
omme	-2500
reak	-2501
▁Tra	-2502
▁dep	-2503
▁enc	-2504
omelo	-2505
rated	-2506
▁bago	-2507
▁batš	-2508
▁fact	-2509
▁free	-2510
▁pela	-2511
▁seka	-2512
idents	-2513
▁appli	-2514
▁tsebe	-2515
▁women	-2516
▁dihlopha	-2517
CE	-2518
row	-2519
rant	-2520
seng	-2521
▁sim	-2522
dutha	-2523
legae	-2524
▁Isra	-2525
▁grow	-2526
▁rata	-2527
▁Johan	-2528
▁belie	-2529
▁ithut	-2530
▁compet	-2531
▁leboga	-2532
▁sector	-2533
▁tokelo	-2534
ditional	-2535
▁Assembly	-2536
▁kudukudu	-2537
▁transport	-2538
▁mafelelong	-2539
not	-2540
▁Lo	-2541
ging	-2542
heid	-2543
mego	-2544
▁Ins	-2545
▁Mem	-2546
▁Sec	-2547
▁hlwe	-2548
▁kabo	-2549
▁list	-2550
▁šire	-2551
▁Premi	-2552
▁object	-2553
itshwaro	-2554
partheid	-2555
▁Affairs	-2556
▁complete	-2557
▁delivery	-2558
▁involved	-2559
▁permanent	-2560
tšu	-2561
ator	-2562
bolo	-2563
kepe	-2564
išena	-2565
▁bewa	-2566
▁inde	-2567
▁last	-2568
▁wona	-2569
▁conta	-2570
▁every	-2571
duthamaga	-2572
▁industry	-2573
▁documents	-2574
▁education	-2575
▁resources	-2576
▁conditions	-2577
▁diphoofolo	-2578
vo	-2579
▁lok	-2580
▁war	-2581
ongwa	-2582
▁char	-2583
▁mait	-2584
lwetši	-2585
▁bahla	-2586
▁nyakiš	-2587
▁ticket	-2588
▁Republic	-2589
▁baithuti	-2590
▁lebelela	-2591
▁partners	-2592
▁Parliament	-2593
▁established	-2594
phi	-2595
▁Dr	-2596
lack	-2597
▁ama	-2598
▁dra	-2599
▁cour	-2600
▁inst	-2601
išitše	-2602
▁Gomme	-2603
▁crime	-2604
▁forms	-2605
▁still	-2606
▁susta	-2607
▁associ	-2608
▁latela	-2609
▁market	-2610
▁tirišo	-2611
▁increas	-2612
▁capacity	-2613
▁ditšhaba	-2614
▁theilwego	-2615
ink	-2616
rie	-2617
uta	-2618
etši	-2619
utes	-2620
lling	-2621
posed	-2622
ption	-2623
▁rese	-2624
gatong	-2625
gether	-2626
▁democ	-2627
▁focus	-2628
▁gener	-2629
▁setho	-2630
▁swere	-2631
alwetši	-2632
▁period	-2633
▁sekolo	-2634
▁dihlapi	-2635
▁contract	-2636
▁matšatši	-2637
▁ditšweletšwa	-2638
by	-2639
ix	-2640
bli	-2641
▁Ra	-2642
atego	-2643
lotlo	-2644
lwana	-2645
cribed	-2646
fofane	-2647
▁neela	-2648
▁resol	-2649
▁seabe	-2650
▁dinageng	-2651
▁tirišano	-2652
▁municipal	-2653
▁facilities	-2654
▁phethagatša	-2655
ify	-2656
▁AN	-2657
ized	-2658
raro	-2659
wala	-2660
▁bom	-2661
batši	-2662
elela	-2663
itive	-2664
išana	-2665
▁Tšwe	-2666
▁When	-2667
▁good	-2668
▁home	-2669
▁host	-2670
▁polo	-2671
▁Ngaka	-2672
▁mengwe	-2673
▁methopo	-2674
▁tsenela	-2675
▁malebana	-2676
▁ny	-2677
here	-2678
used	-2679
▁Mon	-2680
▁ste	-2681
ender	-2682
▁Tume	-2683
▁full	-2684
cially	-2685
llwane	-2686
▁while	-2687
išenare	-2688
stances	-2689
▁discus	-2690
▁dipoelo	-2691
▁private	-2692
▁products	-2693
▁Mmasepala	-2694
▁6	-2695
cle	-2696
lle	-2697
swi	-2698
▁Ko	-2699
rial	-2700
self	-2701
etšhe	-2702
▁fish	-2703
▁poro	-2704
▁ditok	-2705
▁Centre	-2706
▁Deputy	-2707
▁Kgobok	-2708
▁impact	-2709
▁matter	-2710
▁constru	-2711
▁lengwalo	-2712
▁appropriate	-2713
▁Pe	-2714
duce	-2715
gare	-2716
mple	-2717
redi	-2718
▁Zim	-2719
antle	-2720
babwe	-2721
▁mole	-2722
▁laedi	-2723
▁tsebo	-2724
▁babedi	-2725
▁dirile	-2726
▁issues	-2727
▁Johannes	-2728
▁ty	-2729
erve	-2730
ences	-2731
fetša	-2732
▁five	-2733
▁hlom	-2734
▁mala	-2735
▁rula	-2736
▁wena	-2737
▁among	-2738
▁leano	-2739
▁leina	-2740
▁Palamente	-2741
▁opportunities	-2742
DP	-2743
dia	-2744
man	-2745
med	-2746
mpa	-2747
pol	-2748
logo	-2749
▁play	-2750
▁week	-2751
andela	-2752
setulo	-2753
▁rarol	-2754
▁proced	-2755
▁prevent	-2756
▁Sehlopha	-2757
▁Zimbabwe	-2758
▁received	-2759
▁dirilwego	-2760
▁karolwana	-2761
▁Q	-2762
bal	-2763
hief	-2764
itor	-2765
kele	-2766
lest	-2767
ones	-2768
▁New	-2769
▁tar	-2770
▁Gape	-2771
▁bola	-2772
▁based	-2773
▁party	-2774
▁bantši	-2775
▁fapana	-2776
▁quality	-2777
▁Director	-2778
▁hlabollo	-2779
▁Development	-2780
iri	-2781
lus	-2782
uru	-2783
anda	-2784
cent	-2785
gano	-2786
gišo	-2787
wers	-2788
▁aba	-2789
▁boš	-2790
▁cir	-2791
▁kom	-2792
▁lic	-2793
▁lit	-2794
▁run	-2795
▁deal	-2796
▁karo	-2797
▁kelo	-2798
etšago	-2799
▁today	-2800
▁treat	-2801
anyetšo	-2802
▁bogolo	-2803
▁kgethe	-2804
▁mantši	-2805
▁sebaka	-2806
▁consult	-2807
▁towards	-2808
robentshe	-2809
▁dikarolo	-2810
▁mafelelo	-2811
▁motšhelo	-2812
▁nyakegago	-2813
▁institutions	-2814
IV	-2815
RC	-2816
ick	-2817
ages	-2818
anka	-2819
▁Res	-2820
▁pop	-2821
lated	-2822
lence	-2823
▁para	-2824
▁port	-2825
▁rest	-2826
▁Crime	-2827
▁hlola	-2828
▁maite	-2829
▁peace	-2830
▁tharo	-2831
loganyo	-2832
▁dithut	-2833
▁lesolo	-2834
▁company	-2835
▁natural	-2836
▁romelwa	-2837
▁society	-2838
▁official	-2839
cha	-2840
fol	-2841
hli	-2842
que	-2843
▁glo	-2844
▁lea	-2845
eneng	-2846
▁clear	-2847
▁issue	-2848
▁growth	-2849
▁selete	-2850
▁technolo	-2851
dulasetulo	-2852
▁necessary	-2853
▁subsection	-2854
▁dipoledišano	-2855
".	-2856
cal	-2857
etla	-2858
ints	-2859
kana	-2860
ured	-2861
▁May	-2862
▁sek	-2863
▁SARS	-2864
▁modi	-2865
▁team	-2866
▁event	-2867
▁force	-2868
▁Submit	-2869
▁magato	-2870
▁promot	-2871
▁amanago	-2872
▁learners	-2873
▁malwetši	-2874
▁bahlankedi	-2875
▁department	-2876
▁mehutahuta	-2877
▁Commissioner	-2878
▁administration	-2879
cri	-2880
pre	-2881
nthe	-2882
▁mes	-2883
iding	-2884
▁Repa	-2885
▁gopo	-2886
▁nepo	-2887
▁coast	-2888
▁hlago	-2889
▁small	-2890
▁utswi	-2891
standing	-2892
▁Premier	-2893
▁certain	-2894
▁dintlha	-2895
▁whether	-2896
▁maitshwaro	-2897
nov	-2898
tšh	-2899
ides	-2900
▁But	-2901
▁Mok	-2902
cated	-2903
uture	-2904
▁bone	-2905
▁held	-2906
▁remo	-2907
▁medic	-2908
▁thula	-2909
▁trade	-2910
▁centre	-2911
▁custom	-2912
▁dintlo	-2913
▁bothata	-2914
▁katlego	-2915
▁mošomong	-2916
▁together	-2917
▁difatanaga	-2918
▁sefatanaga	-2919
▁Toropokgolo	-2920
▁Fa	-2921
▁du	-2922
▁pas	-2923
based	-2924
phare	-2925
▁give	-2926
isions	-2927
ulture	-2928
▁plant	-2929
▁tlogo	-2930
▁become	-2931
▁regard	-2932
▁tsenya	-2933
▁Repabli	-2934
▁selegae	-2935
▁municipality	-2936
mun	-2937
mora	-2938
onte	-2939
▁Dis	-2940
▁key	-2941
swadi	-2942
▁date	-2943
▁Taolo	-2944
▁broad	-2945
▁major	-2946
▁start	-2947
▁cannot	-2948
▁catego	-2949
▁family	-2950
▁sepela	-2951
▁encoura	-2952
▁strateg	-2953
▁approach	-2954
do	-2955
iled	-2956
imes	-2957
rand	-2958
side	-2959
vert	-2960
ware	-2961
▁She	-2962
▁Wor	-2963
▁art	-2964
▁lim	-2965
aseng	-2966
itary	-2967
▁Iran	-2968
▁even	-2969
▁writ	-2970
išetšo	-2971
▁class	-2972
▁short	-2973
▁Intern	-2974
▁gantši	-2975
▁statist	-2976
formation	-2977
▁dikgetho	-2978
▁dikgwebo	-2979
▁khamphani	-2980
▁mmasepala	-2981
▁Tshedimošo	-2982
▁Kgorotsheko	-2983
ME	-2984
SC	-2985
▁Fo	-2986
gwer	-2987
uses	-2988
▁Khu	-2989
▁Mas	-2990
▁bot	-2991
▁say	-2992
gress	-2993
▁head	-2994
▁look	-2995
▁radi	-2996
▁Bjale	-2997
▁recom	-2998
▁tloša	-2999
▁Romela	-3000
antšwego	-3001
▁hwetšwa	-3002
▁semolao	-3003
▁Ditirelo	-3004
▁question	-3005
▁specific	-3006
▁developed	-3007
DC	-3008
ema	-3009
erc	-3010
▁Ts	-3011
oria	-3012
pong	-3013
▁bir	-3014
▁dut	-3015
▁ori	-3016
▁swar	-3017
▁took	-3018
selves	-3019
▁Dinya	-3020
▁hlomp	-3021
itation	-3022
▁consid	-3023
▁future	-3024
▁mabedi	-3025
▁alleged	-3026
▁sustain	-3027
▁ditšhila	-3028
▁peakanyo	-3029
▁projects	-3030
▁tiragalo	-3031
▁Executive	-3032
▁requirements	-3033
ET	-3034
zi	-3035
iwa	-3036
ngu	-3037
ione	-3038
▁HIV	-3039
▁ear	-3040
anywa	-3041
gwera	-3042
tšhwa	-3043
▁beha	-3044
▁done	-3045
▁stre	-3046
kgotla	-3047
wanelo	-3048
▁State	-3049
▁explo	-3050
▁export	-3051
▁govern	-3052
▁stolen	-3053
▁function	-3054
▁legatong	-3055
▁research	-3056
▁commission	-3057
▁kaonafatša	-3058
AT	-3059
IS	-3060
nth	-3061
nyo	-3062
pose	-3063
wano	-3064
▁Kop	-3065
▁Spe	-3066
▁Ste	-3067
▁cho	-3068
verty	-3069
▁come	-3070
▁pola	-3071
umente	-3072
▁diriša	-3073
herišano	-3074
▁appoint	-3075
▁thibelo	-3076
▁register	-3077
▁swanelwa	-3078
▁therefore	-3079
▁Tshepedišo	-3080
▁kgethilwego	-3081
▁Johannesburg	-3082
▁Su	-3083
giša	-3084
hala	-3085
šene	-3086
▁Mor	-3087
▁ete	-3088
▁seb	-3089
ctive	-3090
wever	-3091
▁Dina	-3092
▁bala	-3093
▁body	-3094
▁item	-3095
▁meba	-3096
▁seth	-3097
▁šedi	-3098
gation	-3099
▁dihlo	-3100
▁Palest	-3101
▁expect	-3102
▁nagana	-3103
▁Lenaneo	-3104
▁hlaloša	-3105
▁ikonomi	-3106
▁marriage	-3107
▁sepelela	-3108
▁phihlelelo	-3109
▁theramelao	-3110
▁Municipality	-3111
▁–	-3112
dis	-3113
weng	-3114
▁gae	-3115
Borwa	-3116
bsite	-3117
▁crit	-3118
ulated	-3119
▁tšewa	-3120
▁dirago	-3121
▁hlahlo	-3122
▁mogolo	-3123
▁Molaodi	-3124
operation	-3125
▁measures	-3126
▁tokologo	-3127
ots	-3128
▁Ca	-3129
Zulu	-3130
ands	-3131
eria	-3132
ince	-3133
jana	-3134
jeke	-3135
laba	-3136
▁Eng	-3137
folio	-3138
saete	-3139
▁lapa	-3140
morafe	-3141
▁ilego	-3142
leditše	-3143
▁kopana	-3144
▁amegago	-3145
▁council	-3146
▁lenyalo	-3147
▁nyakega	-3148
specially	-3149
▁identity	-3150
▁Kgobokano	-3151
▁environmental	-3152
ria	-3153
wii	-3154
rego	-3155
▁dru	-3156
▁nna	-3157
▁ter	-3158
gical	-3159
ledge	-3160
ready	-3161
using	-3162
ville	-3163
▁botš	-3164
▁file	-3165
▁once	-3166
▁read	-3167
▁real	-3168
▁reka	-3169
▁stud	-3170
ukwana	-3171
▁dikga	-3172
▁equip	-3173
▁filwe	-3174
raebete	-3175
▁United	-3176
▁change	-3177
▁lenane	-3178
▁manufa	-3179
▁oketša	-3180
▁swanela	-3181
▁authority	-3182
▁dikgopelo	-3183
▁tshepetšo	-3184
kh	-3185
ua	-3186
ased	-3187
hern	-3188
otho	-3189
▁Imp	-3190
▁aff	-3191
▁due	-3192
▁exa	-3193
▁far	-3194
▁tšh	-3195
▁book	-3196
▁laun	-3197
▁much	-3198
▁tele	-3199
reedom	-3200
▁fetiš	-3201
▁hlogo	-3202
▁think	-3203
▁author	-3204
▁obtain	-3205
▁Mandela	-3206
▁contact	-3207
▁diphedi	-3208
▁economy	-3209
▁promote	-3210
structure	-3211
▁hweditše	-3212
▁kantorong	-3213
▁possession	-3214
amo	-3215
hlwa	-3216
mana	-3217
▁ANC	-3218
▁rer	-3219
hlako	-3220
rents	-3221
veral	-3222
▁Pret	-3223
enkele	-3224
fatšwa	-3225
▁enter	-3226
▁meago	-3227
hlabelo	-3228
▁Health	-3229
▁gabjale	-3230
▁material	-3231
▁mokgopedi	-3232
▁especially	-3233
▁registered	-3234
▁Tšhireletšo	-3235
▁kgethologanyo	-3236
-1	-3237
con	-3238
low	-3239
pped	-3240
rect	-3241
▁Les	-3242
▁Let	-3243
▁ann	-3244
▁old	-3245
ictim	-3246
▁bale	-3247
▁dele	-3248
▁food	-3249
▁next	-3250
▁ntwa	-3251
▁sele	-3252
▁colle	-3253
▁kgahl	-3254
▁appear	-3255
▁dumela	-3256
▁fediša	-3257
▁interv	-3258
▁kgetha	-3259
▁recomm	-3260
▁sepedi	-3261
▁tšhila	-3262
▁already	-3263
▁dikamano	-3264
▁evidence	-3265
▁tšwelago	-3266
▁agreement	-3267
▁appointed	-3268
▁employees	-3269
▁swanetšwe	-3270
▁setšhabeng	-3271
▁maintenance	-3272
▁4	-3273
uro	-3274
athi	-3275
nago	-3276
orts	-3277
para	-3278
istic	-3279
▁site	-3280
▁test	-3281
▁banna	-3282
▁chang	-3283
▁tshwa	-3284
▁lekala	-3285
▁ngwala	-3286
▁hlongwa	-3287
▁poverty	-3288
▁decision	-3289
▁kgopelwa	-3290
▁lefaseng	-3291
▁property	-3292
▁referred	-3293
▁regional	-3294
▁apartheid	-3295
▁implementation	-3296
šwe	-3297
▁30	-3298
išan	-3299
▁har	-3300
▁nka	-3301
▁wel	-3302
aries	-3303
išong	-3304
lines	-3305
▁anim	-3306
▁base	-3307
▁best	-3308
▁photo	-3309
▁common	-3310
▁labour	-3311
▁levels	-3312
▁making	-3313
▁dikgoro	-3314
▁persons	-3315
▁traffic	-3316
▁sethunya	-3317
▁effective	-3318
▁temokrasi	-3319
▁thekontle	-3320
▁kgethegilego	-3321
yc	-3322
ota	-3323
▁12	-3324
ahlo	-3325
fela	-3326
ithi	-3327
pile	-3328
▁DHA	-3329
▁Mab	-3330
▁Reg	-3331
iting	-3332
poses	-3333
rates	-3334
▁copy	-3335
▁farm	-3336
▁happ	-3337
dition	-3338
išinyo	-3339
person	-3340
▁amana	-3341
▁boeti	-3342
▁grant	-3343
▁infra	-3344
tšopele	-3345
▁second	-3346
▁status	-3347
ithomelo	-3348
▁conflic	-3349
▁systems	-3350
▁Africans	-3351
▁communic	-3352
▁executive	-3353
▁Bosetšhaba	-3354
▁Provincial	-3355
▁production	-3356
▁theknolotši	-3357
bra	-3358
rea	-3359
hate	-3360
hodu	-3361
lamo	-3362
rollo	-3363
utiši	-3364
▁Kgwe	-3365
▁kete	-3366
▁Trans	-3367
▁least	-3368
▁beilwe	-3369
▁ithuta	-3370
▁makala	-3371
okobatši	-3372
▁capital	-3373
▁Complete	-3374
▁beakanya	-3375
▁existing	-3376
▁currently	-3377
▁equipment	-3378
▁kgatelelo	-3379
▁statement	-3380
▁ditshepedišo	-3381
ono	-3382
enya	-3383
kišo	-3384
room	-3385
rust	-3386
▁Dif	-3387
▁Naa	-3388
▁don	-3389
▁iša	-3390
▁mer	-3391
pping	-3392
venue	-3393
▁Home	-3394
▁qual	-3395
abinet	-3396
▁ditha	-3397
▁exerc	-3398
▁seemo	-3399
▁staff	-3400
▁Tlatša	-3401
▁depart	-3402
▁laolwa	-3403
▁Selegae	-3404
▁general	-3405
▁stadium	-3406
▁website	-3407
▁completed	-3408
sca	-3409
goti	-3410
wele	-3411
▁dim	-3412
▁gob	-3413
▁šit	-3414
anies	-3415
chedu	-3416
▁Mana	-3417
▁boka	-3418
▁hold	-3419
▁swer	-3420
wantle	-3421
▁Chief	-3422
▁bjang	-3423
▁dikho	-3424
▁ditse	-3425
▁intro	-3426
▁langu	-3427
▁young	-3428
mission	-3429
▁bodulo	-3430
▁kalafo	-3431
▁lemoga	-3432
▁mediro	-3433
▁negoti	-3434
▁nomoro	-3435
▁consist	-3436
▁leaders	-3437
▁tickets	-3438
sehlabelo	-3439
▁tiišetša	-3440
▁applicable	-3441
▁fapafapana	-3442
pes	-3443
▁uk	-3444
▁tek	-3445
▁unt	-3446
▁van	-3447
pheng	-3448
▁East	-3449
▁sing	-3450
ercial	-3451
gareng	-3452
iletšo	-3453
▁boima	-3454
▁ditšh	-3455
▁thwii	-3456
▁šišin	-3457
General	-3458
nonelwa	-3459
▁assess	-3460
▁Members	-3461
▁dirilwe	-3462
▁dithuto	-3463
▁monitor	-3464
▁rarolla	-3465
▁tlwaele	-3466
▁continue	-3467
▁dinamelwa	-3468
▁mabokgoni	-3469
▁applications	-3470
av	-3471
ino	-3472
miti	-3473
seka	-3474
▁kae	-3475
▁sci	-3476
ather	-3477
ither	-3478
teral	-3479
▁Lefa	-3480
▁badi	-3481
itable	-3482
▁Bjalo	-3483
▁dithu	-3484
▁final	-3485
▁going	-3486
▁sehlo	-3487
▁ukang	-3488
▁Commun	-3489
▁godiša	-3490
▁letter	-3491
▁oketše	-3492
▁temana	-3493
atamente	-3494
▁collect	-3495
▁lehlako	-3496
▁lewatle	-3497
▁parents	-3498
▁phethag	-3499
▁swanago	-3500
▁batswadi	-3501
▁passport	-3502
▁progress	-3503
▁tlhokego	-3504
▁Repabliki	-3505
▁ditlakala	-3506
▁kgethollo	-3507
▁potential	-3508
▁submitted	-3509
▁treatment	-3510
nel	-3511
▁ir	-3512
cked	-3513
▁Bar	-3514
▁Gab	-3515
▁Yun	-3516
▁ike	-3517
elano	-3518
▁beng	-3519
▁dibe	-3520
▁summ	-3521
▁toka	-3522
vision	-3523
▁botho	-3524
▁hloke	-3525
▁kgašo	-3526
▁maswi	-3527
hupetšo	-3528
▁metšhe	-3529
▁motswa	-3530
▁rekiša	-3531
fficient	-3532
▁confirm	-3533
▁medical	-3534
▁station	-3535
▁Pretoria	-3536
▁protšeke	-3537
▁purposes	-3538
▁boitsebišo	-3539
29	-3540
DF	-3541
cum	-3542
khe	-3543
nye	-3544
▁Ee	-3545
ffor	-3546
pend	-3547
phut	-3548
selo	-3549
▁Tše	-3550
▁age	-3551
▁exc	-3552
▁net	-3553
▁tre	-3554
gilwe	-3555
kahla	-3556
▁dest	-3557
▁less	-3558
ensive	-3559
▁Metro	-3560
▁close	-3561
▁difor	-3562
▁frame	-3563
▁legal	-3564
enthara	-3565
▁accord	-3566
▁boloka	-3567
▁dipego	-3568
▁global	-3569
▁region	-3570
▁defence	-3571
▁facilit	-3572
▁individ	-3573
▁several	-3574
▁dirilego	-3575
▁maintain	-3576
▁applicant	-3577
▁officials	-3578
▁tshwanelo	-3579
▁prescribed	-3580
▁tlaleletšo	-3581
emp	-3582
▁Sy	-3583
lege	-3584
loša	-3585
▁Mai	-3586
▁Sup	-3587
▁ema	-3588
▁ine	-3589
▁phu	-3590
ances	-3591
eding	-3592
illed	-3593
▁dino	-3594
▁ener	-3595
hatema	-3596
▁maina	-3597
▁taelo	-3598
emogelo	-3599
▁affect	-3600
▁kgonth	-3601
▁madulo	-3602
▁target	-3603
▁victim	-3604
polotiki	-3605
▁KwaZulu	-3606
▁organis	-3607
▁Motlatša	-3608
▁provides	-3609
▁continent	-3610
▁dihlongwa	-3611
stitutional	-3612
▁akaretšago	-3613
▁diokobatši	-3614
▁diswantšho	-3615
ID	-3616
MS	-3617
OC	-3618
sc	-3619
CED	-3620
den	-3621
▁Ye	-3622
▁Pho	-3623
▁civ	-3624
▁lat	-3625
▁web	-3626
iling	-3627
šitše	-3628
▁Part	-3629
▁Unit	-3630
▁eval	-3631
▁gate	-3632
▁kolo	-3633
▁live	-3634
▁phet	-3635
fforts	-3636
otledi	-3637
▁ingwa	-3638
▁innov	-3639
▁intel	-3640
▁ntšha	-3641
▁called	-3642
▁instru	-3643
▁streng	-3644
▁violence	-3645
▁intasteri	-3646
▁šireletša	-3647
▁ditherišano	-3648
▁Š	-3649
kop	-3650
ony	-3651
reg	-3652
uba	-3653
cast	-3654
ique	-3655
rata	-3656
ults	-3657
▁Bay	-3658
▁Pla	-3659
▁Tho	-3660
▁deb	-3661
▁few	-3662
▁tri	-3663
botse	-3664
▁able	-3665
▁bjoo	-3666
▁cell	-3667
▁temp	-3668
encies	-3669
esense	-3670
phethe	-3671
▁goods	-3672
▁point	-3673
▁bonolo	-3674
▁compla	-3675
▁crimin	-3676
▁mohola	-3677
▁Cabinet	-3678
▁underta	-3679
▁approved	-3680
▁mabakeng	-3681
▁mellwane	-3682
▁molaleng	-3683
▁phatlalatša	-3684
000	-3685
hab	-3686
▁Wh	-3687
▁da	-3688
▁ša	-3689
sive	-3690
▁Ver	-3691
▁etc	-3692
▁tle	-3693
hlela	-3694
šetša	-3695
▁That	-3696
▁khon	-3697
▁moso	-3698
▁thro	-3699
▁tšhe	-3700
nyegelo	-3701
▁better	-3702
▁immedi	-3703
▁recogn	-3704
▁tlatša	-3705
▁golegwa	-3706
▁hlokago	-3707
▁letseno	-3708
▁matters	-3709
▁karolong	-3710
▁planning	-3711
▁semorafe	-3712
▁kgokagano	-3713
▁nyakišiša	-3714
▁regarding	-3715
▁Dinyakišišo	-3716
▁Modulasetulo	-3717
MA	-3718
PA	-3719
pr	-3720
ogo	-3721
▁10	-3722
▁pi	-3723
fied	-3724
hers	-3725
imum	-3726
llis	-3727
mary	-3728
oman	-3729
▁hos	-3730
▁ris	-3731
▁ser	-3732
atory	-3733
ctors	-3734
fully	-3735
lwego	-3736
swalo	-3737
▁Dipo	-3738
▁Mela	-3739
▁West	-3740
▁kont	-3741
▁works	-3742
▁action	-3743
▁golega	-3744
▁months	-3745
▁nature	-3746
▁dibetša	-3747
▁diforomo	-3748
▁ditefelo	-3749
▁hlabolla	-3750
▁strategy	-3751
cumstances	-3752
▁concerned	-3753
▁provision	-3754
▁accordance	-3755
▁employment	-3756
▁kgorotsheko	-3757
eds	-3758
rar	-3759
▁Pi	-3760
ened	-3761
ided	-3762
oney	-3763
racy	-3764
▁Any	-3765
▁jud	-3766
▁tal	-3767
rease	-3768
▁Dika	-3769
▁Road	-3770
▁away	-3771
▁bega	-3772
▁ding	-3773
▁near	-3774
▁sefe	-3775
▁self	-3776
▁tiro	-3777
▁town	-3778
inente	-3779
▁above	-3780
▁baeti	-3781
▁bonwa	-3782
▁often	-3783
▁prior	-3784
▁Lefelo	-3785
▁dikgar	-3786
▁swarwa	-3787
▁tekate	-3788
legilego	-3789
▁Maphelo	-3790
▁abelana	-3791
▁efforts	-3792
▁firearm	-3793
▁improve	-3794
▁reports	-3795
▁tseleng	-3796
▁witness	-3797
▁electric	-3798
▁included	-3799
▁according	-3800
▁hweditšwe	-3801
▁residence	-3802
▁structure	-3803
▁tumelelano	-3804
eld	-3805
▁CC	-3806
▁ja	-3807
bele	-3808
kete	-3809
omet	-3810
▁MEC	-3811
▁fla	-3812
▁naa	-3813
▁opt	-3814
▁rek	-3815
▁spa	-3816
gongo	-3817
ights	-3818
iring	-3819
▁Dira	-3820
▁hard	-3821
mpaign	-3822
ontein	-3823
waneng	-3824
▁Ellis	-3825
▁birth	-3826
▁great	-3827
▁mahlo	-3828
▁multi	-3829
▁proof	-3830
▁sware	-3831
▁tsošo	-3832
▁using	-3833
▁Commit	-3834
▁lebelo	-3835
▁origin	-3836
▁bonnete	-3837
▁dirwago	-3838
▁mafapha	-3839
▁outside	-3840
▁campaign	-3841
▁military	-3842
▁kgonagalo	-3843
▁situation	-3844
▁šomišwago	-3845
▁procedures	-3846
▁citizenship	-3847
▁toropokgolo	-3848
▁International	-3849
▁infrastructure	-3850
ON	-3851
gu	-3852
wai	-3853
▁21	-3854
▁Ms	-3855
lisi	-3856
▁obs	-3857
enywa	-3858
icies	-3859
legal	-3860
thing	-3861
▁Cons	-3862
▁beke	-3863
▁liqu	-3864
▁maka	-3865
▁mean	-3866
afrika	-3867
bišano	-3868
lwaedi	-3869
▁black	-3870
▁cases	-3871
▁clean	-3872
▁field	-3873
▁lepat	-3874
▁since	-3875
getšego	-3876
homphut	-3877
olofolo	-3878
▁attend	-3879
▁diteko	-3880
▁mašole	-3881
▁motšwa	-3882
▁taking	-3883
▁officer	-3884
▁species	-3885
▁bolwetši	-3886
▁lebanego	-3887
▁ngwadišo	-3888
▁problems	-3889
▁dikgaruru	-3890
▁identified	-3891
▁mohlankedi	-3892
▁performance	-3893
▁phethagatšo	-3894
▁sustainable	-3895
▁organisation	-3896
IT	-3897
erg	-3898
idi	-3899
dget	-3900
ilar	-3901
lent	-3902
orop	-3903
▁Pha	-3904
▁saf	-3905
ously	-3906
▁diin	-3907
▁lehu	-3908
▁poor	-3909
▁says	-3910
▁thun	-3911
▁Eupša	-3912
▁Kabin	-3913
▁conne	-3914
▁ikget	-3915
▁later	-3916
▁value	-3917
▁white	-3918
versity	-3919
▁dipolo	-3920
▁energy	-3921
▁expres	-3922
▁lekola	-3923
▁mentši	-3924
▁please	-3925
ilateral	-3926
▁Kabinete	-3927
▁dipotšišo	-3928
▁responsibility	-3929
IA	-3930
da	-3931
▁8	-3932
ids	-3933
lam	-3934
ley	-3935
▁IC	-3936
foka	-3937
ired	-3938
mber	-3939
poši	-3940
▁Mos	-3941
▁Not	-3942
▁ill	-3943
▁High	-3944
▁With	-3945
▁madi	-3946
▁mose	-3947
ahlodi	-3948
antoro	-3949
cement	-3950
eletša	-3951
lelong	-3952
poroto	-3953
terata	-3954
▁allow	-3955
▁leago	-3956
▁maano	-3957
▁times	-3958
▁Mongwa	-3959
▁magolo	-3960
▁melato	-3961
▁return	-3962
▁strong	-3963
▁struct	-3964
▁citizen	-3965
▁coastal	-3966
▁hlokome	-3967
▁sepetša	-3968
▁Services	-3969
▁kgahlego	-3970
▁laeditše	-3971
▁tletšego	-3972
▁transfer	-3973
kgathatema	-3974
▁operation	-3975
▁mafolofolo	-3976
ns	-3977
epo	-3978
imi	-3979
▁Nt	-3980
ines	-3981
rief	-3982
tošo	-3983
▁Bon	-3984
▁Col	-3985
▁Des	-3986
▁Our	-3987
▁Yes	-3988
belwa	-3989
tšene	-3990
▁WCED	-3991
▁diph	-3992
▁enga	-3993
atšing	-3994
leteng	-3995
pector	-3996
wanedi	-3997
▁ditek	-3998
▁etela	-3999
▁until	-4000
fontein	-4001
išeneng	-4002
▁budget	-4003
▁except	-4004
▁kgokag	-4005
▁parent	-4006
▁phathi	-4007
▁polelo	-4008
▁powers	-4009
▁supply	-4010
▁ditlaba	-4011
▁problem	-4012
▁tsenele	-4013
▁vehicles	-4014
▁tikologong	-4015
▁tšhomišano	-4016
▁mogononelwa	-4017
PO	-4018
lt	-4019
sh	-4020
hib	-4021
rop	-4022
tso	-4023
ury	-4024
rely	-4025
uman	-4026
▁Gro	-4027
▁Mdi	-4028
▁fra	-4029
▁mis	-4030
▁fund	-4031
morago	-4032
▁bahlo	-4033
▁known	-4034
▁monna	-4035
▁whole	-4036
enyetla	-4037
fficult	-4038
issions	-4039
▁bošego	-4040
▁course	-4041
▁ditume	-4042
▁dulago	-4043
▁kgwedi	-4044
pedišong	-4045
▁discuss	-4046
▁fihlele	-4047
▁kotsing	-4048
▁expected	-4049
▁matswalo	-4050
▁policies	-4051
▁Municipal	-4052
▁difficult	-4053
▁maswanedi	-4054
▁standards	-4055
▁tšweletše	-4056
▁increasing	-4057
▁mengwageng	-4058
▁operations	-4059
▁sepolotiki	-4060
▁technology	-4061
▁laeditšwego	-4062
▁construction	-4063
rup	-4064
▁ec	-4065
ason	-4066
dies	-4067
enye	-4068
lala	-4069
▁hig	-4070
▁tru	-4071
ables	-4072
arian	-4073
duced	-4074
omoro	-4075
patšo	-4076
▁Aust	-4077
▁Bank	-4078
▁comb	-4079
enseng	-4080
kgwedi	-4081
▁Motho	-4082
▁Organ	-4083
▁agric	-4084
▁bafsa	-4085
▁cause	-4086
▁recor	-4087
oropong	-4088
▁accomp	-4089
▁dikgat	-4090
▁either	-4091
ulations	-4092
▁dikgoba	-4093
▁freedom	-4094
▁histori	-4095
▁related	-4096
▁kgontšha	-4097
▁Committee	-4098
▁knowledge	-4099
▁principles	-4100
▁association	-4101
▁manufacture	-4102
▁tšwetšopele	-4103
BC	-4104
▁5	-4105
gen	-4106
ian	-4107
ole	-4108
own	-4109
sia	-4110
ung	-4111
▁US	-4112
chan	-4113
ders	-4114
heng	-4115
itha	-4116
puku	-4117
temp	-4118
▁hol	-4119
▁oba	-4120
ening	-4121
ivers	-4122
kwana	-4123
range	-4124
▁Ditš	-4125
▁Form	-4126
▁anal	-4127
▁bopa	-4128
▁conv	-4129
▁exce	-4130
▁lena	-4131
▁went	-4132
išwago	-4133
uthern	-4134
▁Bohla	-4135
▁bjala	-4136
▁enhan	-4137
▁guide	-4138
▁mollo	-4139
▁pheth	-4140
▁thoko	-4141
▁across	-4142
▁boloke	-4143
▁dibaka	-4144
▁ditlho	-4145
▁fetola	-4146
▁having	-4147
▁living	-4148
▁modiro	-4149
▁ntlong	-4150
▁taetšo	-4151
▁tefelo	-4152
▁licence	-4153
gantšwego	-4154
▁Mokgatlo	-4155
▁lebakeng	-4156
▁dikgopolo	-4157
▁diprofense	-4158
▁population	-4159
▁departments	-4160
▁ditlabakelo	-4161
▁opportunity	-4162
ain	-4163
mod	-4164
vis	-4165
▁Ng	-4166
aker	-4167
atic	-4168
ites	-4169
itla	-4170
udit	-4171
▁Acc	-4172
▁Lab	-4173
▁ask	-4174
▁bro	-4175
▁dem	-4176
▁mpe	-4177
mical	-4178
▁Bago	-4179
▁assa	-4180
▁find	-4181
▁mogo	-4182
▁poll	-4183
▁reli	-4184
▁safe	-4185
▁sete	-4186
▁Chair	-4187
▁Mohla	-4188
▁Prote	-4189
▁Stats	-4190
▁along	-4191
▁appre	-4192
▁cover	-4193
▁cross	-4194
▁death	-4195
▁maoto	-4196
▁repla	-4197
▁stage	-4198
▁Regist	-4199
▁advert	-4200
▁behalf	-4201
▁displa	-4202
▁safety	-4203
▁strugg	-4204
▁telele	-4205
▁bathoba	-4206
▁believe	-4207
▁example	-4208
▁kantoro	-4209
▁tsebiša	-4210
▁cultural	-4211
▁dumelelwa	-4212
▁household	-4213
▁lewatleng	-4214
▁residents	-4215
▁hwetšagala	-4216
▁Setifikeiti	-4217
▁maitemogelo	-4218
▁phatlalatšo	-4219
▁municipalities	-4220
adi	-4221
tsi	-4222
▁Ri	-4223
▁ot	-4224
ably	-4225
atha	-4226
melo	-4227
mphe	-4228
peng	-4229
pons	-4230
yara	-4231
▁dom	-4232
▁led	-4233
ature	-4234
light	-4235
nyana	-4236
ratic	-4237
▁pušo	-4238
▁stri	-4239
▁šome	-4240
mogelo	-4241
though	-4242
▁baswa	-4243
▁occur	-4244
▁rural	-4245
▁share	-4246
▁thank	-4247
▁theko	-4248
conomic	-4249
▁remain	-4250
▁tekolo	-4251
▁tshela	-4252
▁tšatši	-4253
▁bolaodi	-4254
▁distrib	-4255
▁receive	-4256
▁results	-4257
▁variety	-4258
▁Profense	-4259
▁signific	-4260
▁diphetogo	-4261
▁ditlabelo	-4262
▁processes	-4263
▁themselves	-4264
▁ikemišeditše	-4265
▁investigation	-4266
šu	-4267
eks	-4268
iro	-4269
gedi	-4270
▁Bas	-4271
▁ide	-4272
▁kok	-4273
bjalo	-4274
break	-4275
kwane	-4276
mpiri	-4277
▁clim	-4278
▁ikga	-4279
▁line	-4280
Afrika	-4281
▁decla	-4282
▁hlama	-4283
▁never	-4284
▁proce	-4285
▁Dinaga	-4286
▁Komiti	-4287
▁Lekala	-4288
▁compli	-4289
▁lekana	-4290
▁ngwadi	-4291
▁General	-4292
▁However	-4293
▁lefapha	-4294
▁tourism	-4295
▁Tikologo	-4296
▁menyetla	-4297
faditšwego	-4298
▁recommend	-4299
▁challenges	-4300
▁tekatekano	-4301
).	-4302
atše	-4303
ield	-4304
ront	-4305
uter	-4306
vest	-4307
▁Pri	-4308
▁inj	-4309
▁job	-4310
▁six	-4311
▁vol	-4312
dišwa	-4313
ileng	-4314
letši	-4315
▁Lebo	-4316
▁prem	-4317
▁upon	-4318
idered	-4319
▁mohlo	-4320
▁money	-4321
▁occup	-4322
▁plans	-4323
▁senya	-4324
▁weeks	-4325
▁Kopano	-4326
▁School	-4327
▁amount	-4328
▁groups	-4329
▁katolo	-4330
▁manner	-4331
▁toropo	-4332
▁travel	-4333
ological	-4334
▁baemedi	-4335
▁consent	-4336
▁details	-4337
▁khuetšo	-4338
▁regular	-4339
▁tshenyo	-4340
gongorego	-4341
▁addition	-4342
▁dithunya	-4343
▁increase	-4344
▁conducted	-4345
▁determined	-4346
▁experience	-4347
▁Information	-4348
▁dikhamphani	-4349
FA	-4350
OR	-4351
SS	-4352
▁7	-4353
are	-4354
bel	-4355
har	-4356
▁NE	-4357
▁kh	-4358
hekg	-4359
isms	-4360
kere	-4361
kodi	-4362
rena	-4363
sana	-4364
▁Sum	-4365
▁fri	-4366
▁max	-4367
▁top	-4368
cking	-4369
kanya	-4370
uated	-4371
ulate	-4372
šetšo	-4373
▁Many	-4374
▁Well	-4375
▁left	-4376
▁pric	-4377
▁tira	-4378
▁view	-4379
asteri	-4380
katshe	-4381
▁Natal	-4382
▁brief	-4383
▁maswa	-4384
▁phela	-4385
▁prepa	-4386
▁youth	-4387
▁Bašomi	-4388
▁mechan	-4389
▁reflect	-4390
▁similar	-4391
▁thomile	-4392
▁Registrar	-4393
▁companies	-4394
▁lebeletše	-4395
▁dipolotiki	-4396
▁Bagononelwa	-4397
▁Gu	-4398
▁hi	-4399
▁op	-4400
ases	-4401
hemi	-4402
illi	-4403
▁Mus	-4404
▁yes	-4405
hwama	-4406
▁Bill	-4407
▁Just	-4408
▁Mole	-4409
▁Temo	-4410
▁arri	-4411
▁exam	-4412
▁holo	-4413
▁kgao	-4414
▁sour	-4415
▁šoro	-4416
hanele	-4417
isters	-4418
mošomo	-4419
▁Coast	-4420
▁Mayor	-4421
▁aimed	-4422
▁emela	-4423
▁separ	-4424
▁valid	-4425
▁bararo	-4426
▁boitha	-4427
▁dimela	-4428
▁dipola	-4429
▁events	-4430
▁kgotle	-4431
▁mantšu	-4432
▁season	-4433
▁achieve	-4434
▁assault	-4435
▁charact	-4436
▁profess	-4437
▁setlogo	-4438
▁accommod	-4439
▁consider	-4440
▁hlakahla	-4441
▁polokego	-4442
▁Dikgopelo	-4443
▁materials	-4444
▁strategic	-4445
▁considered	-4446
bos	-4447
ize	-4448
ney	-4449
▁Ja	-4450
goro	-4451
kile	-4452
paro	-4453
▁Fin	-4454
▁ens	-4455
▁fee	-4456
▁nea	-4457
▁ten	-4458
iving	-4459
khale	-4460
lands	-4461
olong	-4462
posal	-4463
▁Ngwa	-4464
▁Thek	-4465
▁mats	-4466
▁side	-4467
▁thop	-4468
inated	-4469
▁Inter	-4470
▁Maemo	-4471
▁bokga	-4472
▁Godimo	-4473
▁create	-4474
▁mebušo	-4475
▁select	-4476
▁threat	-4477
letšwego	-4478
▁kgonago	-4479
▁nearest	-4480
▁conflict	-4481
▁sepediša	-4482
▁matšatšing	-4483
▁resolution	-4484
ars	-4485
bon	-4486
did	-4487
edu	-4488
oth	-4489
▁Ao	-4490
▁Si	-4491
▁il	-4492
dian	-4493
taba	-4494
▁Ira	-4495
▁One	-4496
▁nne	-4497
aneng	-4498
getše	-4499
going	-4500
hlano	-4501
itche	-4502
▁Medi	-4503
▁alwa	-4504
▁exch	-4505
▁gola	-4506
▁hlam	-4507
▁risk	-4508
itions	-4509
ontšho	-4510
ughout	-4511
▁Const	-4512
▁Motse	-4513
▁North	-4514
▁bašom	-4515
▁bohle	-4516
▁kgato	-4517
▁thoto	-4518
akarolo	-4519
lations	-4520
ligence	-4521
▁Rights	-4522
▁accept	-4523
▁kabelo	-4524
▁megala	-4525
▁mosadi	-4526
▁record	-4527
seterata	-4528
▁Section	-4529
▁correct	-4530
▁illegal	-4531
▁married	-4532
▁written	-4533
▁activity	-4534
▁barutiši	-4535
▁benefits	-4536
▁dikgwedi	-4537
▁dikopano	-4538
▁exercise	-4539
▁independ	-4540
▁mangwalo	-4541
▁resident	-4542
▁maitekelo	-4543
▁provinces	-4544
▁strengthe	-4545
▁circumstances	-4546
has	-4547
mba	-4548
ssy	-4549
▁ID	-4550
▁ara	-4551
▁eas	-4552
▁hon	-4553
▁rac	-4554
▁win	-4555
comes	-4556
eries	-4557
rence	-4558
uteng	-4559
▁Dite	-4560
▁dine	-4561
▁util	-4562
aching	-4563
dumedi	-4564
eletši	-4565
parara	-4566
▁After	-4567
▁Dipho	-4568
▁boela	-4569
▁break	-4570
▁kgoka	-4571
▁lives	-4572
▁motor	-4573
▁phepo	-4574
▁polao	-4575
ditšego	-4576
duction	-4577
▁instal	-4578
▁mošomi	-4579
▁rather	-4580
▁search	-4581
▁single	-4582
▁values	-4583
editšego	-4584
katsheko	-4585
▁numbers	-4586
▁purpose	-4587
▁tlogela	-4588
gistrates	-4589
▁Ditokelo	-4590
▁majority	-4591
▁meetings	-4592
▁questions	-4593
▁reference	-4594
▁assistance	-4595
▁commercial	-4596
▁significant	-4597
▁bakgathatema	-4598
▁fapafapanego	-4599
▁tshepedišong	-4600
▁organisations	-4601
IN	-4602
kt	-4603
abi	-4604
ery	-4605
ilt	-4606
now	-4607
uka	-4608
▁PA	-4609
▁je	-4610
anel	-4611
eleb	-4612
gest	-4613
ming	-4614
ruit	-4615
▁Mrs	-4616
▁Sek	-4617
▁eta	-4618
▁sex	-4619
▁tas	-4620
enale	-4621
eteng	-4622
ingwa	-4623
nical	-4624
ranch	-4625
▁Cont	-4626
▁Iraq	-4627
▁gabo	-4628
▁mobu	-4629
▁mona	-4630
▁norm	-4631
▁rate	-4632
▁wish	-4633
faladi	-4634
▁amago	-4635
▁amega	-4636
▁armed	-4637
▁build	-4638
▁kwano	-4639
▁ntlha	-4640
▁sport	-4641
▁takes	-4642
ganetšo	-4643
stitute	-4644
▁Mafelo	-4645
▁always	-4646
▁diphat	-4647
▁ground	-4648
▁hlatse	-4649
▁Station	-4650
▁forward	-4651
▁tlwaelo	-4652
akanyetšo	-4653
kgoparara	-4654
▁letelele	-4655
▁positive	-4656
▁premises	-4657
▁tharollo	-4658
leditšwego	-4659
▁Inspector	-4660
▁Tlhabollo	-4661
▁committed	-4662
▁commitment	-4663
▁integrated	-4664
▁throughout	-4665
▁initiatives	-4666
▁phrobentshe	-4667
OM	-4668
▁0	-4669
ham	-4670
kol	-4671
lay	-4672
psh	-4673
▁11	-4674
▁TB	-4675
eric	-4676
hole	-4677
lass	-4678
load	-4679
ucle	-4680
ught	-4681
šago	-4682
šweu	-4683
▁Kha	-4684
▁Sta	-4685
▁fre	-4686
▁mur	-4687
▁vot	-4688
aring	-4689
▁Gore	-4690
▁clin	-4691
▁drug	-4692
▁mach	-4693
coming	-4694
kgwebo	-4695
oswere	-4696
▁Agric	-4697
▁Union	-4698
▁phoko	-4699
▁range	-4700
▁tlile	-4701
chedule	-4702
ization	-4703
▁bodudi	-4704
▁bohodu	-4705
▁candid	-4706
▁former	-4707
▁mogala	-4708
▁continu	-4709
▁disease	-4710
▁housing	-4711
kgobapuku	-4712
▁amogetše	-4713
▁kgafetša	-4714
▁policing	-4715
▁customary	-4716
▁framework	-4717
▁personnel	-4718
▁recovered	-4719
▁investment	-4720
▁X	-4721
bly	-4722
hol	-4723
lls	-4724
log	-4725
ped	-4726
▁ko	-4727
lish	-4728
niki	-4729
ouse	-4730
ping	-4731
wood	-4732
▁Hla	-4733
▁ala	-4734
▁bul	-4735
▁lao	-4736
kollo	-4737
stant	-4738
▁anti	-4739
▁news	-4740
▁seba	-4741
▁sure	-4742
irates	-4743
kanywa	-4744
kolong	-4745
▁China	-4746
▁Dipro	-4747
▁emiša	-4748
▁fetša	-4749
▁letla	-4750
kgonthe	-4751
▁Mošomo	-4752
▁consum	-4753
▁mebedi	-4754
▁mehola	-4755
▁others	-4756
▁otlela	-4757
▁plants	-4758
▁settle	-4759
angišano	-4760
▁balaodi	-4761
▁kgolego	-4762
▁kgopolo	-4763
▁mehlare	-4764
▁mission	-4765
▁nyakego	-4766
▁segwera	-4767
▁kopanong	-4768
▁officers	-4769
▁democracy	-4770
▁diprotšeke	-4771
▁structures	-4772
▁tšwelopele	-4773
▁immediately	-4774
▁maatlafatša	-4775
▁professional	-4776
yn	-4777
ams	-4778
dra	-4779
oms	-4780
yer	-4781
▁Li	-4782
bole	-4783
ends	-4784
etse	-4785
išwe	-4786
omes	-4787
oper	-4788
▁Bus	-4789
▁Hos	-4790
▁Kat	-4791
▁PSC	-4792
▁Two	-4793
▁abs	-4794
▁ela	-4795
▁mus	-4796
enced	-4797
entle	-4798
erous	-4799
kgafo	-4800
lefsa	-4801
▁Aowa	-4802
▁Dist	-4803
▁Madi	-4804
▁SADC	-4805
▁Sete	-4806
▁bare	-4807
▁came	-4808
▁emba	-4809
▁foot	-4810
▁mara	-4811
▁maša	-4812
▁ralo	-4813
▁saen	-4814
▁Thuto	-4815
▁night	-4816
▁tsama	-4817
tšhitše	-4818
▁attemp	-4819
▁corpor	-4820
▁kgwele	-4821
▁malapa	-4822
▁suppli	-4823
▁unless	-4824
ervation	-4825
▁benefit	-4826
▁serious	-4827
▁underst	-4828
▁workers	-4829
▁Tumelelo	-4830
▁category	-4831
▁lekanego	-4832
▁molawana	-4833
▁rerišana	-4834
▁allocated	-4835
▁determine	-4836
▁ukangwego	-4837
▁protection	-4838
▁dumeletšwego	-4839
▁khuduthamaga	-4840
▁ikemišeditšego	-4841
lak	-4842
▁EM	-4843
▁Ha	-4844
▁vi	-4845
anyi	-4846
atch	-4847
iamo	-4848
rese	-4849
than	-4850
▁Kga	-4851
▁Seo	-4852
▁bop	-4853
▁dou	-4854
▁kha	-4855
▁san	-4856
▁sup	-4857
inent	-4858
išiša	-4859
leswa	-4860
onter	-4861
phiri	-4862
rises	-4863
▁cash	-4864
▁guar	-4865
▁sche	-4866
▁told	-4867
ducing	-4868
enyane	-4869
selara	-4870
▁amend	-4871
▁bring	-4872
▁celeb	-4873
▁claim	-4874
▁extra	-4875
▁rwala	-4876
related	-4877
▁bonala	-4878
▁dikelo	-4879
▁inthan	-4880
▁linked	-4881
▁masolo	-4882
▁recent	-4883
▁kgethwa	-4884
▁Maafrika	-4885
▁administ	-4886
▁adoption	-4887
▁bitšwago	-4888
▁employer	-4889
▁followed	-4890
▁practice	-4891
▁struggle	-4892
▁Community	-4893
▁phraebete	-4894
▁objectives	-4895
▁Khuduthamaga	-4896
▁agricultural	-4897
ik	-4898
su	-4899
IDS	-4900
ali	-4901
iso	-4902
tel	-4903
uge	-4904
▁Ab	-4905
▁er	-4906
bogo	-4907
inct	-4908
kiši	-4909
ktha	-4910
mong	-4911
▁Cor	-4912
▁Off	-4913
▁Tha	-4914
▁ans	-4915
▁ape	-4916
▁awa	-4917
▁big	-4918
▁maš	-4919
▁wal	-4920
ronic	-4921
rying	-4922
▁Naga	-4923
▁Pego	-4924
▁cong	-4925
▁fago	-4926
▁lwan	-4927
▁pora	-4928
▁seke	-4929
▁teko	-4930
▁turn	-4931
▁unit	-4932
dišana	-4933
eterin	-4934
ressed	-4935
▁Every	-4936
▁Other	-4937
▁depos	-4938
▁itemo	-4939
▁recon	-4940
▁rules	-4941
▁thuba	-4942
cturing	-4943
kanelwa	-4944
▁engine	-4945
▁hlahla	-4946
▁launch	-4947
▁modudi	-4948
▁papadi	-4949
▁possib	-4950
▁prepar	-4951
▁tumelo	-4952
kgafetša	-4953
▁Gauteng	-4954
▁arrange	-4955
▁dibjalo	-4956
▁fishing	-4957
▁reasons	-4958
▁started	-4959
▁bonnyane	-4960
▁difofane	-4961
▁diphetho	-4962
▁employee	-4963
▁facility	-4964
▁meetseng	-4965
▁committee	-4966
▁molaotheo	-4967
▁additional	-4968
▁developing	-4969
▁supporting	-4970
▁ditšhišinyo	-4971
▁particularly	-4972
▁establishment	-4973
EA	-4974
ER	-4975
IC	-4976
mpo	-4977
vey	-4978
▁My	-4979
▁cl	-4980
enti	-4981
ires	-4982
ngwa	-4983
ried	-4984
▁SAN	-4985
▁gre	-4986
▁lot	-4987
▁nno	-4988
▁pub	-4989
Natal	-4990
erika	-4991
erman	-4992
kotla	-4993
loyed	-4994
orter	-4995
▁Bana	-4996
▁Dita	-4997
▁Supp	-4998
▁bape	-4999
▁feed	-5000
▁ruta	-5001
▁seen	-5002
▁soon	-5003
balano	-5004
kanego	-5005
letšwe	-5006
uclear	-5007
▁World	-5008
▁baagi	-5009
▁basic	-5010
▁batše	-5011
▁below	-5012
▁conte	-5013
▁costs	-5014
▁influ	-5015
▁offer	-5016
▁sehla	-5017
▁thome	-5018
▁tšere	-5019
etšwago	-5020
petlele	-5021
▁caused	-5022
▁dibeke	-5023
▁income	-5024
▁itself	-5025
▁kgotso	-5026
▁lefela	-5027
▁mathom	-5028
▁review	-5029
▁sešole	-5030
economic	-5031
▁fihlela	-5032
▁protect	-5033
▁sephiri	-5034
▁election	-5035
▁ngwadiši	-5036
▁position	-5037
▁challenge	-5038
▁Diphoofolo	-5039
▁Mohlankedi	-5040
▁facilitate	-5041
▁lebeletšwe	-5042
▁sepelelana	-5043
▁Magistrates	-5044
▁appointment	-5045
▁institution	-5046
atšwasehlabelo	-5047
▁participation	-5048
LA	-5049
MME	-5050
ior	-5051
ito	-5052
tic	-5053
ule	-5054
▁Qu	-5055
abil	-5056
bery	-5057
icro	-5058
ital	-5059
pper	-5060
term	-5061
urup	-5062
year	-5063
zamb	-5064
▁Pot	-5065
▁Sam	-5066
▁ali	-5067
▁ess	-5068
monst	-5069
ntara	-5070
otshe	-5071
phere	-5072
▁acqu	-5073
▁fall	-5074
▁ntlo	-5075
komedi	-5076
▁Apply	-5077
▁India	-5078
▁Mohlo	-5079
▁aware	-5080
▁boagi	-5081
▁colla	-5082
▁exper	-5083
▁expla	-5084
▁tlhom	-5085
▁urban	-5086
▁whose	-5087
hensive	-5088
▁Mozamb	-5089
▁dipuku	-5090
▁gender	-5091
▁histor	-5092
▁komiti	-5093
▁racism	-5094
▁tsheko	-5095
olofatši	-5096
▁Speaker	-5097
▁applies	-5098
▁bohloko	-5099
▁demonst	-5100
▁diaparo	-5101
▁dihlare	-5102
▁ditaelo	-5103
▁hlabolo	-5104
▁invited	-5105
▁kwešišo	-5106
▁molaodi	-5107
▁pukwana	-5108
▁remains	-5109
▁thulano	-5110
▁Senthara	-5111
▁boikgafo	-5112
▁gatelela	-5113
▁matlotlo	-5114
▁reported	-5115
▁dithulano	-5116
▁paragraph	-5117
▁pasporoto	-5118
▁phadišano	-5119
▁integration	-5120
▁setatamente	-5121
▁Maikemišetšo	-5122
IP	-5123
ker	-5124
off	-5125
upi	-5126
wal	-5127
▁CP	-5128
▁ik	-5129
▁ur	-5130
eral	-5131
ests	-5132
iles	-5133
koto	-5134
lers	-5135
▁blo	-5136
▁nur	-5137
▁red	-5138
▁saw	-5139
▁tum	-5140
tšong	-5141
šetši	-5142
▁Geor	-5143
▁Insp	-5144
▁dama	-5145
▁duty	-5146
▁hope	-5147
▁nepa	-5148
▁rile	-5149
ilione	-5150
mphegi	-5151
ommogo	-5152
roniki	-5153
▁Child	-5154
▁Mlaba	-5155
▁River	-5156
▁items	-5157
▁labor	-5158
▁paper	-5159
▁parts	-5160
▁sekga	-5161
entions	-5162
vention	-5163
▁Kgwebo	-5164
▁bolaya	-5165
▁contra	-5166
▁dintši	-5167
▁ditulo	-5168
▁gongwe	-5169
▁maleme	-5170
▁masome	-5171
▁mother	-5172
▁purcha	-5173
▁ratago	-5174
▁segolo	-5175
▁tempor	-5176
bilities	-5177
▁Justice	-5178
▁animals	-5179
▁bokgabo	-5180
▁limited	-5181
▁šetšego	-5182
hanselara	-5183
hemikhale	-5184
ingwadišo	-5185
▁Hospital	-5186
▁dipolelo	-5187
▁gannyane	-5188
▁kamogelo	-5189
▁ngwadiša	-5190
▁ngwageng	-5191
▁baetapele	-5192
▁broadcast	-5193
▁character	-5194
▁lenaneong	-5195
▁providing	-5196
▁democratic	-5197
▁designated	-5198
▁monitoring	-5199
▁photograph	-5200
▁successful	-5201
▁tšweletšwa	-5202
▁lehlakoreng	-5203
▁tseneletšego	-5204
▁ditshenyegelo	-5205
▁tlwaelegilego	-5206
73	-5207
ex	-5208
▁9	-5209
feš	-5210
ror	-5211
▁Um	-5212
agga	-5213
ared	-5214
arms	-5215
dent	-5216
gola	-5217
illa	-5218
lana	-5219
mini	-5220
ompi	-5221
sets	-5222
yers	-5223
▁Ram	-5224
▁cli	-5225
▁mmo	-5226
▁sat	-5227
▁vac	-5228
house	-5229
irišo	-5230
rants	-5231
rison	-5232
secut	-5233
▁Educ	-5234
▁Mang	-5235
▁Tlho	-5236
▁dete	-5237
▁fihl	-5238
▁mare	-5239
▁ntše	-5240
▁repe	-5241
▁tate	-5242
▁Green	-5243
▁artic	-5244
▁begin	-5245
▁mmino	-5246
▁nnoši	-5247
▁radio	-5248
▁roads	-5249
▁sites	-5250
▁somet	-5251
▁thopa	-5252
gations	-5253
▁bušele	-5254
▁lesome	-5255
▁mainly	-5256
▁morero	-5257
entlemen	-5258
omenetša	-5259
▁Bosenyi	-5260
▁Israele	-5261
▁appreci	-5262
▁District	-5263
▁Schedule	-5264
▁laesense	-5265
▁response	-5266
▁tsamaišo	-5267
išanommogo	-5268
▁amogetšwe	-5269
▁dithekete	-5270
▁kwagalago	-5271
▁portfolio	-5272
▁practices	-5273
▁Motlatšamo	-5274
▁dumeletšwe	-5275
▁hlokomelwa	-5276
▁kaonafatšo	-5277
▁kgwebišano	-5278
▁tlaleletša	-5279
▁ditšhupetšo	-5280
▁hweditšwego	-5281
▁traditional	-5282
▁Applications	-5283
12	-5284
els	-5285
ern	-5286
nya	-5287
▁16	-5288
fort	-5289
moka	-5290
reme	-5291
sequ	-5292
uted	-5293
yota	-5294
▁Che	-5295
▁Tse	-5296
▁bak	-5297
▁dev	-5298
▁dif	-5299
▁tur	-5300
▁Šet	-5301
arily	-5302
igned	-5303
itiki	-5304
▁Head	-5305
▁Once	-5306
▁Plan	-5307
▁fair	-5308
▁loss	-5309
▁mera	-5310
▁molo	-5311
▁nolo	-5312
▁phys	-5313
▁wide	-5314
illing	-5315
lished	-5316
lontle	-5317
▁Panel	-5318
▁bitša	-5319
▁breed	-5320
▁enfor	-5321
▁fully	-5322
▁khopi	-5323
▁light	-5324
▁meepo	-5325
▁minim	-5326
▁mmala	-5327
▁morwa	-5328
▁seven	-5329
▁šomiš	-5330
▁Bontši	-5331
▁announ	-5332
▁boradi	-5333
▁conclu	-5334
▁fasana	-5335
▁gatele	-5336
▁kamano	-5337
onteraka	-5338
▁central	-5339
▁centres	-5340
▁context	-5341
▁obamela	-5342
▁phemiti	-5343
rehensive	-5344
▁amogelwa	-5345
▁chemical	-5346
▁criminal	-5347
▁directly	-5348
▁learning	-5349
▁seleteng	-5350
homišenare	-5351
▁hlokomelo	-5352
▁indicated	-5353
▁interests	-5354
▁Mozambique	-5355
▁industrial	-5356
▁maithomelo	-5357
▁submission	-5358
▁bommasepala	-5359
▁ditokumente	-5360
▁hlohleletšwa	-5361
",	-5362
ES	-5363
IFA	-5364
ank	-5365
apa	-5366
lif	-5367
opo	-5368
pok	-5369
pot	-5370
yed	-5371
ancy	-5372
gies	-5373
holo	-5374
huma	-5375
ibes	-5376
llow	-5377
wise	-5378
▁fil	-5379
▁mak	-5380
▁too	-5381
cknow	-5382
hekgi	-5383
hlolo	-5384
pheth	-5385
watle	-5386
▁Kget	-5387
▁Polo	-5388
▁SABC	-5389
▁boso	-5390
▁dibo	-5391
▁ikop	-5392
▁mand	-5393
▁mase	-5394
▁phen	-5395
▁teac	-5396
anding	-5397
ourism	-5398
uruphu	-5399
▁civil	-5400
▁eight	-5401
▁incor	-5402
▁lahle	-5403
▁plast	-5404
▁recre	-5405
▁speak	-5406
▁thous	-5407
▁towns	-5408
▁upgra	-5409
▁Secret	-5410
▁Summit	-5411
▁Supply	-5412
▁charge	-5413
▁little	-5414
▁mararo	-5415
▁sekepe	-5416
▁street	-5417
▁šomela	-5418
cription	-5419
fešenale	-5420
ipiletšo	-5421
▁Pirates	-5422
▁allowed	-5423
▁beakany	-5424
▁concern	-5425
▁dikoloi	-5426
▁dikotsi	-5427
▁ikgetha	-5428
▁kgatišo	-5429
▁letsogo	-5430
▁payment	-5431
▁primary	-5432
▁theilwe	-5433
kakaretšo	-5434
thephethe	-5435
▁Security	-5436
▁approval	-5437
▁bogareng	-5438
▁bonagala	-5439
▁informed	-5440
▁lwantšha	-5441
▁personal	-5442
▁Palestini	-5443
▁allegedly	-5444
▁requested	-5445
▁dikgahlego	-5446
▁tšwelelago	-5447
▁Chairperson	-5448
▁Mogononelwa	-5449
▁discussions	-5450
▁partnership	-5451
RO	-5452
▁z	-5453
eta	-5454
hop	-5455
iry	-5456
leb	-5457
oka	-5458
yun	-5459
▁Bu	-5460
▁Mp	-5461
gego	-5462
most	-5463
rian	-5464
uals	-5465
▁Emp	-5466
▁Est	-5467
▁Int	-5468
▁Mid	-5469
▁Ric	-5470
▁afe	-5471
▁boy	-5472
▁gas	-5473
▁sla	-5474
▁swe	-5475
abeng	-5476
išani	-5477
matic	-5478
▁Euro	-5479
▁gang	-5480
▁mass	-5481
▁move	-5482
▁stop	-5483
▁susp	-5484
▁thab	-5485
▁thwe	-5486
pikara	-5487
▁Local	-5488
▁borwa	-5489
▁gatee	-5490
▁leboa	-5491
▁maphe	-5492
▁might	-5493
▁oblig	-5494
▁sound	-5495
▁tlala	-5496
▁volun	-5497
▁woman	-5498
fetšego	-5499
rations	-5500
udicial	-5501
▁Americ	-5502
▁Toyota	-5503
▁lokiša	-5504
▁notice	-5505
▁observ	-5506
▁reduce	-5507
▁tlošwa	-5508
išitšego	-5509
ktroniki	-5510
▁adopted	-5511
▁bodiidi	-5512
▁climate	-5513
▁kwešiša	-5514
▁kwešiše	-5515
▁mention	-5516
▁ngwalwa	-5517
▁robbery	-5518
▁tsebišo	-5519
▁welcome	-5520
▁designed	-5521
▁porojeke	-5522
▁Tšweletšo	-5523
▁bathobaso	-5524
▁certified	-5525
▁mabenkele	-5526
▁matlakala	-5527
▁poraebete	-5528
▁thobalano	-5529
▁kgoboketša	-5530
▁investigate	-5531
▁participate	-5532
▁utswitšwego	-5533
▁beakantšwego	-5534
▁sephethephethe	-5535
47	-5536
acc	-5537
dor	-5538
iny	-5539
ird	-5540
tal	-5541
thu	-5542
▁14	-5543
▁El	-5544
▁PS	-5545
▁el	-5546
ford	-5547
hipi	-5548
izer	-5549
othe	-5550
rela	-5551
stra	-5552
unds	-5553
void	-5554
▁000	-5555
▁Dla	-5556
▁Mbe	-5557
▁Som	-5558
▁Win	-5559
▁aut	-5560
▁bio	-5561
▁cri	-5562
▁efo	-5563
▁kua	-5564
gwago	-5565
habil	-5566
lying	-5567
omane	-5568
petši	-5569
▁Dint	-5570
▁Pele	-5571
▁Prof	-5572
▁dila	-5573
▁gave	-5574
▁hlao	-5575
▁paid	-5576
▁prec	-5577
▁pros	-5578
▁seek	-5579
▁sena	-5580
▁tshw	-5581
cation	-5582
diriši	-5583
▁Black	-5584
▁Human	-5585
▁potla	-5586
▁quant	-5587
▁tsene	-5588
▁veget	-5589
ignment	-5590
▁acknow	-5591
▁analys	-5592
▁follow	-5593
▁formal	-5594
▁legolo	-5595
▁mesong	-5596
▁scient	-5597
▁series	-5598
▁seripa	-5599
▁Šetulo	-5600
inations	-5601
onafatšo	-5602
▁Revenue	-5603
▁bohlale	-5604
▁feletša	-5605
▁hlokega	-5606
▁lefaufa	-5607
▁nuclear	-5608
▁potšišo	-5609
▁metšhene	-5610
▁motswadi	-5611
▁Education	-5612
▁dipeelano	-5613
▁languages	-5614
▁sephodisa	-5615
▁boithabišo	-5616
▁collection	-5617
▁hlomilwego	-5618
▁innovation	-5619
▁prevention	-5620
▁profenseng	-5621
▁Agriculture	-5622
▁boikarabelo	-5623
▁boingwadišo	-5624
▁diintasteri	-5625
▁electricity	-5626
▁implemented	-5627
▁statistical	-5628
▁contribution	-5629
▁motšwaoswere	-5630
▁phethagatšwa	-5631
▁Constitutional	-5632
AF	-5633
cep	-5634
ols	-5635
una	-5636
uts	-5637
▁Da	-5638
adem	-5639
bong	-5640
lini	-5641
mane	-5642
mere	-5643
olwa	-5644
onia	-5645
otso	-5646
pers	-5647
qual	-5648
▁Blo	-5649
▁Rus	-5650
▁bed	-5651
▁eff	-5652
▁rut	-5653
asson	-5654
istan	-5655
onsta	-5656
ounts	-5657
petša	-5658
pholo	-5659
where	-5660
works	-5661
▁Gaza	-5662
▁Moka	-5663
▁Palo	-5664
▁Some	-5665
▁Your	-5666
▁bose	-5667
▁bula	-5668
▁mono	-5669
▁pelo	-5670
▁sale	-5671
▁tšha	-5672
ending	-5673
hekeng	-5674
kehold	-5675
rative	-5676
respon	-5677
rought	-5678
▁Leboa	-5679
▁doing	-5680
▁maeto	-5681
▁moswa	-5682
▁negat	-5683
ighbour	-5684
▁Invest	-5685
▁Lesolo	-5686
▁Mešomo	-5687
▁bottle	-5688
▁enable	-5689
▁fiwago	-5690
▁nation	-5691
▁seswai	-5692
▁signed	-5693
▁šomana	-5694
position	-5695
▁actions	-5696
▁located	-5697
▁morning	-5698
▁neelana	-5699
▁palelwa	-5700
▁phetogo	-5701
▁victims	-5702
lathekeng	-5703
▁affected	-5704
▁diphathi	-5705
▁khomphut	-5706
▁laetšago	-5707
▁peeletšo	-5708
▁requires	-5709
▁stations	-5710
▁tlhagišo	-5711
▁dirišwago	-5712
▁golegilwe	-5713
▁kgolegong	-5714
▁nolofatša	-5715
▁rulaganya	-5716
▁tshwarelo	-5717
▁Management	-5718
▁encouraged	-5719
▁individual	-5720
▁mmakgonthe	-5721
▁dikgokagano	-5722
▁represented	-5723
▁arrangements	-5724
▁comprehensive	-5725
▁constitutional	-5726
'.	-5727
-5	-5728
bj	-5729
hy	-5730
ION	-5731
eli	-5732
gas	-5733
ita	-5734
law	-5735
lue	-5736
ose	-5737
sha	-5738
▁Et	-5739
▁NP	-5740
▁br	-5741
▁hy	-5742
▁tw	-5743
enet	-5744
etro	-5745
moso	-5746
rich	-5747
time	-5748
▁Mma	-5749
▁Mme	-5750
▁Now	-5751
▁Ple	-5752
▁Rec	-5753
▁Wit	-5754
▁eya	-5755
▁mid	-5756
▁rwe	-5757
▁spo	-5758
▁yet	-5759
erale	-5760
gious	-5761
kgang	-5762
kwago	-5763
prene	-5764
putso	-5765
sters	-5766
verse	-5767
▁Stre	-5768
▁enjo	-5769
▁game	-5770
▁gase	-5771
▁keep	-5772
▁ment	-5773
▁mode	-5774
▁page	-5775
▁rome	-5776
▁spot	-5777
▁subs	-5778
otshwa	-5779
warded	-5780
▁Diphe	-5781
▁Ditho	-5782
▁dedic	-5783
▁koloi	-5784
iveness	-5785
reišene	-5786
reprene	-5787
▁bitšwa	-5788
▁extent	-5789
▁fetoša	-5790
▁forces	-5791
▁gobane	-5792
▁gopola	-5793
▁murder	-5794
▁placed	-5795
▁reason	-5796
▁swerwe	-5797
▁tlišwa	-5798
▁Amerika	-5799
▁Dlamini	-5800
▁Gabotse	-5801
▁complex	-5802
▁funding	-5803
▁maiteko	-5804
▁sectors	-5805
atelopele	-5806
▁Although	-5807
▁bolelago	-5808
▁district	-5809
▁ensuring	-5810
▁holofela	-5811
▁recently	-5812
▁standard	-5813
▁swerwego	-5814
▁increased	-5815
▁inthanete	-5816
▁lepatlelo	-5817
▁Diprofense	-5818
▁assessment	-5819
▁bjalobjalo	-5820
▁dipeeletšo	-5821
▁ditšhabeng	-5822
▁initiative	-5823
▁matlafatša	-5824
▁statistics	-5825
▁kopantšwego	-5826
▁consultation	-5827
▁relationship	-5828
▁batšwasehlabelo	-5829
LO	-5830
hn	-5831
ime	-5832
isa	-5833
lor	-5834
oma	-5835
▁By	-5836
▁Du	-5837
▁Sp	-5838
allo	-5839
fase	-5840
gadi	-5841
iews	-5842
lier	-5843
poro	-5844
tšat	-5845
▁Cle	-5846
▁Kho	-5847
▁Nam	-5848
▁Sci	-5849
▁haz	-5850
▁hot	-5851
▁mut	-5852
▁smo	-5853
▁ves	-5854
abane	-5855
inger	-5856
llent	-5857
otlha	-5858
ridge	-5859
▁Brit	-5860
▁Kabo	-5861
▁Port	-5862
▁Stop	-5863
▁aims	-5864
▁bank	-5865
▁bele	-5866
▁digo	-5867
▁elim	-5868
▁elwa	-5869
▁face	-5870
▁milk	-5871
▁pati	-5872
▁seve	-5873
▁ways	-5874
dišiša	-5875
▁Trade	-5876
▁Where	-5877
▁dagga	-5878
▁early	-5879
▁hlano	-5880
▁itlha	-5881
▁kopan	-5882
▁names	-5883
▁users	-5884
entšene	-5885
ulating	-5886
▁Basson	-5887
▁Foromo	-5888
▁Mitche	-5889
▁Office	-5890
▁States	-5891
▁abroad	-5892
▁bilego	-5893
▁copies	-5894
▁diteng	-5895
▁fetiša	-5896
▁owners	-5897
▁wanted	-5898
▁Austral	-5899
▁Kantoro	-5900
▁Nations	-5901
▁Phanele	-5902
▁changes	-5903
▁content	-5904
▁hlagiša	-5905
▁hlokego	-5906
▁justice	-5907
▁pampiri	-5908
▁produce	-5909
▁usually	-5910
▁Southern	-5911
▁banamedi	-5912
▁computer	-5913
▁hlwekiša	-5914
▁hospital	-5915
▁khansele	-5916
▁language	-5917
▁laolwago	-5918
▁lebopong	-5919
▁phuruphu	-5920
▁resource	-5921
▁selected	-5922
▁decisions	-5923
▁elections	-5924
▁gentlemen	-5925
▁intellect	-5926
▁tiragatšo	-5927
▁Ditšhelete	-5928
▁Mongwadiši	-5929
▁conference	-5930
▁profession	-5931
▁Environment	-5932
▁elektroniki	-5933
▁moragonyana	-5934
▁mohlakanelwa	-5935
▁partnerships	-5936
▁Mokhomišenare	-5937
▁communication	-5938
cm	-5939
ati	-5940
nds	-5941
▁23	-5942
▁Ac	-5943
▁Ce	-5944
ethe	-5945
face	-5946
more	-5947
rabo	-5948
▁Dir	-5949
▁cut	-5950
▁shi	-5951
▁tsa	-5952
▁ver	-5953
inspe	-5954
lando	-5955
ondon	-5956
scale	-5957
▁AIDS	-5958
▁Both	-5959
▁FIFA	-5960
▁Tech	-5961
▁babo	-5962
▁gard	-5963
▁infe	-5964
▁poso	-5965
▁rene	-5966
▁tefo	-5967
hareng	-5968
▁Leano	-5969
▁libra	-5970
▁lower	-5971
▁micro	-5972
▁theft	-5973
▁During	-5974
▁Israel	-5975
▁Lefase	-5976
▁London	-5977
▁Selete	-5978
▁active	-5979
▁attack	-5980
▁bagolo	-5981
▁became	-5982
▁comply	-5983
▁dikete	-5984
▁fetoga	-5985
▁longer	-5986
▁mining	-5987
▁senior	-5988
šitšwego	-5989
▁Orlando	-5990
▁applied	-5991
▁arrests	-5992
▁bohloki	-5993
▁botseta	-5994
▁charged	-5995
▁charges	-5996
▁coordin	-5997
▁measure	-5998
▁nakwana	-5999
▁thekišo	-6000
▁balwetši	-6001
▁bathekgi	-6002
▁dinomoro	-6003
▁employed	-6004
▁improved	-6005
▁obtained	-6006
▁prepared	-6007
▁relating	-6008
▁According	-6009
▁attention	-6010
▁bomenetša	-6011
▁setlwaedi	-6012
▁stakehold	-6013
▁technical	-6014
▁boledišana	-6015
▁outstanding	-6016
TS	-6017
SDP	-6018
act	-6019
bit	-6020
pel	-6021
plo	-6022
sho	-6023
▁AU	-6024
▁Fe	-6025
atša	-6026
gers	-6027
hlaa	-6028
irit	-6029
mony	-6030
šing	-6031
▁Hlo	-6032
▁Leb	-6033
▁Mer	-6034
▁bur	-6035
▁cru	-6036
▁low	-6037
▁wea	-6038
▁why	-6039
▁won	-6040
apišo	-6041
ented	-6042
fence	-6043
itišo	-6044
ivity	-6045
khura	-6046
round	-6047
uries	-6048
▁Auth	-6049
▁Dipa	-6050
▁Fund	-6051
▁audi	-6052
▁dang	-6053
▁ever	-6054
▁ikgo	-6055
▁mahu	-6056
▁noši	-6057
▁theo	-6058
ctives	-6059
ganego	-6060
kgahlo	-6061
šitšwe	-6062
▁Agree	-6063
▁Motla	-6064
▁asked	-6065
▁colon	-6066
▁ikgaf	-6067
▁joint	-6068
▁judge	-6069
▁kgobo	-6070
▁kholo	-6071
▁moago	-6072
▁phumo	-6073
▁rates	-6074
▁socio	-6075
▁space	-6076
tšatona	-6077
uration	-6078
▁Angola	-6079
▁Chiefs	-6080
▁Please	-6081
▁Sekolo	-6082
▁agreed	-6083
▁answer	-6084
▁boraro	-6085
▁crimes	-6086
▁demand	-6087
▁gagolo	-6088
▁manane	-6089
▁things	-6090
▁tšhaba	-6091
kanyetšo	-6092
phethiši	-6093
▁Produce	-6094
▁consequ	-6095
▁ditshwa	-6096
▁kakanyo	-6097
▁keletšo	-6098
▁meaning	-6099
▁thekgwa	-6100
▁thwalwa	-6101
▁tlilego	-6102
▁collabor	-6103
▁critical	-6104
▁dikolong	-6105
▁exchange	-6106
▁incident	-6107
▁kgahliša	-6108
▁situated	-6109
pharephare	-6110
▁Agreement	-6111
▁Palestina	-6112
▁condition	-6113
▁continues	-6114
▁directive	-6115
▁ditlhohlo	-6116
▁fundament	-6117
▁neighbour	-6118
▁objective	-6119
▁otherwise	-6120
▁published	-6121
▁Tumelelano	-6122
▁associated	-6123
▁dipeakanyo	-6124
▁entreprene	-6125
▁provisions	-6126
▁Maintenance	-6127
▁authorities	-6128
▁independent	-6129
▁kgatelopele	-6130
▁batšeakarolo	-6131
▁bolokegilego	-6132
▁participating	-6133
-9	-6134
GO	-6135
RP	-6136
cmd	-6137
itz	-6138
▁15	-6139
▁AC	-6140
▁Bi	-6141
▁Wo	-6142
▁YA	-6143
dity	-6144
fatš	-6145
lend	-6146
sogo	-6147
šupo	-6148
▁200	-6149
▁Bao	-6150
▁Den	-6151
▁Ser	-6152
▁Sha	-6153
▁Tod	-6154
▁Wil	-6155
▁ago	-6156
▁div	-6157
▁got	-6158
▁lar	-6159
▁lwe	-6160
▁mok	-6161
▁pra	-6162
▁rub	-6163
▁upd	-6164
▁urg	-6165
eleng	-6166
ggest	-6167
huthe	-6168
išina	-6169
onolo	-6170
tšeng	-6171
▁Dete	-6172
▁NEPA	-6173
▁babe	-6174
▁fert	-6175
▁išwa	-6176
▁kata	-6177
▁maro	-6178
▁mill	-6179
▁sole	-6180
▁tear	-6181
▁tšer	-6182
▁unif	-6183
dišišo	-6184
▁Bohlo	-6185
▁Elect	-6186
▁Three	-6187
▁Water	-6188
▁added	-6189
▁botša	-6190
▁drugs	-6191
▁emerg	-6192
▁estim	-6193
▁green	-6194
▁ipile	-6195
▁mmele	-6196
▁total	-6197
▁words	-6198
hwekišo	-6199
ruption	-6200
▁Associ	-6201
▁Yuniti	-6202
▁atlega	-6203
▁bekeng	-6204
▁depend	-6205
▁dikepe	-6206
▁emetše	-6207
▁father	-6208
▁houses	-6209
▁kalafi	-6210
▁lentšu	-6211
▁madira	-6212
▁manage	-6213
▁offers	-6214
▁rilego	-6215
▁vessel	-6216
esentshe	-6217
faditšwe	-6218
▁Bolaodi	-6219
▁advance	-6220
▁botšiša	-6221
▁carried	-6222
▁counter	-6223
▁hlompha	-6224
▁moletlo	-6225
▁mothopo	-6226
▁papatšo	-6227
▁reasona	-6228
▁suggest	-6229
▁applying	-6230
▁hlomilwe	-6231
▁physical	-6232
▁praebete	-6233
▁senthara	-6234
▁tatelano	-6235
▁visitors	-6236
▁ditseleng	-6237
▁essential	-6238
▁ingwadiša	-6239
▁mathomong	-6240
▁presented	-6241
▁batšwantle	-6242
▁businesses	-6243
▁kontinente	-6244
▁proceeding	-6245
▁understand	-6246
▁Palestinian	-6247
▁legislative	-6248
▁commissioner	-6249
▁negotiations	-6250
▁setšweletšwa	-6251
cel	-6252
itu	-6253
lip	-6254
mos	-6255
ppe	-6256
rab	-6257
une	-6258
xic	-6259
yel	-6260
zed	-6261
▁Lu	-6262
▁lu	-6263
anye	-6264
ered	-6265
fora	-6266
ithu	-6267
kers	-6268
kgan	-6269
laga	-6270
lets	-6271
olid	-6272
ough	-6273
ream	-6274
▁Bra	-6275
▁Car	-6276
▁Nka	-6277
▁buš	-6278
▁mos	-6279
▁ren	-6280
▁tit	-6281
▁vir	-6282
▁šup	-6283
ensed	-6284
estic	-6285
field	-6286
inate	-6287
itsha	-6288
išane	-6289
langa	-6290
ollwa	-6291
oring	-6292
šaedi	-6293
▁bane	-6294
▁colo	-6295
▁feat	-6296
▁hija	-6297
▁kota	-6298
▁nama	-6299
▁onto	-6300
▁phum	-6301
▁proc	-6302
▁ruri	-6303
▁simp	-6304
▁taxi	-6305
▁type	-6306
anyana	-6307
iation	-6308
icians	-6309
ograph	-6310
pološo	-6311
prises	-6312
terday	-6313
▁abuse	-6314
▁beaut	-6315
▁entit	-6316
▁gives	-6317
▁hlwek	-6318
▁liber	-6319
▁makat	-6320
▁memor	-6321
▁serve	-6322
▁table	-6323
hekniki	-6324
hlegelo	-6325
loyment	-6326
pective	-6327
▁Europe	-6328
▁Indust	-6329
▁Khayel	-6330
▁Morago	-6331
▁animal	-6332
▁appeal	-6333
▁driver	-6334
▁emelwa	-6335
▁higher	-6336
▁inside	-6337
▁perpet	-6338
▁points	-6339
▁saying	-6340
▁seriti	-6341
▁tsebja	-6342
▁šomiše	-6343
kgetheng	-6344
▁English	-6345
▁Tourism	-6346
▁attacks	-6347
▁brought	-6348
▁dealing	-6349
▁deliver	-6350
▁emetšwe	-6351
▁history	-6352
▁makhura	-6353
▁maximum	-6354
▁mehlala	-6355
▁mehlano	-6356
▁offices	-6357
▁phetošo	-6358
▁running	-6359
▁science	-6360
▁withdra	-6361
eterinary	-6362
▁actually	-6363
▁bokamoso	-6364
▁gabonolo	-6365
▁hwetšago	-6366
▁presence	-6367
▁produced	-6368
▁tsebišwa	-6369
ifications	-6370
keditšwego	-6371
▁Afrikaans	-6372
▁dithekisi	-6373
▁excellent	-6374
▁incidents	-6375
▁pollution	-6376
▁Maseterata	-6377
▁agreements	-6378
▁candidates	-6379
▁importance	-6380
▁kgokaganya	-6381
▁mongmošomo	-6382
▁previously	-6383
▁tsebagatša	-6384
▁Khayelitsha	-6385
▁governments	-6386
▁constitution	-6387
▁understanding	-6388
▁representatives	-6389
.1	-6390
FP	-6391
RA	-6392
dv	-6393
ij	-6394
yl	-6395
mer	-6396
opi	-6397
uel	-6398
ums	-6399
usi	-6400
▁60	-6401
▁Tl	-6402
-529	-6403
lane	-6404
loki	-6405
rist	-6406
tees	-6407
▁Ass	-6408
▁Ben	-6409
▁CPI	-6410
▁Moo	-6411
▁Non	-6412
▁Sim	-6413
▁Sto	-6414
▁Sud	-6415
▁ant	-6416
▁diš	-6417
▁gwe	-6418
▁peo	-6419
▁sal	-6420
▁tok	-6421
hlobo	-6422
irman	-6423
ishes	-6424
ompie	-6425
phone	-6426
ystem	-6427
šwago	-6428
▁Char	-6429
▁Mala	-6430
▁Obed	-6431
▁Over	-6432
▁Rese	-6433
▁What	-6434
▁baba	-6435
▁camp	-6436
▁fest	-6437
▁fiša	-6438
▁ipsh	-6439
▁mora	-6440
▁note	-6441
▁pono	-6442
▁rein	-6443
▁rent	-6444
▁reta	-6445
▁seem	-6446
▁sens	-6447
▁soil	-6448
▁sold	-6449
▁task	-6450
▁vote	-6451
dvanta	-6452
kopano	-6453
lelago	-6454
reness	-6455
▁Dipha	-6456
▁Mpuma	-6457
▁NEPAD	-6458
▁Offic	-6459
▁ahlaa	-6460
▁audit	-6461
▁beach	-6462
▁boema	-6463
▁bohwa	-6464
▁dimin	-6465
▁diyun	-6466
▁exhib	-6467
▁funds	-6468
▁laela	-6469
▁letha	-6470
▁messa	-6471
▁metho	-6472
▁mobil	-6473
▁phaka	-6474
▁recei	-6475
▁seats	-6476
▁trust	-6477
redited	-6478
▁Custom	-6479
▁Mokgwa	-6480
▁courts	-6481
▁direga	-6482
▁duties	-6483
▁emphas	-6484
▁entire	-6485
▁mabone	-6486
▁mabopo	-6487
▁metheo	-6488
▁opened	-6489
▁pejana	-6490
▁specif	-6491
▁tšwele	-6492
antorong	-6493
atofatšo	-6494
breaking	-6495
igration	-6496
leditšwe	-6497
▁Foreign	-6498
▁Israeli	-6499
▁Stompie	-6500
▁amongst	-6501
▁becomes	-6502
▁concent	-6503
▁granted	-6504
▁ikemego	-6505
▁kopanyo	-6506
▁records	-6507
▁rehabil	-6508
▁transpa	-6509
▁writing	-6510
ferentshe	-6511
▁baotledi	-6512
▁dibopego	-6513
▁imported	-6514
▁internal	-6515
▁launched	-6516
▁lebogiša	-6517
▁mahlatse	-6518
▁mannyane	-6519
▁movement	-6520
▁original	-6521
▁tlhompho	-6522
entšeneere	-6523
▁Institute	-6524
▁continued	-6525
▁discrimin	-6526
▁kgonegago	-6527
▁letlakala	-6528
▁materiale	-6529
▁thousands	-6530
▁categories	-6531
▁disadvanta	-6532
▁kgahlišago	-6533
▁kgoboketšo	-6534
▁allegations	-6535
▁dinolofatši	-6536
▁kgonagalago	-6537
▁recreational	-6538
▁identification	-6539
▁representative	-6540
11	-6541
sk	-6542
ade	-6543
cer	-6544
chi	-6545
gal	-6546
ido	-6547
iff	-6548
pid	-6549
uti	-6550
utu	-6551
xed	-6552
▁OF	-6553
▁hu	-6554
▁om	-6555
aged	-6556
enda	-6557
fadi	-6558
fare	-6559
gane	-6560
lymp	-6561
wide	-6562
▁Bat	-6563
▁Fla	-6564
▁Nya	-6565
▁War	-6566
▁adj	-6567
▁box	-6568
▁era	-6569
▁ina	-6570
▁leg	-6571
▁tro	-6572
▁wep	-6573
ander	-6574
bjale	-6575
fatši	-6576
inery	-6577
mples	-6578
rency	-6579
uting	-6580
▁Cong	-6581
▁Land	-6582
▁bogo	-6583
▁cult	-6584
▁dimp	-6585
▁empo	-6586
▁goga	-6587
▁itše	-6588
▁kind	-6589
▁laka	-6590
▁plat	-6591
▁vacc	-6592
balelo	-6593
kelong	-6594
mitted	-6595
onyana	-6596
rected	-6597
▁Olymp	-6598
▁Sudan	-6599
▁diplo	-6600
▁entry	-6601
▁exemp	-6602
▁frequ	-6603
▁kgang	-6604
▁kgole	-6605
▁leave	-6606
▁makes	-6607
▁thera	-6608
▁tloge	-6609
gilwego	-6610
▁Bobedi	-6611
▁Ditshe	-6612
▁Progra	-6613
▁Street	-6614
▁altern	-6615
▁confis	-6616
▁dikaro	-6617
▁dipese	-6618
▁highli	-6619
▁ketelo	-6620
▁khonth	-6621
▁leader	-6622
▁liquor	-6623
▁passed	-6624
▁sample	-6625
▁seized	-6626
▁tekano	-6627
▁terror	-6628
kakanywa	-6629
lebišene	-6630
▁Lefapha	-6631
▁ditheko	-6632
▁getting	-6633
▁kgorong	-6634
▁laolago	-6635
▁mobotse	-6636
▁passeng	-6637
▁pelaelo	-6638
▁permits	-6639
▁pholisi	-6640
▁sekgoba	-6641
▁tlatšwa	-6642
▁tšwetše	-6643
diversity	-6644
▁informal	-6645
▁intended	-6646
▁substant	-6647
▁suitable	-6648
▁tirišong	-6649
llathekeng	-6650
▁amendment	-6651
▁dingwalwa	-6652
▁diphapoši	-6653
▁gapeletša	-6654
▁kgonagala	-6655
▁procedure	-6656
▁suspected	-6657
▁Mpumalanga	-6658
▁concerning	-6659
▁delegation	-6660
▁godimodimo	-6661
▁guidelines	-6662
▁industries	-6663
▁strategies	-6664
▁ditlamorago	-6665
▁thomelontle	-6666
▁tšhoganetšo	-6667
▁intelligence	-6668
▁phatlalatšwa	-6669
▁ngwadišitšwego	-6670
RT	-6671
nam	-6672
nie	-6673
rew	-6674
ura	-6675
▁36	-6676
aded	-6677
bert	-6678
hong	-6679
irst	-6680
lase	-6681
resh	-6682
rint	-6683
tara	-6684
tswa	-6685
uthu	-6686
šeng	-6687
▁Bur	-6688
▁Cur	-6689
▁Hon	-6690
▁Nig	-6691
▁Sch	-6692
▁boo	-6693
▁ena	-6694
▁gun	-6695
▁mmu	-6696
▁sco	-6697
aches	-6698
ading	-6699
anied	-6700
gment	-6701
rikan	-6702
tšana	-6703
uropa	-6704
▁1998	-6705
▁NPPO	-6706
▁Nako	-6707
▁Supt	-6708
▁agwa	-6709
▁cere	-6710
▁dign	-6711
▁lack	-6712
▁lost	-6713
▁maru	-6714
▁robb	-6715
▁sebo	-6716
▁seti	-6717
▁shop	-6718
▁symb	-6719
▁text	-6720
bileng	-6721
encing	-6722
istics	-6723
itente	-6724
khutšo	-6725
kthara	-6726
olotši	-6727
sector	-6728
▁Boeti	-6729
▁Mbeki	-6730
▁Tsela	-6731
▁Vally	-6732
▁fight	-6733
▁heard	-6734
▁hlapi	-6735
▁hours	-6736
▁leswa	-6737
▁moagi	-6738
▁mokgo	-6739
▁panka	-6740
▁press	-6741
▁thibe	-6742
gantšwe	-6743
kotlana	-6744
▁Dipalo	-6745
▁Lehono	-6746
▁abelwa	-6747
▁bareki	-6748
▁bongwe	-6749
▁coming	-6750
▁compon	-6751
▁credit	-6752
▁dinepo	-6753
▁discip	-6754
▁highly	-6755
▁meraro	-6756
▁tender	-6757
▁tsheph	-6758
▁tšeago	-6759
▁vision	-6760
▁Mananeo	-6761
▁Univers	-6762
▁concept	-6763
▁congrat	-6764
▁ditseno	-6765
▁driving	-6766
▁embassy	-6767
▁friends	-6768
▁kwagala	-6769
▁leading	-6770
▁lethabo	-6771
▁maabane	-6772
▁magaeng	-6773
▁mmeleng	-6774
▁mmileng	-6775
▁overall	-6776
▁teargas	-6777
▁tekanyo	-6778
▁thomiša	-6779
▁šišinya	-6780
fficiency	-6781
▁masepala	-6782
▁mašaledi	-6783
▁oketšega	-6784
▁phokotšo	-6785
▁sekolong	-6786
▁solution	-6787
▁students	-6788
▁šomišago	-6789
▁Ministers	-6790
▁Provinces	-6791
▁dimilione	-6792
▁diversity	-6793
▁efficient	-6794
▁lehlakore	-6795
▁practical	-6796
▁sengwalwa	-6797
▁yesterday	-6798
▁boletšwego	-6799
▁contribute	-6800
▁ditokomane	-6801
▁leadership	-6802
▁developments	-6803
▁dingongorego	-6804
▁distribution	-6805
▁tshekatsheko	-6806
▁Environmental	-6807
dom	-6808
ody	-6809
ser	-6810
tra	-6811
▁EU	-6812
▁Ty	-6813
cate	-6814
dern	-6815
gage	-6816
imal	-6817
nown	-6818
rang	-6819
▁Ant	-6820
▁Her	-6821
▁Ras	-6822
▁amb	-6823
▁cra	-6824
▁ton	-6825
atric	-6826
hleng	-6827
ology	-6828
point	-6829
ptene	-6830
swana	-6831
▁Ntle	-6832
▁Oper	-6833
▁Rand	-6834
▁Stat	-6835
▁abja	-6836
▁alco	-6837
▁bote	-6838
▁dikh	-6839
▁drin	-6840
▁fees	-6841
▁jour	-6842
▁kept	-6843
▁link	-6844
▁loka	-6845
▁mere	-6846
▁mets	-6847
▁pers	-6848
fešene	-6849
otlelo	-6850
pošing	-6851
undred	-6852
▁Botse	-6853
▁Group	-6854
▁House	-6855
▁Impro	-6856
▁Under	-6857
▁avoid	-6858
▁drive	-6859
▁exten	-6860
▁recyc	-6861
▁signs	-6862
▁story	-6863
editšwe	-6864
irelong	-6865
itarian	-6866
laganyo	-6867
osystem	-6868
▁George	-6869
▁Import	-6870
▁Labour	-6871
▁academ	-6872
▁databa	-6873
▁expert	-6874
▁gatiša	-6875
▁hazard	-6876
▁hospit	-6877
▁hwetše	-6878
▁implic	-6879
▁kopane	-6880
▁lekale	-6881
▁letšho	-6882
▁marine	-6883
▁raloka	-6884
▁romele	-6885
▁secure	-6886
▁spirit	-6887
▁temošo	-6888
▁tlatše	-6889
▁tlhamo	-6890
▁ability	-6891
▁comment	-6892
▁culture	-6893
▁dihlogo	-6894
▁dingaka	-6895
▁elected	-6896
▁ganetša	-6897
▁growing	-6898
▁however	-6899
▁matsogo	-6900
▁moemedi	-6901
▁opening	-6902
▁planned	-6903
▁plastic	-6904
▁rwelego	-6905
▁targets	-6906
▁diseases	-6907
▁ditaetšo	-6908
▁mebaraka	-6909
▁mebileng	-6910
▁metšhelo	-6911
▁priority	-6912
▁prosecut	-6913
▁sedumedi	-6914
▁separate	-6915
▁sepelago	-6916
▁Secretary	-6917
▁awareness	-6918
▁bilateral	-6919
▁direction	-6920
▁encourage	-6921
▁hwetšwago	-6922
▁ikgethago	-6923
▁maitapišo	-6924
▁mentioned	-6925
▁ngwadišwa	-6926
▁promotion	-6927
▁temporary	-6928
▁tsošološo	-6929
hoporeišene	-6930
▁processing	-6931
▁statements	-6932
▁strengthen	-6933
▁Mohlomphegi	-6934
▁cooperation	-6935
▁fundamental	-6936
▁involvement	-6937
▁proceedings	-6938
▁ditekanyetšo	-6939
▁tšweleditšwego	-6940
▁recommendations	-6941
50	-6942
DI	-6943
Mo	-6944
col	-6945
cts	-6946
pei	-6947
rus	-6948
▁DS	-6949
▁Ku	-6950
▁Mk	-6951
▁pu	-6952
balo	-6953
ccer	-6954
dson	-6955
esty	-6956
gany	-6957
hind	-6958
keep	-6959
loof	-6960
meng	-6961
pite	-6962
yeng	-6963
zela	-6964
šire	-6965
▁Cla	-6966
▁Dar	-6967
▁Hol	-6968
▁JOC	-6969
▁eth	-6970
▁fav	-6971
▁flu	-6972
▁hor	-6973
▁pab	-6974
▁vul	-6975
▁yun	-6976
bosch	-6977
ilure	-6978
lwane	-6979
potšo	-6980
stone	-6981
urant	-6982
▁Cert	-6983
▁Each	-6984
▁Gate	-6985
▁Khon	-6986
▁KwaM	-6987
▁Modi	-6988
▁Toka	-6989
▁WSDP	-6990
▁bela	-6991
▁code	-6992
▁crow	-6993
▁diho	-6994
▁heav	-6995
▁hlag	-6996
▁lato	-6997
▁mohu	-6998
▁repa	-6999
▁seph	-7000
▁wasn	-7001
▁šala	-7002
belelo	-7003
gatšwa	-7004
ishing	-7005
ngwana	-7006
nology	-7007
unding	-7008
urance	-7009
▁Today	-7010
▁Tšhom	-7011
▁While	-7012
▁adopt	-7013
▁balan	-7014
▁compa	-7015
▁defin	-7016
▁diriš	-7017
▁ditšo	-7018
▁envis	-7019
▁ngaka	-7020
▁nkabe	-7021
▁phase	-7022
▁pheto	-7023
▁porof	-7024
▁quick	-7025
▁remin	-7026
▁saena	-7027
▁sense	-7028
anegelo	-7029
faditše	-7030
hardson	-7031
▁Kaizer	-7032
▁Maatla	-7033
▁Metšhe	-7034
▁Yuropa	-7035
▁assets	-7036
▁behind	-7037
▁corner	-7038
▁dilete	-7039
▁diporo	-7040
▁disput	-7041
▁factor	-7042
▁lokolo	-7043
▁mafula	-7044
▁mpholo	-7045
▁raised	-7046
▁remove	-7047
▁scheme	-7048
▁secret	-7049
▁sports	-7050
▁thwala	-7051
▁tletše	-7052
▁Central	-7053
▁Project	-7054
▁Ramatla	-7055
▁amogele	-7056
▁boditše	-7057
▁dikgomo	-7058
▁ditsebi	-7059
▁koketšo	-7060
▁lekolwa	-7061
▁paballo	-7062
▁potlako	-7063
▁respond	-7064
▁revenue	-7065
▁treated	-7066
▁tsenywa	-7067
▁tshepha	-7068
ciliation	-7069
▁Certific	-7070
▁Melawana	-7071
▁Sekhwama	-7072
▁achieved	-7073
▁analysis	-7074
▁articles	-7075
▁badiredi	-7076
▁download	-7077
▁entitled	-7078
▁kgopetše	-7079
▁metsotso	-7080
▁recorded	-7081
▁teachers	-7082
▁Authority	-7083
▁bolelwago	-7084
▁dikgatišo	-7085
▁laeditšwe	-7086
▁religious	-7087
▁tlhahlobo	-7088
▁tokumente	-7089
▁transform	-7090
▁tsebegago	-7091
▁Richardson	-7092
▁appliances	-7093
▁electronic	-7094
▁evaluation	-7095
▁mebasepala	-7096
▁accompanied	-7097
▁effectively	-7098
▁individuals	-7099
▁regulations	-7100
▁tšhilafatšo	-7101
▁undertaking	-7102
▁conservation	-7103
▁intellectual	-7104
▁lebeletšwego	-7105
▁stakeholders	-7106
▁documentation	-7107
EN	-7108
cro	-7109
dal	-7110
dle	-7111
san	-7112
sen	-7113
▁18	-7114
▁Sm	-7115
ames	-7116
anga	-7117
arth	-7118
hana	-7119
hwal	-7120
ingu	-7121
koti	-7122
lemo	-7123
oned	-7124
orms	-7125
pola	-7126
rago	-7127
rain	-7128
reke	-7129
weni	-7130
šana	-7131
▁Cap	-7132
▁His	-7133
▁Jan	-7134
▁Lib	-7135
▁Lim	-7136
▁Maf	-7137
▁Web	-7138
▁der	-7139
▁jur	-7140
▁kit	-7141
▁pip	-7142
▁syn	-7143
▁tlh	-7144
itude	-7145
rance	-7146
▁More	-7147
▁Taba	-7148
▁born	-7149
▁else	-7150
▁fear	-7151
▁feel	-7152
diture	-7153
entshi	-7154
galong	-7155
uranta	-7156
uthupi	-7157
▁Board	-7158
▁Mahla	-7159
▁Panka	-7160
▁Plain	-7161
▁Point	-7162
▁Table	-7163
▁boita	-7164
▁bonwe	-7165
▁dikat	-7166
▁evalu	-7167
▁leeto	-7168
▁legae	-7169
▁lwela	-7170
▁phone	-7171
▁price	-7172
▁resta	-7173
▁sales	-7174
▁train	-7175
▁utswa	-7176
peletšo	-7177
▁Ditaba	-7178
▁Ditlha	-7179
▁Samiti	-7180
▁Social	-7181
▁affirm	-7182
▁almost	-7183
▁effort	-7184
▁lokile	-7185
▁metses	-7186
▁normal	-7187
▁racial	-7188
▁rubber	-7189
▁saense	-7190
▁states	-7191
dingwana	-7192
▁Captain	-7193
▁Defence	-7194
▁Officer	-7195
▁Reserve	-7196
▁Stadium	-7197
▁constit	-7198
▁dikgato	-7199
▁dikhopi	-7200
▁eletšwa	-7201
▁mahlale	-7202
▁receipt	-7203
▁release	-7204
▁thabile	-7205
▁tsebaga	-7206
editšwego	-7207
hihlelelo	-7208
šireletši	-7209
▁Lekgotla	-7210
▁contains	-7211
▁dintlong	-7212
▁disposal	-7213
▁division	-7214
▁hlatloša	-7215
▁kgathago	-7216
▁mabopong	-7217
▁sebakeng	-7218
▁tlhalošo	-7219
government	-7220
▁Bohlabela	-7221
▁boetapele	-7222
▁confirmed	-7223
▁ecosystem	-7224
▁kholofelo	-7225
▁lebenkele	-7226
▁mafapheng	-7227
▁dikarolong	-7228
▁hweditšego	-7229
▁introduced	-7230
▁mpshafatša	-7231
▁scientific	-7232
▁Ramatlakane	-7233
▁advertising	-7234
▁enterprises	-7235
▁ngwadilwego	-7236
▁operational	-7237
▁dikhemikhale	-7238
▁increasingly	-7239
▁installation	-7240
▁rulagantšwego	-7241
▁transformation	-7242
AN	-7243
AR	-7244
▁)	-7245
bre	-7246
dge	-7247
hed	-7248
hum	-7249
kie	-7250
out	-7251
rey	-7252
ubs	-7253
▁13	-7254
▁Mc	-7255
▁Of	-7256
▁Vi	-7257
Kapa	-7258
ball	-7259
hand	-7260
hosa	-7261
iter	-7262
itis	-7263
ival	-7264
lama	-7265
mare	-7266
prof	-7267
ques	-7268
ulum	-7269
ways	-7270
weto	-7271
zing	-7272
▁Cir	-7273
▁ICC	-7274
▁Ses	-7275
▁Squ	-7276
▁Thi	-7277
▁Thu	-7278
▁Use	-7279
▁Uys	-7280
▁Val	-7281
▁boa	-7282
▁die	-7283
▁dig	-7284
▁fit	-7285
▁gon	-7286
gates	-7287
ghted	-7288
ijing	-7289
istry	-7290
kolla	-7291
ories	-7292
▁Bora	-7293
▁EMIA	-7294
▁John	-7295
▁SMME	-7296
▁emer	-7297
▁esca	-7298
▁itek	-7299
▁kgan	-7300
▁mene	-7301
▁phar	-7302
▁room	-7303
▁show	-7304
▁whom	-7305
▁wind	-7306
magadi	-7307
orship	-7308
utlele	-7309
▁Audit	-7310
▁Namib	-7311
▁Thušo	-7312
▁agent	-7313
▁carry	-7314
▁daily	-7315
▁dirwe	-7316
▁expen	-7317
▁faith	-7318
▁glass	-7319
▁kgase	-7320
▁lahla	-7321
▁landf	-7322
▁makga	-7323
▁motha	-7324
▁north	-7325
▁occas	-7326
▁owner	-7327
▁posts	-7328
▁quite	-7329
▁rekiš	-7330
▁satis	-7331
diction	-7332
ishment	-7333
kanyana	-7334
otshwao	-7335
▁Badudi	-7336
▁Kgetho	-7337
▁Meyara	-7338
▁Region	-7339
▁Soweto	-7340
▁afford	-7341
▁bolele	-7342
▁decide	-7343
▁double	-7344
▁fertil	-7345
▁honour	-7346
▁indeed	-7347
▁lebake	-7348
▁marega	-7349
▁online	-7350
▁really	-7351
▁reserv	-7352
▁sesole	-7353
ferences	-7354
hwalithi	-7355
ibesithi	-7356
ithušene	-7357
▁Beijing	-7358
▁boemedi	-7359
▁calling	-7360
▁extreme	-7361
▁fokotše	-7362
▁latelwa	-7363
▁managed	-7364
▁menwana	-7365
▁minutes	-7366
▁morwalo	-7367
▁players	-7368
▁rekišwa	-7369
▁setting	-7370
▁streets	-7371
▁tokollo	-7372
▁benefici	-7373
▁director	-7374
▁elements	-7375
▁hlatsela	-7376
▁incorpor	-7377
▁katološa	-7378
▁monagano	-7379
▁proposed	-7380
▁sekaseka	-7381
▁twantšho	-7382
▁Mokaptene	-7383
▁bophodisa	-7384
▁demokrasi	-7385
▁hazardous	-7386
▁moetapele	-7387
▁nominated	-7388
▁operating	-7389
▁porofense	-7390
▁sehlongwa	-7391
▁solutions	-7392
▁stability	-7393
▁Bahlankedi	-7394
▁University	-7395
▁accredited	-7396
▁connection	-7397
▁recognised	-7398
▁confiscated	-7399
▁ditatofatšo	-7400
▁educational	-7401
▁lepatlelong	-7402
▁accommodation	-7403
▁administrative	-7404
HE	-7405
MO	-7406
my	-7407
arl	-7408
fin	-7409
fur	-7410
gro	-7411
ife	-7412
teg	-7413
ump	-7414
▁CK	-7415
▁Mb	-7416
▁Ny	-7417
▁vo	-7418
andi	-7419
ania	-7420
bare	-7421
cket	-7422
helo	-7423
hile	-7424
lick	-7425
pišo	-7426
popo	-7427
ties	-7428
urch	-7429
veld	-7430
wadi	-7431
weke	-7432
šaba	-7433
▁Ann	-7434
▁Koe	-7435
▁Mic	-7436
▁Per	-7437
▁Rev	-7438
▁bla	-7439
▁dee	-7440
▁mom	-7441
▁sun	-7442
engwa	-7443
ginal	-7444
hlobi	-7445
itage	-7446
logue	-7447
pects	-7448
polit	-7449
tshek	-7450
ulong	-7451
water	-7452
yable	-7453
▁Dith	-7454
▁Free	-7455
▁From	-7456
▁Khan	-7457
▁Most	-7458
▁Seis	-7459
▁Thom	-7460
▁aler	-7461
▁bobe	-7462
▁capt	-7463
▁cust	-7464
▁deep	-7465
▁difa	-7466
▁fast	-7467
▁goal	-7468
▁khut	-7469
▁mile	-7470
▁sefa	-7471
▁stay	-7472
▁tend	-7473
▁thus	-7474
genous	-7475
gister	-7476
lusion	-7477
tlotlo	-7478
▁First	-7479
▁Ident	-7480
▁baabi	-7481
▁built	-7482
▁dutše	-7483
▁hlaga	-7484
▁homes	-7485
▁ikana	-7486
▁ready	-7487
▁remar	-7488
▁setla	-7489
▁shows	-7490
▁spect	-7491
▁spons	-7492
▁units	-7493
ontraka	-7494
velling	-7495
▁Dikolo	-7496
▁Ditona	-7497
▁Leloko	-7498
▁System	-7499
▁akanya	-7500
▁behavi	-7501
▁bogare	-7502
▁botšho	-7503
▁civili	-7504
▁exists	-7505
▁expand	-7506
▁facing	-7507
▁hlakan	-7508
▁keteka	-7509
▁legacy	-7510
▁liquid	-7511
▁needed	-7512
▁patrol	-7513
▁phones	-7514
▁poloko	-7515
▁prison	-7516
▁routes	-7517
▁screen	-7518
▁tabeng	-7519
▁worked	-7520
▁šomile	-7521
tshekong	-7522
šongwana	-7523
▁alcohol	-7524
▁bahloki	-7525
▁decided	-7526
▁earlier	-7527
▁entered	-7528
▁ongoing	-7529
▁pattern	-7530
▁phetolo	-7531
▁reading	-7532
▁reduced	-7533
▁tiilego	-7534
▁trained	-7535
▁visited	-7536
jalebjale	-7537
utleleara	-7538
▁Children	-7539
▁Investig	-7540
▁Matlotlo	-7541
▁Province	-7542
▁Tšhelete	-7543
▁assisted	-7544
▁bašomiši	-7545
▁consists	-7546
▁consolid	-7547
▁indicate	-7548
▁mengwako	-7549
▁mollwane	-7550
▁operates	-7551
▁patients	-7552
komišenare	-7553
▁Constable	-7554
▁Tšweletša	-7555
▁assaulted	-7556
▁correspon	-7557
▁diragatša	-7558
▁employers	-7559
▁ingwadiši	-7560
▁marketing	-7561
▁ourselves	-7562
▁reporting	-7563
▁something	-7564
▁tahlegelo	-7565
▁utswitšwe	-7566
inspekthara	-7567
▁boipiletšo	-7568
▁boithomelo	-7569
▁bonagalago	-7570
▁compliance	-7571
▁passengers	-7572
▁poledišano	-7573
▁Association	-7574
▁Directorate	-7575
▁kgonthišiša	-7576
▁lebeletšego	-7577
▁particulars	-7578
▁Motlatšatona	-7579
▁specifically	-7580
▁Molaokakanywa	-7581
▁determination	-7582
▁disadvantaged	-7583
24	-7584
IR	-7585
VD	-7586
pu	-7587
zz	-7588
Afr	-7589
ala	-7590
bas	-7591
dio	-7592
hlu	-7593
icy	-7594
iza	-7595
kho	-7596
kwe	-7597
mot	-7598
nce	-7599
pir	-7600
syc	-7601
vat	-7602
▁CM	-7603
▁IT	-7604
▁ši	-7605
body	-7606
dequ	-7607
falo	-7608
gatš	-7609
gree	-7610
hize	-7611
idoo	-7612
itch	-7613
jala	-7614
lock	-7615
sebi	-7616
tšhu	-7617
šoba	-7618
▁DRC	-7619
▁Hot	-7620
▁Lou	-7621
▁Mad	-7622
▁Meb	-7623
▁Was	-7624
▁fis	-7625
▁sou	-7626
▁squ	-7627
▁ven	-7628
▁via	-7629
abled	-7630
cific	-7631
cribe	-7632
dered	-7633
eledi	-7634
enior	-7635
hloko	-7636
išišo	-7637
oured	-7638
prise	-7639
stiki	-7640
▁1996	-7641
▁Inde	-7642
▁Kgat	-7643
▁Paul	-7644
▁Sund	-7645
▁bots	-7646
▁difo	-7647
▁dima	-7648
▁enqu	-7649
▁fiwe	-7650
▁fore	-7651
▁half	-7652
▁hudu	-7653
▁malo	-7654
▁mort	-7655
▁pona	-7656
▁pool	-7657
▁roof	-7658
▁sear	-7659
▁sets	-7660
▁shot	-7661
▁symp	-7662
▁tell	-7663
ancies	-7664
ganywa	-7665
immogo	-7666
lakwat	-7667
leleng	-7668
mongwe	-7669
nagalo	-7670
rating	-7671
stroom	-7672
utwana	-7673
▁Bloem	-7674
▁SANDF	-7675
▁Stand	-7676
▁apolo	-7677
▁assum	-7678
▁autom	-7679
▁credi	-7680
▁dikom	-7681
▁gweba	-7682
▁hlako	-7683
▁inspe	-7684
▁kotlo	-7685
▁links	-7686
▁lokiš	-7687
▁match	-7688
▁motse	-7689
▁music	-7690
▁phošo	-7691
▁putla	-7692
▁senye	-7693
▁subsi	-7694
▁thekg	-7695
▁toile	-7696
▁tsebj	-7697
▁types	-7698
▁unlic	-7699
▁urged	-7700
essions	-7701
ilities	-7702
viation	-7703
▁Darfur	-7704
▁Employ	-7705
▁Engine	-7706
▁Naidoo	-7707
▁Russia	-7708
▁Senior	-7709
▁advice	-7710
▁copper	-7711
▁dikhon	-7712
▁ditšwe	-7713
▁engage	-7714
▁giving	-7715
▁handed	-7716
▁latest	-7717
▁lebana	-7718
▁lebopo	-7719
▁listed	-7720
▁modern	-7721
▁moyeng	-7722
▁soccer	-7723
▁symbol	-7724
▁vulner	-7725
labakelo	-7726
▁Coastal	-7727
▁Dikgoro	-7728
▁bahlano	-7729
▁basenyi	-7730
▁bokaone	-7731
▁changed	-7732
▁clearly	-7733
▁defined	-7734
▁deliber	-7735
▁dignity	-7736
▁follows	-7737
▁greater	-7738
▁hlolago	-7739
▁holding	-7740
▁hundred	-7741
▁lefelwa	-7742
▁lefelwe	-7743
▁network	-7744
▁phapano	-7745
▁phelago	-7746
▁romelwe	-7747
▁testing	-7748
▁Mekgatlo	-7749
▁Peakanyo	-7750
▁bannyane	-7751
▁bošegong	-7752
▁clothing	-7753
▁diphahlo	-7754
▁domestic	-7755
▁identify	-7756
▁lekaleng	-7757
▁palomoka	-7758
▁reducing	-7759
▁thušitše	-7760
▁tšwetšwa	-7761
▁Australia	-7762
▁Transport	-7763
▁behaviour	-7764
▁buildings	-7765
▁dedicated	-7766
▁kgethilwe	-7767
▁robberies	-7768
▁supported	-7769
▁tsošološa	-7770
▁Conference	-7771
▁bontšhitše	-7772
▁bulegilego	-7773
▁complaints	-7774
▁ditikologo	-7775
▁governance	-7776
▁kgotlelelo	-7777
▁mechanisms	-7778
▁phethagatš	-7779
▁sethekniki	-7780
▁sufficient	-7781
▁thulaganyo	-7782
▁unlicensed	-7783
▁engineering	-7784
▁expenditure	-7785
▁tšweletšago	-7786
▁hwetšagalago	-7787
▁sebjalebjale	-7788
▁investigating	-7789
▁tirišanommogo	-7790
20	-7791
dri	-7792
fts	-7793
kei	-7794
lot	-7795
oni	-7796
vin	-7797
▁DE	-7798
▁IN	-7799
▁Mu	-7800
▁SD	-7801
▁TV	-7802
▁cy	-7803
ader	-7804
aete	-7805
dist	-7806
dorp	-7807
gate	-7808
idav	-7809
kgot	-7810
pret	-7811
sedi	-7812
urea	-7813
well	-7814
▁Air	-7815
▁Bro	-7816
▁Dim	-7817
▁Gol	-7818
▁RSA	-7819
▁bid	-7820
▁bre	-7821
▁kla	-7822
▁lif	-7823
▁pac	-7824
along	-7825
emane	-7826
epong	-7827
erior	-7828
eterm	-7829
eters	-7830
fetše	-7831
inant	-7832
kages	-7833
khete	-7834
risis	-7835
▁2000	-7836
▁Also	-7837
▁Dipe	-7838
▁Fire	-7839
▁Maba	-7840
▁Prom	-7841
▁Stud	-7842
▁acts	-7843
▁alum	-7844
▁aman	-7845
▁bara	-7846
▁bofe	-7847
▁dike	-7848
▁fulf	-7849
▁modu	-7850
▁sera	-7851
▁spat	-7852
▁stab	-7853
▁step	-7854
▁surv	-7855
▁wife	-7856
▁word	-7857
▁šele	-7858
cepted	-7859
cmdAfr	-7860
išetša	-7861
koloko	-7862
ternal	-7863
tšhila	-7864
unting	-7865
▁Facil	-7866
▁Thank	-7867
▁board	-7868
▁bound	-7869
▁catch	-7870
▁circu	-7871
▁degra	-7872
▁depen	-7873
▁exclu	-7874
▁hlase	-7875
▁motla	-7876
▁parks	-7877
▁scene	-7878
▁study	-7879
▁unity	-7880
kaganyo	-7881
letlong	-7882
olution	-7883
▁Christ	-7884
▁Strate	-7885
▁Toropo	-7886
▁bodies	-7887
▁branch	-7888
▁difoka	-7889
▁finger	-7890
▁hlatlo	-7891
▁kemedi	-7892
▁mahala	-7893
▁	-7894
e	-7895
a	-7896
o	-7897
t	-7898
i	-7899
l	-7900
n	-7901
s	-7902
r	-7903
g	-7904
h	-7905
d	-7906
m	-7907
k	-7908
b	-7909
p	-7910
š	-7911
u	-7912
w	-7913
c	-7914
y	-7915
f	-7916
.	-7917
,	-7918
v	-7919
M	-7920
T	-7921
A	-7922
S	-7923
j	-7924
C	-7925
B	-7926
D	-7927
-	-7928
I	-7929
P	-7930
K	-7931
G	-7932
R	-7933
N	-7934
E	-7935
x	-7936
L	-7937
O	-7938
W	-7939
q	-7940
H	-7941
F	-7942
'	-7943
z	-7944
1	-7945
:	-7946
U	-7947
;	-7948
0	-7949
V	-7950
J	-7951
2	-7952
"	-7953
9	-7954
Y	-7955
?	-7956
Z	-7957
3	-7958
6	-7959
5	-7960
4	-7961
8	-7962
7	-7963
/	-7964
(	-7965
)	-7966
―	-7967
Q	-7968
Š	-7969
X	-7970
–	-7971
[	-7972
]	-7973
#	-7974
’	-7975
“	-7976
”	-7977
@	-7978
&	-7979
!	-7980
‘	-7981
é	-7982
$	-7983
`	-7984
+	-7985
è	-7986
%	-7987
*	-7988
=	-7989
^	-7990
ë	-7991
ö	-7992
<	-7993
\	-7994
ï	-7995
—	-7996
