#version: 0.2
e r
i n
e n
a n
d i
t h
o r
o n
t i
e s
a r
l i
t e
in g</w>
r e
s i
a n</w>
di e</w>
o f</w>
r o
th e</w>
i s
o u
m en
e n</w>
t e</w>
a a
e s</w>
e l
o n</w>
v er
a l</w>
a l
e r</w>
o m
men t</w>
v an</w>
o r</w>
e i
i n</w>
i c
an d</w>
i t
g e
a ti
t r
e g
i s</w>
l a
a t</w>
e t
c i
a p
u n
u r
d e
o o
t o</w>
p ro
t er
e t</w>
v i
in g
s e</w>
d e</w>
l e
a si
r i
s t
v o
o u</w>
p ar
' n</w>
l e</w>
b e
D i
a t
R eg
d er
v in
e d</w>
g h
u i
ati on</w>
s p
o ver
k e</w>
D e
s k
W es
over n
e c
er ing</w>
a c
a s</w>
u l
ou r
overn ment</w>
T h
u s
P ro
e k
w or
a s
e m
0 0
G overnment</w>
o p
al e</w>
i l
c on
f or</w>
a g
c h
t o
u b
Reg ering</w>
p er
ou r</w>
o m</w>
te i
a m
a an
om e</w>
u is
b la
a f
Th e</w>
De par
m o
l o
Pro vin
a ar
w at</w>
ar e</w>
vi r</w>
H ome</w>
C ap
ati on
2 00
T uis
a te
= =
bla d</w>
Tuis blad</w>
an d
li tei
ti es</w>
p o
s o
a b
b es
t s</w>
0 2
c e</w>
a d
Di e</w>
om m
Cap e</w>
s te
K aa
p a
n i
h o
t u
c h</w>
ci al</w>
f or
b r
b y</w>
ti on</w>
h oo
u r</w>
t h</w>
m a
ub li
v e</w>
r es
t re
ei d</w>
it y</w>
m e
t w
re g
en tr
g r
i d
i k
on d
e d
A f
g e</w>
ei gh
e l</w>
W at
t or
er v
er s</w>
b our
J ou</w>
a ci
hoo d</w>
eigh bour
eighbour hood</w>
n o
N eighbourhood</w>
aci li
l y</w>
en s
o p</w>
Y our</w>
ter n</w>
en t</w>
o or
p or
b e</w>
w h
li ke</w>
wor d</w>
ing s
d o
w er
Kaa p
Wes tern</w>
a an</w>
t y</w>
litei te</w>
a k
u m
t ment</w>
acili ties</w>
erv ic
Wes -
t ing</w>
n e
w e
aa r</w>
f i
te r</w>
asi liteite</w>
si ale</w>
F acilities</w>
02 1</w>
f f
F asiliteite</w>
ei d
g es
Depar tment</w>
ar y</w>
T E
w y
I n
d u
re c
vo or
h e
e k</w>
h i
M un
a te</w>
con t
p l
is tr
P ubli
vo l
g en
Wat ch</w>
w it
i es</w>
e ,</w>
te ment</w>
mo et</w>
o l
L I
E N
th at</w>
g el
pro vin
k an</w>
ic i
e .</w>
es e</w>
ti on
Provin siale</w>
e en
u it
Provin cial</w>
v el
ge w
Kaap se</w>
wit h</w>
s u
t s
m in
m et</w>
== ==
b i
es s</w>
O n
ap p
m i
I N
E R
L i
e x
y ou</w>
h a
on der
en b
Wes- Kaapse</w>
s ti
m e</w>
a i
il l</w>
r ic
omm un
te d</w>
de ur</w>
h ou
per s
li c
ou th</w>
l aa
ur e</w>
for m
w e</w>
e ar
er s
i si
t y
ation al</w>
Depar tement</w>
li g
S ervic
wor d
i m
u m</w>
p e
s tr
us t</w>
li ty</w>
Publi c</w>
Li br
k om
ou n
c om
li gh
n ing</w>
s e
b er
s t</w>
c al</w>
d er</w>
t a
ni e</w>
d ing</w>
E n
ing s</w>
r a
T o
entr e</w>
et y</w>
M o
sk ap
ac t</w>
du c
w ill</w>
E S
b et
si e</w>
men t
ei ligh
S outh</w>
vel op
w et
d at</w>
th er</w>
ate d</w>
. z
h et</w>
S I
af ety</w>
C entre</w>
A N
Af ric
ommun ity</w>
l eg
g i
l an
em b
u ur
m s</w>
Mun ici
0 0</w>
m ust</w>
s al</w>
e p
u s</w>
h eid</w>
en s</w>
asi on
ar i
j y</w>
or g
eiligh eid</w>
e h
ri k
as s
er die</w>
ui d
S afety</w>
th is</w>
h ul
ens te</w>
d a
1 9
asi e</w>
g o
t or</w>
s ,</w>
Libr ary</w>
v or
h er
s .</w>
.z a</w>
l in
r aa
por t</w>
en de</w>
ation s</w>
r y
bes k
q u
s ub
pers on</w>
g er
aa t</w>
rec tor
velop ment</w>
P A
ag e</w>
o or</w>
li k</w>
asion ale</w>
j ou</w>
sti tu
C ommunity</w>
u p
wer k
y our</w>
- -
Ã «
s y</w>
pa lity</w>
al l</w>
c an</w>
w i
l u
Servic es</w>
Di rector
isi pa
s like</w>
p le
m un
es i
k el
On der
v en
ha ve</w>
an y</w>
B o
' s</w>
no t</w>
hi erdie</w>
sp e
our is
in di
i c</w>
n a</w>
f ro
enb are</w>
fro m</w>
en i
V er
Af rik
Munici pality</w>
uid -
b el
a d</w>
litei t</w>
us in
m aa
on s</w>
t en
t ,</w>
ff ic
w w
m an
S ec
di t</w>
ch oo
O p
T I
tw ik
r an
is ter
w as</w>
li s
sp or
b o
so ek</w>
p res
an ce</w>
w aar
ui t</w>
skap s
L o
p ubli
ri v
er ti
um s</w>
l y
Director ies</w>
te l
isipa liteit</w>
s ervic
al th</w>
ab le</w>
cont act</w>
==== ====
e f
h as</w>
eh ic
G em
aa l</w>
ma y</w>
et ,</w>
word .</w>
u g
s ec
T ouris
q ui
es .</w>
c o
Gem een
O V
eid s
ac c
en ce</w>
on t
in c
v an
re t
S uid-
i t</w>
on e</w>
w n</w>
A d
der s</w>
wy s
S ek
twik kel
j ec
ag te</w>
M EN
I C
l s</w>
to t</w>
O R
Gemeen skaps
0 1
tion s</w>
n ational</w>
er e</w>
wh ic
ver k
h an
a u
oo k</w>
vo er
usin ess</w>
s el
s y
si on</w>
T R
f un
Suid- Afrik
De velopment</w>
w a
whic h</w>
omm is
Lo cal</w>
u re
ch es</w>
besk ik
P laa
ing ,</w>
uur tw
s o</w>
p re
i f</w>
ou t</w>
n b
ehic le</w>
e v
beskik b
t ure</w>
Plaa slike</w>
p la
n e</w>
L ear
te s</w>
mi t</w>
d aar
B uurtw
el e</w>
w et</w>
Wat ches</w>
spe ci
Buurtw agte</w>
nb sp
& nbsp
U N
en d
S tre
P L
g n
n asionale</w>
O N
id se</w>
hul le</w>
H o
Op enbare</w>
l d</w>
o ther</w>
pro gr
es ,</w>
G idse</w>
A c
t ui
P re
Lear ning</w>
leg is
th or
pro vi
wet gew
and er</w>
g ro
th e
D E
Ã ª
u c
it s</w>
al ly</w>
a ge
P ar
Touris m</w>
app lic
Kaa p</w>
m on
w an
k o
is :</w>
d aa
E duc
form ation</w>
ste l
de par
a in
A p
f in
tu ur</w>
b ur
fi ed</w>
Bo x</w>
en t
s h
n et</w>
entr ums</w>
Mun isipaliteit</w>
k en
A l
S A
R E
es s
c es</w>
i e
lo w
pl an
vi r
lig ting</w>
ver s
k e
d s</w>
is daa
d r
en ti
w ar
erti f
Afric a</w>
sk a
si on
D I
ret ari
n em
br ui
a v
Mo tor</w>
V ehicle</w>
H e
A L</w>
R o
MEN T</w>
si es</w>
d es</w>
ti ve</w>
en tre
M UN
B a
eni ge</w>
in ge
el l
b u
in ter
h and
Wes- Kaap</w>
wh o</w>
200 4</w>
v eiligheid</w>
e :</w>
spor t</w>
Educ ation</w>
n u
ai r
tu ur
is ,</w>
b er</w>
di g</w>
wy s</w>
e )</w>
li k
is ter</w>
A A
si en</w>
1 2
b le</w>
F A
po li
p r
C ri
ni e.</w>
b y
a .
asi es</w>
s te</w>
a ke</w>
M isdaa
B e
or e</w>
g ing</w>
sp it
k on
e m</w>
e -
de d</w>
m ar
id ent</w>
C on
di enste</w>
an is
P O</w>
Kaap st
k el</w>
me di
inc lu
et s
l ing</w>
i te
hou d</w>
f ol
i e</w>
V eiligheid</w>
k in
c oun
3 0</w>
beskikb aar
TE I
â 
re k
e de</w>
Di enste</w>
B usiness</w>
reg istr
y ,</w>
Cri me</w>
ei r</w>
s aa
g a
T el
vol gen
Gemeenskaps veiligheid</w>
ul t</w>
do en</w>
b in
19 9
on twikkel
o te
es t
com p
P o
th eir</w>
To wn</w>
G e
IN G</w>
S choo
Onder wys
entr um</w>
men ts</w>
m ing</w>
d el
a li
A u
y s</w>
Stre et,</w>
vo er</w>
PA LI
u d
S t
res p
la st</w>
h el
R i
tui g
k ing</w>
al so</w>
in f
am p
aa l
d .</w>
ffic e</w>
En gel
f er
0 4
bla d
& g
fol low
di s
P lan
publi c</w>
is .</w>
aan soek</w>
C I
provin cial</w>
Engel s</w>
-- --
u l</w>
TE :</w>
emb er</w>
ond h
stitu tion</w>
a se</w>
M I
beskikbaar )</w>
P R
e f</w>
( net</w>
k r
f air
ar ti
tei t</w>
sy ste
cont ent</w>
c u
c ap
am e</w>
pe :</w>
p age</w>
d ated</w>
b li
progr am
4 8
blad sy</w>
in houd</w>
he de</w>
der ing</w>
ch il
I f</w>
Di t</w>
200 6</w>
w n
f e
00 0</w>
legis l
Au thor
per mit</w>
indi en</w>
wi th
her sien</w>
go v
ur al</w>
po s
M in
up dated</w>
p d
M e
re d</w>
ad min
M an
G es
i le</w>
laa s</w>
for m</w>
d ,</w>
v er</w>
Tel :</w>
provin siale</w>
be en</w>
m is
He alth</w>
1 1
eid ing</w>
al s</w>
s ing</w>
an t</w>
w .
su p
C entre
200 5</w>
us e
( F
al le</w>
u se</w>
m ore</w>
ci l</w>
a .</w>
B E
te l</w>
c our
G r
pd f
ister ing</w>
C h
in ligting</w>
m it
in formation</w>
es t</w>
er de</w>
lo g
an g
S TR
B )</w>
p lo
gr ond
ge brui
ww w.
ter ms</w>
bi o
ar e
ou s</w>
O F</w>
tr an
B O
word ,</w>
ul t
u k
te m
sec tion</w>
ge me
ber g</w>
d esi
tr i
r e</w>
a r</w>
W or
Kaapst ad</w>
age ment</w>
e w
fair s</w>
ska p</w>
en ts</w>
Reg istering</w>
a m</w>
Th is</w>
S tr
L O
B i
voor kom
A N</w>
so ek
pl aa
T H
p ri
plo y
ing .</w>
ro u
======== ========
ho or
di en</w>
T ran
wer k</w>
er is
I D
wor k
pro c
A s</w>
i on
er .</w>
D istr
1 0
gov .za</w>
ge v
th an</w>
pdf ;</w>
maa k</w>
b eg
A r
or d
PL AN
org anis
tion al</w>
V o
per so
Af fairs</w>
s ek
k an
ic al</w>
bli ote
Suid-Afrik a</w>
oor een
volgen de</w>
ek te</w>
raa d</w>
le d</w>
j aar</w>
Y ou</w>
arti kel</w>
Ad ult</w>
l and
ge b
g ,</w>
b en
E N</w>
â </w>
y .</w>
riv ate</w>
s :</w>
ment al</w>
A L
d et
me er</w>
vir on
a ,</w>
di ens</w>
N ational</w>
ge bi
de el
R e
ES :</w>
oo s</w>
depar tement</w>
ri gh
in e</w>
es ti
an c
legisl ation</w>
e we</w>
H I
wetgew ing</w>
er ,</w>
ar ies</w>
S w
s el</w>
et ro
K E</w>
0 8
C our
p er</w>
ondh eids
1 0</w>
A R
l and</w>
Centre s</w>
i ese</w>
fi c</w>
po si
hand el
om ic</w>
Ap p
ver sk
si z
he alth</w>
E S</w>
OV ER
ven tion</w>
gn ed</w>
e ff
ate r</w>
E con
ty pe:</w>
(F ile</w>
tr a
op le</w>
servic e</w>
ond er</w>
ate s</w>
aan se</w>
w el
ac h</w>
vol ge</w>
sk app
men se</w>
re e
vor m</w>
pro j
; &g
;&g t
&nbsp ;&gt
be d
PA R
Afric an</w>
A n
te n</w>
s oos</w>
Reg istr
geme en
bes tuur</w>
s l
jec t</w>
. gov.za</w>
&nbsp ;</w>
ed s</w>
; &nbsp;</w>
&nbsp;&gt ;&nbsp;</w>
t .</w>
ar d</w>
te en
ur ity</w>
we b
to ets
ni e,</w>
ate g
re e</w>
f o
V I
es ting</w>
ab i
U R
ver an
n um
applic ation</w>
K B)</w>
lin ic</w>
en ing</w>
el ec
H O
vi l
ond heid</w>
ges k
1 3
di g
M use
speci fied</w>
S ta
ate gi
aa ts
Ã «</w>
ter s</w>
p al</w>
admin istr
pro duc
di ge</w>
ad ,</w>
ur i
. co
e ke</w>
inge volge</w>
I n</w>
tu re
n ers</w>
il li
e er</w>
7 5
. a.
p h
S port</w>
follow ing</w>
Schoo l</w>
O pl
nu we</w>
) ,</w>
T O
u st
T Y</w>
su ch</w>
servic es</w>
por t
DE PAR
Bi bliote
y n
s choo
perso on</w>
C ity</w>
Author ity</w>
ter i
em ploy
1 5
ings entrum</w>
en c
re qui
oo d
siz e:</w>
ne er</w>
el d</w>
e qui
c ations</w>
te c
A an
tw oor
syste ms</w>
gebrui k</w>
Tran sport</w>
Ã ª</w>
l ar
Vo er
n o</w>
M etro
s es</w>
uri teit</w>
id enti
1 6
) .</w>
ooreen kom
ion al</w>
04 4</w>
y ear
ne w</w>
ma g</w>
v es</w>
on ly</w>
an g</w>
G I
B ure
the y</w>
g overnment</w>
c ri
M a
si g
N o
mun ici
ertif ic
retari aat</w>
ne ed</w>
Voer tuig
T ra
le c
d at
a st
7 6
MUN I
ult ural</w>
lig t
1 5</w>
v al
i ties</w>
wh en</w>
v e
sk ri
re fer
fi r
R es
1 2</w>
i r
Sek uriteit</w>
N asionale</w>
C or
is tre
e en</w>
th er
o ff
Onderwys departement</w>
be p
Sek retariaat</w>
S E
ho spit
de el</w>
Sta d</w>
.co .za</w>
do k
daar die</w>
App lic
te k
To eris
B I
equi p
d voorkom
d aar</w>
ste l</w>
J y</w>
toets st
m er
at ing</w>
Misdaa dvoorkom
7 8
o b
le de</w>
en .</w>
200 7</w>
st and
pres ident</w>
Voertuig toetsst
Misdaadvoorkom ingsentrum</w>
resp on
o s
do el
as t</w>
Sec urity</w>
B es
4 6
u la
mi er</w>
2 0</w>
oo l</w>
h et
02 3</w>
with in</w>
L a
C oun
ontwikkel ing</w>
b re
as si
an s</w>
ai la
M r</w>
Econ omic</w>
P res
v ed</w>
retari at</w>
m id
H i
3 4
st re
av aila
to eg
P rivate</w>
lo gi
is su
MUN IC
L ic
Gr ond
v ing</w>
ic t</w>
hou ld</w>
V ol
for e</w>
pe ople</w>
k ke</w>
fun c
ab in
w aar</w>
or i
e g</w>
ap pro
Sec retariat</w>
vi er</w>
fin an
TH E</w>
E M
vo or</w>
n a
MUNIC I
y e
veran twoor
in v
g er</w>
b ui
MUNI SI
par ti
b le
ver y</w>
k ,</w>
en si
c omm
W h
n ame</w>
i es
M ar
01 2</w>
de velopment</w>
aa t
m emb
equip ment</w>
de lik</w>
IN G
sp ec
oo l
hel p</w>
ge t</w>
el ke</w>
6 9
en d</w>
desi gned</w>
con s
k asies</w>
il l
de l</w>
ak e
1 3</w>
ertif ik
di gh
d or
O ffice</w>
ul ture</w>
p ale</w>
ga dering</w>
ec u
cont ro
ati ve</w>
Suid-Afrik aanse</w>
si ble</w>
I t</w>
AN D</w>
ti ce</w>
af ter</w>
viron mental</w>
le ar
Reg ional</w>
A P
Ã ©</w>
l ei
is e</w>
ges ondheids
on te
n aa
k un
isi pale</w>
h ou</w>
emb ly</w>
S o
wor k</w>
r as
af f
Ver voer</w>
1 4</w>
u p</w>
d an
Di ens
ed .</w>
uit voer
tuur s
g aan</w>
a g</w>
Pre vention</w>
s hould</w>
g .</w>
En ti
200 3</w>
0 1</w>
inclu ding</w>
bin ne</w>
2 2
1 1</w>
Publi cations</w>
On twikkel
aan soek
Publi kasies</w>
A s
1 4
num ber</w>
la g</w>
k .</w>
j o
gen e
e der
S T
C linic</w>
k s</w>
ger eg
P r
tran s
ch em
S k
u n</w>
t ak
ommis sie</w>
maa t
V oor
Ba g</w>
wa ter
v aar
asi ese</w>
ac h
48 3</w>
we es</w>
ite m</w>
T esting</w>
G E
onder nem
V AN</w>
B re
f is
eff ec
c re
S LI
5 0</w>
W er
MUNICI PALI
6 8
ur ing</w>
ment .</w>
di ens
a il
S pe
PALI TEI
MUNISI PALITEI
po in
in s
d ra
W ES
Libr aries</w>
F or
ma teri
ei e</w>
d ri
K ul
7 3
y l</w>
wh ere</w>
p u
men te</w>
S :</w>
Min ister</w>
1 8</w>
tr y</w>
aan ge
org .za</w>
oo d</w>
memb ers</w>
ma in
e e</w>
b an
H E
Ba y</w>
con si
ti me</w>
pro du
jec ts</w>
h u
gen er
4 4
un der</w>
pers on
Onder wys</w>
A TE
riv ing</w>
ommis sion</w>
availa ble</w>
Ho spit
wan neer</w>
v is
h of</w>
be v
Bibliote ke</w>
m p
g re
Man agement</w>
Diens )</w>
( Servic
( Diens)</w>
str uc
fun k
dok u
PR OV
PLAN N
K E
(Servic e)</w>
ure s</w>
e ers
aan de</w>
skap like</w>
ateg or
hul p
gel een
er ings
con stitution</w>
ab out</w>
a u</w>
Opl eiding</w>
1 .
th ese</w>
st o
kin d</w>
en ste
de like</w>
com ple
A F
provin sie</w>
h et,</w>
af fic</w>
aa d</w>
LO C
Distr ict</w>
s )</w>
ecu tive</w>
PROV IN
ras tr
le w
in d
e .
d o</w>
TI ES:</w>
ty d
te gr
sk o
i ge</w>
b usiness</w>
Pres ident</w>
Misdaa d</w>
I S
6 6
to or</w>
be fore</w>
TEI TE:</w>
coun cil</w>
br on
Str ategi
LOC AL</w>
u e</w>
grond wet</w>
go ed
ass en
SLI KE</w>
PL AA
PLAA SLIKE</w>
MUNICIPALI TY</w>
1 8
te ch
t al</w>
par ty</w>
c c
O ud
voor si
to ep
program me</w>
log y</w>
MUNISIPALITEI T</w>
A gr
ts hoor
hou d
do cu
op enbare</w>
le ,</w>
ge e</w>
e p</w>
cour t</w>
H er
sup port</w>
registr asi
re g</w>
Oud tshoor
y s
ug h</w>
tor i
ro ugh</w>
re as
legis la
ing )</w>
el and
c ertific
S O
sion ele</w>
progr am</w>
in to</w>
Voertuigtoetsst asie</w>
A TI
02 2</w>
er g
bet ro
ation ,</w>
E l
op er
o ffice</w>
e el</w>
d re
c ommun
Ro ad,</w>
O OR
Agr ic
on tw
li d</w>
k om</w>
w oor
t on</w>
ho ef
Bure au</w>
m aar</w>
l ess</w>
be vo
be he
ne em</w>
et s</w>
CI LI
Applic ation</w>
st ate</w>
on ,</w>
lo cal</w>
al l
SI LI
Ges ondheid</w>
FA SILI
FA CILI
ste un
ac ti
P er
7 2
th o
si Ã«
bu t</w>
Munici pal</w>
Ge or
F e
m at
abin et</w>
Pro gr
C om
w assen
ur s
s a
het .</w>
ed uc
7 0</w>
th rough</w>
ontw er
on g</w>
R ec
us s
plaa slike</w>
ag ree
L E
En vironmental</w>
tel l
r ak
por ts</w>
la g
ho l
en ,</w>
O m
D is
Coun cil</w>
3 1</w>
r y</w>
f onte
E x
ta ke</w>
sp esi
o wn
in ing</w>
gew ings
bio pro
bes t
TE R
F un
02 8</w>
vil le</w>
st aats
po w
enb er
c er
b or
F in
ER V
De po
4 2
le er
ing e</w>
il ls</w>
enb os
au thor
a f</w>
Ac t,</w>
---- ----
ry f</w>
g u
c e
T r
tr ain
tei te</w>
te en</w>
ch ar
li a
h ul</w>
a x
f es
ei s</w>
e in
T U
C o
1 00</w>
per i
i ti
ation .</w>
ap poin
abi li
P l
200 8</w>
a lis
S ub
I T
================ ================
7 9
wassen es</w>
ho w</w>
W E
us ed</w>
e th
si e
r it
ges tel</w>
da e</w>
br u
al le
ri l</w>
op l
on d</w>
bes onder
V i
T o</w>
I m
FACILI TIES:</w>
ver gadering</w>
provin ce</w>
plan ning</w>
la e</w>
im ple
f ul
ab lis
Lic ence</w>
FASILI TEITE:</w>
DI E</w>
B asiese</w>
om iese</w>
de ci
besk er
app ly</w>
V E
st an
rec ei
f ond
e y</w>
U S
Registr ation</w>
res our
pro ble
lo c
l uit</w>
In formation</w>
G ro
en g
be vor
S tell
H ou
8 7
ing sk
h uur
Stell enbos
Con stitution</w>
w c
hi p</w>
gebi ed</w>
Me di
t es
pro mo
ass embly</w>
T E</w>
Depo t</w>
o ffic
no logy</w>
b ou
T B</w>
6 5
vo ed
v ic
o ver</w>
leg s</w>
ci p
c are</w>
S A</w>
N e
Muse um</w>
DI EN
pro tec
m ember</w>
istre er</w>
er min
Progr am
te it
h al
Ã« n
ts .</w>
ti g</w>
reg ula
re l
p e</w>
ken n
de ,</w>
d ate</w>
b ou</w>
VI E
O ver
po lic
p ur
mun isipaliteit</w>
kr ag
f ic
en e
di str
al ,</w>
S P
L and
ERV IC
BI -
B el
A BE
provi de</w>
mar k
l oo
e ach</w>
chil d</w>
S ERVIC
Cour t</w>
no dig</w>
Vol wassenes</w>
1 7
wi l</w>
sp ek
ont van
k er
im ming</w>
c or
In dien</w>
I K
F or</w>
EM D
01 1</w>
skri f
legisla ture</w>
k er</w>
en e</w>
ear ch</w>
bur g</w>
U it
So cial</w>
ABE T</w>
8 0
th ere</w>
m es</w>
ertifik aat</w>
dre n</w>
as ed</w>
Sw imming</w>
Mo s
E kon
tor s</w>
st u
or g</w>
l es</w>
h eid
gew ing</w>
c op
m ,</w>
aa i</w>
S up
O r
teen woor
st at
refer red</w>
p as
m y</w>
bevo eg
O M
DEPAR T
A ug
um an</w>
at or
BO OV
par ag
i d</w>
f ac
bet aal</w>
beskikb aar</w>
O N</w>
Grond wet</w>
stel ling</w>
reg ister
ment ,</w>
man agement</w>
ho e</w>
est ablis
es :</w>
1 .</w>
ver si
tor e</w>
si ek
per man
k lin
i gh
betro kke</w>
D riving</w>
Cor ners</w>
voer tuig
ma de</w>
S p
wa y</w>
re le
ers entrums</w>
S entrums</w>
G OVER
( BOOV
tw ee</w>
te .</w>
t t
reg ering</w>
h uis
U ni
Po li
O m</w>
GOVER N
D aar</w>
(BOOV ),</w>
Ãª re</w>
s legs</w>
re qu
le ersentrums</w>
l or
it te
f acili
di Ã©</w>
c es
ad d
Pre mier</w>
Par k</w>
Gemeenskaps leersentrums</w>
5 5
y l
w ater</w>
vers ek
uitvoer ende</w>
ri g
B r
6 0</w>
righ t</w>
S E</w>
1 6</w>
wetgew er</w>
tw o</w>
men de</w>
ge d</w>
g h</w>
ex ecutive</w>
contro l</w>
c an
To wn
Hi erdie</w>
@ p
t uss
s a</w>
R aad</w>
Ch il
200 2</w>
te er</w>
n omm
kr y</w>
d en</w>
ti z
skapp e</w>
m u
gene em</w>
c la
bevoeg d
acc ess</w>
ts ,</w>
k or
j un
gen c
enber g</w>
dr a</w>
af ric
No v
K ar
3 8
reg te</w>
re f
pri m
or der</w>
ei k</w>
di rec
d in
STR ATE
STRATE GI
GOVERN MENT</w>
Ap ril</w>
te ,</w>
det ermin
ci tiz
c ommunity</w>
W it
M ag
Ac t</w>
2 0
verantwoor delik</w>
respon sible</w>
mo di
lin ic
lia ment</w>
hoef tes</w>
ari e</w>
ver b
re ation</w>
ma ke</w>
m il
c ar
O ffic
In f
Fe bru
sti g</w>
stel l
sp re
re la
par ty
j aar
g n</w>
Toeris me
2 4
v en</w>
n on
n ec
e er
c ol
Be au
we en</w>
re pres
produ k
o f
men d
k no
handel ing</w>
da y</w>
ci d
b are</w>
S al
N u
2 9
tek en</w>
ste un</w>
n at
min ister</w>
mid del
func tions</w>
da ys</w>
PR O
HI V
Beau for
7 4
2 5</w>
. org.za</w>
toeg ang</w>
te like</w>
stitu tional</w>
per mit
le i</w>
ge en</w>
de p
c k</w>
bet ween</w>
b ri
al ing</w>
Wes t</w>
V an</w>
ter ing</w>
s er
ou t
kin ders</w>
bes tuur
aar t</w>
AL E</w>
A T</w>
v al</w>
e qu
do el</w>
Tra ining</w>
MI V
1 9</w>
wer e</w>
siÃ« le</w>
rou e</w>
p s</w>
ex c
bron ne</w>
M O
J an
G R
2 1</w>
so ci
k like</w>
il y</w>
fir st</w>
ail s</w>
Om gewings
M E
HI V</w>
E K
DEPART MENT</w>
ska f</w>
s am
registr ation</w>
ra g</w>
mon th
m al</w>
en n
el f
do es</w>
d y</w>
bel ast
be ing</w>
Wor ces
S ake</w>
J un
we ek
th eid</w>
pro per
ontwer p</w>
genc y</w>
a k</w>
Servic e</w>
C ultural</w>
C AP
rele van
pa li
in ,</w>
h a</w>
g wc
da g</w>
c lo
Metro po
M A
L ev
@p gwc
ye ar</w>
par t</w>
in form
in es</w>
ik s
em and</w>
besonder hede</w>
Pre tori
L an
pu ty</w>
modi fied</w>
es entrums</w>
eers te</w>
ty d</w>
re s</w>
pla in
en te</w>
Oudtshoor n</w>
K AA
I D</w>
7 2</w>
7 0
3 9
st s</w>
re d
g s</w>
bes o
af rik
VIE W</w>
S war
P e
ON D
r ap
pro fes
pa y
k s
e b
de li
con di
W yn
SI G</w>
OOR SIG</w>
ver skaf</w>
v ry
uit ger
tuss en</w>
righ ts</w>
pa y</w>
m ag
de velop
a de
S K
OVER VIEW</w>
Mo tor
8 0</w>
200 9</w>
ver teenwoor
t -
st aat</w>
si te</w>
s r
hoo f
year s</w>
ten ance</w>
requi red</w>
o on
ing es
bes luit</w>
a y</w>
O BO
Metropo le</w>
2 .</w>
y n</w>
tegr ated</w>
s et</w>
a lity</w>
LI N
vi si
v la
e is
e el
di se
ag es</w>
acc ord
W et</w>
P aar
In ter
u le</w>
ti c
so eke</w>
la w</w>
jun k
RE G
Mun isipale</w>
DIEN S
DEPAR TE
CAP E</w>
werk ing</w>
t ro
sub section</w>
st and</w>
speci ally</w>
s ch
n or
dor p</w>
certific ate</w>
Th ere</w>
3 5
. .
Ã ¯
wer heid</w>
poli ce</w>
ex p
ens ure</w>
b asi
O per
N ew
E D
2 5
ui l
to e
ne x
l et
k ry
e i</w>
d ele</w>
bet aal
as es</w>
V ER
P la
Aan soek</w>
3 5</w>
3 0
sl uit</w>
li f
da m</w>
Sal dan
S ake
3 6
to es
schoo l
reg ul
me as
accord ance</w>
E :</w>
toep ass
ta in</w>
proj ekte</w>
ou er</w>
mar ri
m its</w>
ing :</w>
gel d</w>
e e
be planning</w>
P ool</w>
Al ber
@pgwc .gov.za</w>
ste d</w>
r a</w>
mon it
m et
lin e</w>
ges ag</w>
ver ,</w>
v ari
to e</w>
ste m
s ur
proj ek</w>
onder steun
f am
de lik
c r
an n
U L
Sw ell
C ommission</w>
voertuig registrasi
tech nology</w>
log ical</w>
in stitu
h ar
geleen the
ge doen</w>
d ro
S ch
Lev y</w>
Jan u
2 -
publi ek</w>
ne em
m all</w>
ed ,</w>
be k
be hoor
Wh at</w>
2 4</w>
so f
n ys
ge ,</w>
establis h
c ategor
Tr affic</w>
Spe cial</w>
1 7</w>
1 ,</w>
y ing</w>
w es
verk ies
th en</w>
t ens</w>
saa m
re Ã«
re port</w>
peri o
on g
om en</w>
inf rastr
gel y
ers ,</w>
b ro
ad s</w>
Nov ember</w>
Distr iks
train ing</w>
relevan t</w>
register ed</w>
nec ess
enb ur
al u
K in
4 ,</w>
us tice</w>
tr ac
ti c</w>
ooreenkom s</w>
mo ont
lig g
in n
es '</w>
dat um</w>
S i
M aat
K nys
In ligt
D o
tre ff
produc tion</w>
lis en
g overn
ek on
bes igh
ben ef
T S</w>
T H</w>
Author ities</w>
tho se</w>
resour ces</w>
pro s
pro p
h y</w>
Bre ede</w>
with out</w>
tw are</w>
tre at
s ter
oo p</w>
logi ese</w>
li es</w>
funk sies</w>
c ur
bel ang
agree ment</w>
abili t
Ontwikkel ings
sof tware</w>
s b
resp ec
proc ess</w>
gen o
do en.</w>
S ep
O P
Motor voertuigregistrasi
Cour ts</w>
sub artikel</w>
provi ded</w>
p ,</w>
om s</w>
krag tens</w>
in vol
T B
Program me</w>
Muse ums</w>
Enti ties</w>
3 ,</w>
. c
( L
&g t</w>
oun t</w>
f ree</w>
chil dren</w>
T y
Sep tem
KAA P
w eg
vol g</w>
vi e
vie w</w>
uitger eik</w>
sl uit
s erv
pla ce</w>
n ess</w>
lo of</w>
li g</w>
kan toor</w>
h aar</w>
esti g
eh uis
ec on
be c
ai l</w>
Motorvoertuigregistrasi esentrums</w>
D rak
verk lar
th ree</w>
s s</w>
s onder</w>
ri vier</w>
reg ister</w>
r is
laa t</w>
han del</w>
h y
doel treff
Mag istr
Geor ge</w>
Enti teite</w>
2 6</w>
w rit
v ehicle</w>
k en</w>
gro o
en se</w>
e ther</w>
di rek
bep aal</w>
author ity</w>
ati ewe</w>
ak el</w>
a z
Or g
ES S</w>
w ing</w>
ture s</w>
tre e</w>
mun isipa
m el
ei end
bi ed</w>
Stre ek
Stellenbos ch</w>
Schoo ls</w>
S ko
P ri
M s</w>
B LI
7 ,</w>
dri e</w>
add res
ad ing</w>
A ID
v el</w>
ur s</w>
saa m</w>
gener al</w>
c al
an ti
Mo bi
DEPARTE MENT</w>
5 5</w>
. b
wh ether</w>
r on
pl an</w>
om in
li e</w>
in .</w>
e very</w>
ax :</w>
ar m</w>
MI V</w>
In ligting</w>
Agric ulture</w>
voor be
te le
te g
s al
oo g
o o</w>
l ,</w>
in ligt
geleenthe de</w>
dep end
ad op
SERVIC ES:</w>
PROVIN SI
2 3</w>
v y
to ber</w>
stat us</w>
per form
p ho
ma k
ess es</w>
de c
b ill</w>
am p</w>
Sp esi
F ax:</w>
Drak enste
B ER
Al l</w>
vir us</w>
to t
t ouris
st ance</w>
si ons</w>
rec or
pre vi
per k</w>
no logi
is on</w>
id s</w>
depar te
an ts</w>
J o
HIV /
ER ING</w>
sel f
s outh</w>
provin ces</w>
p ass
or t</w>
klin i
it r
fonte in</w>
ed ule</w>
d us
d ge</w>
br ing</w>
asi e
Town ,</w>
Strategi c</w>
Plan ning</w>
Mos sel</w>
K ha
G en
C are</w>
B US
A n</w>
we es.</w>
ooreenkom stig</w>
li sted</w>
in eland
h uman</w>
g o</w>
et ing</w>
b ased</w>
Y outh</w>
L E</w>
Kul tuurs
A g
9 3
wh at</w>
un der
p s
p ool
oo i</w>
ly n</w>
issu ed</w>
ha ving</w>
del ing</w>
de .</w>
c ed</w>
S ports</w>
Pl an</w>
In form
Ekon omiese</w>
B ell
vin d</w>
ste m</w>
s ar
reg erings
naa m</w>
mun isipale</w>
m illi
la w
ge maak</w>
f ak
cont in
are a</w>
Swell en
Septem ber</w>
ON T
L A
I S</w>
ES E</w>
8 8
2 2</w>
wet s
syste m</w>
pre mier</w>
off ici
lan gu
inf ec
ein de</w>
comple te</w>
bet rek
be amp
ag ain
ad at</w>
W et
W H
Vi r</w>
Metro pool
F ak
4 .</w>
3 .</w>
2 7</w>
ontwikkel ings
n ood
i emand</w>
et t
ent al</w>
d uring</w>
aan .</w>
Swellen dam</w>
Swar t
Sup port</w>
Ri ver</w>
PROVINSI ALE</w>
La ings
8 000</w>
u ur</w>
to ek
ti ge</w>
ommis sion
munici pali
maat skapp
m an</w>
lo w</w>
k ul
im pro
gr ond</w>
ge ke
al th
ac y</w>
Spesi ale</w>
Pr in
E lec
DIENS TE:</w>
6 ,</w>
u t
the m</w>
str and</w>
sk loof</w>
s uid-
n am
is ed</w>
ges ondheid</w>
di es</w>
d es
are as</w>
abi lity</w>
a th
W at</w>
Kultuurs ake</w>
CI AL</w>
BUS IN
toe ge
ti ewe</w>
suid- afrik
sub ject</w>
pro ject</w>
munici pal</w>
es bur
c k
N y
Kar oo</w>
Hou sing</w>
Drakenste in</w>
BUSIN ESS</w>
5 0
saa k</w>
me ans</w>
in he
inhe em
i g</w>
ex am
ev alu
cont ain
c ul
bel eid</w>
at es'</w>
E m
2 .
w as
tre m
por ting</w>
polic y</w>
org an
n er</w>
lei n</w>
inheem se</w>
hulp bronne</w>
grond wet
f ur
en ces</w>
der e</w>
bed ry
ation )</w>
V alle
Ne eds</w>
I R
EN TR
4 0
2 8</w>
us able</w>
uid el
toepass ing</w>
ti l</w>
sel f</w>
ou ld</w>
mo st</w>
lis ensi
indi gen
indigen ous</w>
det ails</w>
com plain
R A
Fin an
Depar t
: 00</w>
7 5</w>
6 3
tem ming</w>
so cial</w>
par ties</w>
mil jo
at ure</w>
Toeris me</w>
Rec reation</w>
M aart</w>
K on
D e</w>
y e</w>
wel l</w>
voorsi ening</w>
st aan</w>
s ake</w>
pro jects</w>
par t
oun d</w>
ote :</w>
on gel
ment ation</w>
le ment</w>
d ag
comp on
b usin
af han
Pro j
Org anis
Magistr ates'</w>
vi du
st ud
r en
n ed</w>
men ts
li ts
itte e</w>
imple men
hu we
gebi ede</w>
R I
Knys na</w>
K le
Fak s:</w>
C abinet</w>
vil le,</w>
v ro
se qu
perman ent</w>
linic s</w>
ing so
gemeen skap</w>
ex port</w>
ee water
digh ede</w>
as ter</w>
am b
Th ese</w>
Th eewater
Mobi le</w>
Kha ye
H ar
Cap e)</w>
AR E</w>
9 0</w>
waar des</w>
voor dat</w>
n ers
m aande</w>
gi ven</w>
de ur
ch an
biopro spek
ai e</w>
WES TER
WESTER N</w>
WES -
S te
Omgewings ake</w>
Beaufor t</w>
A SI
w at
vers lag</w>
ther e
te ken
str uk
spor t
sel s</w>
provi des</w>
opl eiding</w>
mo e
ineland s</w>
gre ater</w>
finan cial</w>
au se</w>
again st</w>
ad di
Wer k
Sko le</w>
REG ERING</w>
Ho e</w>
E den</w>
ter n
sp oor
sko le</w>
raa m
ondernem ings</w>
huur der</w>
gesk i
gereg istreer</w>
f ,</w>
e erde</w>
appro pri
B y
5 ,</w>
verklar ing</w>
u al</w>
skrif te</w>
party e</w>
nu al</w>
mis sion</w>
k op
ie ke</w>
f asi
educ ation</w>
doku ment</w>
de :</w>
con cer
ass ess
administr ation</w>
Di rek
As s
Ad min
.b .
z enberg</w>
we er
wan t</w>
tion .</w>
st ens</w>
ple k</w>
ondernem ing</w>
mit ted</w>
li ge</w>
i a</w>
f y</w>
eder e</w>
c ase</w>
aa m</w>
Distriks munisipaliteit</w>
A ven
waar in</w>
ver eis
tr ic
t able</w>
her e</w>
f acilities</w>
bui l
b un
V red
Pro ject</w>
Pretori a,</w>
KAAP SE</w>
B erg
Ãª .</w>
v as
to eris
sp er
se er</w>
s entrum</w>
o ef
m er</w>
k ont
ind us
ec h
at t
Strategi ese</w>
Khaye lits
In dus
w illi
vy f</w>
un til</w>
u is</w>
spec ting</w>
si bi
pr ene
ondh eid
onder soek</w>
nem ing</w>
milli on</w>
gh t</w>
g oo
b ac
b aar</w>
ad er</w>
Pro jects</w>
Min ister
Maat skaplike</w>
2 9</w>
19 .a.
y si
wi e</w>
ver bet
ul le</w>
teit s
stel sel</w>
qu or</w>
p rivate</w>
le .</w>
f il
f en
condi tions</w>
ch i
be handeling</w>
aansoek vorm</w>
R ep
Pro tec
O R</w>
2 8
00 01</w>
y c
w el</w>
ver eis</w>
om e
no g</w>
kom ite
it age</w>
i i</w>
ge Ã¯
f a
e Ã«</w>
c ommission</w>
c as</w>
biopro specting</w>
ar ing</w>
Offic es</w>
G re
Be hoeftes</w>
AF R
================================ ================================
9 0
3 3</w>
Ãª erti
Ãªerti pe:</w>
versek er</w>
schoo l</w>
s ure</w>
s entrums</w>
pro ses</w>
pa id</w>
oo g</w>
nomm er</w>
doku mente</w>
best aan</w>
SA KE
Reg er
PROVIN CIAL</w>
Over strand</w>
Mar ch</w>
Ma y</w>
B ree
B er
ATI ON</w>
200 1</w>
(L Ãªertipe:</w>
( Public</w>
( Openbare</w>
wy se</w>
vic e</w>
treat ment</w>
sp o
ommis sar
miljo en</w>
medi cal</w>
me th
ly s</w>
indi vidu
i m</w>
h tt
ge tal</w>
ber ts
Theewater skloof</w>
Ontwikkel ing</w>
Inligt ing)</w>
Inform ation)</w>
2 3
uc ture</w>
toes temming</w>
str ategi
s um
na vor
le ast</w>
j ur
in iti
gro ote:</w>
bio logical</w>
be wys</w>
an toor</w>
ak ti
U ys</w>
H el
Afrik aan
.. .</w>
sek er</w>
proper ty</w>
parti cip
munisipa liteite</w>
gemeen skappe</w>
effec tive</w>
der s
behoor t</w>
beg in</w>
Valle y</w>
S mall</w>
O U
MIV -
D es
4 5
4 00</w>
2 6
2 00</w>
wy si
werk er</w>
w in
w ap
ver wys</w>
tr affic</w>
tion ,</w>
stre ek
s p</w>
pur pos
pow ers</w>
leg al</w>
kenn is</w>
h eids
ge men
ei en
daar van</w>
cur r
col lec
c e.</w>
betrek king</w>
ar b
WE B
N O
EMD C</w>
AID S</w>
4 5</w>
werk gew
waar op</w>
voer tui
v ul
t a</w>
stell ings</w>
sig te</w>
si ekte</w>
s ame</w>
s af
port un
n adat</w>
inclu des</w>
g sel</w>
fi ve</w>
d en
bu ro
bo th</w>
bi r
WES- KAAPSE</w>
Laings burg</w>
Inf rastr
In sp</w>
Hospit al</w>
Ho w</w>
wets ontwerp</w>
to er
skri f</w>
s ome</w>
re di
proc ed
necess ary</w>
moont lik</w>
goo ds</w>
follow s</w>
en sk
bio logiese</w>
b al
b aie</w>
at h</w>
Worces ter</w>
W inelands</w>
Opl eid
G o
C er
Bure au
Aug ust
ui teen
s ho
ri p</w>
ri g</w>
re ken
pros ed
pr in
po se</w>
ontvan g</w>
o wn</w>
ni e
mp t
k li
is o
hou ding</w>
geleen theid</w>
form s</w>
f r
er c
de mo
con duc
can not</w>
a )</w>
Sek tor
Pr ison</w>
Bureau x</w>
Aven u
1. a.</w>
ver wys
ver le
tre k
sub mit</w>
sr sa</w>
res id
qu ali
pe ti
parag rap
ord in
ne eds</w>
me .</w>
maat skaplike</w>
m .</w>
ly .</w>
j u
inge dien</w>
im port
im mun
i er
gi ve</w>
g s
ep t</w>
d .
al .</w>
ag no
Wes- Kaap
Ro ad</w>
P U
M at
C omm
5 .</w>
un i
ti ging</w>
repres ent
r c
pre v
or ,</w>
ond ary</w>
o -
n r</w>
mon ey</w>
me ,</w>
le a
la r</w>
in kom
ff er
f .</w>
establish ed</w>
ers .</w>
cop y</w>
cap ac
buro 's</w>
b ab
appropri ate</w>
Toerisme buro's</w>
Po sb
P O
On s</w>
1 -
Ãª rel
y one</w>
ver bin
v ak
u k</w>
t uis
sh all</w>
requi re
p ati
n et
medi ese</w>
m eld</w>
leer ders</w>
inv estig
hi gh
ent ly</w>
ell ing
Wit zenberg</w>
W an
Rep ubli
RE GI
N E
C ont
B ehuis
Ã ¨
ul ti
tak en</w>
o w</w>
main tenance</w>
goed geke
g in
en viron
eland se</w>
ek ,</w>
ei de</w>
docu ment</w>
di ging</w>
c anc
beg rip</w>
am e
Po lic
PU BLI
MEN T
In tegrated</w>
F am
E C
C ulture</w>
C al
B R
AN D
4 0</w>
work er</w>
w o
vor ige</w>
v roue</w>
spe cial</w>
r ing</w>
ou ers</w>
op sigte</w>
min der</w>
m a</w>
l l</w>
it ch
i f
h er</w>
gew oon
fur ther</w>
fond s</w>
fic ation</w>
en ter
do c
be hal
ate ly</w>
age d</w>
M M
H an
Cap e.</w>
Bo ard</w>
B uil
02 7</w>
- ,</w>
v re
uit ge
ta in
respec t</w>
pres cri
pr acti
pow er</w>
perio d</w>
organis asies</w>
men s</w>
k lik</w>
in isi
ger ie
gemen e</w>
ex erc
be d</w>
al e,</w>
ak el
aff ec
ab o
ab led</w>
aan han
Swart land</w>
Sake plan
Plan s</w>
P o</w>
N or
L and</w>
B ES
A U
/ 0
y ou
w is
versk aff
verkies ing</w>
v ei
ty .</w>
ter ug
te ur</w>
te ur
t on,</w>
sk ool
reg ar
ran ge</w>
paragrap h</w>
om ie</w>
o cc
lear ners</w>
ings ,</w>
id ing</w>
finan siÃ«le</w>
ci es</w>
c linic</w>
c a
bevor der</w>
bel an
behe er</w>
aar s</w>
W elling
DI STR
C ertific
Alber t</w>
Ã ¶
v ali
tri bu
te d.</w>
st ar
rela ted</w>
re mo
provin sies</w>
por ted</w>
no tice</w>
no te</w>
inter national</w>
he ff
f er</w>
est es
di enste
d s
con stitutional</w>
asi Ã«n
app e
af t</w>
aa k</w>
W ER
M al
2 01
w en
speci fic</w>
si gn
res earch</w>
naa ste</w>
n omin
k le
hi er
geb oor
elec tion</w>
desi gn
der .</w>
bri ef</w>
b aai</w>
Uit voer
T S
Land bou</w>
EMD C
.z a
ver mo
v eiligh
tor al</w>
onder wys
n eg
le k
k lag
is tor
inclu de</w>
in ten
go edere</w>
gel Ãª</w>
e ug
b ly</w>
VE LO
VELO P
T ech
L ab
DE VELOP
Ar b
A D
8 5
6 .</w>
2 ,</w>
x im
verantwoor delik
ul a</w>
t on
s ertifikaat</w>
prim ary</w>
previ ous</w>
om y</w>
materi al</w>
maa tre
infrastr uk
fi eld</w>
contro l
bur g
belast ing
R ek
J u
G O
Avenu e,</w>
7 4</w>
1 00
werk ers</w>
voor dele</w>
ui de</w>
twik kel</w>
s e,</w>
registr asie</w>
po wer
po st
par liament</w>
ne :</w>
m as
lic ence</w>
k ategor
inf o
ex is
e es</w>
cri min
cla im</w>
capac ity</w>
bo dy</w>
belang ri
ati s</w>
Sec tor</w>
STRATEGI ESE</w>
STRATEGI C</w>
S '
Posb us</w>
PRO J
I N</w>
B inn
A t
vol le</w>
vo te</w>
ver soek</w>
ve ment</w>
v ul</w>
tra di
so or
reg n
plaa s
o g
mi gr
mat ters</w>
gev al</w>
et own
en t,</w>
eg ter</w>
eder berg</w>
ec k</w>
dise ase</w>
aa t,</w>
Prin ce</w>
M ense</w>
web wer
volgen s</w>
plaa s</w>
parag raa
n -
la m
k ommissie</w>
is gewing</w>
er n
dra g</w>
d ale</w>
cu st
coun tr
compon ents</w>
by voorbe
am a</w>
acc oun
Wh en</w>
Plan ne</w>
Par liament</w>
K un
E K</w>
Binn elandse</w>
August us</w>
war d</w>
w omen</w>
ur se</w>
ul es</w>
sub si
respon sibi
r s</w>
p :
p: /
p:/ /
opl eid
op portun
ommun ik
ommissar is</w>
ne ar
n ,</w>
lisen sie</w>
i er</w>
es te</w>
end al</w>
el e
di ffer
commun ities</w>
a w
a mend
Wan neer</w>
Plan s:</w>
PLANN E</w>
PLAN S</w>
Me i</w>
Fun d</w>
F E
D O
Berg rivier</w>
5 9
voor waardes</w>
vla k</w>
verk eers
us ing</w>
uit re
trem d
toep as
t est</w>
sk ool</w>
re eds</w>
o ep
nologi e</w>
munici pality</w>
le ments
klini ek</w>
it al</w>
gev aar
fi t</w>
equ al</w>
eiend om</w>
de puty</w>
cont ac
ce ment</w>
an nex
administr asie</w>
addres s</w>
ad junk
ac e</w>
ac cid
a in</w>
a -
M itch
Gro o
G uidel
Ar ts</w>
3 .a.
we ek</w>
w cap
voor gesk
tor aat</w>
to el
ta x</w>
spesi fi
sion al</w>
s enbur
p un
htt p://
ger skap</w>
ge hou</w>
em er
ei ther</w>
ch ,</w>
ben o
applic ations</w>
W C
Sakeplan ne:</w>
SAKE PLANN
SAKEPLANN E:</w>
PLAN S:</w>
P riv
L ang
EN TI
C lo
C ederberg</w>
Aug ust</w>
199 8</w>
w th</w>
w on
verk ry</w>
vali d</w>
stitu sionele</w>
st ro
schoo ls</w>
requ est</w>
purpos es</w>
om ati
min ister
ligg aam</w>
l on
in tegr
hul p</w>
f our</w>
con trac
bevoegd hede</w>
ac hi
a de</w>
Wor ks</w>
Pe ople</w>
Man ag
Febru arie</w>
D ur
7 3</w>
7 1</w>
. Z
w le
t ting</w>
t ly</w>
s s
ri d
po ten
pers ons</w>
pers one</w>
kun dige</w>
ko mende</w>
k ers
hoo g
et er
entr al</w>
ein des</w>
effec t</w>
ate ,</w>
al k
af f</w>
U M
SO U
PUBLI C</w>
New s</w>
F ran
C E</w>
6 0
1 ,
toer ust
s org</w>
ro l</w>
p es</w>
oo f
on twikkel</w>
offici al</w>
inges tel</w>
in begrip</w>
i de</w>
h on
gr ap
for ce</w>
enc y</w>
ekon omiese</w>
di agno
depar t
deci sion</w>
consi der
bep aal
appoin ted</w>
an other</w>
ai d</w>
Saldan ha</w>
SOU TH</w>
Proj ekte</w>
OP EN
M on
Janu ary</w>
F OR
DEVELOP MENT</w>
Admin istr
werkgew er</w>
verb and</w>
uur wap
ts :</w>
tr on
t j
str aat</w>
si x</w>
res ol
recei ve</w>
p asiÃ«n
o s</w>
ne mende</w>
municipali ties</w>
month s</w>
min stens</w>
maatre Ã«
l ing
in sluit
import ant</w>
i k</w>
hospit aal</w>
f e</w>
et te</w>
econ omic</w>
doel eindes</w>
c li
bo e
bed rag</w>
av ra
as ook</w>
U n
T OR
OBO S'
J ustice</w>
H and
Febru ary</w>
Bibliote ek
web site</w>
ven ue</w>
ter m</w>
ter m
t :</w>
sub mitted</w>
s ed</w>
s afety</w>
re h
program mes</w>
pho sp
p ing</w>
ou s
near est</w>
le vel
le g</w>
ie be
h is</w>
ge volg</w>
ge d
es s.</w>
digh eid</w>
con f
categor y</w>
c as
bed ryf</w>
ak er</w>
a y
Touris m,</w>
S ou
R iebe
Pri m
P ad
OPEN B
M rs</w>
Gen er
Di Ã©</w>
AFR IC
.Z a</w>
word ;</w>
versi ty</w>
ver t
ver spre
u g</w>
tel and
spesi ale</w>
siek tes</w>
reas on
provi sion</w>
po s</w>
le er</w>
kry .</w>
i li
i l</w>
di sp
depend ent</w>
departe mente</w>
del eg
con tribu
c over
bev el</w>
ad res</w>
aa m
aa i
Sub -
Ontwikkelings beplanning</w>
I E</w>
H A
G ES
Com p
B ro
Ãªrel d
werk nem
ul y</w>
tra k</w>
ta x
sig n</w>
s Ãª</w>
rec om
re ad
raa k</w>
protec tion</w>
pro jec
poli ti
pa spoor
non -
mat ter</w>
let ter</w>
ke er</w>
ho ev
func tion</w>
dec lar
char ge</w>
bes tuurs
be teken</w>
alis ed</w>
aanhan gsel</w>
W ater</w>
S U
R O
Poli ce</w>
Li quor</w>
Kul tuur</w>
Al le</w>
4 6</w>
we ke</w>
voor t
v ehic
us es</w>
u ally</w>
si t</w>
refer ence</w>
provin si
ple eg
perform ance</w>
paragraa f</w>
organis asie</w>
non e)</w>
mo tor
meas ures</w>
m any</w>
fo li
er 's</w>
e. g.</w>
dor p,</w>
di c
de vel
de posi
con c
al loc
Wes t,</w>
Paar l</w>
P or
OPENB ARE</w>
M B)</w>
De puty</w>
Ag ul
7 9</w>
( none)</w>
ter ,</w>
reh abilit
reg s
re publiek</w>
l li
indi c
http:// www.
ge dra</w>
docu ments</w>
der d
be w
be ter</w>
b ers</w>
appro ved</w>
ai r</w>
Kaapst ad,</w>
Jun e</w>
F is
Ass embly</w>
7 /
3 3
vor ms</w>
ti v
te gre
sch edule</w>
s en
s a.
re public</w>
ran k
qui ri
promo te</w>
p tion</w>
or por
ly ,</w>
k ap
info @
in tel
identi ty</w>
h e</w>
ges tel
ev er</w>
el d
eid ,</w>
de f
d an</w>
comp an
beso ek</w>
ator s</w>
as soci
ar d
W AT</w>
V O
Ri gh
LI G
Fun ding</w>
Cal ed
A b
80 8</w>
7 6</w>
7 .</w>
6 5</w>
08 00</w>
00 0
â </w>
vereis tes</w>
th em
t ur
su cc
s la
provi ding</w>
ph one</w>
o th
marri age</w>
m use
kno wle
k wa
ho ek
hel d</w>
ha d</w>
ful l</w>
facili ty</w>
et o
do en,</w>
d ui
besigh eids
ber g,</w>
bec ause</w>
applic able</w>
annex ure</w>
am ount</w>
ai ms</w>
a. org.za</w>
a men
Voertuigtoetsst asies</w>
Ver ke
Ver gadering</w>
SA P
S ui
Res our
Nu us</w>
Indus try</w>
H of</w>
F F
A C
war ds</w>
val u
ul j
uiteen ges
u t</w>
tyd perk</w>
te fe
tefe ulj
qu ality</w>
pr is
pass ed</w>
our s</w>
li st</w>
fo c
fe e</w>
f re
determin ed</w>
d on
ci rc
chem ical</w>
c entre</w>
bevoegd heid</w>
beg ro
be huis
al low
Wer ke</w>
W eb
ST A
M IN
K O
EMDC s)</w>
Dis aster</w>
At lan
Agul has</w>
Ã¶ r
Ã¶r din
wh ile</w>
wetgew ende</w>
ver wy
ver p
ver ord
ti g
se e</w>
s wan
ps c</w>
prescri bed</w>
ou derd
organis ations</w>
n oo
kin der
h or
gr an
ger e
doeltreff ende</w>
differ ent</w>
cons ent</w>
co -
bet re
anc y</w>
an tore</w>
ag ric
aan be
aan ,</w>
WH AT</w>
W es</w>
S ci
Onderwys -</w>
Mal m
M ain
K ommissie</w>
H oof
Econ omy</w>
E R</w>
Chil d</w>
6 )</w>
-------- --------
y )</w>
we eg</w>
voor sien</w>
vol doen</w>
verle en</w>
ver al</w>
un less</w>
teland se</w>
t an
s w
prev ent</w>
or ders</w>
n s</w>
lew ens
kli Ã«n
inter nasionale</w>
gemeen skaps
ge hal
fun ding</w>
entre prene
b our</w>
assi st</w>
am s</w>
Sektor ale</w>
Reger ing)</w>
Oper ational</w>
O c
N a
Ma in</w>
L eg
I G
De c
C lan
Applic ations</w>
Afric a.</w>
19 8
( C
y :</w>
wy l</w>
wet en
w ould</w>
ven ts</w>
toerust ing</w>
ti s</w>
si tu
rek or
regula sies</w>
proj ek
pos sible</w>
pa i
p .</w>
ou w
ommission er</w>
mo tor</w>
li br
kont ak
kon trak</w>
j ud
houd ens</w>
h om
ge be
fi re
entr um
di es
d enti
cust om
byvoorbe eld</w>
benef its</w>
b oo
b aar
ar ds</w>
aan soeke</w>
Sec ondary</w>
Opleid ingso
OBOS' e)</w>
OBO S</w>
Malm esbur
ATI ON
AFRIC A</w>
200 0</w>
Ã ³
work ers</w>
vol g
te er
stand aar
s ci
ro ck
res ult</w>
n tegre
mu ch</w>
mo d
lik heid</w>
lew ering</w>
ill ende</w>
gr atis</w>
gerie we</w>
for ei
es sequ
de fin
daar op</w>
c ome</w>
c entre
ben a
ban k</w>
an i</w>
amp telike</w>
W a
Stre et</w>
SE T
OND ER
ER S</w>
Des ember</w>
Clan willi
C linics</w>
C OM
Bes tuurs
. wcap
vol le
vi sion</w>
to tal</w>
ther n</w>
t ar
st ain
sk akel</w>
s war
s ent</w>
re we</w>
re pla
port foli
m ed</w>
lements wet</w>
la s
l en
k l
ing sp
ev en</w>
eth yl</w>
et ting</w>
esti g</w>
employ er</w>
elf de</w>
el s</w>
dat ab
control led</w>
bi bliote
bet aling</w>
be hoeftes</w>
be doel</w>
ati ef</w>
ann al
an k</w>
aan v
aan gestel</w>
W IK
WIK KE
Uitvoer ende</w>
S tu
S e
Per mits</w>
K lein</w>
K annal
ID -
H essequ
FA IR
Ch ur
Ad junk
AF FAIR
6 1</w>
- gener
ver rig
vel y</w>
uitre ik
to x
ti ef</w>
th ,</w>
sup p
st ate
si de</w>
qu es
produk te</w>
pro of</w>
par ents</w>
p i
neem .</w>
medi c
materi aal</w>
ma y
m ic
l l
ken d</w>
k ies
fin d</w>
ent .</w>
en -
di d
der ,</w>
depar tment</w>
contin u
cons um
chan ge</w>
behe er
ak e-
WIKKE LIN
Th ey</w>
TE N
Sk ills</w>
ONT WIKKELIN
Man u
Kun s</w>
Jun ie</w>
J uly</w>
For m</w>
C ro
C ol
B it
7 7</w>
3 2</w>
199 9</w>
( G
writ ten</w>
we ver,</w>
versk illende</w>
van af</w>
tyd ens</w>
so on</w>
pl ying</w>
op tre
om gewing</w>
ni e-
mid del</w>
le vel</w>
is ;</w>
in s</w>
hi gh</w>
h om</w>
h istor
ens y</w>
el ing</w>
ed ing</w>
di ensk
ati ves</w>
at or</w>
applic ant</w>
acti vi
Wyn land</w>
Ro berts
Ri ver,</w>
Priv aats
P )</w>
O k
Lab our</w>
In stitu
Hessequ a</w>
E r
8 6
7 78
( Department</w>
wer heid
w ho
van g</w>
us ti
up ational</w>
trans fer</w>
te x
tak ing</w>
stel .</w>
sk ills</w>
ris k</w>
ph ysi
person eel</w>
le wer
la ter</w>
l Ãª</w>
institu tions</w>
i de
h ome</w>
h ing</w>
gh eb
en heid</w>
de k</w>
coun sel
brui k</w>
bev at</w>
belan gheb
b il
aansoek er</w>
Ty ger
Tran s
P ers
Oudtshoor n,</w>
Oc tober</w>
OR T</w>
Metropool -
H U
G ate
Ekon omie</w>
D E</w>
Chur ch</w>
C ar
A G
2 ,
t z
si m
s ome
ra di
r up
pos ed</w>
p regn
maatskapp y</w>
li gen
l op
kenn isgewing</w>
fonte in,</w>
es ted</w>
eni or</w>
e. school
dies elfde</w>
comp any</w>
ch lor
bir th</w>
beamp te</w>
be houdens</w>
ate lli
al ings</w>
aan geneem</w>
a war
Voor trek
T er
St aats
Ri vers
PLANN ING</w>
BER G</w>
visi t</w>
verteenwoor dig
ver eni
v uurwap
v ac
u tion</w>
to :</w>
ter wyl</w>
te m</w>
str u
si s</w>
r ag
pur pose</w>
perso on
perman ente</w>
p ap
materi als</w>
ma j
lik se</w>
langu age</w>
inter est</w>
in stellings</w>
h ab
fam ily</w>
f ul</w>
elec ted</w>
el ek
di um</w>
deli very</w>
d riving</w>
comple ted</w>
commun ic
buil ding</w>
an t
afric a</w>
ad van
a sk
U C
TE R</w>
T S:</w>
Sec tion</w>
SP IT
P h
HO SPIT
HIV/ AIDS</w>
Geor ge,</w>
Elec toral</w>
C entral</w>
B ol
B ar
9 8
.c om</w>
Ã« r</w>
ver dere</w>
to ge
sti ll</w>
ste r</w>
s hi
reg er
raa i
r ules</w>
posi tion</w>
li ve</w>
lan k</w>
istr y</w>
inter n
imple mentation</w>
hospit al</w>
een heid</w>
de val
cer tain</w>
b lo
ate .</w>
asion ele</w>
al gemene</w>
afric an</w>
Righ ts</w>
Q u
N oor
La dis
Ju lie</w>
Infrastr ucture</w>
H uis</w>
Ex ecutive</w>
De mo
D A
@ cap
( Metropole</w>
y -
wysi ging</w>
vel d
ti es.</w>
t ensy</w>
su stain
s lag</w>
reg ard</w>
read y</w>
plan t</w>
pl es</w>
p en
ori de</w>
or ity</w>
o k
ntegre erde</w>
legisl ative</w>
ko Ã¶rdin
k te</w>
k ers</w>
inc reas
fis eer</w>
finan si
f u
ex peri
er eg
di rector
dan ige</w>
conduc t</w>
con stitu
citiz ens</w>
cap able</w>
af deling</w>
ab a</w>
aan geleenthede</w>
S )</w>
Ro ads</w>
Over berg</w>
Khayelits ha</w>
Kannal and</w>
K ap
H uman</w>
H ulle</w>
An nual</w>
9 4
) :</w>
( The</w>
( N
z ik
wor king</w>
vol t
vi g
verb ly
ver oor
ul ts</w>
ul ation</w>
tra de</w>
ti ese</w>
teur -gener
stu k</w>
so wel</w>
s c
ret ro
proble me</w>
poli sie</w>
p on
or s</w>
on de</w>
mit te</w>
maatreÃ« ls</w>
ma in</w>
m isdaa
land s</w>
gen de</w>
ge tui
fen is
f ill</w>
en is</w>
eigh t</w>
eh abilit
d one</w>
d am
consi st
comm ittee</w>
bel ang</w>
SA R
S af
R ehabilit
Prim ary</w>
Ok tober</w>
ING :</w>
Her itage</w>
GE W
G S
E mer
E -
D elf
C ENTR
Ba y,</w>
B em
4 1</w>
3 6</w>
3 -
Ãª re
webwer f</w>
v acc
ul ture
uit voer</w>
to est
st aff</w>
si ve</w>
rock et</w>
pres id
por tefeulj
ous ly</w>
om dat</w>
me este</w>
ma king</w>
l ong</w>
k ale</w>
j ustice</w>
in stelling</w>
grap h
g lo
enn ings</w>
emer gency</w>
con fir
chil dr
c ultural</w>
c .</w>
besker ming</w>
basi c</w>
am in
W e</w>
V ers
T ri
T en
St ad
Res earch</w>
Provin sie</w>
Privaats ak</w>
Pre mi
Min istry</w>
Main tenance</w>
E ni
E L
Dec ember</w>
C O
AFFAIR S</w>
A S
199 6</w>
y k</w>
werk .</w>
wan te</w>
vi gs</w>
tran sport</w>
th ing</w>
tem por
spesifi eke</w>
sk akel
s ing
s in
pro k
power ment</w>
poli t
par ent</w>
p ad
la ck</w>
la bour</w>
la bor
ingsk antore</w>
in tegrated</w>
hi bi
he alth
h Ãª</w>
gh eid</w>
ges ondheid
geb as
fa x</w>
eto ets
ef ond
e.school .za</w>
d ing,</w>
burg ers</w>
betaal .</w>
ate ur</w>
appoin tment</w>
amend ment</w>
addi tional</w>
abo ve</w>
aan vaar
a vi
V or
Stellenbos ch,</w>
S im
P en
Li fe</w>
Janu arie</w>
ID P</w>
I s</w>
Her man
Gener al</w>
Gate way</w>
Emer gency</w>
B on
Afric a)</w>
199 7</w>
( S
so danige</w>
ri si
ret ur
re k</w>
re asie</w>
plan n
ondersteun ing</w>
om ite
lig te</w>
lif e</w>
jur is
ing -</w>
hoek ies</w>
groo t</w>
enc e.</w>
e li
deel de</w>
coun try</w>
bur ger</w>
asi e,</w>
al lo
activi ties</w>
RE D</w>
P ER
Op voed
MENT AL</w>
Kle in
K raai
Ges ondheids
C hi
Agric ultural</w>
A th
@ m
7 -
6 6</w>
( I
ver voer</w>
u te</w>
touris m</w>
ter si
t ings</w>
str ateg
stem ming</w>
s org
reg istre
re -
pres t
op en</w>
oor re
oo ls</w>
no ti
nex t</w>
n ical</w>
lisensi etoets
le ase</w>
ko ste</w>
it y.</w>
identi teits
ici ent</w>
ho we</w>
he en</w>
han teer</w>
gu ar
gev alle</w>
gel ys</w>
g ood</w>
es ter</w>
er gi
environ ment</w>
en quiri
der i
custom ary</w>
bedry wi
ati sti
assi stance</w>
are as
W el
VI R</w>
V ry
TO UR
Str and
R ON
Par ti
Oper asionele</w>
Onderwys bestuur</w>
O b
Mitch ell
En g
E k</w>
Director ate</w>
B U
Ac c
9 5
. 00</w>
year .</w>
vi ol
verbin ding</w>
us ,</w>
t ary</w>
s es
retro vir
profes sional</w>
or y</w>
onder houd</w>
nem ings
navor sing</w>
min im
me er
m ulti
m ati
l er</w>
k k
issu e</w>
in tro
ik et
i ous</w>
i bu
goedgeke ur</w>
g ri
g ly
g es</w>
exerc ise</w>
en vironmental</w>
e ver
do en
diensk ommissie</w>
com es</w>
c all</w>
bu d
basi s</w>
b asiese</w>
ame work</w>
ag ent
af skrif</w>
acc or
aan geleentheid</w>
W omen</w>
TU IS
TI ON
St ate</w>
SA KE</w>
S y
S t,</w>
P iket
M oorre
M ont
L is
L L
F il
Em ploy
Educ ational</w>
D r
Chi ef</w>
46 7</w>
3 4</w>
' t</w>
y s.</w>
we er</w>
ur ende</w>
uk ke</w>
tremd hede</w>
to g</w>
t esting</w>
t )</w>
sup porting</w>
sec urity</w>
recor ds</w>
ra de</w>
ol d</w>
ma il
k redi
ju di
in spec
ic k
i z
huwe lik</w>
ho ld</w>
for um</w>
el o</w>
design ated</w>
ci ally</w>
be handel</w>
at ten
app Ã¨
ali se
acc ep
Verke ers
Tra de</w>
Streek dienste</w>
Nor th</w>
Mar k
M is
M Y</w>
La w</w>
I s
HE ID</w>
C ommun
Beaufor t-
B ud
As si
199 3</w>
( SA
( 200
Ã 
web si
w ood</w>
ver wante</w>
ver ho
vari ous</w>
v ra</w>
v .</w>
ture le</w>
tori a</w>
sti ge</w>
so l
sk ryf</w>
servic es.</w>
sek ere</w>
ro ad</w>
reÃ« ls</w>
resid ence</w>
regul ations</w>
offic er</w>
man u
ma te</w>
m ust
lo or,</w>
li teit
l eid
heid ,</w>
h ours</w>
gely k
ge estes
ex ten
employ ment</w>
een kom
ec han
du ur</w>
du e</w>
d al</w>
by lae</w>
bevor dering</w>
besker m
al k</w>
ade mi
Welling ton</w>
W e
Voortrek ker</w>
Tri bun
TOUR IS
T e
Sub mit</w>
Registr asie</w>
Per mitte</w>
N at
HO O
HE ID
Grond wet
Gr ab
F OR</w>
Chil dren</w>
C nr</w>
Bree deval
Bre d
B ran
12 0</w>
wel s</w>
voertui g</w>
verteenwoor dig</w>
vers am
ver goed
vaar dighede</w>
te :</w>
ta k</w>
sub stan
se bli
s ings
re main
re at
pay ment</w>
paspoor t</w>
o x
n er
lisen sies</w>
ligh t</w>
it .</w>
in :</w>
i en</w>
gesondheids org
ga der
fi si
facili t
ex ual</w>
eth yl
di k
determin e</w>
cu lar</w>
citiz ens
by stand</w>
belangri k</w>
be kend</w>
be hoef
b an</w>
as sebli
accor ding</w>
Wes-Kaap .</w>
W ets
V is
UM S</w>
Re port</w>
Polic y</w>
Parti cip
O p</w>
K AN</w>
ING S
El senbur
Di en</w>
D oor
C AN</w>
Breedeval lei</w>
' N</w>
waar van</w>
uit ges
tr ic</w>
term yn</w>
t ings
st ake
stake hol
so dat</w>
sk ep
s -</w>
require ments</w>
produc ts</w>
pl us</w>
pl eg
pas sport</w>
p riv
or ing</w>
oo p
omm er
neem ,</w>
n ou</w>
m al
komite e</w>
ins ula</w>
inkom ste</w>
impro ve</w>
ha ,</w>
gro wth</w>
gh ede</w>
gev ra</w>
gesk ik
ge tree</w>
f lu
exc lu
erti fied</w>
d om
curr ent</w>
char ac
c linic
c ases</w>
besigheids hoekies</w>
behal we</w>
beg in
be fond
arb eids
an a</w>
a e</w>
X ho
W OR
SERVIC ES</w>
Paar l,</w>
O u
M u
Kin der
J eug
He alth
G ood
D r</w>
D ay</w>
Biblioteek besigheidshoekies</w>
Behuis ing</w>
B A
48 2</w>
4 3</w>
w Ãªreld
verwys ing</w>
vermo Ã«</w>
verk ry
tr ak
toepas like</w>
tic s</w>
th ir
sam e
poli sie
p il
oor weeg</w>
ond s</w>
omm ige</w>
om stan
of f</w>
ob jec
monit or</w>
li ed</w>
kun dig</w>
kategor ie
k us</w>
k a</w>
immun is
gro ei</w>
geski ed
ge gee</w>
ens ation</w>
bet ter</w>
best aande</w>
be Ã«
be war
as k</w>
ar ound</w>
am pai
alloc ated</w>
Tech nology</w>
Pen insula</w>
Metropool -</w>
Mat zik
M el
K li
Ho wever,</w>
Eng lis
Bestuurs lisensietoets
B RE
87 3</w>
66 20</w>
.wcap e.school.za</w>
( Metropool-</w>
we ap
vi d
versi teit</w>
vers lae</w>
v lo
ty pes</w>
tot dat</w>
to on</w>
to ets</w>
ti al</w>
tes ta
ro le</w>
responsibi lity</w>
recom mend
rec reation</w>
re ports</w>
raa d
per form</w>
p as</w>
ou ri
op voed
oef en</w>
nat ural</w>
man ner</w>
le u
land lor
land bou
knowle dge</w>
kno w</w>
it s
ings .</w>
in st
in spek
ho l</w>
ho f
h Ãª.</w>
h ele</w>
go eie</w>
gehal te</w>
fi el
fasi liteit</w>
es ondheids
ek s</w>
ear ch
du i</w>
dr ag
devel op</w>
comm on</w>
comm itte
bioprospek teer
be oor
be oog</w>
ator y</w>
ar m
ai m</w>
agree ments</w>
aanbe vel
aan gebied</w>
T O</w>
Rec yc
N ood
Minister ie</w>
L e
Kin ders</w>
In kom
For um</w>
C /
B ur
B efond
A M
4 9
2 72</w>
Ã³ f</w>
web tuis
we ens</w>
waar voor</w>
w il
vol hou
ve el</w>
v ra
ty pe</w>
tre k</w>
to or
to esi
tempor ary</w>
tel s</w>
te er.</w>
tak es</w>
t ook</w>
sk ul
requi re</w>
re pe
qu anti
pu t</w>
ple kke</w>
pla t
p an
ou gh</w>
ou di
op e</w>
ooreenkom ste</w>
oor tre
middel s</w>
mi x
meth yl
mer k</w>
ma and</w>
m or
la ted</w>
l eiding</w>
k ommissaris</w>
indus try</w>
inc ome</w>
in k
im p
ic s</w>
gro ep
geno em</w>
erg y</w>
er i
en ess</w>
em o
el y</w>
e ers</w>
du ce</w>
dig .</w>
crimin al</w>
c ing</w>
by komende</w>
bo s</w>
ber g
benef it
assebli ef</w>
appe al</w>
app lies</w>
af ge
ab use</w>
aan stelling</w>
VI RON
Tra vel</w>
TU UR
TO E
T UR
Pro vi
OM GEW
Matzik ama</w>
Land bou
Lan geb
Hi gh</w>
EN VIRON
De el
Con stitutional</w>
Comm ittee</w>
Bes ker
================================================================ ================================================================
.c .
we g</w>
vi ew
vi es</w>
vers org
u le
toge ther</w>
tion s.</w>
teur-gener aal</w>
te lik</w>
t ter
sp an
sk ry
si tting</w>
sek su
s ake
rou gh
resol ution</w>
recei ved</w>
reason able</w>
r ug
prin ci
pre par
ple ,</w>
pe op
oep s
m r</w>
m ach
kon s
kel s</w>
k ommunik
k asie</w>
hu is</w>
ho of</w>
ges tuur</w>
geno em
ge o
ep ing</w>
el lan
desi gn</w>
complain t</w>
be mag
be l</w>
bac k</w>
at s</w>
ar s</w>
amp ten
al mal</w>
afhan klike</w>
add ens</w>
a ment
R 200</w>
Par lement</w>
Mont ag
Mitchell 's</w>
K o
J aar
IC T</w>
Han del</w>
Dis abled</w>
Certific ate</w>
B ill</w>
8 ,</w>
44 8</w>
. a</w>
waar de</w>
volle dige</w>
versk af
veiligh eids
vas te</w>
ter ti
suid-afrik a</w>
sub item</w>
sk ep</w>
sh aring</w>
s d
ro l
reg ter</w>
rec tional</w>
prop yl</w>
prop ellan
p esi
om s
no w</w>
li ving</w>
k ies</w>
gro un
ff ende</w>
exam in
etown .gov.za</w>
er :</w>
des cri
cour ts</w>
betre ffende</w>
bep aling</w>
behe erde</w>
bec ome</w>
ass y</w>
achi ev
aan wys
Y :</w>
W IT
Vred enbur
STA D</w>
SET A</w>
S C
R ed
Malmesbur y</w>
M ens
Lang u
Kaapst ad
Fam ily</w>
Con sum
C an</w>
C M
Bestuurslisensietoets sentrums</w>
Befond sing</w>
Aan soeke</w>
A sh
A ids</w>
9 9</w>
7/ 2008</w>
4 -
3 00</w>
200 7/2008</w>
1 01
werk saam
wat ter</w>
verantwoordelik heid</w>
ul p
toeris me
ti mes</w>
ter min
t rou
regar ding</w>
publi sh
prim Ãª
permit te</w>
oun g</w>
om gewings
om ers
man ier</w>
maa k.</w>
m and
infec ted</w>
inf ek
hou .</w>
ges ament
g res
fo on
exc ept</w>
es ts</w>
es burg</w>
en 's</w>
emb addens</w>
d ings</w>
citiz en</w>
chem ic
c ertified</w>
busin esses</w>
brui kers
bo s
ation s,</w>
am ,</w>
ac ts</w>
WEB SI
TOURIS M</w>
T eg
T ING</w>
Reg te</w>
R 1</w>
Q U
P i
P a
Organis ations</w>
N o</w>
M D
Hospit als</w>
G uide</w>
F ri
ENVIRON MENTAL</w>
E state</w>
Coun ci
Com ple
Co ast</w>
Bred as
Bell ville</w>
Atlan tis</w>
7 7
6 3</w>
year s.</w>
y s,</w>
wy sig
wer heids
week s</w>
versk eie</w>
verk ies</w>
ven noo
uiteenges it</w>
tri ese</w>
tri bun
to wn</w>
there for</w>
tech nical</w>
tain ed</w>
t ab
suid-afrik aanse</w>
sk eie</w>
sh of</w>
resp ond
reg ver
reg ional</w>
pa te</w>
no v
mit h</w>
me e</w>
ma xim
m echan
lin ieke</w>
le an
l es
klin ieke</w>
ke y</w>
k rag</w>
hou sing</w>
he ad</w>
gevaar dig
fi x
exis ting</w>
ertifik ate</w>
eg ro
duc tion</w>
diens heff
di vor
daar voor</w>
ci pate</w>
charac ter
cal led</w>
c abinet</w>
bew us
be handel
b l
au di
ar ly</w>
ali tz
Wor ld</w>
WEBSI TE:</w>
WEB TUIS
WEBTUIS TE:</w>
V ul</w>
V ie
U R</w>
TB -
Sw embaddens</w>
ST E</w>
S omers
Republi c</w>
P ools</w>
M er
Inter national</w>
G overn
Direk toraat</w>
Commun ic
Clanwilli am</w>
Centre ,</w>
@cap etown.gov.za</w>
3 .
08 2</w>
0 5</w>
0 5
you .</w>
wor ld</w>
w oon
voor deel
volgen de:</w>
ver voer
uit able</w>
tor .</w>
to wards</w>
str y
spor ts</w>
sh e</w>
s ak
reÃ« l
rela ting</w>
ref lec
prosed ure</w>
proced ure</w>
ou w</w>
onder soek
on .</w>
omite e</w>
o w
o t</w>
ners hi
nam es</w>
muse um
mo ed
manu fac
ks es
klag te</w>
ing -
infrastruk tuur</w>
ik ali
hospit ale</w>
goed ke
ger ig</w>
gemeen skap
forei gn</w>
fak s</w>
en cour
diensheff ingskantore</w>
di vi
dat a</w>
committe es</w>
chemic als</w>
besker m</w>
be per
an nual</w>
ag ing</w>
af gevaardig
adop tion</w>
aanv aar</w>
aan tal</w>
Wyn berg</w>
Worces ter,</w>
Wet en
Streek diensheffingskantore</w>
Sch uur</w>
Particip ation</w>
Opvoed kundig</w>
MD R</w>
Kap a</w>
HO W</w>
H om
F loor,</w>
E li
De posi
DE R</w>
D -
Cor rectional</w>
Cor por
C la
Bi r
B y</w>
A S</w>
8 .</w>
201 0</w>
w id
voor heen</w>
ver l
ver huurder</w>
vei lige</w>
us se</w>
ur .</w>
un it</w>
um )</w>
uit s
tion s,</w>
th rough
terti ary</w>
t aal
su ff
sk antoor</w>
self s</w>
se p
raa l</w>
r ui
pr ise</w>
parti cular</w>
om v
nor m
mar k</w>
m ond
lan g
k ur
invol ved</w>
inisi atief</w>
inform ation,</w>
in dependent</w>
i um</w>
hy dra
hoev eel
han y
ha se</w>
groo t
gr af
geb ou
g ings</w>
g aan.</w>
fam ili
f le
exam ple,</w>
et a.org.za</w>
es s,</w>
e ve</w>
de b
cor por
contin ue</w>
ci vi
chil d
c s</w>
bes te</w>
bes t</w>
ber ading</w>
b o</w>
b ly
assi gned</w>
and /
an im
advan ta
ad ver
a ve</w>
Wa ter
Ver kies
V roue</w>
V ic
Uni t</w>
P OR
O cc
O MI
Na vor
N U
MM W</w>
Leg al</w>
J usti
H oog
Groo te</w>
F I
E W
Dur ban
Do en</w>
D rank
D or
C all</w>
Ad vice</w>
1 )</w>
0 ,</w>
. a.</w>
y outh</w>
web .co.za</w>
weap ons</w>
w ell
vol un
ver houd
vehic les</w>
uit st
u w
tre ated</w>
tr act</w>
ten ant</w>
te ach
swar t</w>
staats dienskommissie</w>
sing le</w>
sec tions</w>
s aid</w>
re delike</w>
program me.</w>
poli si
ple ase</w>
parti cipate</w>
ouderd om</w>
omstan dighede</w>
nie ;</w>
ne ,</w>
n y
n ation
minister s</w>
mic ro
mi k</w>
lu g
lan de</w>
kap it
in stitution</w>
he u
han n
h and</w>
gewoon lik</w>
gesondheids dienste</w>
esti c</w>
en ning</w>
em ail</w>
depart ments</w>
ch o
ch air
c ommissioner</w>
bur s
ble .</w>
bioprospek tering</w>
bev estig</w>
bel ow</w>
atelli te</w>
an ders</w>
am ong</w>
al ready</w>
aa d
W al
W Y
V eld
T A
S TI
S EN
Ri gly
ON OMI
Inkom ste
Guidel in
Ges tremdhede</w>
F i
El ke</w>
Bes tuur</w>
@m web.co.za</w>
6 00</w>
( only</w>
werk s
we et</w>
w er</w>
vergoed ing</w>
ver vaar
ure d</w>
ty ,</w>
tot ale</w>
toege ken</w>
teg nologie</w>
sec u
reg istreer</w>
protec t</w>
por t,</w>
physi cal</w>
pesi alise
oor sp
oor drag</w>
onder wys</w>
oef ening</w>
naa m
man ned</w>
m m</w>
lo ad</w>
li ties</w>
lew er</w>
landlor d</w>
kr asie</w>
k wes
ion .</w>
in ary</w>
im port</w>
ho p</w>
he el
hand le</w>
h ui
gr ant</w>
go ing</w>
ge e.</w>
en ting</w>
en ding</w>
en ac
ek om
distr ict</w>
coun ci
cop ies</w>
consi sts</w>
comp u
chem ikali
c ould</w>
boe te</w>
belast ing</w>
behuis ings
bedrywi ghede</w>
assess ment</w>
asi s</w>
ar ms</w>
amp le</w>
akti wi
af fir
advanta ged</w>
ad vice</w>
Tyger berg</w>
T es
T :</w>
Sk akel</w>
SP ORT</w>
R oo
Provin ce</w>
On ce</w>
Mos sel
Langu age</w>
LI C
L AND</w>
K an</w>
Justi sie</w>
In v
Im pro
IK S
H eid
Finan cial</w>
ER S
E ach</w>
DISTR IKS
Consum er</w>
C i
C H
Br and
6 -
46 1</w>
199 4</w>
10 /0
0 9
(I tem</w>
' S</w>
Ãª ,</w>
werksaam hede</w>
vro u</w>
voorsi t
ver van
ver pleeg
v lei</w>
tw e
th at
tex t</w>
t in
t esti
t ari
succ ess
same werking</w>
ric ul
r ate</w>
posi tive</w>
oun d
ongel uk</w>
onder teken</w>
on -
offic e.</w>
na mens</w>
moed er</w>
ly n
lu may
leid ings</w>
is se</w>
in stru
her ro
ge mik</w>
f asiliteite</w>
ew er</w>
esbur g,</w>
er cial</w>
en ted</w>
e vid
distr ibu
der de</w>
cr acy</w>
concer ning</w>
clo se</w>
centre s</w>
cap ital</w>
c linics</w>
ar y,</w>
ar gi
ap ter</w>
Tuis te</w>
Sui d</w>
Stad s
Sci ence</w>
Sch edule</w>
S t</w>
Roberts on</w>
Por ter
PROJ EC
On t
Occ upational</w>
K R
Im mun
HE AL
GES OND
G el
Delf t</w>
Ch ar
Bit ou</w>
B UR
Ac cid
AR Y</w>
3 /
12 ,</w>
10/0 6)</w>
werheid )</w>
voordeel -
veroor saak</w>
ver rig</w>
vennoo t
tri al</w>
tran sl
t ans</w>
sustain able</w>
sub systems</w>
stre et</w>
ste eds</w>
standaar de</w>
some one</w>
sk eiding</w>
sk an
si gned</w>
si g</w>
s e.</w>
ro ad
ri vi
resour ce</w>
raam werk</w>
r ural</w>
provi sions</w>
program m
post al</w>
parti cul
or n
optre de</w>
ob lig
o ther
no dige</w>
men ser
medi a</w>
mark et</w>
kor por
kon trak
k ri
k am
ite ms</w>
is tics</w>
inv es
in t</w>
im medi
i g
hydra z
hol der</w>
her itage</w>
gew aar
fe es</w>
establis h</w>
enc e,</w>
en ed</w>
ek .</w>
e ;</w>
dok ter</w>
di date</w>
de -
d eg
by :</w>
bel eg
ban k
b ar
ation s.</w>
ast ing</w>
an it
an al
ad vis
Wor k
TO ER
TI ES</w>
Recyc ling</w>
Pres id
OMGEW ING
Medi a</w>
J U
In struc
G ug
Ci vi
CENTR ES</w>
C alitz
Bran ch</w>
B lack</w>
Ap pro
Afrikaan s</w>
9 5</w>
9 1</w>
9 18</w>
65 30</w>
63 7</w>
48 7</w>
3 04
1 30</w>
( Provincial</w>
work s</w>
w s</w>
vla kke</w>
verbly f
tu al</w>
t ent</w>
struc tion</w>
stel sels</w>
st ation</w>
spe aker</w>
sion .</w>
si mpt
saa klike</w>
s ou</w>
s on
s mall</w>
prosed ures</w>
proced ures</w>
proc ess
primÃª reg
per mits</w>
off ers</w>
o gn
ners hip</w>
nat uur
minim um</w>
menser eg
li s</w>
le we</w>
l .</w>
jo b</w>
issu es</w>
inkom ste
ier re</w>
houd s
he g</w>
go ed</w>
gel dige</w>
gebrui k.</w>
ge deel
g un
fin e</w>
es p
el l</w>
du s</w>
dis advantaged</w>
develop ing</w>
d a</w>
countr ies</w>
contain s</w>
comm it
c ally</w>
bep alings</w>
be plann
ation :</w>
ar y
acc ount</w>
abin ets
aan gew
U I
TO R</w>
TI ON</w>
S TE
P ierre</w>
Opleidingso werheid)</w>
O ld</w>
Me tr
MIN I
M et</w>
M bek
I M
F onds</w>
Deel name</w>
Cer es</w>
C amp
C )</w>
Buil ding,</w>
Bol and</w>
B lo
B l
B ed
Ar ti
An y</w>
Acc ess</w>
0 7</w>
.za /</w>
.za /
. gov
( Sektorale</w>
( P
( 02
writ ing</w>
werknem ers</w>
we es,</w>
voorgesk ryf</w>
ver gader
v rou
u ,</w>
tor y</w>
tele phone</w>
t est
staats diens</w>
st ing</w>
st a
ren ew
reg ter
publish ed</w>
publi c
ouri e</w>
op gel
off er
moe dig</w>
level s</w>
land dro
la un
la min
kon stitusionele</w>
k ings</w>
j on
itr us
inligt ings
infrastruk tuur
in won
ic ally</w>
i lie</w>
hui dige</w>
gr a
fun d</w>
es )</w>
en kel
el a</w>
effec ti
e ?</w>
consist ent</w>
consider ed</w>
by dra
bla ck</w>
best aan
behoef te</w>
at ures</w>
app e</w>
ampai gn</w>
W y
T ax
Saldan hab
S ome</w>
Resour ces</w>
Republi ek</w>
R et
P ap
O ut
Ne w</w>
Munici pali
Mu si
MIV /
MINI STR
M il
Lic ences</w>
K abinet</w>
Jo hann
I ES</w>
HEAL TH</w>
Di rec
DISTR ICT</w>
B urs
Agric ulture
A gency</w>
69 70</w>
5 00</w>
4 2</w>
. d</w>
w ise</w>
w es</w>
vic es</w>
verspre iding</w>
val ue</w>
v is</w>
u y
tr isi
ti ves</w>
stu ur</w>
sti g
st or
simpt ome</w>
s ommige</w>
s leu
s hip</w>
s -
rekor ds</w>
rec ogn
proble ms</w>
pre ven
particip ation</w>
opleid ings
nomm ers</w>
na vig
mo ther</w>
maj ority</w>
langu ages</w>
lan ger</w>
ken ning</w>
iti es.</w>
it ,</w>
istre erde</w>
issu ing</w>
ing ;</w>
in k</w>
i on</w>
huwe lik
ho Ã«</w>
high er</w>
gewoon ter
ged urende</w>
ge ts</w>
f arm</w>
en te
econ om
e ed
deli ver
deci de</w>
cre ate</w>
cons ult
com mod
co st</w>
character istics</w>
besk ou</w>
avra e:</w>
an yone</w>
amen ded</w>
al -
ag re
accid ent</w>
ac tion</w>
Vred endal</w>
Re venue</w>
R 1,
Par ow</w>
O FF
Ny werheid</w>
No .</w>
M AN
Im migr
I I
Hel der
Eni ge</w>
Bes o
Al mal</w>
Administr ation</w>
6 2</w>
4 8</w>
3 8</w>
200 4
11 1</w>
. org
webtuis te</w>
wa ys</w>
wa g</w>
voor gelÃª</w>
vers ui
us .</w>
tric ity</w>
tr ent</w>
toesi g</w>
to et
testa ment</w>
tersi Ãªre</w>
st of</w>
se tels</w>
se par
se ats</w>
saf e</w>
profes sionele</w>
produc t</w>
po ly
person eel
p aar</w>
ori gin
oor din
ongel uk
mu si
mi th
m y
lo dge</w>
law s</w>
l ui
l oride</w>
l one</w>
l -
jud ge</w>
j ulle</w>
ings program</w>
in stand
in -
gro up</w>
gew one</w>
fasi li
ex ample</w>
enber g,</w>
en z
eien aars</w>
ei er</w>
direc tly</w>
digh eids
comp et
co- ordin
cap e</w>
asi e-
ad es</w>
aan mel
W ol
T reas
Sub si
Str and</w>
Sou thern</w>
S W
REGI STR
R eis</w>
Protec tion</w>
Pro mo
O tter
Heid el
HO E</w>
Em powerment</w>
El sies</w>
Co .Za</w>
Cap t</w>
C C</w>
Buil ding</w>
Bree deri
Bem ag
As soci
App ly</w>
8 2</w>
46 0</w>
34 8</w>
34 7</w>
19.a. 1.</w>
0 8</w>
0 2</w>
/ 10/06)</w>
. d.
- 8</w>
Ãªre ld</w>
vuurwap en</w>
voordeel- deel
volhou bare</w>
voertui e</w>
verk rag
ver lede</w>
us ually</w>
toek enning</w>
to l
ti es,</w>
t ale</w>
star t</w>
stakehol ders</w>
sr sa.
si e,</w>
s ui
retur n</w>
regul ation</w>
recor d</w>
re venue</w>
re ase</w>
raa f
provin ce.</w>
promo tion</w>
produ ce</w>
previ ously</w>
poten tial</w>
portfoli o</w>
poli cies</w>
pesialise erde</w>
par lementswet</w>
p rec
oper ation</w>
oor leg</w>
ondersteun ende</w>
n el</w>
mi ted</w>
meer der
mail :</w>
m aan
lu tion</w>
legisla tures</w>
komite es</w>
inc rease</w>
i Kapa</w>
grondwet like</w>
gebas eerde</w>
ge .</w>
ful ly</w>
fisi ese</w>
ern stige</w>
end s</w>
ehuis e</w>
di pl
di ar
de al</w>
canc er</w>
c lear
ber eik</w>
be vol
b oor
and ,</w>
alis ation</w>
acti v
ab ly</w>
a sp
Treas ur
TOER IS
T ehuise</w>
St and
Saldanhab aai</w>
SI E</w>
S entr
Pla in</w>
Par k,</w>
PROJ EK
OMGEWING SAKE</w>
L D
K ui
K linieke</w>
Is su
Hom es</w>
H ill
G er
Englis h</w>
ENTR UMS</w>
Caled on</w>
C anc
Beaufort- Wes</w>
An d</w>
6 7
5 1</w>
4 4</w>
3 7</w>
2 12
- en-
work .</w>
wer hede</w>
wel m
websi te.</w>
ver ri
ver meld</w>
ver hoo
uit ga
ty ke</w>
ti en</w>
ti cal</w>
ter re
sy mpt
ste ad</w>
stand ing</w>
sh op
ser ve</w>
sal ar
rig ting</w>
res t</w>
remo ved</w>
rel ations</w>
r ates</w>
pun t</w>
produk sie</w>
produ k</w>
princi ples</w>
pdf )</w>
ontvan g.</w>
onte heu
offic ers</w>
off er</w>
num bers</w>
ni ese</w>
medi um)</w>
me et</w>
lif ik
laa g</w>
kliÃ«n te</w>
k u
inv ul</w>
intel ligen
ing er
infrastr ucture</w>
inc orpor
im s</w>
ie f</w>
identiteits dokument</w>
identi fied</w>
het sy</w>
ges ien</w>
f s
et .</w>
enti fic</w>
employ ed</w>
el ,</w>
ek ennings</w>
ear ly</w>
e @
e -</w>
di g,</w>
cri me</w>
cover s</w>
cour se</w>
con tract</w>
comp ly</w>
ch eck</w>
categor ies</w>
c ulture</w>
bui te</w>
bo x
bil like</w>
bevo eg</w>
betro k
beno em</w>
be urse</w>
b eide</w>
arti kels</w>
ang a</w>
and/ or</w>
an twoor
ai led</w>
agent skap</w>
administr ative</w>
Wh o</w>
Web site</w>
Voor skrifte</w>
VIE R</w>
V eter
Touris t</w>
S un
S to
Pro te
Piket berg</w>
ONTWIKKELIN GS
O or
O n</w>
O U</w>
O O
N Y
M c
LIC EN
L am
Kraai fontein</w>
Herman us</w>
Har t
Hand leidings</w>
F r
F ir
Cap e,</w>
C itrus
By lae</w>
Breederi vier</w>
Bell ville,</w>
B ou
B onteheu
Afrikaan s)</w>
70 5</w>
word :</w>
we ,</w>
w a</w>
voor kom</w>
verord en</w>
verk l
verkl aar</w>
ver soek
ver beter</w>
veld tog</w>
tyd se</w>
transl ation</w>
tele foon
sy n</w>
str eng
stand ards</w>
st atisti
srsa. gov.za</w>
s chem
ro ads</w>
raa g
publi seer</w>
politi cal</w>
pati ent</w>
pasiÃ«n te</w>
par lement</w>
opportun ities</w>
onder rig</w>
on de
om trent</w>
meerder heid</w>
m etro
m )</w>
lear ning</w>
le y</w>
le v
l et</w>
kan tore</w>
k la
inv ul
in cid
implemen tering</w>
i .</w>
hoeveel heid</w>
geÃ¯ ntegreerde</w>
geme en</w>
funk sion
for d</w>
fis h</w>
f ood</w>
f air</w>
er ia</w>
en vis
employ ees</w>
el ings</w>
duc ed</w>
doel wit
de vices</w>
com peti
co sts</w>
co hol</w>
ch all
bui ld</w>
br ing.</w>
br ation</w>
beskikbaar .</w>
bena deelde</w>
beamp tes</w>
b loo
ate :</w>
are a.</w>
ar e:</w>
an ,</w>
ai med</w>
agric ultural</w>
administr atiewe</w>
ac ting</w>
aar d</w>
aai ,</w>
W ie</w>
Veld dri
TH E
Swar t</w>
ST ING</w>
SAR S</w>
S port
Plan n
OR G
Mossel baai</w>
MI S
Lis ensi
Kui ls</w>
Kle ins
In tel
I ni
I denti
HEID S
H op
E mail:</w>
Depart ments</w>
DIEN STE</w>
Cont act</w>
Comple te</w>
C ON
A AN
5 3</w>
44 7</w>
34 9</w>
200 6,</w>
- sharing</w>
- general</w>
- 5
wet tige</w>
volt ooi</w>
verbet ering</w>
v ader</w>
ty e</w>
tr ust</w>
su kses
stand ard</w>
st appe</w>
spre ad</w>
registrasi e
reg streek
re de</w>
r .</w>
pr akti
pr ak
po st</w>
po or</w>
phosp hon
person al</w>
per mith
onder teken
on line</w>
nomin ated</w>
navor sings
n it
mon th</w>
mon d</w>
mis handeling</w>
mer kte</w>
me de
la ting</w>
kul turele</w>
k urs
k ed</w>
k aar
judi cial</w>
jaar likse</w>
inter vention</w>
in voer
hospit als</w>
her si
handel s
g uide</w>
f light</w>
esondheids org
ensi ve</w>
en ter</w>
eg ene</w>
dik wels</w>
deleg ates</w>
def ence</w>
deel name</w>
declar ed</w>
de ath</w>
cre ening</w>
cor rec
concer ned</w>
chlor o
ch ief</w>
ca used</w>
c oo
c e,</w>
bur gerskap</w>
bre iding</w>
br a
betrok ken
ber ei
benefit -sharing</w>
begin sels</w>
b ul
b @
af el
ab us
aan lyn</w>
Xho sa</w>
TOE TS
STR E
S enior</w>
Pl um
O o
O M</w>
Medi cal</w>
Mark eting</w>
M ari
Lan ge
LI BR
L it
Kul tuur
Kon stitusionele</w>
K an
K OM
Institu te</w>
Immun is
H u
F ar
E ?</w>
Cer es,</w>
C/ O</w>
Br ing</w>
B et
Ath lone</w>
Ar chi
AA R
A t</w>
A k
9 80</w>
6 4</w>
5 7</w>
200 6
2 /
0 9</w>
. e.
. c</w>
---------------- --------
------------------------ ----
---------------------------- --
------------------------------ -</w>
(02 1)</w>
( for</w>
( Ac
Ã« l</w>
yn s
water ,</w>
verk eer
vereni ging</w>
uitge voer</w>
tre prene
tradi sionele</w>
to wn
te erde</w>
te -
sy n
sti c</w>
span ning</w>
skrif telik</w>
ro ss</w>
res erv
pres ent</w>
practi ces</w>
politi eke</w>
ple eg</w>
pas te</w>
par ts</w>
p t</w>
p ry
p hase</w>
ooreen stemming</w>
og ni
o werheid</w>
mechan is
maxim um</w>
lo te</w>
k ol
k m</w>
k lik
k aart</w>
j ie</w>
j eug
ic e</w>
ho ek</w>
ho ef</w>
hi m</w>
h app
gereg istreerde</w>
geb re
funk sie</w>
foc us</w>
f ase</w>
ex tent</w>
evid ence</w>
enti t
el er
ec ted</w>
doc tor</w>
direk teur</w>
daar na</w>
communic ation</w>
bes it</w>
be mark
au t
an y
adop ted</w>
ac k
aa ie</w>
X 9
W aar</w>
Vie w</w>
V ei
V an
V OOR
U m
Somers et</w>
Sk ool
S ur
Rek reasie</w>
Rehabilit ation</w>
Reg ul
R SA</w>
PRO GR
On e</w>
OFF IC
O f</w>
O TE
M id
M E</w>
L in
Hospit ale</w>
H IC
En treprene
Dr aft</w>
Direc tor</w>
D o</w>
Cap e
BLI OTE
BI BLIOTE
B rid
B S</w>
87 4</w>
8 00
7 8</w>
4 9</w>
200 5
0 .
/ of</w>
weg ing</w>
voorgesk rewe</w>
vi a</w>
verwys ings
verskaff ing</w>
vari ety</w>
um a</w>
tradi tional</w>
through out</w>
th a</w>
ter .</w>
te d,</w>
ta ining</w>
t ural</w>
struc tures</w>
stre k</w>
str aat,</w>
stem me</w>
sp her
siz e</w>
sel ling</w>
sec tor</w>
saa klik</w>
s ul
s entrum
ricul um</w>
produc tive</w>
pre h
pleg tige</w>
plan t
persoon like</w>
ong mense</w>
onder skeie</w>
offer ed</w>
ob tained</w>
nor mal</w>
ne w
n Ã
n is
monit oring</w>
misdaa d</w>
men ts.</w>
m ek
l uit
kategor ie</w>
k i
k ende</w>
j e
hy dro
he et</w>
h lumay
groep e</w>
gro up
go ff
gewoonter eg</w>
gely k</w>
ge wer
ge paste</w>
fr amework</w>
f ound</w>
exp i
entreprene urs</w>
enter pris
enac ted</w>
en /of</w>
em a</w>
e ven
do ende</w>
di versity</w>
develop ed</w>
der s.</w>
defin ed</w>
conc lu
ch loride</w>
ch ec
c oordin
c /
c/ o</w>
bewar ing</w>
besigh eid</w>
behal f</w>
be er</w>
appoin t</w>
amb ass
am ban
age .</w>
affec ted</w>
abinets lid</w>
a es</w>
W il
W hi
VO ER
VER KE
UL TUR
To k
Teg nologie</w>
TR AF
TOR E</w>
Str ateg
St an
Sk ool</w>
S on
R ed</w>
Pl ett
Par k
O ther</w>
Nu us
Metr o</w>
MO TOR</w>
M en
M U
Ladis mith</w>
L ewe</w>
K hany
K am
Jo h
Inter nasionale</w>
IN LIG
IN D
I VIER</w>
HU UR
HOSPIT AL
E D</w>
Canc er</w>
C HI
Br ac
Arti kel</w>
Arb eids
An der</w>
Afric a
9 .</w>
5 72</w>
34 2</w>
3 12</w>
2 .a.
2 )</w>
199 5</w>
wetgew ers</w>
wet te</w>
waar onder</w>
verrig t
vak ature</w>
vac ancy</w>
ul b
ts te</w>
trans form
tion ed</w>
th ma</w>
su spec
struk tuur</w>
struc ture</w>
sto ekennings</w>
st ad</w>
sam es
proble em</w>
permith ouer</w>
par k</w>
par en
out side</w>
ou d</w>
other wise</w>
ordin ary</w>
op gedra</w>
op enb
oorsp ron
ni ev
ne x</w>
navig ation</w>
n el
n asion
mp handle</w>
mis si
mark eting</w>
main tain</w>
loo p</w>
lik s</w>
li z
lea ve</w>
kul tuur
kom ing</w>
k stoekennings</w>
k il
investig ate</w>
hu ur</w>
h yns
grond slag</w>
glo b
gev eer</w>
geskied enis</w>
ges lag
gebi e
ge trou
g uid
fis hing</w>
ex ually</w>
ex ported</w>
et ers
ers hip</w>
en i</w>
el k</w>
eien aar</w>
e vents</w>
dui delik</w>
direk toraat</w>
de k
d r</w>
curr ently</w>
co .za</w>
civi l</w>
citizens hip</w>
circ um
c om</w>
c itr
c ent</w>
bui telandse</w>
bin n
ben e
be comes</w>
ask ed</w>
ar e,</w>
an nex</w>
an de</w>
all ,</w>
ag ter
afgevaardig des</w>
admin istreer</w>
ad v
ach ed</w>
acc ur
acc es
aat :</w>
Wol sel
Weten skap</w>
Wet )</w>
W as
W aar
W KO
W I
Veter inary</w>
Ver bruikers
U mphandle</w>
U K
TR I
TH OR
TE STING</w>
S h
S el
Ri vi
Ri ver
Reg s
REGI ON
R ES
Protec tor</w>
Pro per
N ie
Moorre esburg</w>
Minister s</w>
Medi um</w>
MEN TS</w>
M ac
Lic enc
Khayelits ha,</w>
K AN
J AN</w>
ING S</w>
H ug
H out</w>
H AN
Gro en
Ges ondheid
Ge estes
FOR M
ENTI TIES:</w>
ENTI TEITE:</w>
E vents</w>
D u</w>
D riv
Com plain
Civi c</w>
Bon niev
BE PLANNING</w>
B asi
Alber tin
Afrik a</w>
AU THOR
A re
8 7</w>
(Ac t)</w>
( Wet)</w>
wis h</w>
wh om</w>
werk ,</w>
w ins
w ese</w>
w eight</w>
vre de</w>
voorsit ter</w>
vol doen.</w>
vo ering</w>
ver i
tr ust
tj ie</w>
ter saaklike</w>
ten der</w>
sympt oms</w>
sd k</w>
s em
s anit
risi ko
rehabilit ation</w>
propellan t</w>
pro gres
pho to
pe cially</w>
p raa
onder wer
onder houds
on ts
om b
n ur
n esses</w>
n ag
meth yl</w>
man i
lon ger</w>
lo s
lei ers</w>
l Ãª.</w>
kwa li
kontak besonderhede</w>
ken f
k -
is ing</w>
individu al</w>
ind aba</w>
hulp bron
hospit aal
hoof stuk</w>
ho Ã«r</w>
hi er</w>
gev aar</w>
gereg tig</w>
gen i
geboor te</w>
ge ag</w>
g uidel
fen is</w>
ex em
es pecially</w>
es ;</w>
envis aged</w>
eff ek
ed om</w>
e is.</w>
e ders</w>
du ties</w>
doeltreff end</w>
do wn</w>
dise ases</w>
dise as
contac t:</w>
conf lic
comp li
can did
c y
bur ger
bui tel
br and
bo ek
bi lity</w>
bes lis</w>
belangri ke</w>
be krag
b at
ati v
ass um
as tern</w>
areas .</w>
appÃ¨ l</w>
anc e,</w>
ag ents</w>
afric a.
af gel
ac tice</w>
ac commod
aange gaan</w>
aan spre
W here</w>
V isi
Uni versity</w>
TU IG
Subsi dies</w>
STRE EK
S u
S il
S her
RE D-
Proper ty</w>
Pro fes
P lease</w>
Onder neming</w>
Maat skapp
M ak
Langeb aan</w>
LL EN
K EN
In nov
Hop e
Hoog gereg
Hart enb
H ei
G etting</w>
F arm</w>
En ter
E n</w>
De velop
Chil dr
Calitz dorp</w>
Burs aries</w>
Brac kenf
Behuis ings
B al
9 00</w>
75 30</w>
68 35</w>
5 -
y 's</w>
we .</w>
w we</w>
verskaf .</w>
versek er.</w>
verrigt inge</w>
uitreik ingso
ti me.</w>
there fore</w>
tern ity</w>
tel ling</w>
t ant</w>
sek tor
sec ond</w>
sa ys</w>
s m
regula sie</w>
reat ment</w>
re view</w>
produk tiewe</w>
preh ensive</w>
posi tief</w>
polit an</w>
pati ents</w>
particip ating</w>
p sy
p op
p at
organis ation</w>
norm ale</w>
nem ers</w>
nat ure</w>
must -</w>
ment 's</w>
men tioned</w>
leg e</w>
le e</w>
l Ãª
kom ,</w>
ko s</w>
ke en</w>
k oor
k on</w>
k o</w>
is hop</w>
inter ests</w>
in e
implemen ting</w>
ho ed
h aal</w>
gesament like</w>
ges pesialiseerde</w>
gebe ur</w>
geb ou</w>
ew el</w>
et ter
es tr
er ve</w>
er ende</w>
entr y</w>
enquiri es:</w>
enkel e</w>
el ing
eff icient</w>
e ed</w>
doelwit te</w>
distr ik
d alk</w>
complain ts</w>
cli ents</w>
c rit
c asting</w>
bioprospekteer permit</w>
beÃ« indi
bet al
bel eids
begro ting</w>
befond sing</w>
b v.</w>
associ ation</w>
ap plying</w>
allo cations</w>
aan dag</w>
Vic toria</w>
Vi gs</w>
VOER TUIG
VE HIC
VEHIC LE</w>
V E</w>
Uni versiteit</w>
TR A
T reatment</w>
T a
T )</w>
St ate
S co
S .</w>
S ,</w>
Riebe eck</w>
Resour ce</w>
Registr ar</w>
R ef
Otter y</w>
Ob serv
M ond
M as
Lange berg</w>
L eer
IN F
Hel p</w>
Good wood</w>
FI C</w>
ED E</w>
E i
E F
Driv e,</w>
D oor</w>
D RA
Certific ates</w>
CI TY</w>
Basi c</w>
Assi stance</w>
9 3</w>
8 5</w>
8 1</w>
200 4,</w>
2 7
19 5</w>
( R
y oung</w>
wat ch</w>
w ag
voor deel</w>
twe ede</w>
ture .</w>
tron ic</w>
tr us
tr ical</w>
ti pe</w>
ter s
tem per
teg niese</w>
t ts
strategi e</w>
ster f
st op</w>
st on</w>
sp ie
sp here</w>
soor te</w>
skrif telike</w>
si aal</w>
ser ious</w>
rig ly
ri ve</w>
respec tive</w>
res ul
repla cement</w>
registre er.</w>
reas ons</w>
re lig
re des</w>
raa g</w>
prok ure
proc eed
pro secu
p aar
org an</w>
op stel</w>
on ce</w>
ne y</w>
ne e
ment ary</w>
me tho
marri ed</w>
maatskapp ye</w>
maa k,</w>
loc k</w>
la te</w>
kom .</w>
kle in
k aa
k :</w>
jon ger</w>
it y,</w>
inligt ing
i .
hoev eel</w>
ho or</w>
h in
h ed</w>
gro ter</w>
gro ep</w>
govern ment.</w>
gestel de</w>
ge kom</w>
g ings
g en</w>
ex ecu
er ings</w>
entit led</w>
eng ines</w>
eid enheid</w>
eer der</w>
e q
dis c
direc tor</w>
direc t</w>
dig de</w>
datab ase</w>
dag vaar
cr aft</w>
counsel ling</w>
child 's</w>
chemikali eÃ«</w>
ch apter</w>
burs aries</w>
br an
betrokken heid</w>
bestuur der</w>
belangheb bers</w>
belang rik
b ree
b on
awar eness</w>
aut omati
ar ran
ap ril</w>
an e</w>
ampten are</w>
alk yl</w>
al tern
al t</w>
V illi
V il
V AL
Town .</w>
Sco tts
S V
REGION AL</w>
R amp
Prote a</w>
Program mes</w>
Onder steun
OFFIC ES</w>
L S</w>
L AND
J an</w>
Infrastr uk
HIV/ Aids</w>
H uis
Fin d</w>
Fin ance</w>
Elsenbur g</w>
E DE
De ur</w>
DISTRIKS MUNISIPALITEIT</w>
D O</w>
Communic ations</w>
Bo s
Besker mer</w>
Ap plying</w>
ATE R
9 .a.
9 ,</w>
79 7</w>
78 3</w>
76 00</w>
7 12</w>
69 6</w>
5 9</w>
42 3</w>
2 13</w>
1. a</w>
. b</w>
wy d</w>
wo on</w>
w ek
vo tes</w>
verl of</w>
verkrag ting</w>
veran der
ver houding</w>
ve el
v and
um ,</w>
uit oefening</w>
tra vel
toeris me</w>
to -
thir d</w>
th ers</w>
tern al</w>
t and
struc tural</w>
strateg y</w>
so li
sleu tel
skap ,</w>
sh are</w>
sh ar
sci entific</w>
s ett
s end</w>
s earch</w>
rekor d</w>
re main</w>
r ad
r ac
proc lam
proc esses</w>
pro por
pre mis
pr actice</w>
ound ation</w>
oper ational</w>
oper ates</w>
oo d,</w>
on s
of ten</w>
mas s</w>
man age</w>
li ter
li er</w>
leer ling
lear n
lan g</w>
kwes sies</w>
k oop</w>
k lein</w>
j ari
ings -</w>
inge vul</w>
indus tr
inclu de:</w>
in jur
in form</w>
in a</w>
imp act</w>
ill ness</w>
ic ,</w>
h ei
guar di
gran ted</w>
gelyk heid</w>
geb ore</w>
fire arm</w>
fe w</w>
facilit ate</w>
ever yone</w>
es se</w>
eni gi
en y
en sie</w>
en o
eh and
dom estic</w>
distr ik</w>
di rek</w>
di ffic
di egene</w>
declar ation</w>
d ing
ci li
ch ang
chang es</w>
c lean
c es.</w>
c entr
c ard</w>
bes pre
bene fit</w>
avra e</w>
ar y.</w>
ar res
an te
aktiwi teite</w>
ak kredi
ag t</w>
ad res
acc eler
aanspre ek
aan s</w>
aal -
Wets ontwerp</w>
Tes ourie</w>
Ten ders</w>
TRAF FIC</w>
TB ,</w>
T ulb
St at
S M
R onde
R el
Pretori a</w>
Par lementswet</w>
O ce
Montag u</w>
Metropool- Suid</w>
L av
IN FORM
Hou se,</w>
Hi gh
Guidel ines</w>
Grab ouw</w>
Gr assy</w>
Finan siÃ«le</w>
FE B</w>
F ree</w>
ED ER
E ers
E ast</w>
D ar
Cri me,</w>
Ch ris
Arb eid</w>
Ac ade
A id</w>
A V
5 4</w>
4 7</w>
15 0</w>
1 12
.z a.</w>
weten skaplike</w>
waar om</w>
wa y
w ill
versui m</w>
versk eidenheid</w>
verp ligt
verk oop</w>
ver lo
valu es</w>
v as</w>
ur ,</w>
un able</w>
ub er
th s</w>
tel .</w>
t alle</w>
su s</w>
stel sel
st aat
speci alised</w>
sl et
si tes</w>
si es,</w>
s we
s exual</w>
s enior</w>
s av
rup tion</w>
retrovir ale</w>
res ults</w>
