#version: 0.2
t h
a n
i n
e n
k u
e l
i s
o n
a l
th e</w>
t i
e s
n g
e r
o m
a m
e z
a b
k h
o ku
p h
k w
o f</w>
u l
e d</w>
o n</w>
e m
a s
i l
a r
u n
u m
h l
i m
i c
t o</w>
an d</w>
o r
w a</w>
o l
u ku
i z
r e
a t
i t
th i</w>
e r</w>
r o
in g</w>
e k
e s</w>
a k
o r</w>
w e</w>
ti on</w>
a z
el a</w>
in g
e c
a y
i n</w>
en z
u s
a l</w>
y e</w>
en i</w>
e b
s h
d l
an g
a c
o u
es i
i s</w>
en t</w>
i k
e th
k an
s i
n om
p l
u b
a tion</w>
a t</w>
en g
a ph
a th
t r
p ro
el e</w>
o b
a kh
c on
el o</w>
nom a</w>
o s
a s</w>
T h
u r
is a</w>
a g
a n</w>
i b
a d
u ng
kan ye</w>
an a</w>
e t
u k
ti on
a w
eb enz
v e</w>
n o
t s</w>
i g
b e</w>
f or</w>
ez in
al a</w>
th at</w>
i d
an d
a p
a thi</w>
il e</w>
e n</w>
w h
c i
i kh
l o
c e</w>
c h
r es
s t
en d
e d
p er
Th e</w>
un d
t er
i th
o d
ay o</w>
c om
e v
a hl
f r
i v
l y</w>
i ph
n oku
ng oku
e -
f or
e g
iz in
u c
in i</w>
am b
th eth
l e</w>
an dl
is h
i f
an e</w>
t u</w>
o kw
ek a</w>
uku thi</w>
k e</w>
m ent</w>
en t
q u
f u
e x
a tion
it h</w>
o v
at e</w>
a f
in d
A fr
it y</w>
er s</w>
i r
ab a</w>
w ith</w>
b y</w>
ar e</w>
el wa</w>
on ke</w>
b e
em b
al o</w>
i y
u th
al i</w>
p ar
a y</w>
il l</w>
o kh
h a
az i</w>
i we</w>
i t</w>
in t
o w
ul u</w>
on g
t h</w>
u z
o un
w eni</w>
p or
ku m
ab an
s ebenz
fu thi</w>
an y</w>
on a</w>
is wa</w>
p r
e y
t ed</w>
ku l
pro v
o p
iz im
aw o</w>
b a</w>
u d
ph ak
f f
w ill</w>
o th
l i
n j
ou r</w>
s u
is i</w>
theth o</w>
p ec
ul a</w>
er e</w>
el we</w>
t er</w>
N g
y oku
ng en
th e
um a</w>
an s
a q
ic e</w>
as h
el i</w>
c l
ak a</w>
ez im
o t
n e
az we</w>
us t</w>
an i</w>
esi kh
s ec
y o
con s
at ed</w>
as e
a v
is e</w>
i ti
on d
hl ang
ng aph
U ku
no t</w>
re c
o k
U m
es s</w>
ti ve</w>
ab le</w>
u g
er v
ou r
th is</w>
ro m</w>
Afr ic
in is
o y
l oku
i q
f rom</w>
s e
ha ve</w>
m ust</w>
n am
ik a</w>
ez ing
a h
a in
al l</w>
dl ela</w>
nj eng
en ts</w>
i p
o c
ur e</w>
I n
i -
es h
re g
en e</w>
a r</w>
e p
un y
h al
in y
f und
w e
l e
ul um
p e
ol o</w>
ov er
enz a</w>
z oku
il i</w>
phak athi</w>
uku z
k oku
h as</w>
em ent</w>
i es</w>
aban tu</w>
ation al</w>
w el
e f
ebenz i</w>
un tu</w>
ou th</w>
w as</w>
s oku
u t
for m
com m
an o</w>
s ub
om b
l w
ig h
per s
ek ile</w>
ic h</w>
ulum eni</w>
en ce</w>
d is
o g
b u
yo u</w>
wh ich</w>
w o</w>
S outh</w>
e ku
ation s</w>
d i
ung u</w>
con t
ahl a</w>
ci al</w>
ek e</w>
ic elo</w>
tion s</w>
as e</w>
u ph
ap pl
t ing</w>
oth er</w>
kum ele</w>
u kw
m ay</w>
kan t
i c</w>
an ele</w>
ab o</w>
o ph
um el
e hl
a ku
an ce</w>
is o</w>
ti t
w or
A c
es e</w>
as s
ag e</w>
ac c
s erv
a -
i r</w>
i wa</w>
ang a</w>
s o</w>
p ahla</w>
p pl
a kw
p os
o ff
i hl
hl elo</w>
e ph
um b
esi g
ab h
e kw
en s
al ly</w>
l eg
ans i</w>
ol a</w>
o ul
ar y</w>
uku ba</w>
am an
y e
c w
C om
m s</w>
or d
m an
g o
ob a</w>
ic ation</w>
oul d</w>
g r
ou t</w>
on e</w>
an t</w>
c r
ukuz e</w>
0 0
e kh
is ana</w>
an y
us e</w>
o z
k om
am a</w>
kh andl
it s</w>
n ez
Afr ika</w>
o sh
is i
I z
izim u</w>
sec tion</w>
ing izimu</w>
ev el
in ter
K h
ti m
Ac t</w>
n ezin
ku b
c es</w>
p res
p o
kh ona</w>
es s
is ikh
et sh
andl e</w>
us h
khandl u</w>
over n
l aph
ing a</w>
ing i</w>
be en</w>
pers on</w>
ng okw
od wa</w>
N ingizimu</w>
i d</w>
m e
at sh
iti es</w>
es t
is we</w>
az a</w>
h amb
si on</w>
d uc
n y
A m
ak e</w>
r el
por t</w>
kw ez
sebenz i</w>
p ol
ti v
ath a</w>
q h
el ana</w>
si b
wh o</w>
u y
v a</w>
ab as
is ebenzi</w>
em p
esikh athi</w>
li c</w>
P ro
eth u</w>
ar d</w>
ub lic</w>
h e
on s</w>
ti f
the ir</w>
e t</w>
es t</w>
u M
re qu
uth uk
s o
m in
b as
iz a</w>
is ek
kw am
iph i</w>
s us
par t
in z
ku z
ik ez
cons um
w ere</w>
p re
om a</w>
ol wa</w>
th eng
etsh enz
ic es</w>
f un
ec t</w>
ci l</w>
oun cil</w>
wel onke</w>
esi d
m is
s tr
s uc
andl a</w>
akh o</w>
s pec
tit u
w ith
uk u</w>
C on
sebenz a</w>
n em
al so</w>
ter ms</w>
d e
akh ulu</w>
t e
u -
m emb
ku ph
al e</w>
ad e</w>
u hl
' s</w>
lo kh
evel op
el ela</w>
f anele</w>
w oku
ul e</w>
prov in
ib h
a in</w>
kw em
cl ud
C ouncil</w>
in v
en c
w ane</w>
od s</w>
um untu</w>
2 00
and ela</w>
a d</w>
laph o</w>
end e</w>
u s</w>
t or
pro c
overn ment</w>
im o</w>
i ed</w>
Afric an</w>
z i</w>
es i</w>
c er
in to</w>
en y
ku y
i al</w>
b h
q ub
si g
su ppl
isek elo</w>
az o</w>
ku ng
ar g
ung elo</w>
prov id
o o
ti c
i e
h um
h e</w>
Afric a</w>
os e</w>
com pl
n ational</w>
im b
am p
ar d
u q
inis ek
f er
s el
ing o</w>
lo w
go ods</w>
f ac
P r
I s
in c
i f</w>
k akhulu</w>
u e</w>
I m
k a
a il
in clud
re s</w>
igh t</w>
ak ala</w>
ang o</w>
pl e</w>
is l
an s</w>
M khandlu</w>
ou s</w>
el y</w>
akh e</w>
ezin d
am al
h o
in e</w>
Um a</w>
ul wa</w>
w ano</w>
is tr
at ing</w>
suc h</w>
w ay
s titu
enz iwa</w>
er y</w>
ol e</w>
Th is</w>
en ye</w>
eb h
consum er</w>
e h
em pl
kant olo</w>
at es</w>
am as
1 9
ec tion</w>
s t</w>
for m</w>
ez ulu</w>
y our</w>
m on
c an</w>
w ez
it e</w>
leg isl
c oun
hlang ano</w>
m or
ezim ali</w>
m at
ar e
uku b
si d
in form
el ele</w>
P ar
al s</w>
ob o</w>
m ar
q ond
ik o</w>
ng em
ay elana</w>
d evelop
d ec
ac h
ul o</w>
o hl
in ye</w>
t y</w>
ath u</w>
ah ulumeni</w>
o -
hl aba</w>
d et
ek ayo</w>
al l
ku n
C h
serv ices</w>
p on
l om
tr y</w>
ab ath
b an
aw eni</w>
ngen dlela</w>
W e</w>
lo c
esi fund
as t</w>
kant i</w>
u p
ez i</w>
i thi</w>
b o
S t
b us
al is
g ro
ab l
S A
s om
d r
e q
a id</w>
t sh
okh u</w>
u kh
o q
akh a</w>
w azi</w>
the y</w>
ang e</w>
ngaph andle</w>
in a</w>
hlang an
en er
ay a</w>
M thetho</w>
un ye</w>
K w
u p</w>
a j
k odwa</w>
dl a</w>
requ ir
w eb
il o</w>
an oma</w>
amb i</w>
t ur
am aph
izin isi</w>
um ela</w>
ku s
pe o
etshenz iswa</w>
ab e</w>
y im
n al
m it</w>
sus pec
N ational</w>
uk a</w>
f in
d el
is icelo</w>
si kh
oy isa</w>
p ublic</w>
l a
e l</w>
ahl e</w>
no th
with in</w>
g overnment</w>
am m
i er</w>
oku ng
kw ezin
am e</w>
I n</w>
f ol
f ir
y is
e ff
il l
os isekelo</w>
E x
esi b
c our
uk ela</w>
r em
ic al</w>
ub a</w>
o f
l and
ik e</w>
y ez
om u</w>
if und
al ity</w>
on y
ng esikhathi</w>
im ali</w>
i a</w>
i ve</w>
a tive</w>
re e</w>
tion al</w>
ku fanele</w>
I t</w>
y il
tim e</w>
e qu
theth osisekelo</w>
appl ication</w>
in k
tr ans
s y
ing s</w>
h ulumeni</w>
com p
u va</w>
mor e</w>
isikh athi</w>
ek o</w>
uku kh
im p
e the</w>
ab eni</w>
mis sion</w>
um e</w>
ac h</w>
I -
re as
al wa</w>
ar s</w>
ak athi</w>
s iz
h is</w>
for e</w>
ec u
u m</w>
th ese</w>
peo ple</w>
on om
ti c</w>
un ic
ab ab
ol akala</w>
eth o</w>
ek ela</w>
T r
om o</w>
ath wa</w>
theng i</w>
th uthuk
ez a</w>
res pon
sh ould</w>
ng am
at t
ind awo</w>
d awo</w>
az welonke</w>
at er</w>
q ala</w>
m ayelana</w>
kw al
A n
o x
ti ce</w>
inform ation</w>
int sh
ush a</w>
t or</w>
ecu tive</w>
ro ug
um sebenzi</w>
el l
gr amm
ebenz a</w>
ob h
n o</w>
y om
wh en</w>
ter s</w>
in ess</w>
ez o</w>
ac e</w>
j ect</w>
por t
ec onom
c re
ab ang
wor k</w>
o d</w>
ase Ningizimu</w>
v ik
sh i
x enye</w>
uph i</w>
t ure</w>
ne w</w>
memb ers</w>
bu t</w>
af ter</w>
ag re
e m</w>
am a
sib le</w>
al ul
Pro v
umel wano</w>
provin cial</w>
is t
hl os
en d</w>
ec h
w ayo</w>
it ed</w>
c o
n ed</w>
emb u</w>
om ish
ng al
njeng oba</w>
uth or
j e</w>
is su
il d
ey o</w>
ti es</w>
ny ango</w>
an is
on o</w>
noth o</w>
ku be</w>
enz iwe</w>
a x
um o</w>
e y</w>
as t
uku ph
no kw
d oc
c h</w>
um thetho</w>
stitu tion</w>
el ekile</w>
ac t</w>
ong q
uku l
u res</w>
il ity</w>
f ak
theth weni</w>
am eli</w>
a m</w>
im in
uku hl
l ic
serv ice</w>
g c
em ents</w>
ow n</w>
iq h
kul u</w>
f e
on i</w>
end awo</w>
t wo</w>
o to</w>
enz e</w>
amb a</w>
develop ment</w>
cont in
ar r
U n
ngaph ansi</w>
comm un
I f</w>
uku s
od i</w>
k s</w>
em ib
c or
wh ere</w>
p ur
z im
per i
ol u
n ing</w>
m ents</w>
m ade</w>
iz o</w>
c ap
D e
b et
ad i</w>
e dl
ung o</w>
ti l
c ol
fol low
o per
izim pahla</w>
ha d</w>
su p
unic ip
w om
A l
part ment</w>
n ab
as o</w>
y al
x a</w>
lokh u</w>
el ene</w>
v i
or g
est abl
pro gramm
di rec
in q
y i
W h
sub section</w>
A b
y iz
em thethweni</w>
con tr
sh o</w>
qub o</w>
q inisek
on g</w>
ez ikh
os t</w>
kw ab
es o</w>
enz eka</w>
en tr
aq ond
osh e</w>
off ic
and ak
am a-
th roug
ip ala</w>
esifund azwe</w>
uk o</w>
pr i
ar i
ag ement</w>
pr om
n en
und er
r a
ez is
d o</w>
P h
w ould</w>
ob u
m ed
el ayo</w>
a uthor
or s</w>
ongq oshe</w>
o M
i kw
ay s</w>
v al
sy st
hlos o</w>
fun c
t ak
th an</w>
s ch
pro duc
bus iness</w>
ay is
amp ani</w>
am ath
0 0</w>
w an
uz o</w>
s aid</w>
res pec
is h</w>
im i</w>
f aka</w>
Prov in
us ed</w>
k no
iz we</w>
isi on</w>
el eni</w>
z ez
qh ub
h ov
A s
ong ameli</w>
doc um
uk ene</w>
e ar
be ing</w>
an c
am ende</w>
on ly</w>
aman zi</w>
ind e</w>
ov er</w>
Kh omish
or y</w>
M an
B h
legisl ation</w>
iny aka</w>
ez ith
a ir
A ppl
r ed</w>
enc y</w>
andak any
st at
eng u</w>
o :</w>
n umb
c ur
and a</w>
und er</w>
shi p</w>
M inis
s e</w>
A N
q ongqoshe</w>
am akh
lokh o</w>
k ahle</w>
an ayo</w>
z om
j ec
am andla</w>
am ag
th ose</w>
ol og
er ed</w>
z onke</w>
ye ar</w>
uku th
hov isi</w>
u al</w>
h ol
w ana</w>
be fore</w>
b ec
ath ini</w>
ang aph
off ice</w>
ezim b
ez ib
R eg
n es
eng i</w>
d em
U M
pres ent
is ed</w>
throug h</w>
li am
kuph ela</w>
dl ul
ath elene</w>
ad v
i wo</w>
Con stitution</w>
ku kh
iz ing
is t</w>
ik a
phak eli</w>
oku kh
esi f
en a</w>
pol ic
ain ing</w>
P hal
iz wa</w>
pro t
ord er</w>
ab al
Com mission</w>
v en
s p
izin to</w>
r ight</w>
o m</w>
f ul
id i</w>
ev isi</w>
19 9
in dlela</w>
k ing</w>
it sh
eph a</w>
am azwe</w>
tiv es</w>
t ake</w>
n er</w>
abas ebenzi</w>
th ere</w>
on al</w>
k ab
empl oy
Pr esid
b r
an t
pol ice</w>
al isa</w>
Phal amende</w>
is iwe</w>
eth er</w>
m it
e M
okh o</w>
S erv
Ex ecutive</w>
tr uc
s ing
reg is
hl obo</w>
et s</w>
F und
w onke</w>
er min
at ure</w>
okw enza</w>
ngen xa</w>
l ing
ev er</w>
b ab
ab out</w>
im pl
v ume</w>
ur ing</w>
oun d</w>
en ti
rec e
n ec
n e-
dl u</w>
De partment</w>
we en</w>
i j
h er</w>
ard s</w>
amb ili</w>
Ng qongqoshe</w>
om e</w>
k ahulumeni</w>
g qu
bet ween</w>
ug u</w>
p ay
m inis
ekw a</w>
ith etho</w>
end aweni</w>
w ini</w>
g u
ic ate</w>
ch arg
cer tif
at eg
suppl ier</w>
ol v
x hum
ub u
reg ul
oku m
id ingo</w>
d aba</w>
c ul
uku sebenza</w>
b en
numb er</w>
as ipala</w>
ap pro
Z welonke</w>
w aq
ou t
kw es
as e-
v ir
af f
Par liam
abath engi</w>
im isebenzi</w>
ekw e</w>
det ermin
c ane</w>
agre ement</w>
ye ars</w>
w ater</w>
us a</w>
ul i</w>
ngaph ambi</w>
en hl
ci p
ony aka</w>
memb er</w>
i l</w>
atsh ana</w>
u hlelo</w>
th er</w>
i on</w>
ap po
p ow
con sid
s ite</w>
s es
3 0</w>
ic h
ek i</w>
cw adi</w>
re fer
m ake</w>
ac tion</w>
hamb isana</w>
f l
d ef
com e</w>
y em
us t
th er
suspec ts</w>
ngoku thi</w>
k azwelonke</w>
includ ing</w>
L okhu</w>
F or
ter ed</w>
ish wa</w>
igh ts</w>
et y</w>
et ing</w>
es ing
e thi</w>
B o
m ent
ib e</w>
establ ish
eb engu</w>
e Ningizimu</w>
ti g
omb isa</w>
d o
b el
h el
yim uphi</w>
the m</w>
eth a</w>
e N
ay am
amaph oyisa</w>
I N
ul wazi</w>
iv umelwano</w>
id e</w>
coun try</w>
amal ungu</w>
akw azi</w>
r it
appl ic
uz a</w>
tic ul
l ab
ac ala</w>
a use</w>
o si
is ela</w>
ac k</w>
sebenz isa</w>
proc ess</w>
istr ation</w>
ut sh
st ate</w>
requir ed</w>
del iv
am abh
E N
v is
ng ezin
im e</w>
comm it
Presid ent</w>
wel l</w>
uku q
s uku</w>
oku ph
ez i
y e-
w al
pro per
esi th
As s
ik azi</w>
i m</w>
f i
ens ure</w>
ol d</w>
oku b
Parliam ent</w>
ng om
ikez a</w>
follow ing</w>
c as
ar res
an ts</w>
ak ash
s it
ik i</w>
ens i</w>
S h
kan j
s em
ng ab
are as</w>
st and
e w
ukw enza</w>
l and</w>
iz e</w>
ong o</w>
on -
ng es
ez iph
d u
con duc
res s</w>
lo Mkhandlu</w>
es tig
ed i</w>
ang u
am o</w>
ka Zwelonke</w>
ekh o</w>
econom ic</w>
am uk
x ox
nj alo</w>
d ate</w>
cont empl
C ap
g ener
em e</w>
cour t</w>
z ing
respon sible</w>
il a</w>
ie f</w>
hl an
provid e</w>
ng ok
l aw
um thengi</w>
pur pos
iph a</w>
ez iy
ez if
Minis ter</w>
emib andela</w>
b az
ac tiv
w es
spec if
s iza</w>
ob ul
dl eni</w>
ayam thetho</w>
ain st</w>
ul eka</w>
k ed</w>
iz ikh
h er
c op
vir on
syst em</w>
E m
k os
id en
ic i
alul ekile</w>
N at
ph ansi</w>
ex t
eh ic
d ays</w>
ad d
re present
oku n
respec t</w>
ot e</w>
oku th
o us
k ampani</w>
el eka</w>
contempl ated</w>
aqond ana</w>
x h
if omu</w>
hl inz
er s
con o</w>
aq h
am u</w>
me ans</w>
as em
ag ainst</w>
u t</w>
par ticul
oun t</w>
hlangan isa</w>
g e</w>
ex p
an eni</w>
O ff
fund o</w>
are a</w>
E n
y ini</w>
t ain</w>
ig aba</w>
hamb a</w>
g omo</w>
el ec
uku n
res ul
ngokw emibandela</w>
n ang
lo wo</w>
an cial</w>
M r</w>
s ur
mat ter</w>
man agement</w>
k a</w>
compl et
az iso</w>
uz i</w>
ug ebengu</w>
Kw a
v ehic
proper ty</w>
par ti
l im
end ed</w>
ung isa</w>
th ree</w>
sup port</w>
m unicip
e ach</w>
y en
on z
ng ez
ak am
Appl ication</w>
es is
b ese</w>
m a
us o</w>
so ci
o p</w>
em ent
d ay</w>
aman ye</w>
P ol
peri od</w>
cur r
th en</w>
il it
hl a</w>
emb ly</w>
e as
appo int
ngoku ph
it age</w>
esh a</w>
s k
n ob
em s</w>
ek ele</w>
eff ec
andakany a</w>
ur ity</w>
se t</w>
inv estig
ez u</w>
an ces</w>
z em
y a</w>
ng ayo</w>
kab usha</w>
M emb
y onke</w>
minis tr
ag r
un a</w>
res our
ish ayamthetho</w>
em va</w>
ed uc
ech n
t ly</w>
l ess</w>
il y</w>
esh e</w>
ent ly</w>
al th</w>
ab ili</w>
v umel
loc al</w>
koku ba</w>
ifund azwe</w>
ho us
f ur
con f
ab az
Ass embly</w>
t en</w>
pl ace</w>
w e-
v ie
l ob
ezind aweni</w>
acc ord
y ing</w>
s im
ku sho</w>
emp ilo</w>
az weni</w>
appl y</w>
I si
ut y</w>
l d</w>
is es</w>
esig aba</w>
w ay</w>
la w</w>
kw i-
ku th
is ebenz
iqh aza</w>
in t</w>
fu l</w>
e j
b l
ab ility</w>
ot i</w>
ku d
akh am
ab ahl
inq umo</w>
an j
ag es</w>
nj e</w>
kno w
av ail
amas evisi</w>
yiz iphi</w>
reg istration</w>
l angu
em uva</w>
aban ye</w>
uny wa</w>
ez ihl
az ane</w>
xhum ana</w>
v ari
som e</w>
l if
i N
el iph
Kwa Z
per mit</w>
esikh un
Is icelo</w>
v elo</w>
s in
ol wazi</w>
nec ess
m y</w>
fir st</w>
cr ib
as a</w>
akh ul
z in
kw is
im pahla</w>
i dl
ex c
esi Fund
esh i</w>
en si
el elwa</w>
akw a</w>
te e</w>
t ain
provin ce</w>
ne ed</w>
kh okh
ish o</w>
d if
akh iwo</w>
a x</w>
pr ac
n er
con di
T H
lo w</w>
eg r
uth a</w>
ut e</w>
qinisek isa</w>
oz i</w>
func tions</w>
abas olwa</w>
z ik
suppl y</w>
pr iv
nam e</w>
iti c
ic ul
d uring</w>
r ac
n anoma</w>
ind us
el weni</w>
d ep
acc ess</w>
G overnment</w>
D i
uku m
par t</w>
l e-
z iy
q al
ong a</w>
m aqondana</w>
fak azi</w>
U kw
um ele</w>
uku v
parti cip
m any</w>
end a</w>
1 0</w>
okum ele</w>
il ities</w>
w rit
iz i</w>
is elwa</w>
fin ancial</w>
d es
b ur
Th ere</w>
N d
Cap e</w>
ku noma</w>
b an</w>
tr ic
ord in
in ing
d s</w>
programm e</w>
is m</w>
in j
im ib
enti al</w>
avail able</w>
v ery</w>
reas on
per form
kw aku
ing eka</w>
en j
con cer
ath elo</w>
ol i</w>
g et</w>
es im
ens e</w>
ebh izinisi</w>
KwaZ ul
Khomish ane</w>
uny a</w>
ou g
n eg
ib on
a ir</w>
R ep
tor s</w>
le ar
ig h</w>
ex t</w>
al ungu</w>
Bo ard</w>
p er</w>
n on-
izin y
en viron
L ungu</w>
Serv ice</w>
sikh athi</w>
pers ons</w>
az e</w>
ad i
uz e</w>
u kan
no tice</w>
n s</w>
n ase
l ed</w>
kw el
il d</w>
esig abeni</w>
aw u</w>
ab af
we ph
u- Nat
so cial</w>
noku ph
eth emb
b ro
author ity</w>
ag ed</w>
ol obh
ng u
m ost</w>
kw en
kuph i</w>
kum elwe</w>
j eng
ig n</w>
ez il
entr e</w>
c ase</w>
z en
o u</w>
ng alo</w>
es ts</w>
e :</w>
Th ekw
H ulumeni</w>
ub e</w>
th ola</w>
sh e</w>
mar k
iv ed</w>
fur ther</w>
ed s</w>
d er</w>
bo th</w>
KwaZul u-Nat
A d
ur ban</w>
sh intsh
oku v
ining wane</w>
ent ela</w>
S ch
with out</w>
u v
re ad
ol u</w>
iy iphi</w>
iv ing</w>
is imo</w>
hl ala</w>
w am
str uc
org anis
om unye</w>
necess ary</w>
gqu z
er ation</w>
crib ed</w>
ap prov
Thekw ini</w>
I S
o h
ngoku b
b onke</w>
ap pe
w ase
rel ev
o P
iy a</w>
ben ef
ak ing</w>
tak en</w>
land o</w>
il li
Iz in
H e
sub ject</w>
polic y</w>
he the</w>
f iny
d esig
b ang
wh at</w>
ec ted</w>
ar m
umel elo</w>
um kh
ow o</w>
iv iny
er ing</w>
ek elwa</w>
aph ansi</w>
ak alo</w>
w a
thuthuk isa</w>
port un
oP hethe</w>
er al</w>
el is
d iv
an other</w>
amb isana</w>
ad ministr
Provin cial</w>
ro l</w>
provid ed</w>
n u</w>
mon th
ment al</w>
is ts</w>
ik edi</w>
ib oph
g re
bu y
y okw
uthuk o</w>
po si
ol w
n a
edl ule</w>
Y ou</w>
T o</w>
A n</w>
relev ant</w>
prot ection</w>
m an</w>
k o
certif icate</w>
at ely</w>
S ec
G ener
um phakathi</w>
s er
ngem uva</w>
g ency</w>
end er</w>
a the</w>
B ill</w>
ust om
p ass
op portun
isi ons</w>
ep t</w>
A r
r ights</w>
m untu</w>
ig omo</w>
commun ity</w>
uM khandlu</w>
tr ies</w>
om notho</w>
l es
itic al</w>
esikhun dleni</w>
a tives</w>
1 1</w>
1 0
00 0</w>
um phakeli</w>
ok a</w>
izin dawo</w>
ezin ye</w>
el ing
bh ek
ul we</w>
si on
ok o</w>
l in
is ivumelwano</w>
inv olv
ar m</w>
is ing</w>
impl ement
cons ul
c ould</w>
Rep ublic</w>
O n
M thethosisekelo</w>
z iph
v er
re por
por ation</w>
ph ambili</w>
oo d</w>
m e</w>
iz athu</w>
ib u
i h
resour ces</w>
pro f
me as
l ike</w>
ikez wa</w>
do es</w>
cr imin
ch ange</w>
aph o</w>
E l
uk azi</w>
ub h
sig aba</w>
om thetho</w>
ngoku sh
jec ts</w>
ing xenye</w>
includ e</w>
ch ild
b al
az ul
ak eni</w>
S ub
um i</w>
uku d
s olwa</w>
qhub eka</w>
ku -
i ev
h t</w>
fun a</w>
ess es</w>
ent sh
ast al</w>
and elayo</w>
am be</w>
vik elwa</w>
reg ard</w>
r i
qub om
n ess</w>
n d
med i
le ad
l et
ezim pahla</w>
ay i</w>
akh iwa</w>
a dl
Th ese</w>
N oma</w>
un d</w>
ezin ingi</w>
ad di
re port</w>
oo l</w>
iq izo</w>
esif azane</w>
ci ti
b er
K u
Al l</w>
r esid
il wane</w>
ez weni</w>
compl ain
as i</w>
am ash
R o
O r
ng o
m o
ikh ulu</w>
ez wa</w>
am az
v ic
sh all</w>
sec urity</w>
osh wa</w>
l ar
is ith
ill s</w>
an ti
N o</w>
y es
un dla</w>
ol ak
it al</w>
gro w
en ces</w>
y ase
ur al</w>
ung iswa</w>
s al
qubom gomo</w>
ng as
l u
im port
i w
way elekile</w>
ro s
re n</w>
od a</w>
ma int
izin dlela</w>
hl abeni</w>
enz o</w>
D evelop
y akho</w>
ther e
ng abe</w>
n ers</w>
j o
ez ela</w>
docum ent</w>
cw alisa</w>
ash ana</w>
s ol
programm es</w>
on to</w>
o w</w>
laph a</w>
is ayo</w>
ing an
gc ina</w>
ek elwe</w>
col l
o ci
leg al</w>
kul o</w>
iti f
en dl
bas ed</w>
am ad
vehic le</w>
uth o</w>
om p
ol un
mat er
kanj alo</w>
et t
b ez
olog y</w>
m as
kw e-
hl e</w>
enz i</w>
angaph andle</w>
and o</w>
an k
air s</w>
E L
si y
regis tered</w>
noku n
ng eke</w>
k inga</w>
eth we</w>
deliv ery</w>
d at
ay e</w>
Wh en</w>
S A</w>
P ublic</w>
N jeng
yi kuphi</w>
u ally</w>
tur al</w>
refer red</w>
iv en</w>
issu ed</w>
establish ed</w>
el ungelo</w>
ebenz isa</w>
dif fer
ch weph
akhul ukazi</w>
ail s</w>
ahl ukene</w>
T I
R S</w>
K U
y am
waq o</w>
qu ality</w>
om idi</w>
iph akathi</w>
gc in
ezind aba</w>
esi v
contin ue</w>
conduc t</w>
ch azwe</w>
aq embu</w>
al leg
akh okh
a ve</w>
A s</w>
5 0</w>
wh ether</w>
und i</w>
tit y</w>
sec tor</w>
ot sh
okh um
et i</w>
esi ph
ehl ukene</w>
dl el
ac k
w ab
ung is
s m
oph i</w>
k u</w>
izin hlelo</w>
izin d
izim ali</w>
er c
cap ac
bu ild
az wa</w>
ash i</w>
D ep
Ch ief</w>
ud aba</w>
suspec t</w>
particul ar</w>
onz o</w>
noku b
l ev
kuy o</w>
k a-
inis o</w>
H er
vumel ana</w>
ung a</w>
sid e</w>
si ons</w>
s is
iph umela</w>
commun ities</w>
Develop ment</w>
us uku</w>
suc c
oo k</w>
me eting</w>
iy o</w>
inter national</w>
inter est</w>
int egr
imb i</w>
il ungelo</w>
c an
Di rec
2 0</w>
vie w</w>
u hulumeni</w>
oy a</w>
og ether</w>
in iti
b re
ab aph
ab anga</w>
Pol ice</w>
y -
s af
qond o</w>
oku ngen
man ner</w>
im a</w>
iden tif
esig atshana</w>
en kantolo</w>
b ay
P S</w>
L e</w>
Bh odi</w>
vik ela</w>
us tice</w>
thuthuk iswa</w>
ro b
proc ed
ous ly</w>
om be</w>
is eni</w>
dl eko</w>
C our
y in
s c
s ame</w>
re tur
pos ed</w>
noku thi</w>
kw abantu</w>
ikh a</w>
hum an</w>
ey a</w>
b od
ass oci
an k</w>
am abili</w>
akw e</w>
P l
A bas
z iz
web o</w>
uny elwe</w>
ngaph akathi</w>
in st
g overn
ez elo</w>
cw ele</w>
activ ities</w>
Com m
z ikh
vari ous</w>
re t
ol s</w>
n ezing
ex pl
contin u
ci r
ang ase</w>
andl ul
Th ey</w>
I l
ub eka</w>
pl ac
ng cono</w>
legisl ature</w>
ku v
im ikh
ik ela</w>
es in
el ay
eb o</w>
an n
accord ance</w>
ab ly</w>
D urban</w>
C O
ish a</w>
h im</w>
esikh ashana</w>
charg e</w>
c ustom
bec ause</w>
Reg istr
R es
In ter
Afr ikha</w>
y alo</w>
umb i</w>
t re
s ez
l ez
educ ation</w>
ch ang
b ud
at ors</w>
Gener al</w>
u thi</w>
okw enziwa</w>
ngokush esha</w>
ng um
m aj
l ika
ik akhulukazi</w>
ic ally</w>
ezing eni</w>
end s</w>
ek iwe</w>
co astal</w>
b i
b hal
aph a</w>
amal ungelo</w>
ak ela</w>
M ongameli</w>
z ib
y s
y ethu</w>
oku z
ngen hloso</w>
l arg
l abo</w>
eff ect</w>
child ren</w>
arres ted</w>
wor ld</w>
tiv ely</w>
qu es
pe ti
pay ment</w>
p aid</w>
ng oba</w>
nezin ye</w>
en q
coun tries</w>
chweph eshe</w>
ath olakala</w>
W or
S u
M E
x azul
w em
tr ade</w>
purpos es</w>
os uku</w>
month s</w>
ban tu</w>
zim pahla</w>
web site</w>
uku g
t ax</w>
s etshenziswa</w>
pres cribed</w>
par ties</w>
mit ted</w>
i an</w>
h os
ex am
elay o:</w>
el elo</w>
del eg
cre d
U N
soci ety</w>
noku hl
ng e-
ik elele</w>
ezimb ili</w>
dem oc
comp any</w>
capac ity</w>
as s</w>
aph oyisa</w>
T E
Dep uty</w>
u ation</w>
t ogether</w>
str ateg
reg ard
prov ision</w>
pow er</w>
omb uso</w>
l es</w>
i ally</w>
ful l</w>
cons titu
con c
an ye</w>
M unicip
Com p
An d</w>
A M
soku thi</w>
le ast</w>
l ezo</w>
ihl alo</w>
du ce</w>
an z
al anga</w>
H e</w>
tr aining</w>
ro ad</w>
p ub
ku khona</w>
iz inga</w>
ex erc
eq esh
el in
appro pri
Pr em
read y</w>
noku kh
l ethu</w>
kom thetho</w>
indus try</w>
ezind awo</w>
e S
condi tions</w>
Memb er</w>
uny elwa</w>
un an
t echn
og r
kus ukela</w>
im ithetho</w>
ev en</w>
cl os
b es
ain ed</w>
Com mit
y ab
ses sion</w>
ow ever</w>
no w</w>
ng q
l ik
e e</w>
akh ona</w>
Off ic
sh or
s e-
ro w
pl an
olobh a</w>
l ed
ind iv
hal we</w>
f our</w>
ezin t
cr ime</w>
ch all
chall eng
at h</w>
a tim
SA RS</w>
Her itage</w>
C or
zik ahulumeni</w>
sel f</w>
om hlaba</w>
ngoku l
l is
kw enziwe</w>
ku hl
i onal</w>
esiFund azwe</w>
esh ini</w>
en tion</w>
effec tive</w>
cont rol</w>
c o-
S iy
K ap
wor k
uk ile</w>
pl es</w>
l o</w>
kh ulu</w>
in cwadi</w>
finy elela</w>
ent i</w>
aman je</w>
al azo</w>
z ith
trans action</w>
ter m</w>
t o
i e</w>
form s</w>
ez iz
eth wa</w>
en kulu</w>
consum ers</w>
complet e</w>
b ath
aw ulo</w>
ap p
am ah
w o
uph a</w>
ung ula</w>
uku ny
u r</w>
pr in
kw i
ez iv
es ted</w>
c arr
atsh aneni</w>
an tu</w>
akham uzi</w>
akh iwe</w>
K odwa</w>
B r
z abo</w>
y i-
uku ng
pl ay
on akala</w>
in stitu
im prov
i als</w>
et u</w>
end ing</w>
b oku
amath uba</w>
ak al
Ng aph
z is
x usa</w>
specif ic</w>
sig n
re d
izin suku</w>
en k
c all
az elo</w>
ay in
C r
wom en</w>
om usha</w>
m ul
lo kw
iv es</w>
is ting</w>
is ane</w>
in ation</w>
in ani</w>
illi on</w>
hl aka</w>
Ro ad</w>
Registr ar</w>
M ar
- 0
writ ten</w>
wh ile</w>
unan kulu</w>
s pe
s ed</w>
regis ter</w>
priv ate</w>
ph atha</w>
on j
j ek
ha v
f ive</w>
qh utsh
provid es</w>
part y</w>
on d</w>
n or
kuz o</w>
j ud
esig atshaneni</w>
docum ents</w>
SA PS</w>
F or</w>
Cour t</w>
yis iphi</w>
ven tion</w>
n ezim
langu age</w>
kw ezimali</w>
j ust</w>
ig ama</w>
ic ala</w>
ex ecutive</w>
eny a</w>
eng am
e k</w>
ay ela</w>
ath atha</w>
am ount</w>
a im
u N
ter n</w>
s um
q oka</w>
ong oz
ngen a</w>
jek thi</w>
il ungu</w>
hel d</w>
he alth</w>
f a</w>
eng en
em hlabeni</w>
el elwe</w>
el eke</w>
de part
consul t
add ress</w>
um hlaba</w>
prom ote</w>
pre vi
ol ung
offic ial</w>
l ine</w>
j ongo</w>
is ele</w>
ezing u-
e ase</w>
ci ph
am ile</w>
I r
z i
ubu fakazi</w>
sub mit</w>
st ances</w>
rel ated</w>
pol itical</w>
n c
mat ters</w>
kno w</w>
ith a</w>
it atim
ish ini</w>
ing ekayo</w>
g ive</w>
ez ig
c um
b ase
al if
G ugu</w>
y ob
v iviny
si ph
requir ements</w>
oku s
l em
iz amo</w>
il i
fund a</w>
f am
es iz
en ing</w>
e ed
dec lar
b eg
alis ation</w>
H l
1 2</w>
web a</w>
w esifundazwe</w>
stat us</w>
r u
oku d
n as
lev el</w>
l os
ezith ile</w>
ef anele</w>
ap h</w>
al ities</w>
af f</w>
S om
K ung
w ethu</w>
sup por
s il
reason able</w>
qu ir
ph umela</w>
l ast</w>
kuz e</w>
know led
gro up</w>
determin ed</w>
cl ose</w>
citi zen
az iswa</w>
an isa</w>
ain s</w>
yen ingi</w>
pos sible</w>
o thi</w>
itsh alo</w>
is itif
in s
imb ela</w>
im ba</w>
ie ve</w>
ext ent</w>
ex pec
el ibh
cons truc
build ing</w>
at s</w>
ahl ang
abab ili</w>
Nd unankulu</w>
w ama</w>
uny we</w>
t el
st ar
prov isions</w>
oc c
ob e</w>
noku l
includ es</w>
differ ent</w>
can not</w>
at ory</w>
ab in
a :</w>
R e
Com pl
A ff
y anga</w>
pos session</w>
over ty</w>
omb olo</w>
l eyo</w>
k oM
iz ed</w>
issu e</w>
in d</w>
idl alo</w>
ed wa</w>
e ign</w>
ast e</w>
aqh ubeka</w>
ahl uko</w>
w as
w ar
s esifundazwe</w>
olu tion</w>
noku q
nem isebenzi</w>
lw ez
kw e
ku f
is inqumo</w>
in fr
in ed</w>
import ant</w>
ho use</w>
hal iso</w>
h igh</w>
g iven</w>
f ound</w>
em iny
an u</w>
am acala</w>
acc oun
Ng oku
F r
B I-
yil uphi</w>
xox o</w>
wor king</w>
uq uko</w>
ul ela</w>
th ing</w>
s ob
s akho</w>
l ib
k i</w>
k e
it ation</w>
inv est
ind a</w>
hal f</w>
f er</w>
ezing a</w>
as truc
am af
al loc
I C
vi ol
ukus etshenziswa</w>
st aff</w>
sion er</w>
sh ip
requ est</w>
rece ived</w>
r e</w>
okhum ende</w>
og n
n esi
lw e-
l ig
in hl
ikez we</w>
g o</w>
f t</w>
es ting</w>
ent uthuko</w>
en ed</w>
e p</w>
z e</w>
y abo</w>
uz ane</w>
un c
ukuth ola</w>
uku theng
r ole</w>
pro ject</w>
lic ence</w>
l eso</w>
ku le</w>
ik ole</w>
fi re
econom y</w>
cw al
cer tain</w>
ayis ensi</w>
ay ini</w>
a kul
KwaZulu-Nat al</w>
E M
Commit tee</w>
2 1</w>
y akhe</w>
sig ned</w>
rem ov
phak athini</w>
per man
par agr
ol unye</w>
oku hl
ogr aph
kw anoma</w>
iz ith
im pro
id ence</w>
i tion</w>
el ib
di d</w>
appoint ed</w>
an ies</w>
acc ount</w>
a il</w>
U hlelo</w>
Kap a</w>
C ha
ul uma</w>
ul eko</w>
oku y
ob jec
n ext</w>
mon ey</w>
lif e</w>
ku q
ish ed</w>
gqu gquz
eny o</w>
e Thekwini</w>
appropri ate</w>
an ch
ad op
a ud
a ti
Prem ier</w>
v es</w>
un j
s til
kos i</w>
hav ing</w>
cum stances</w>
Offic er</w>
F in
1 8</w>
y p
tic s</w>
spec ial</w>
sch o
resul t</w>
r en
noku th
kub antu</w>
ku ka
issu es</w>
inz eka</w>
ibh izinisi</w>
go od</w>
ed uze</w>
cop y</w>
be kw
s onke</w>
s eng
pres ent</w>
om phakathi</w>
k onzo</w>
ish we</w>
is ation</w>
ind ic
il iv
ikh o</w>
gener al</w>
bas is</w>
ab ez
A L
1 4</w>
yil iphi</w>
uku sh
t ow
s en
ro jekthi</w>
pow ers</w>
perform ance</w>
paragr aph</w>
on s
itatim ende</w>
ho w</w>
grow th</w>
eth ekile</w>
em er
eh hovisi</w>
cour se</w>
ch ild</w>
ak ahle</w>
R iph
Par k</w>
Com mis
stand ing</w>
respon sib
purpos e</w>
pre v
p ut</w>
p ot
p at
o ve</w>
ng uM
ng emp
int ekayo</w>
indiv id
i :</w>
g ed</w>
en ance</w>
eas ed</w>
bu yis
as im
An y</w>
Aff airs</w>
th oug
stil l</w>
p ast</w>
olog ical</w>
ngoku vumelana</w>
n dawo</w>
l ing</w>
kw alo</w>
inter ests</w>
infr astruc
ez iwe</w>
em phakathini</w>
d own</w>
d one</w>
am e
W es
w ash
un ti
s on</w>
s am
pro jects</w>
oper ation</w>
let ter</w>
iz idingo</w>
ingan iso</w>
ex peri
et e</w>
el d</w>
d er
az iwa</w>
aph inde</w>
S ection</w>
re ed
ot a</w>
omb o</w>
m od
kw ezim
izim p
is aziso</w>
i ous</w>
f ree</w>
ent ando</w>
ed ule</w>
bod y</w>
ang as
ac y</w>
aban ingi</w>
we ek
w ala</w>
val ue</w>
si v
q embu</w>
pro g
ng aso</w>
m b
kh aya</w>
k onke</w>
is elwe</w>
ink ampani</w>
in qubo</w>
el ig
c ateg
ban k</w>
ar ies</w>
alis ed</w>
akh eni</w>
N or
Man agement</w>
Kh ulu</w>
: 00</w>
z e-
y ezin
uc h</w>
ros s</w>
qu alif
omb ili</w>
of f</w>
obul ungisa</w>
o ke</w>
ng onyaka</w>
n at
m aking</w>
izin daba</w>
ish ing</w>
ikez e</w>
h and
eth ile</w>
esikh athini</w>
eff ici
d en
ch ar
St ate</w>
S I
way s</w>
p overty</w>
ot ela</w>
osi viviny
od ay</w>
ngoku qond
mon it
izind a</w>
izim o</w>
ing ana</w>
elibh ekele</w>
ef for
d eb
c a
ath we</w>
ar ing</w>
applic able</w>
am eni</w>
al ready</w>
al low
acc ep
ab am
tak ing</w>
t ax
prom o
perman ent</w>
ny aka</w>
kw amanye</w>
impro ve</w>
ikh okh
h igh
esid e</w>
esib ili</w>
ers ity</w>
el ithi</w>
eh ol
az iwe</w>
az isa</w>
ath er</w>
al akahle</w>
ag ain</w>
L o</w>
2 0
r is
or ity</w>
ner ship</w>
is ig
iq inisek
ing ane</w>
id iy
h ib
ez id
eth ula</w>
en g</w>
emb a</w>
ear ch</w>
d ue</w>
cir cumstances</w>
b ir
b ack</w>
aw ula</w>
ass ist</w>
ak abh
administr ation</w>
a tic</w>
O N
z ethu</w>
y st
ung ulwa</w>
un less</w>
s a
pl an</w>
or d</w>
okungen ani</w>
ngoku kh
n ey
meas ures</w>
m et
kw esikhathi</w>
in isa</w>
ic il
ib un
i or</w>
hlang any
for ce</w>
ez e</w>
em in
cl us
at or</w>
amag ama</w>
am ong</w>
af anele</w>
0 3
z okw
us es</w>
un i</w>
ul ation</w>
t ook</w>
ngoku s
ng azo</w>
ith er</w>
iq ond
ikw el
fac ilities</w>
environ ment</w>
dis c
cor poration</w>
ch aza</w>
bur g</w>
andlul ulo</w>
ac ted</w>
Um untu</w>
Serv ices</w>
G ungu</w>
C ity</w>
ukw ehl
ukukh okh
sim il
si th
scho ols</w>
s :</w>
ro ad
opportun ities</w>
municip ality</w>
l ong</w>
kw enziwa</w>
ku ye</w>
izim oto</w>
iz ig
iv er</w>
iph akam
hl ola</w>
her itage</w>
h ere</w>
fac ilit
ez we</w>
es il
er 's</w>
e es</w>
determin e</w>
as k</w>
ame work</w>
am ukela</w>
Cha ir
tsh on
t ures</w>
sus tain
s ik
rec ogn
r ate</w>
pr em
obu chwepheshe</w>
l ezi</w>
it ing</w>
ibun al</w>
form ation</w>
ar ch
ak i</w>
ac ts</w>
F akela</w>
C abin
Am aphoyisa</w>
A gency</w>
uku qinisekisa</w>
th re
rel ating</w>
r ol
ph ela</w>
is tor
involv ed</w>
implement ation</w>
i ers</w>
g q
ful ly</w>
fir m
f ail
ed a</w>
depart ments</w>
approv ed</w>
amag ugu</w>
R ev
ship s</w>
or ies</w>
offic er</w>
o t</w>
n ature</w>
n abo</w>
mar k</w>
lom o</w>
kw ayo</w>
kw abo</w>
kub h
inc id
f oc
ex pres
ek eza</w>
cont act</w>
c entre</w>
aph ezulu</w>
amabh izinisi</w>
U hulumeni</w>
U -
K W
Cabin et</w>
C entre</w>
200 7</w>
z abantu</w>
w aste</w>
unti l</w>
ti ces</w>
posi tion</w>
oph e</w>
njeng om
ng osuku</w>
ne eds</w>
it able</w>
is wano</w>
institu tions</w>
i S
i M
esid ingo</w>
en ess</w>
ek ene</w>
ed e</w>
e ed</w>
com peti
ay ensi</w>
ar ly</w>
appoint ment</w>
an iswa</w>
amakh ono</w>
abh ul
P re
In d
x aban
vic ti
us ing</w>
uhl e</w>
se e</w>
re comm
re ase</w>
ol en</w>
ng iy
n ikazi</w>
m ot
l uk
l al
infrastruc ture</w>
il imi</w>
ic ations</w>
establ ish</w>
ent eng
en s</w>
dat a</w>
c ar
ath ola</w>
ak ethe</w>
ab ah
R 1
Provin ce</w>
Ph ezulu</w>
G cwalisa</w>
Compl ete</w>
B ut</w>
y awo</w>
uku ya</w>
u d</w>
th elela</w>
t arg
s ev
prof es
o Mkhandlu</w>
maint enance</w>
int ela</w>
inc reas
imin iningwane</w>
esi k
ensi ve</w>
eliph ezulu</w>
complet ed</w>
and i</w>
ama Gugu</w>
aj i</w>
K un
K umele</w>
Commis sioner</w>
A bantu</w>
ud e</w>
t -
st olen</w>
si q
sch ool</w>
om khulu</w>
ngokul andela</w>
n eng
mater ial</w>
kw akhe</w>
iziny athelo</w>
investig ation</w>
ing c
ibon elo</w>
hel p</w>
g y</w>
et er
en ter
el inye</w>
e Phalamende</w>
curr ent</w>
ash wa</w>
ad a</w>
I D
w ant</w>
v u</w>
ur y</w>
u dl
tr ial</w>
t i</w>
sub mitted</w>
st re
spec tor</w>
pr ice</w>
oth er
oku l
ng o</w>
man je</w>
l evel
ku w
im vume</w>
im inyaka</w>
ib le</w>
etshenz iswe</w>
ekh okh
desig n
d ala</w>
atsh a</w>
al ula</w>
ach iev
Riph abhul
P al
M asipala</w>
B e
z ase
z al
yal elo</w>
wan eni</w>
tsh i</w>
there fore</w>
t al
si ve</w>
s ing</w>
p ay</w>
osiviviny wa</w>
oph a</w>
oo per
on t
n azo</w>
n ak
kw azi</w>
kung enzeka</w>
kan cane</w>
ist ance</w>
iny ango</w>
h ome</w>
f air</w>
em fundo</w>
eku ph
e ither</w>
dis tr
dis p
conf lic
c el
c amp
be half</w>
asim ende</w>
aman ingi</w>
Y obulungisa</w>
Tr ibunal</w>
Direc tor
2 5</w>
xaban o</w>
us izo</w>
ul isa</w>
u ye</w>
stat ement</w>
s es</w>
s ci
q uma</w>
pub l
ok oz
o s</w>
o dl
ng akho</w>
na we</w>
mark et</w>
langu ages</w>
l onke</w>
kw abathengi</w>
koku thi</w>
kanj ani</w>
ish i</w>
ic k
ethemb a</w>
entsh a</w>
eminy akeni</w>
el ith
cr ip
am aqembu</w>
Z imb
Memb ers</w>
E z
1 5</w>
zim a</w>
un ity</w>
uk e</w>
simil ar</w>
requir e</w>
p op
on dl
l it
kul uleko</w>
is tic</w>
iq embu</w>
ing ozi</w>
im medi
im ele</w>
if o</w>
i ons</w>
eku s
c all</w>
b ul
aw un
arr ang
Con t
A ng
199 9</w>
w ise</w>
uth aza</w>
uhl a</w>
u f
tsh a</w>
te es</w>
sk ills</w>
s ase
rec ord
re v
pre par
p ed</w>
ow ay
our s</w>
ny ama</w>
ngq o</w>
ne ar
inisek isa</w>
ikw a</w>
id ed</w>
fr anch
ezim p
ess ed</w>
esi Phezulu</w>
em ihl
el ection</w>
eku th
dec ision</w>
b ed</w>
aw ulwa</w>
ash a</w>
as ebenz
ank aso</w>
a k</w>
Uku kh
U kul
Sub mit</w>
Sch edule</w>
G az
Afric ans</w>
200 5</w>
w ek
w ard</w>
shintsh a</w>
s eb
op en</w>
okw a</w>
nat ural</w>
kuy a</w>
iti ki</w>
ifund a</w>
iden tity</w>
ibh amu</w>
ib alo</w>
f o
ezimb oni</w>
es it
em ikh
e kul
cred it</w>
bec ome</w>
ar ound</w>
appro ach</w>
ag esi</w>
ac tions</w>
R E
Njeng oba</w>
I M
H owever</w>
6 0</w>
w eng
w alo</w>
q umo</w>
ob ene</w>
m p
larg e</w>
im por
h istor
fac t</w>
ess ing</w>
esiv umelwano</w>
es :</w>
employ ment</w>
du ties</w>
de al
d evel
b av
az inga</w>
applic ant</w>
am ise</w>
am isa</w>
ag c
W ez
Ng iy
Ng esikhathi</w>
zom phakathi</w>
wes icelo</w>
retur n</w>
re view</w>
oun g</w>
oku land
m ov
kul esi</w>
ish umi</w>
im um</w>
g lob
for c
ev ery</w>
crimin al</w>
c os
ag er</w>
ag al
addi tional</w>
Pro t
K uy
I ng
yoku thi</w>
w esi
v il
ut es</w>
up on</w>
sm all</w>
regard ing</w>
level s</w>
l ase
ku wo</w>
iq iza</w>
inc rease</w>
iboph o</w>
h app
ezint athu</w>
esikh ulu</w>
ent al</w>
em ith
el ek
ant i</w>
and s</w>
akash i</w>
abh izinisi</w>
a wa</w>
Wes tern</w>
M as
In t
Cr ime</w>
w akhe</w>
t oday</w>
s w
ol imi</w>
okukh ulu</w>
mar ri
kom hlaba</w>
invest ment</w>
im ith
i res</w>
for eign</w>
ez ezimali</w>
em isebenzi</w>
eb e</w>
eb a</w>
bro ad
at is
ang i</w>
ac ile</w>
K ul
H I
waq weni</w>
un e</w>
tr av
t on</w>
t able</w>
s as
ra tic</w>
pot ential</w>
other wise</w>
ngem va</w>
les icelo</w>
l iy
kwem isebenzi</w>
kw ethu</w>
kub andakanya</w>
koku b
ic ela</w>
ibu tion</w>
el il
consid eration</w>
cons ist
citizen s</w>
ak er</w>
S E
Kh ungo</w>
umb iko</w>
tion ed</w>
sec tions</w>
reed om</w>
proc eed
per form</w>
p en
os ebenza</w>
ol imo</w>
ol eni</w>
oku fanele</w>
k ang
in come</w>
im port</w>
ig unya</w>
hal iwe</w>
h op
fe e</w>
f akwa</w>
ezif ana</w>
ez az
ex tr
esifund a</w>
eg ameni</w>
eN kantolo</w>
d ers</w>
consid ered</w>
c ooper
c are</w>
ak an
S iz
Riphabhul iki</w>
H A
19 7
ung ile</w>
ul es</w>
tim es</w>
syst ems</w>
st ud
sh ar
sebenz ini</w>
s akhe</w>
pec ially</w>
oth ers</w>
or ig
on iph
on ce</w>
ng anoma</w>
n asem
l ink
kwal okho</w>
kukh o</w>
isitif ikedi</w>
id e
ehl a</w>
cl e
ciph isa</w>
bh eka</w>
b eng
aph i</w>
and elayo:</w>
addi tion</w>
ab elo</w>
O l
M e
Khomish ana</w>
He alth</w>
E duc
Am alungu</w>
und s</w>
ub ul
theth o-
the id</w>
t our
sub st
qh uba</w>
over ed</w>
njeng oku
ngoku ng
n abantu</w>
l olu</w>
kul eli</w>
iphakam iso</w>
go ing</w>
fam ily</w>
exerc ise</w>
d on
chang es</w>
bh ala</w>
amb is
akham izi</w>
ag istr
ab aq
Un ited</w>
Uku ze</w>
Abas olwa</w>
y oung</w>
y ay
u fac
tic al</w>
sel ves</w>
s ay</w>
res olution</w>
reg ional</w>
rece ive</w>
prem ises</w>
ow n
os i</w>
nez ikh
gu ar
ez ehlukene</w>
en n
ed uzane</w>
d om
call ed</w>
aw ay</w>
ang eke</w>
ac t
ab akh
Zimb ab
Th at</w>
S ihlalo</w>
Pal est
P or
Off ice</w>
ME C</w>
L e
Is ra
G u</w>
200 5
z a</w>
v ac
tr on
th ir
su ff
s esi
provin ces</w>
produc ts</w>
proced ures</w>
ol ul
okukh ul
o- ke</w>
n aye</w>
med ical</w>
m ak
it eshi</w>
ish e</w>
im ary</w>
f u</w>
ex isting</w>
eth ulwa</w>
es pecially</w>
er cial</w>
el s</w>
d ic
ci es</w>
bud get</w>
ber g</w>
an im
akash a</w>
a ul
U ng
T own</w>
A t</w>
ziph atha</w>
z ezin
w i</w>
t w
sur v
soku ba</w>
pro of</w>
plan ning</w>
or ing</w>
ngokuph elele</w>
nam as
m en
l ong
in k</w>
hlang a</w>
h ar
g waqo</w>
ev ent</w>
end ent</w>
enc our
el i
ec tive</w>
direc t</w>
develop ed</w>
con fer
bo ard</w>
bhek ana</w>
bet ter</w>
az eka</w>
approv al</w>
am av
ab ad
Um thetho</w>
S pe
O N</w>
L apho</w>
Educ ation</w>
C l
3 6</w>
xox isana</w>
v o
uku sebenzisa</w>
ug esi</w>
tif ikedi</w>
sit uation</w>
si x</w>
re pe
r up
prin ci
ngoku c
ng ob
mot or</w>
maj or</w>
kw awo</w>
inst all
imp act</w>
ik eti</w>
ifund o</w>
func tion</w>
dlel wane</w>
commit tee</w>
b af
az isi</w>
al we</w>
al ungelo</w>
P A
O F</w>
KwaZulu-Nat ali</w>
ul ile</w>
ub ung
u es</w>
reason ably</w>
re fl
qu gquz
previ ous</w>
oc al</w>
mon th</w>
l akhe</w>
kw enz
know n</w>
iq iniso</w>
ik ithi</w>
hlinz eka</w>
hlangan weni</w>
fr on
eng aph
em ezelo</w>
direc tly</w>
b ase</w>
aw on
ath im
appl ies</w>
an zi</w>
amas iko</w>
ahl ekelwa</w>
agr icul
aff ic</w>
ac ross</w>
ab av
S k
w anga</w>
v ote</w>
us wa</w>
um z
uku finyelela</w>
u Ngqongqoshe</w>
tric ity</w>
t e</w>
stand ards</w>
shi wo</w>
s ure</w>
re f
r ap
off er</w>
oc k</w>
nom in
ngaph ezulu</w>
nd eni</w>
nam a-
n aku
med ia</w>
m uch</w>
l en
kw eng
kh o</w>
kh akha</w>
j ustice</w>
j ikelele</w>
inz ekwa</w>
intsh a</w>
ig waqo</w>
hlang othi</w>
he ad</w>
h on
gro up
fire arm</w>
fac e</w>
f ish</w>
ey ay
ev idence</w>
er ship</w>
er r
equ ip
environ mental</w>
comm on</w>
challeng es</w>
b aseNingizimu</w>
1 3</w>
yoku kh
us azwe</w>
uhl obo</w>
uM thethosisekelo</w>
sp ir
ren ew
qhutsh wa</w>
por ts</w>
pers on
on es</w>
ol elwa</w>
okw enz
okun ye</w>
oM nyango</w>
o ti
nom thetho</w>
ngoku hambisana</w>
municip alities</w>
marri age</w>
lo ok
kw aba</w>
ku k
is weni</w>
il inganiso</w>
i o</w>
hlangany ela</w>
hlang ana</w>
hl oko</w>
em kh
disc us
devel op</w>
det ails</w>
concer ned</w>
complain t</w>
cas es</w>
akal ayo</w>
O M
N kantolo</w>
I g
A B
wan ingo</w>
u Khomishane</w>
s ika
resul ts</w>
res earch</w>
re duc
re -
produc tion</w>
pl ay</w>
opportun ity</w>
omb usazwe</w>
ol ub
noku ng
man ufac
m illion</w>
l iz
kul ung
knowled ge</w>
ish iy
is ile</w>
immedi ately</w>
im oto</w>
ig atshana</w>
gr ad
fr amework</w>
eziph athelene</w>
establish ment</w>
esi bh
em inyaka</w>
ef anayo</w>
ec ala</w>
de partment</w>
camp a
as etshenziswa</w>
arm ed</w>
ang al
anc y</w>
ak o</w>
ab ove</w>
a im</w>
Provin ces</w>
M nyango</w>
H igh</w>
E ng
D is
C o
vie w
ter n
t em
ris k</w>
osh a</w>
om lando</w>
neg oti
n endawo</w>
lab or
ku g
it em</w>
i hlangano</w>
hlang abez
f il
ev er
em sebenzini</w>
em g
edl y</w>
ear ly</w>
cw an
cor rec
cap ital</w>
associ ation</w>
angas ese</w>
akh aya</w>
Uku b
U L
K uz
1 5
' t</w>
uy a</w>
un om
t ender</w>
t end
str eng
s okw
p ond
p ing</w>
or a</w>
on ak
ol us
oku sh
ngokus emthethweni</w>
nam anye</w>
mo on</w>
l isho</w>
l ay
khokh a</w>
k ey</w>
izing ane</w>
ev al
ent ed</w>
emb er</w>
ch ed</w>
bas ic</w>
athim andla</w>
ash o</w>
ar ily</w>
ang u</w>
an al
am uka</w>
ab hal
Um b
U Mkhandlu</w>
M b
L esi</w>
Chair person</w>
C la
9 0</w>
z ob
z il
z aseNingizimu</w>
wek azi</w>
w at
w akho</w>
ukan a</w>
t yp
si f
q ulu</w>
proc esses</w>
ph ambi</w>
ot ing</w>
olw andle</w>
ol itiki</w>
no v
kw ini</w>
ku lowo</w>
kom phakathi</w>
iz icelo</w>
int a</w>
in kantolo</w>
in hlangano</w>
ic s</w>
h ab
f uc
eng a</w>
el el
ed uli</w>
construc tion</w>
b aph
b ag
ass istance</w>
ap ar
amas ipala</w>
am in
am i</w>
a dlul
Y ebo</w>
Uku ph
S tr
L ocal</w>
K us
2 4</w>
zoku sebenza</w>
wel l
un zi</w>
um th
um solwa</w>
um ayo</w>
uku dla</w>
te am</w>
se par
rem ain</w>
rac y</w>
per t
oth o</w>
near est</w>
n el
n e</w>
loku thi</w>
l esi</w>
kwem pahla</w>
kw ezing
kul eyo</w>
iph e</w>
in ary</w>
gqugquz ela</w>
fr i
fi eld</w>
ent er</w>
ener gy</w>
endl ini</w>
end ula</w>
en ue</w>
en h
em velo</w>
ekw enz
declar ation</w>
consult ation</w>
conduc ted</w>
c ost</w>
c od
b eb
att emp
af ak
I sikh
I kh
E Z
Cor poration</w>
B u
A f
200 8</w>
y abantu</w>
w aseNingizimu</w>
vehic les</w>
uc ayi</w>
ub ani</w>
tow ards</w>
ti -
sib h
sec ond</w>
se l</w>
proceed ings</w>
ob lig
nal okho</w>
law ula</w>
kw ebhizinisi</w>
kul abo</w>
ku chazwe</w>
kom notho</w>
im igomo</w>
ib andela</w>
h weba</w>
ek elele</w>
ec eleni</w>
ebenz ayo</w>
dl e</w>
b aq
att end</w>
akabh aka</w>
ag ent</w>
adi tional</w>
O KU
H L
Comp anies</w>
C M
AN C</w>
1 6</w>
ur ed</w>
ukw akha</w>
u- R
tre at
ther n</w>
si onal</w>
s atis
repor ts</w>
qond isi</w>
po fu</w>
phak ela</w>
pe ace</w>
olak ale</w>
ob ala</w>
nokun ye</w>
me et</w>
l a</w>
k okw
is wayo</w>
is isa</w>
int ro
ing ly</w>
in ile</w>
imp ilo</w>
ikh ona</w>
ic t</w>
hlan zi</w>
hlan je</w>
g e
fu ture</w>
esi y
em a</w>
charg es</w>
atsh ang
ar ms</w>
ab ay
T el
S up
J ustice</w>
I sigaba</w>
z if
y aseNingizimu</w>
w ish</w>
to o</w>
so on</w>
sit es</w>
rob b
ques tion</w>
prac tice</w>
pr is
out side</w>
ond o</w>
ok otela</w>
ng umthetho</w>
nam akh
n akw
kwel etu</w>
iv ersity</w>
hl ophe</w>
he dlela</w>
h olo</w>
fu th
fe w</w>
ett e</w>
emer gency</w>
contr act</w>
com es</w>
charg ed</w>
b ak
ayis ense</w>
ak ath
Un it</w>
Uku hl
Som lomo</w>
O ur</w>
O b
3 5</w>
/ 0
we Phalamende</w>
w athi</w>
uny iwe</w>
um s</w>
um notho</w>
strateg y</w>
st ation</w>
s ent</w>
ro om</w>
r ules</w>
pro bl
pre h
prac tices</w>
on til
o qhubeka</w>
ngoku sebenzisa</w>
ng ale</w>
n awo</w>
loku kh
law s</w>
kw azo</w>
ip oti</w>
iny athelo</w>
in fl
i ance</w>
hlang ene</w>
hlan u</w>
gu id
emp i</w>
comm is
b ethu</w>
b akh
andl eni</w>
amb o</w>
ag ing</w>
adv er
abh in
aban zi</w>
Tr ade</w>
S pec
Rev enue</w>
M in
F und</w>
D r</w>
A T
4 0</w>
1 2
w ob
viol ence</w>
su kwini</w>
responsib ility</w>
re p
qh aza</w>
qal as
pos e</w>
ow ner</w>
oku q
nokw enza</w>
ngen isa</w>
n t
n ayo</w>
n ation</w>
j ur
im iphumela</w>
identif ied</w>
i ye</w>
i ef
expec ted</w>
esib oph
es ab
eph ile</w>
ep olitiki</w>
enhl alakahle</w>
en e
eku b
ej wayelekile</w>
effor ts</w>
def ined</w>
d ev
con n
co ordin
char ac
cas h</w>
c ent
benef its</w>
benef it</w>
andl ela</w>
aim ed</w>
ac ks</w>
Y onke</w>
Spe aker</w>
S o
R ec
M nu</w>
Kh aya</w>
G ro
G r
C er
C C</w>
Ac c
A gr
03 1
z o
z ika
z ig
z en</w>
yoku hlala</w>
y okwenza</w>
xh asa</w>
wh om</w>
w en
ul eni</w>
ul ekile</w>
uku c
ug g
uM ongameli</w>
u til
thoug h</w>
th ink</w>
so Mthetho</w>
qalas izinda</w>
prog ress</w>
oq o</w>
okw aku
nor m
ngoku g
n ation
li ve</w>
l ater</w>
is igaba</w>
is ibonelo</w>
ing eni</w>
f ood</w>
ev ela</w>
engam ela</w>
el ikhulu</w>
democ racy</w>
cre ate</w>
constitu tional</w>
conflic t</w>
compl y</w>
com o</w>
c ell
bir th</w>
ath al
as ela</w>
amaz inga</w>
alis m</w>
akh awun
ac ting</w>
ab uko</w>
a ut
Tr ans
R ights</w>
P e
I L
I F
F uthi</w>
C ol
2 9</w>
yom phakathi</w>
y 's</w>
w ase</w>
u ro
te in</w>
suppl ied</w>
st and</w>
si hl
sebenz isana</w>
s amaphoyisa</w>
respec tive</w>
res pond
po int</w>
play ed</w>
ph ot
ph as
ol we</w>
okw e</w>
okuph epha</w>
noku d
no -
ngokuph athelene</w>
nc int
m en</w>
kw amanzi</w>
in stitution</w>
h hovisi</w>
group s</w>
fak ela</w>
f ishing</w>
ezin sukwini</w>
democ ratic</w>
de ath</w>
d ing</w>
ath uthuk
ap ter</w>
anz ini</w>
amath athu</w>
ak azi</w>
ag g
a 's</w>
U Ngqongqoshe</w>
Sh eduli</w>
Q u
Ng akh
C E
A ice</w>
yo Mthethosisekelo</w>
ukw azi</w>
ukuny ezwa</w>
uku faka</w>
sustain able</w>
sh wana</w>
s ph
refer ence</w>
pl oy
os izo</w>
on isana</w>
ngam unye</w>
lab our</w>
kul ezi</w>
iny anga</w>
ind eleke</w>
il ini</w>
il anga</w>
ik isana</w>
ih hovisi</w>
i re
h om
facilit ate</w>
f ihl
et ings</w>
enhl alo</w>
em qoka</w>
em azweni</w>
el ihl
ekh ona</w>
ehl isa</w>
e 's</w>
d e</w>
curr ently</w>
consist ent</w>
conn ection</w>
apar theid</w>
ang eni</w>
alloc ated</w>
al elo</w>
add res
activ ity</w>
Z onke</w>
O m
M ad
L ezi</w>
B as
Agr icul
1 6
writ ing</w>
wor ds</w>
wh ite</w>
uk ahlukene</w>
thetho- S
specif ied</w>
r ates</w>
particip ation</w>
o l</w>
ngoku th
ne y</w>
ne w
n t</w>
la un
kwem inyaka</w>
kun dla</w>
ku c
k abanzi</w>
iziny anga</w>
izin t
izin hlangano</w>
is ini</w>
ing q
inform ed</w>
im ala</w>
f ana</w>
eng xenye</w>
dis tric
commit ment</w>
ch o
c imbi</w>
c at
c al
and isa</w>
amaph epha</w>
al ise</w>
akam izwa</w>
agre ed</w>
a u
R C</w>
On e</w>
In v
In s
In dawo</w>
Con stitu
Af ter</w>
w enza</w>
w endawo</w>
um hl
ul ala</w>
trans port</w>
s our
rel ation
r y</w>
orig in
op s</w>
noku sebenza</w>
m ain</w>
legisl ative</w>
kwes imo</w>
kwam andla</w>
kul umo</w>
k ob
isikh alazo</w>
ishiy agal
int ended</w>
ing ani</w>
ill ed</w>
il s</w>
ikh ophi</w>
ibh alo</w>
i qu
i Lungu</w>
hos p
hol d</w>
hamb isane</w>
hal isa</w>
gro und</w>
fuc uza</w>
ez ik
experi ence</w>
exam ple</w>
er e
e w</w>
dlul iselwa</w>
bhal isa</w>
az ini</w>
at eral</w>
appe ar</w>
am s</w>
aff ected</w>
Zimbab we</w>
W est</w>
T echn
St re
Ng en
Municip al</w>
L eg
4 7</w>
zoku kh
z alo</w>
y esi
w etsh
v es
uku xhumana</w>
uM nu</w>
tshon alanga</w>
theth osivivinywa</w>
t ot
s ett
res erv
regul ation</w>
pro pri
polic ies</w>
org an
on tein</w>
objec tives</w>
nom b
noku v
ngokuqond ile</w>
ne kh
nam a
m il
lic ens
l awo</w>
kwezin ye</w>
kw esigaba</w>
izin dlu</w>
ist a</w>
ig hl
ic k</w>
ib iy
fail ure</w>
ez iq
et ed</w>
esith athu</w>
er ve</w>
cont ext</w>
c entr
b est</w>
as ked</w>
am ar
ad equ
acc red
Y es</w>
U N</w>
TI ON</w>
Sec urity</w>
Or g
O n</w>
Kh abhin
K H
Ir an</w>
Inter national</w>
Fund azwe</w>
D ec
D E
B l
A t
3 1</w>
week s</w>
vil le</w>
us tr
ur g
uph awu</w>
uny azwe</w>
un kulu</w>
ub ugebengu</w>
tic ally</w>
th em
siz akalo</w>
sig n</w>
road s</w>
requ ires</w>
qhub ekayo</w>
provid ing</w>
ph ys
organis ation</w>
o j
ngokub ambisana</w>
ngok omthetho</w>
ng esi
ng awo</w>
ng abantu</w>
nezin hlelo</w>
municip al</w>
maj ority</w>
m thetho</w>
m ess
kw ezimpahla</w>
ith uba</w>
isikh undla</w>
is isekelo</w>
inz uzo</w>
integr ated</w>
ind ima</w>
igh t
ib a</w>
hum an
gr an
eb ese</w>
disp ute</w>
d est
crip tion</w>
cons equ
c ause</w>
c anc
b ahl
az ange</w>
as ebenza</w>
ar t
aq ala</w>
aph eli</w>
amuk elwa</w>
am eko</w>
alleg edly</w>
akw a-
akhawun ti</w>
administr ative</w>
Wh at</w>
Un ion</w>
TH E</w>
Su ppl
Municip ality</w>
In spector</w>
z iv
val id</w>
uk eka</w>
uhl aka</w>
t esting</w>
reg ion</w>
produc t</w>
proced ure</w>
offic ials</w>
noku s
kwem ali</w>
k et</w>
izing xenye</w>
is el
ic abanga</w>
i Ningizimu</w>
gre at</w>
fir m</w>
fir e</w>
ezin to</w>
ez elwa</w>
et ting</w>
eny wa</w>
emp ow
emin ingi</w>
elec tricity</w>
el l</w>
eku hl
eb iwe</w>
con firm
c ity</w>
c ent</w>
as ipoti</w>
andakany eka</w>
an si
amb ilini</w>
af ana</w>
af a</w>
W A</w>
Uku q
T sh
S in
Ngaph andle</w>
M ed
Khomish ani</w>
Cla use</w>
zim ba</w>
v olun
uz u</w>
uny aziwe</w>
um ba</w>
treat ment</w>
trans fer</w>
tr affic</w>
succ ess
subst anti
saf e</w>
repor ted</w>
recomm end
re plac
probl ems</w>
pl ans</w>
particip ate</w>
p rec
ord ers</w>
omb ul
oh webo</w>
n abanye</w>
m ax
loku ph
lear ners</w>
le t</w>
l aba</w>
kud ingeka</w>
izin hlobo</w>
izin dleko</w>
it er
ink inga</w>
in spec
im izamo</w>
if ic
i x
i um</w>
ezin tsha</w>
es inye</w>
er a</w>
enc ed</w>
em or
ekh aya</w>
ek isa</w>
ed ed</w>
ech anis
d ig
complain ant</w>
ci wane</w>
certif ied</w>
bu ild</w>
awon ye</w>
ang en
amaf omu</w>
am ele</w>
ach ieve</w>
ach ed</w>
ab uy
UM ongameli</w>
S he</w>
L ab
Em va</w>
El ec
D et
A T</w>
zoku ph
yoku ph
y o</w>
ul ar</w>
uhl inz
ter min
sin ce</w>
sev eral</w>
sel elo</w>
s ent
po or</w>
obul ili</w>
ngemp umelelo</w>
nezin to</w>
l ung
l abantu</w>
kw akho</w>
is im
iph atha</w>
in e
im m
id akamizwa</w>
i weni</w>
h ighl
fund s</w>
franch ise</w>
foc us</w>
fin d</w>
f reedom</w>
ex port</w>
ex change</w>
es tim
ent ation</w>
e ye</w>
cw eti</w>
comm od
cl es</w>
bekw e</w>
an q
amad okhumende</w>
am akhulu</w>
Sk y</w>
Pro gramm
Im ali</w>
z ibe</w>
yam i</w>
wh ose</w>
ul ayo</w>
uk ethe</w>
uM thetho</w>
trav ell
t ro
struc tures</w>
saf ety</w>
pro hib
ow s</w>
or e</w>
om ile</w>
ol uth
od w
noku ba</w>
mark eting</w>
man aged</w>
m ur
li qu
l uz
l elo</w>
kwab e-
khandl wini</w>
isith upha</w>
inter ven
individ ual</w>
ind oda</w>
in es</w>
ib ut
gr ant</w>
f -
ezing en
ezin hl
esim weni</w>
es tic</w>
eph athelene</w>
enc ane</w>
elin es</w>
eku sebenz
ek isi</w>
effici ent</w>
ec ting</w>
dr aw
d uty</w>
commit ted</w>
ch es</w>
ch ec
author ised</w>
ans w
am vu</w>
al eni</w>
al ed</w>
ach es</w>
abaf undi</w>
a int
U b
S en
M agistr
In formation</w>
G re
C I
z ihl
yoku sebenza</w>
we ek</w>
w ukuthi</w>
w enze</w>
w ent</w>
ves sel</w>
um hlangano</w>
thir d</w>
suppl iers</w>
se ek
pop ulation</w>
par ts</w>
par ents</w>
p tion</w>
oth ile</w>
ol uph
ol oz
og wini</w>
ob tain
min ing</w>
men tioned</w>
m us
m hla</w>
lo g
lis ted</w>
l ak
kul ezo</w>
kom sebenzi</w>
koM thethosisekelo</w>
k athi</w>
isikh ungo</w>
isi onal</w>
is elana</w>
intro duc
imp umelelo</w>
ikh iqizo</w>
id inga</w>
gcin eni</w>
form er</w>
f an
es '</w>
er t</w>
equip ment</w>
em inye</w>
eb y</w>
e Z
cos ts</w>
contin ent</w>
cons ent</w>
con nec
competi tion</w>
commit tees</w>
c in
c ike</w>
bl ack</w>
ap er</w>
ans ela</w>
amuk elwe</w>
am ela</w>
agricul tural</w>
af t</w>
U bu
G e
A G
0 8
z alwa</w>
x olo</w>
w it
w aph
uth ole</w>
ul iwe</w>
u ated</w>
tsh alwa</w>
s or
represent ed</w>
regul ations</w>
profes sional</w>
ordin ary</w>
on ishwa</w>
om ula</w>
olobh eni</w>
ol ela</w>
oku thi</w>
off ence</w>
o k</w>
ngaph ezu</w>
nezin dawo</w>
lom elo</w>
l utho</w>
l amo</w>
l akho</w>
ku lokho</w>
ku kahulumeni</w>
ku hlanganisa</w>
kom ba</w>
j ob
iv akashi</w>
iph athimandla</w>
ing ekile</w>
ikw azi</w>
hop e</w>
h ala</w>
fund ing</w>
ey odwa</w>
exc ept</w>
esib ucayi</w>
es eka</w>
el eli</w>
ehl ukile</w>
eb re
dr iv
d ro
campa ign</w>
bel ieve</w>
bec om
at ul
arres t</w>
appl ied</w>
alleg ed</w>
ak aza</w>
ach ing</w>
accord ing</w>
a- ke</w>
S T
P H
Nor th</w>
N G
M andela</w>
J oh
Ind us
I ph
For m</w>
Bh akabhaka</w>
y i</w>
y ayo</w>
vis it</w>
ung weni</w>
ul weni</w>
uku ngena</w>
suppor ting</w>
soku kh
si fund
satis f
s l
qh ath
pro posed</w>
oq a</w>
oku faka</w>
o use</w>
no tif
ngal eso</w>
n u
me etings</w>
m sebenzi</w>
m ain
lw azi</w>
lead ers</w>
kw enza</w>
kub o</w>
k ohl
ith enda</w>
iph inde</w>
ig idi</w>
f ontein</w>
ezing u</w>
ezin dlu</w>
ez it
ethemb eka</w>
eng eziwe</w>
el iwe</w>
ekwenz eni</w>
dl y</w>
distric t</w>
com ing</w>
ch ith
be w
b om
b le</w>
b e-
ath uba</w>
ari an</w>
applic ations</w>
an je</w>
aman ani</w>
alul eka</w>
af undi</w>
ab ash
Um sebenzi</w>
U S</w>
P er
N E
M ay
K azwelonke</w>
Gaz ette</w>
4 5</w>
. g</w>
z as
yoku th
yoku qala</w>
us ebenz
uq ond
un ithi</w>
umel ele</w>
ukus iza</w>
tur ing</w>
tit ute</w>
t le</w>
so Mthethosisekelo</w>
regard ed</w>
ph ezu</w>
pass port</w>
p s</w>
oy edwa</w>
or n</w>
ongoz we</w>
noku z
ng isho</w>
nam andla</w>
n ight</w>
n an
kwez ikh
kum thengi</w>
kul unkulu</w>
ku hulumeni</w>
ku faka</w>
k t</w>
integr ation</w>
ind o</w>
ikwel etu</w>
if una</w>
ich azwe</w>
hlangabez ana</w>
gener ally</w>
gcin wa</w>
g uq
f es
ever y
etshenz iselwa</w>
et er</w>
enter pr
em idlalo</w>
ek eni</w>
eg unya</w>
dlel wano</w>
de al</w>
cr im
concer ning</w>
compl iance</w>
b illion</w>
ass aul
am ap
ak apheli</w>
af omu</w>
ad o</w>
a isa</w>
Uku s
Stre et</w>
N y
Man ager</w>
K ub
In di
En viron
D C</w>
Appl y</w>
A uthor
A L</w>
200 6</w>
- General</w>
yst em</w>
w ezimali</w>
w esiFundazwe</w>
ven ue</w>
ungis elelo</w>
un it</w>
ul y</w>
ukw enziwa</w>
tor al</w>
th ings</w>
str ugg
stat is
spec i
ser ve</w>
resid ence</w>
represent ation</w>
re ad</w>
qal eni</w>
princi ples</w>
pri or</w>
pl ant</w>
pass ed</w>
occ up
njengoku sho</w>
ngas inye</w>
n akhona</w>
m eth
lim ited</w>
le ase</w>
l we
kw enzeka</w>
it ure</w>
it ors</w>
it ela</w>
is c
incid ents</w>
in f
imikh akha</w>
ili ation</w>
il legal</w>
ikw e</w>
hous ebre
hlangan iswa</w>
guar an
f omu</w>
end ulo</w>
emp ela</w>
emith athu</w>
emib ili</w>
el if
eb ekwe</w>
eM khandlwini</w>
e -</w>
def ence</w>
con om
comm ercial</w>
c ouncil</w>
c ame</w>
br ing</w>
at ures</w>
ar ch</w>
ann ual</w>
am at
am ahl
alul eke</w>
acc ept</w>
abaz ali</w>
a kumelwe</w>
Wor ld</w>
S D
Minis ters</w>
I th
HI V</w>
H ome</w>
E conom
D el
C K
B us
B ank</w>
A kukho</w>
4 1</w>
3 11</w>
200 4</w>
y ou
y ona</w>
w okw
victi ms</w>
v an</w>
un ikazi</w>
un elungelo</w>
uku thuthukisa</w>
uM nyango</w>
u als</w>
spec ies</w>
sch eme</w>
rel ations</w>
reas on</w>
r id
pos al</w>
ph enyo</w>
ontil eka</w>
okh okh
ohl elweni</w>
ng ubani</w>
ng iz
nam es</w>
n ever</w>
loku ba</w>
le ave</w>
l ist</w>
l eli</w>
kwezin to</w>
kw endawo</w>
izin kinga</w>
izim b
iy oni</w>
is idingo</w>
iph ak
ind ep
in s</w>
il obh
ic ial</w>
hous ing</w>
h and</w>
gro unds</w>
fihl o</w>
ezin kulu</w>
ezim oto</w>
esiFund azweni</w>
esi q
eq ile</w>
end ment</w>
end abuko</w>
employ ed</w>
emg waqweni</w>
em ali</w>
el iz
el isa</w>
eku kh
d own
cul tural</w>
b abe</w>
ay wa</w>
author ities</w>
arrang ements</w>
aman cane</w>
ag ama</w>
abl es</w>
ab ag
S ci
Pol ic
D kt</w>
D es
Constitu tional</w>
1 1
yoku v
yoku sh
y as
wor ks</w>
w ama
unom phela</w>
ukuph athwa</w>
ukukh ula</w>
uku y
uc waningo</w>
u ter</w>
se ku
robb ery</w>
remov al</w>
rec ord</w>
re duce</w>
r i</w>
pro spec
phys ical</w>
on str
om sebenzi</w>
om s</w>
okw azi</w>
okh etho</w>
noku setshenziswa</w>
ngen ye</w>
ngen hla</w>
nen dlela</w>
n esikhathi</w>
mak es</w>
m echanis
los s</w>
loku qala</w>
loku b
l iving</w>
kos uku</w>
isek i</w>
is itatimende</w>
ind eni</w>
ind aba</w>
if e</w>
iN kantolo</w>
i wayo</w>
hlinz eko</w>
h anj
gran ted</w>
glob al</w>
f ill</w>
ezing ane</w>
ez ahlukene</w>
eter inary</w>
esiboph o</w>
dis t
cop ies</w>
com par
com b
cl im
charac ter
categ ory</w>
az iyo</w>
ase- Afrika</w>
aph ela</w>
angaph akathi</w>
ang weni</w>
amuk ele</w>
amash umi</w>
am aq
al iswa</w>
agre ements</w>
adv ant
ab ilities</w>
a w</w>
S um
S o</w>
S M
N CO
J ikelele</w>
I R
For um</w>
Fin ance</w>
Comm unity</w>
Cer tif
An n
A U</w>
w ena</w>
w aw
umel ela</w>
umb uso</w>
uk elwa</w>
uhl u</w>
tr i
tr ain
techn ical</w>
som e
soku v
remov ed</w>
rel ation</w>
qub uz
qub ekela</w>
pur su
olv ed</w>
okuth ile</w>
oku qala</w>
of u</w>
nokuph athwa</w>
nal abo</w>
mor ning</w>
lo ok</w>
le ad</w>
kwez we</w>
ku ka</w>
ig ence</w>
ib ona</w>
hol i</w>
h ayi</w>
eqesh wa</w>
emkh akheni</w>
emihl anu</w>
ec ts</w>
e- Afrika</w>
e B
cod e</w>
cas ting</w>
buyis elwa</w>
b le
ay eli</w>
aph ak
anal ys
an no
adver t
ad ed</w>
ac tive</w>
ab i</w>
So cial</w>
Sec ret
S ou
Prot ection</w>
H on
E R
Con sum
w ona</w>
w ele</w>
uny el
um alanga</w>
uc iko</w>
u funa</w>
tiv eness</w>
t en
sus wa</w>
sem ali</w>
s aseNingizimu</w>
s -
res tor
reas ons</w>
prov isional</w>
promo tion</w>
ov ela</w>
om ba</w>
ol um
ok u</w>
ob ject</w>
ngal inye</w>
ng ezikh
nezin daba</w>
nez idingo</w>
nal okhu</w>
n akho</w>
m ilit
m ic
loc ated</w>
kuz oba</w>
ku qala</w>
ku lokhu</w>
iz enzo</w>
isikh ulu</w>
infl u
ind elekile</w>
includ ed</w>
inc azelo</w>
in struc
impl ement</w>
ilit ation</w>
id s</w>
g es</w>
ez ifund
esh eni</w>
ep s</w>
eng o</w>
en cies</w>
employ ees</w>
em ig
ehl o</w>
dl ala</w>
dis crimin
dem onstr
deliv ered</w>
deleg ation</w>
custom er</w>
as wa</w>
as ebenzi</w>
appo int</w>
any a</w>
an ch</w>
al ways</w>
ad em
Y our</w>
NCO P</w>
L eli</w>
L and
yoku b
w id
w entela</w>
w ards</w>
um oya</w>
ukub ona</w>
tron ic</w>
techn ology</w>
tak es</w>
st e
si be</w>
s po
res tric
r ied</w>
qinisek iswe</w>
publ ished</w>
pre -
pos t</w>
por ary</w>
par ent</w>
ob ung
o ?</w>
no hlelo</w>
njeng amanje</w>
ngoku hl
nem ali</w>
ne l</w>
n alo</w>
monit oring</w>
m ob
licens ed</w>
l uy
l iv
l ith
kung akh
kulung wane</w>
kub alulekile</w>
koku n
iz akhiwo</w>
iviny o</w>
ind ele</w>
im iphakathi</w>
ibu ye</w>
govern ments</w>
g ave</w>
fund isa</w>
f ar</w>
f anayo</w>
ezin y
ez ele</w>
ex propri
esifund azweni</w>
es enti</w>
er -
end o</w>
en able</w>
elec ted</w>
ehl uleka</w>
e hambisana</w>
design ated</w>
continu es</w>
con v
ch air
cel eb
bel ow</w>
b akwazi</w>
av o
aq inisek
am age</w>
al low</w>
ah amba</w>
ag o</w>
abath intekayo</w>
ab on
ab athi</w>
U R
T wo</w>
Suppl y</w>
S ekela</w>
R O
Par t</w>
N ations</w>
Il ungelo</w>
D istr
D F</w>
Author ity</w>
zoku hl
z uzo</w>
z ombuso</w>
z akhe</w>
ye t</w>
wh ole</w>
us ay
ukh ulu</w>
ud an</w>
tsh ala</w>
tr aditional</w>
tot al</w>
suspec ted</w>
ser ious</w>
seng athi</w>
sem vume</w>
prot ect</w>
ph ezulu</w>
out standing</w>
osh iwe</w>
os iza</w>
oc k
oc cur
nes imo</w>
mul til
mess age</w>
m and
kw esi
ka Hulumeni</w>
jo b</w>
izin siza</w>
ind ig
improv ing</w>
il iyoni</w>
id es</w>
iM ali</w>
he av
hal ise</w>
h y
fu yo</w>
eth weni</w>
equ ality</w>
eng u-
em anzini</w>
el anga</w>
e um</w>
deleg ates</w>
cr ibe</w>
com pon
cl ass</w>
ch em
bew u</w>
az ekile</w>
aw are</w>
att ention</w>
associ ated</w>
aph ezu</w>
ad ing</w>
abath athu</w>
Um solwa</w>
Um shwana</w>
U KU
Sum mit</w>
R iver</w>
Programm e</w>
O ther</w>
Ngen xa</w>
Ng u-R
Ng okw
N am
M us
Iz ikh
En quir
E st
Distr ict</w>
200 2</w>
z az
y esikhashana</w>
y anoma</w>
wa :</w>
val u
vac ancy</w>
ukw aziswa</w>
uku thuthukiswa</w>
uk ethwe</w>
u w
tur ed</w>
them selves</w>
t old</w>
st or
sob haliso</w>
sign ific
se qu
se arch</w>
s ezulu</w>
represent atives</w>
refer r
r un
ques tions</w>
qubuz ana</w>
pris on
previ ously</w>
prev ent</w>
phak elwa</w>
particul arly</w>
oth ola</w>
ohl ala</w>
o B
ng umuntu</w>
n os
lo d
kwem ithetho</w>
kw iz
k alula</w>
job s</w>
izin qumo</w>
it self</w>
int ell
ing u
ik ele</w>
ich aza</w>
high er</w>
h owever</w>
f lo
eny anga</w>
eng any
en dlela</w>
eb usuku</w>
dif f
des cription</w>
d ou
d amage</w>
custom ary</w>
comm unic
citi zen</w>
c ingo</w>
aph akathi</w>
amb isa</w>
al tern
akash ela</w>
ail ed</w>
ahl wa</w>
ah hovisi</w>
a ug
Reg istration</w>
Reg ional</w>
On ce</w>
In hloso</w>
Im ib
Ch apter</w>
AN D</w>
3 00</w>
200 6
19 8
zoku q
y esigatshana</w>
x eny
work ers</w>
woku thi</w>
w aba</w>
uth umayo</w>
ush ane</w>
us ebenza</w>
un eration</w>
umel ana</w>
ukuz iphatha</w>
ukul imala</w>
u h
th ank</w>
succ ess</w>
st able</w>
separ ate</w>
s pr
s esiFundazwe</w>
rup tion</w>
r ather</w>
pub lic
pro per</w>
pri or
ow ned</w>
org an</w>
ondl o</w>
olak ele</w>
okw el
of ten</w>
ngoku v
ng ay
nezin dlela</w>
n andi</w>
me an
m ath
m a</w>
loku vikelwa</w>
le ft</w>
kwam as
kum untu</w>
ke ep</w>
k amasipala</w>
is ishayamthetho</w>
inter pre
ing anis
in ombolo</w>
imib uzo</w>
il isa</w>
hl amvu</w>
hamb o</w>
hamb isa</w>
fun eko</w>
ezin cane</w>
esi hl
en tit
en tif
en forc
ebenz ela</w>
eb alulekile</w>
dl ame</w>
direc tor</w>
cour ts</w>
comp et
b em
ass y</w>
any thing</w>
anti -
ab esifazane</w>
ab el
Y enza</w>
Spec ial</w>
Polic y</w>
Khabhin ethi</w>
J o
Im isebenzi</w>
EN T</w>
Agricul ture</w>
200 7
031 -
z asem
yoku l
yal ezo</w>
y esigaba</w>
wor d</w>
w ide</w>
w ezin
uku f
ukh eshe</w>
th an
sus a</w>
soku b
sig atshana</w>
si a</w>
s ex
rem ains</w>
rece ip
re j
rac ial</w>
proc essing</w>
pro duce</w>
our ism</w>
on ipha</w>
oku sebenza</w>
okh elo</w>
ok oph
off ered</w>
obul ungiswa</w>
obh ala</w>
o y</w>
nez ith
mater ials</w>
loku v
l ula</w>
l l</w>
l il
kul eso</w>
jur is
juris dic
j wayelekile</w>
j wa</w>
isebenz e</w>
int ana</w>
initi atives</w>
ingc ele</w>
in nov
imb oni</w>
id av
hum ana</w>
fron t</w>
enteng o</w>
em az
elec tions</w>
crim es</w>
condi tion</w>
c ard</w>
b y
at tr
at a</w>
ass ess
ang u-
and id
amb iso</w>
amas u</w>
al ong</w>
aku kho</w>
ah oli</w>
af aka</w>
ad ala</w>
abl ed</w>
W A
U y
Por t</w>
H ouse</w>
Econom ic</w>
A p
zoku thi</w>
zoku l
zika Hulumeni</w>
z indawo</w>
yoku q
y ase-
vari ety</w>
uz we</w>
umb ula</w>
ukh etho</w>
tor ia</w>
suff ici
soku qala</w>
shor t
sett l
rec overed</w>
r adi
qu ar
pay ments</w>
oun c
oq wa</w>
ond oloz
okw enzeka</w>
okung enzeka</w>
oku qond
ob tain</w>
ob serv
o o</w>
nom thelela</w>
ng olwazi</w>
ng oM
nem inye</w>
n konzo</w>
n aw
mis sions</w>
lo t</w>
link ed</w>
li able</w>
l ight</w>
l as
kwezin suku</w>
kwez iMali</w>
kwam alungu</w>
kw abasebenzi</w>
ku shiwo</w>
kab i</w>
izim ele</w>
iv ivinyo</w>
iny ane</w>
interven tions</w>
int uthuko</w>
ill ing</w>
il ayisensi</w>
ibh ek
i ation</w>
i Phalamende</w>
hal iswe</w>
h hayi</w>
fin ance</w>
f all
ezin dl
exp ir
exp end
esith ile</w>
esikh ungo</w>
eng aphansi</w>
e G
e ?</w>
dr iving</w>
deal ing</w>
cwal ise</w>
coll ection</w>
az am
ay ina</w>
av ing</w>
aph athi</w>
amal unga</w>
adop ted</w>
ac commod
Um nyango</w>
UM nu</w>
O R
Man je</w>
M s</w>
Is ahluko</w>
I Lungu</w>
E uro
E TH
7 5</w>
4 8</w>
2005 -0
zoku th
w akh
w abo</w>
uz o:</w>
uph inde</w>
ungis elela</w>
ung qu
ung ele</w>
um m
ul elwa</w>
ti cles</w>
the ft</w>
sum m
star ted</w>
star t</w>
sh are</w>
sel f-
sec tors</w>
s ound</w>
s ale</w>
receip t</w>
preh ensive</w>
phak eme</w>
p ip
p ic
p an
oper ations</w>
okuv akasha</w>
okuland elayo:</w>
okukhul unywe</w>
ngokuc acile</w>
ne eded</w>
nd awonye</w>
nal eyo</w>
max imum</w>
m os
lika Mongameli</w>
lear ning</w>
kw e</w>
ku M
ka Masipala</w>
izikh athi</w>
iz elela</w>
is iqinisek
in iningwane</w>
in dlu</w>
ic ates</w>
ic ated</w>
h im
g ing</w>
fun d</w>
eziy isithupha</w>
eth ule</w>
er ali</w>
eqesh o</w>
en acted</w>
emp umelelo</w>
em phas
elil odwa</w>
ekh odi</w>
ef ana</w>
ed ing</w>
declar ed</w>
cr itical</w>
contr ibution</w>
constitu tion</w>
consid er</w>
comp anies</w>
challeng e</w>
carr ied</w>
boku thi</w>
ble m</w>
b ob
az ela</w>
ax h
ash intsh
ar if
appe al</w>
any one</w>
and ulela</w>
am ak
ah olela</w>
ac ked</w>
ab e-
ab ase</w>
ab ane</w>
a ?</w>
Res our
Lab our</w>
Is imo</w>
Im p
I Z
F ur
Environ mental</w>
B ur
Am a-
Afric a's</w>
2 7</w>
2 3</w>
199 8</w>
10 :00</w>
z es
yoku hl
yim aphi</w>
y mp
x ile</w>
wh y</w>
wez oku
w ak
vik eleka</w>
victi m</w>
vi l</w>
uz wa</w>
ush intsh
um k
um enzi</w>
ul imi</w>
ukuph atha</w>
uc le
u B
tr o</w>
strateg ic</w>
sk y</w>
sh aya</w>
sec u
sa w</w>
s enze</w>
ro w</w>
resour ce</w>
rem uneration</w>
re fund
r ange</w>
q ashi</w>
produc ed</w>
pro blem</w>
pr imary</w>
pers onal</w>
p ul
organis ations</w>
off ices</w>
od y</w>
od iversity</w>
nom sebenzi</w>
no hulumeni</w>
ng uMkhandlu</w>
nal apho</w>
n olwazi</w>
mar ried</w>
m ight</w>
ling ana</w>
l ona</w>
l ives</w>
ku ba</w>
koku q
jurisdic tion</w>
it es</w>
ist ence</w>
is is
ing o:</w>
ing en
indic ated</w>
inc ane</w>
in xusa</w>
in -
imikh iqizo</w>
il ateral</w>
ikh akha</w>
ib ute</w>
housebre aking</w>
for ward</w>
fe es</w>
fac ility</w>
f low</w>
ezingu- 30</w>
esi hle</w>
es ish
es as
er ment</w>
ekus eni</w>
ebh odi</w>
eb ru
eas es</w>
determin ation</w>
dem and</w>
cwal iswe</w>
consid er
con ven
ci vil</w>
c ina</w>
c andid
be y
b ack
as signed</w>
ant ly</w>
amath enda</w>
altern ative</w>
aku b
ad ingeka</w>
ad e
accred ited</w>
accoun t
Wh ere</w>
W ith</w>
Th en</w>
Sch ool</w>
Ngakh o-ke</w>
N t
Land mark</w>
K omidi</w>
H os
F ebru
Director ate</w>
C ar
Am akh
Ad ministr
Acc ord
8 0</w>
1 9</w>
yil ungu</w>
y ena</w>
wez i
uny aka</w>
ubu ye</w>
ub eke</w>
th y</w>
ter r
ter ing</w>
sus p
str um
st eps</w>
se as
represent ative</w>
relation ship</w>
rel ig
reas ury</w>
r ural</w>
r ation</w>
pr int
plac ed</w>
pay able</w>
p ir
osi t</w>
osh we</w>
obtain ed</w>
nguM ongameli</w>
ngoku ngem
ngoku ba</w>
ng umthengi</w>
ng c
nam hlanje</w>
n ity</w>
mur der</w>
milit ary</w>
mas inyane</w>
kwez omnotho</w>
kwam alungelo</w>
kun esidingo</w>
kh iqizo</w>
k ontileka</w>
j us
iy wa</w>
ith ola</w>
is iph
iphak athini</w>
ip i</w>
inter n
implement ing</w>
imp ela</w>
imib iko</w>
il and
ig q
iboph ezela</w>
i on
hlangan ise</w>
follow ed</w>
ezib alulekile</w>
ey enziwe</w>
expend iture</w>
et c</w>
esifund eni</w>
emb oni</w>
em ed</w>
em a
ek ezwa</w>
do ing</w>
dl weng
dec ided</w>
commun ication</w>
col labor
cl aim</w>
c y
c ishe</w>
bekw a</w>
b loc
ay ing</w>
ath athwa</w>
as elwa</w>
an g</w>
ambis ani</w>
aim s</w>
add ed</w>
acc es
abh ek
W ater</w>
V AT</w>
Uku th
Sup t</w>
Palest in
Magistr at
Iz indawo</w>
Isra el</w>
G od</w>
Am ath
20 10</w>
2 2</w>
z abal
y endawo</w>
ungqu th
umb uzo</w>
um yalelo</w>
um pofu</w>
ul wini</w>
thetho-S ivivinyo</w>
theng isi</w>
t u
t ap
su n</w>
su g
strugg le</w>
sit uated</w>
recommend ations</w>
rec ent</w>
re hab
pri l</w>
pos sib
pl om
perform ed</w>
our able</w>
oug ht</w>
oth a</w>
origin al</w>
ond ary</w>
omb ise</w>
om abhizinisi</w>
offic ers</w>
o funa</w>
ngezikh athi</w>
ng ing
nes icelo</w>
ner ships</w>
ne t</w>
m al
kwis igatshana</w>
kwal ezo</w>
kuy ona</w>
ku sh
ku qinisekiswe</w>
koku hl
kh ankaso</w>
iz ikole</w>
is ihl
iq izi</w>
in strum
improv ed</w>
igh b
him self</w>
h ind</w>
h andl
ezif anele</w>
esi vumel
en vis
em ukela</w>
el andelayo</w>
ekuth eni</w>
e K
dis played</w>
desig n</w>
d en</w>
cul azi</w>
con vic
ci pl
c ebo</w>
bo ok
bel iev
ay isa</w>
ath s</w>
ath ole</w>
at er
appl ying</w>
ans e</w>
anim als</w>
af for
adv ance</w>
ad minis
ad es</w>
ab ulo</w>
ab road</w>
W om
Ukw enza</w>
Uku v
U Khomishane</w>
T e
S e
R 2
P ir
Org anis
N A
K anti</w>
He ad
G u
Direc tor</w>
B ass
A pril</w>
A Z
1 7</w>
xazul ulo</w>
xazul ula</w>
well -
ung ulwe</w>
uku buy
ukan isa</w>
uk iso</w>
ubh a</w>
ub azeka</w>
tr ansi
t op</w>
suffici ent</w>
streng th
spir it</w>
sifund azwe</w>
regul atory</w>
pur ch
port fol
pl ants</w>
particul ars</w>
ot es</w>
ond i</w>
ol ve</w>
okuland elayo</w>
oku xhumana</w>
ob un
ob ela</w>
o ts</w>
numb ers</w>
noku g
ngen yanga</w>
n ucle
n et
n dlela</w>
m its</w>
long er</w>
l ub
l ilo</w>
l an
ku so</w>
koku th
koku kh
kh umbi</w>
k ind</w>
izikh ungo</w>
iz ilimi</w>
ith upha</w>
ith eth
isikh ala</w>
is eka</w>
in esses</w>
imp i</w>
il ayo</w>
ho x
gr atul
f os
f ig
f a
ezik oleni</w>
ez eka</w>
est ate</w>
eq esha</w>
entif ic</w>
engam ele</w>
en 's</w>
eku thuthuk
eku q
ec tives</w>
ebh ola</w>
dis ease</w>
diff icul
des cribed</w>
contr ol
con gratul
co- ordin
categ ories</w>
carr y</w>
bud g
becom es</w>
b abo</w>
az ayo</w>
an ini</w>
al and
ahl inz
ag uq
adequ ate</w>
a ur
V ic
Uku n
U K
TE R</w>
St ation</w>
SA DC</w>
P lease</w>
O kun
N ew</w>
Il ungu</w>
I Ningizimu</w>
E ast</w>
Certif icate</w>
Bass on</w>
As soci
A ban
5 00</w>
3 4</w>
z ab
ye ar
woku qala</w>
woku kh
wel come</w>
wase Thekwini</w>
w r
w arr
us elela</w>
uph enyo</w>
ukw akhiwa</w>
ukukhokh ela</w>
ukub amba</w>
uku bh
typ e</w>
tion ing</w>
throug h
siz e</w>
sing le</w>
s un
s even</w>
s amaGugu</w>
requ ested</w>
record s</w>
r ub
prom oting</w>
prog res
pl ease</w>
pl as
person nel</w>
p age</w>
os etshenziswa</w>
or i
omp uy
om dala</w>
okuph atha</w>
nob ugebengu</w>
ngokungem thetho</w>
ngokug cwele</w>
ngoku n
ngaph ambili</w>
ng ezimali</w>
ncint iswano</w>
nam alungu</w>
maint ain</w>
m ut
lokw enza</w>
le y</w>
law ful</w>
l ezin
l am
kwam a-
kungakh athal
kung aba</w>
ku thi</w>
khokh ela</w>
k ol
jo int</w>
j our
izing uquko</w>
iz ilwane</w>
iz igaba</w>
iti m
ish es</w>
investig ate</w>
ind ela</w>
in ingi</w>
imib ono</w>
im inyango</w>
im al</w>
if t</w>
hous es</w>
hous ehol
h ours</w>
h or
h ard</w>
gq ekeza</w>
f re
ez ic
eth ulwe</w>
er es</w>
equ itable</w>
ep ing</w>
entit led</w>
en sion</w>
en ous</w>
emaz ingeni</w>
em iphakathini</w>
em al
el iy
ehl akalo</w>
docum entation</w>
dep osit</w>
cont ain
conf id
c ine</w>
bel ong
be hind</w>
b ook</w>
b ac
ay ense</w>
as eb
aq ashi</w>
ang isa</w>
anc ed</w>
am ane</w>
al weni</w>
al okhu</w>
akan ani</w>
ah ambisani</w>
abas ebenza</w>
a kumele</w>
W e
Uku faka</w>
Tel :</w>
SA B
S ystem</w>
R el
Man tshi</w>
M o
L anga</w>
Ku khona</w>
J ud
In qubo</w>
Ig ama</w>
I min
CO N
B ills</w>
A ud
. za</w>
z ayo</w>
z awo</w>
y outh</w>
y isikhathi</w>
y ama
xh aso</w>
w ase-
us ayo</w>
ur ation</w>
uph ofu</w>
under taken</w>
un wa</w>
un its</w>
um ile</w>
uk i</w>
ug s</w>
ubu dlelwane</w>
u R
tr u
t ual</w>
siv umelwano</w>
shor t</w>
res t</w>
phot ograph
pe ac
p ati
oz ini</w>
oth atha</w>
oniph ekile</w>
ompuy utha</w>
om asipala</w>
od ini</w>
obu fakazi</w>
o hulumeni</w>
nucle ar</w>
nomb olo</w>
ngoku hlanganyela</w>
n abasebenzi</w>
m om
lom sebenzi</w>
l izwe</w>
kwal owo</w>
kw enye</w>
kw eg
kum a-
ku njalo</w>
k agesi</w>
it ch
isi kweletu</w>
inter ested</w>
ind i
indi rec
in ning</w>
import ance</w>
imib andela</w>
idiy ela</w>
iS ekela</w>
h az
fin al</w>
f arm
ezis emthethweni</w>
ez ayo</w>
ev ents</w>
esib hedlela</w>
esh wana</w>
entsh isekelo</w>
ensi f
eng qondo</w>
em akhaya</w>
el ikh
ehl ala</w>
driv er's</w>
direc tion</w>
develop ing</w>
dec isions</w>
cre ated</w>
consum ption</w>
col on
cl ause</w>
chang ed</w>
ch ief</w>
c row
c ros
bre ak
b ed
az iph
ayis ithupha</w>
arres ts</w>
an elekile</w>
allow ed</w>
ag ers</w>
af una</w>
accep ted</w>
ab onga</w>
ab hl
UM nyango</w>
TE F</w>
M TEF</w>
L et</w>
Izin hlelo</w>
Iz icelo</w>
IS I
Hl elo</w>
H um
Ez inye</w>
E K
D ube</w>
C ong
C los
Am andla</w>
A C
199 7</w>
z ombili</w>
yo Mkhandlu</w>
yem velo</w>
wesi Bhakabhaka</w>
w av
w ag
v ision</w>
ush o</w>
und ing</w>
um ph
ul iswa</w>
ukuth olakala</w>
ukuth atha</w>
ukuhl inzeka</w>
uku bhekana</w>
u g</w>
u ch
t ol
sub sequ
st ory</w>
st adi
spe ak</w>
sel ele</w>
s i</w>
s cre
ro c
renew al</w>
refund able</w>
re ach</w>
p as
on ile</w>
omb iko</w>
om ele</w>
ol uz
off ers</w>
od aba</w>
oc cas
noku m
ne ighb
nam uhla</w>
min imum</w>
ma il</w>
m ad
loku thola</w>
lo ku</w>
lo ad</w>
lead ing</w>
lead ership</w>
kwam acala</w>
kw ezindawo</w>
kungakhathal iseki</w>
ku ngen
koku ph
kan a</w>
isikh ombisa</w>
isebenz isa</w>
is iv
iq izwa</w>
involv ement</w>
indus trial</w>
inc or
iliv a</w>
ie w</w>
ezing xoxo</w>
ezimb alwa</w>
esikhun dla</w>
es ter</w>
erv ation</w>
equ al</w>
end im
en tered</w>
ehol ders</w>
e ight</w>
e P
dlul isela</w>
dl alo</w>
d amag
continu ed</w>
comm enc
cle ar</w>
c ingo:</w>
bec ame</w>
b ot
b esifazane</w>
atsh elwe</w>
atsh e</w>
ass es</w>
as pec
appe ar
akh iweni</w>
ak ekela</w>
ahl ukahlukene</w>
aban t
ab use</w>
V i
TI ON
Sen ior</w>
S udan</w>
Reg is
Ol ymp
O c
L angu
Ku val
I T
Hon ourable</w>
Ge org
Fin ancial</w>
F lo
El l
D oc
Ch ina</w>
C ounc
B onke</w>
A ustr
197 3</w>
zoku b
z iq
y el
y ase</w>
y abathengi</w>
wom hlaba</w>
wom an</w>
w um
v ul
ungquth ela</w>
ung e</w>
ud inga</w>
u K
thuthuk a</w>
thre at
theng iselana</w>
tem porary</w>
sug g
sub sid
su itable</w>
st op</w>
st ab
specif ically</w>
sikh undla</w>
s eshi</w>
s '</w>
re present</w>
rac ism</w>
part ners</w>
osi y
op tim
on kana</w>
ol isa</w>
oku chazwe</w>
okhum enti</w>
okh a</w>
nom phumela</w>
ngokw esigaba</w>
ngoku sho</w>
ngoku m
ngoku land
ng akh
nem igomo</w>
ne ar</w>
n on
monit or</w>
main ly</w>
loku th
kw asho</w>
ku yo
ko hlelo</w>
iz akhamuzi</w>
iy ela</w>
it ems</w>
ishiyagal ombili</w>
isebenz ini</w>
is ebenza</w>
ing abe</w>
individ uals</w>
ind i</w>
in ts</w>
ik omidi</w>
identif y</w>
hlos we</w>
he al
g l
ezikh ona</w>
ez ish
ez elwe</w>
ex emp
esh eli</w>
eng isa</w>
eng eza</w>
em uk
em hlanganweni</w>
el iv
eh old</w>
ec os
dom estic</w>
dis cipl
def in
dec eased</w>
contr ac
cons ists</w>
con clud
comp uter</w>
com prehensive</w>
co- oper
clos ed</w>
chair person</w>
c ind
bas ebenz
as osiy
ar k</w>
ang empela</w>
amp uli</w>
amaz wi</w>
am aj
alis ts</w>
al ela</w>
adv ice</w>
a p</w>
U S
Tr aining</w>
Str ateg
Or lando</w>
O per
O kw
N ew
Kuval wa:</w>
I ngabe</w>
I den
I d
F l
D o</w>
C up</w>
C A
Bus iness</w>
199 6</w>
031- 311</w>
zin ikela</w>
z ezimali</w>
yoku d
y ibh
y ib
way eng
wal ithi</w>
us ually</w>
uny aza</w>
un licensed</w>
un fair</w>
un dleni</w>
umb ano</w>
ul ele</w>
ukw el
ukus ukela</w>
uku vikela</w>
uku ngab
ug q
uc ula</w>
tif ication</w>
ti s</w>
through out</w>
th walo</w>
tel eph
st ations</w>
st age</w>
sph eres</w>
soku bhalisa</w>
se ized</w>
s we
s imo</w>
s ey
ro oms</w>
responsib ilities</w>
rel eased</w>
rec ru
qinisek ise</w>
qh amuka</w>
pres ents</w>
por tion</w>
pen al
oph ethe</w>
op tion</w>
on ini</w>
ol on
ol ide</w>
okuth utha</w>
od ingeka</w>
od inga</w>
ob ugebengu</w>
ob jects</w>
nokw enziwa</w>
ngokw ez
ngoku bhala</w>
ngo hlelo</w>
ngo L
n esigatshana</w>
mul ti-
low er</w>
l un
kwam azwe</w>
kw ehl
kuz ona</w>
k onyaka</w>
j alo</w>
iz itshalo</w>
iz iphakamiso</w>
itsh iy
isitif iketi</w>
is in
is ib
ir e</w>
int ensif
indep endent</w>
increas ed</w>
implement ed</w>
im ana</w>
ikh asimende</w>
ikez elwa</w>
ief s</w>
id ing</w>
ib r
househol ds</w>
hous ehold</w>
histor y</w>
he ard</w>
gr ants</w>
govern ance</w>
fu r</w>
for ces</w>
f arm</w>
exc ell
ex clud
esivumel waneni</w>
esh eya</w>
es edlule</w>
er ers</w>
ens ation</w>
en try</w>
el wayo</w>
el ect</w>
effor t</w>
ef ul
ed u</w>
ech azwe</w>
e L
dl ula</w>
dis posal</w>
direc tive</w>
dec ide</w>
de ploy
cul ture</w>
cl early</w>
ch ing</w>
car b
ca used</w>
c int
benef ici
ath olwa</w>
assess ment</w>
ar i</w>
anim al</w>
an ikeze</w>
am oun
alis ela</w>
al elwa</w>
al amende</w>
akw a
akath o</w>
agg a</w>
act ual</w>
ac knowled
ac ela</w>
abang en
a is
V eterinary</w>
Ukw akhiwa</w>
U B
T ourism</w>
St ates</w>
S m
Pr om
P i
N ow</w>
Mas ter</w>
M ol
M al
J aji</w>
Isi tifikedi</w>
Im prov
IN G
I sikhathi</w>
I D</w>
Ell is</w>
EN Z
19 47</w>
z okwenza</w>
z oM
z ansi</w>
yom hlaba</w>
volun t
uth u</w>
us i</w>
us elelwa</w>
ukuhl inzekwa</w>
ukub onga</w>
ukub halisa</w>
uku qhubeka</w>
uhl ungu</w>
ud u</w>
ub ula</w>
th ous
t ask</w>
success ful</w>
sig ht</w>
se ed</w>
sch ed
s olo</w>
rec re
re fer</w>
r end
qhub eke</w>
prohib ited</w>
pro pos
pres cribe</w>
pre ci
posi tive</w>
pos t
pert aining</w>
p ack
os emthethweni</w>
ons a</w>
om ali</w>
okw akha</w>
ohl obo</w>
of aka</w>
ngok o
ng u-
nezim o</w>
nal owo</w>
l eng
kw ifomu</w>
k olwazi</w>
izin jongo</w>
izin como</w>
iz ib
iv al</w>
it i</w>
inhl oko</w>
ing wa</w>
indig enous</w>
in kululeko</w>
im velo</w>
i ?</w>
guid elines</w>
go v</w>
g ender</w>
form al</w>
eziv ela</w>
ey edlule</w>
eval uation</w>
esif o</w>
es emthethweni</w>
es ebenza</w>
enz elwe</w>
enz ela</w>
enterpr ises</w>
en quir
en hloso</w>
employ er</w>
em aph
elis eduzane</w>
el ona</w>
eku qaleni</w>
eku gcineni</w>
ebh ange</w>
e x</w>
dep endent</w>
d ed
correc t</w>
connec ted</w>
az ise</w>
az ana</w>
ass ets</w>
ar t</w>
anj wa</w>
anc ing</w>
an tshi</w>
al ia</w>
al :</w>
aku dala</w>
aj wayelekile</w>
af und
ad ini</w>
ac qu
ab ula</w>
W onke</w>
U lwazi</w>
T reasury</w>
S ikh
S af
Ph athwa</w>
P ot
O L
Magistrat es'</w>
M ot
M E</w>
Leg isl
L and</w>
IF A</w>
Flo or</w>
F IFA</w>
B afana</w>
A g
4 0
2007 -0
200 9</w>
2 8</w>
1 7
. gov</w>
- based</w>
zom sebenzi</w>
zem fundo</w>
yoku s
wezi Fundazwe</w>
uq ala</w>
um lando</w>
um g
um be</w>
um asipala</w>
ul ed</w>
ukwehl uleka</w>
u xolo</w>
tr ust</w>
te arg
tax pay
sub -
str ong</w>
str ong
st ak
signific ant</w>
resid ential</w>
repe aled</w>
regul ated</w>
rece iving</w>
qugquz ela</w>
produc er</w>
play ers</w>
part nership</w>
p umalanga</w>
oz a</w>
ow enza</w>
olu v
oku g
odw a-ke</w>
od o</w>
norm al</w>
noku thuthukisa</w>
ngoku z
ngen elela</w>
ngam andla</w>
ngal okho</w>
nal ezo</w>
n ol
n it
n cane</w>
mechanis ms</w>
man age</w>
m hlangano</w>
look ing</w>
loku sebenza</w>
kwi- website</w>
kwel inye</w>
kus asa</w>
ku hla</w>
kom untu</w>
jud ge</w>
izin hloso</w>
izin hlanzi</w>
izin hlaka</w>
int engo</w>
ing :</w>
inform al</w>
ind ing</w>
imp acts</w>
if isa</w>
i ence</w>
hlinz ekwa</w>
hanj iswa</w>
ha q
grow ing</w>
func tional</w>
fun eka</w>
f el
ezi hamba</w>
ex clus
esit eshini</w>
esis odwa</w>
es imo</w>
eny uka</w>
envis aged</w>
en tity</w>
el as
ec h</w>
dr ug</w>
dlul isa</w>
distr ibution</w>
deliv er</w>
de ed</w>
citizen ship</w>
c ar</w>
b akhe</w>
ay ipi</w>
att acks</w>
ase Khaya</w>
aph inda</w>
ap s</w>
answ er</w>
and ulo</w>
and ed</w>
amb iza</w>
am endment</w>
am ended</w>
al abo</w>
ak azo</w>
adop tion</w>
ac comp
ab u</w>
ab a
a tively</w>
W oku
W ell</w>
R em
R 1</w>
Pr imary</w>
Pl an</w>
M ay</w>
J une</w>
I '
Hos p
H ous
G overn
Febru ary</w>
Ex c
E ku
Consum er</w>
Ad d
A man
2 6</w>
/0 7</w>
/ or</w>
' re</w>
yim iphi</w>
w aban
v er</w>
uv esi</w>
ushintsh o</w>
under stand</w>
ul eki</w>
ukuph epha</w>
ukun q
ukukhokh a</w>
uhlinz ekela</w>
ub azekile</w>
u it</w>
tour ism</w>
tit le</w>
there of</w>
tel l</w>
t s
struc ture</w>
stand ard</w>
soku sebenza</w>
siph inde</w>
sen ior</w>
sa KwaZulu-Natali</w>
s pon
roug ht</w>
recogn ised</w>
r ight
qond isa</w>
prepar ed</w>
pre vention</w>
pr esid
polic ing</w>
perform ing</w>
our selves</w>
organis ed</w>
onj iswe</w>
ong st</w>
omp y
olu tions</w>
olon ti
okun ingi</w>
ok omthetho</w>
objec tive</w>
obh ek
nam aph
n eth
month ly</w>
me t</w>
l amalungu</w>
kwezin siza</w>
kwenz eke</w>
kwam akh
ku sebenza</w>
koku thola</w>
khokh i</w>
kang cono</w>
izing xoxo</w>
izimp awu</w>
izikh ali</w>
iz ation</w>
is ted</w>
is is</w>
is if
is akhiwo</w>
iqu e</w>
in form</w>
im fundo</w>
ikh ono</w>
ik el
i hamb
he h
g iving</w>
f ing
f ight</w>
ezil andelayo</w>
expl o
esiz ayo</w>
ens uring</w>
eng ey
enforc ement</w>
em z
em ad
elig ible</w>
ekusebenz eni</w>
ear li
dr aw</w>
div er
dat abase</w>
confer red</w>
concer n</w>
comp il
coll ec
cl ear
canc ell
bus inesses</w>
be hl
b er</w>
aw ar
ath ekayo</w>
at r
aph ele</w>
ap ers</w>
and /or</w>
amin erali</w>
amas osha</w>
amabh uku</w>
am ula</w>
am ongst</w>
am es</w>
am ehlo</w>
aku ba</w>
ak eme</w>
acc el
ac king</w>
ab ona</w>
a i</w>
U cingo:</w>
Su n</w>
S ome</w>
S icela</w>
S i
Pir ates</w>
P RO
Okun ye</w>
N o
Me tro</w>
M or
Langu age</w>
L ungelo</w>
L olu</w>
Iz into</w>
Indus try</w>
In kosi</w>
In dlela</w>
I S</w>
Gaz ethi</w>
D ar
Ch a</w>
B i
Am afomu</w>
AN G
5 5</w>
3 2</w>
- up</w>
zoku hlala</w>
zoku g
z imo</w>
yoku phatha</w>
yis akhamuzi</w>
y enza</w>
wo Mkhandlu</w>
wez o
wal ambiza</w>
uthuk iswa</w>
uth wa</w>
uth ola</w>
ul uzi</w>
ukuhl ola</w>
uku w
ukh ula</w>
u the</w>
thoug ht</w>
theng isa</w>
terr or
t ation</w>
substanti al</w>
sub mission</w>
soku s
sh ado</w>
s okwenza</w>
s ezimali</w>
s ays</w>
respon se</w>
re venue</w>
qu ite</w>
prot ected</w>
pl eased</w>
per mits</w>
peo ples</w>
p ite</w>
os a</w>
org ans</w>
or ed</w>
oq ala</w>
om edi</w>
ol ud
odl ule</w>
oblig ations</w>
ob on
o ing</w>
ngokw anele</w>
ngok om
ngen jongo</w>
ngal ingani</w>
nen qubo</w>
negoti ations</w>
mob il
min im
m ag
lw ethu</w>
law ulwa</w>
l iph
ku Mkhandlu</w>
izin kampani</w>
iz ifo</w>
ith emba</w>
is izathu</w>
increas ing</w>
in kulumo</w>
im ig
il t</w>
igh ting</w>
icil elwa</w>
ibon elelo</w>
ib uzo</w>
i es:</w>
ha vi
g ives</w>
g ir
fund am
fi x
f av
ezin e</w>
ezif anayo</w>
ez omnotho</w>
etshenz wa</w>
es ayensi</w>
eng age</w>
endim eni</w>
end ima</w>
end ala</w>
emb iso</w>
em isebenzini</w>
elec tronic</w>
ek iso</w>
ek ez
eg et
e phakeme</w>
develop ments</w>
desig ned</w>
d id
d ang
cwan ingo</w>
coun tr
coun ter
cop e</w>
cons ervation</w>
compon ents</w>
co- operation</w>
clim ate</w>
ch a</w>
c over
b enze</w>
av er
ath int
as ter</w>
as iza</w>
anj we</w>
al ayo</w>
achiev ed</w>
abaph athi</w>
aban ikazi</w>
Z ondi</w>
V I
Umb iko</w>
Um hlangano</w>
T oy
Ng al
Mar ch</w>
M any</w>
K onke</w>
Im port</w>
Em iny
E s
Dar fur</w>
D uring</w>
C HA
B rit
B ay</w>
An imal</w>
An anse</w>
2006 /07</w>
19 6
z one</w>
yom thetho</w>
yokw akha</w>
yoku ba</w>
yal ty</w>
y ebhizinisi</w>
wom phakathi</w>
wam i</w>
w ar</w>
w akalayo</w>
vis itors</w>
uq obo</w>
um phumela</w>
ulum e</w>
u S
trans l
theng a</w>
sub s
sour ce</w>
soku q
sit ting</w>
sec ure</w>
seas on</w>
s etting</w>
s ethu</w>
s end</w>
s an
qualif ied</w>
pl a
phak any
ow odwa</w>
ov o</w>
ongoz wayo</w>
on y</w>
on ikezwa</w>
ompy utha</w>
om uhle</w>
ol der</w>
okw esikhashana</w>
okuph athelene</w>
okum elwe</w>
oku c
ok isini</w>
obu hlanga</w>
obu dlelwane</w>
nomin ated</w>
nom thengi</w>
nokuth olakala</w>
ngokw en
ngezin dlela</w>
ngez izathu</w>
ngen kathi</w>
nem ibandela</w>
m er
lw em
luk a
li q
land s</w>
l us
l ack</w>
kom unye</w>
k ept</w>
iz ivumelwano</w>
ith imba</w>
isikh wama</w>
investig ated</w>
install ation</w>
inj ury</w>
ing xabano</w>
ing eke</w>
ind eed</w>
in spector</w>
in qubomgomo</w>
im u</w>
im ihlangano</w>
im igwaqo</w>
im fucuza</w>
ikez ela</w>
if aka</w>
ib uy
ib ono</w>
ib er
hl aw
hand ed</w>
futh o</w>
fu g
f are</w>
f all</w>
f al
ezindl ini</w>
ez ek
ey enziwa</w>
ext ension</w>
ex por
eph u</w>
ensi c</w>
eng eke</w>
endl eleni</w>
employ ee</w>
ek omidi</w>
ek eli</w>
eb uli</w>
eb haliwe</w>
e ad</w>
don 't</w>
d um
d re
cw alis
cont ent</w>
conc iliation</w>
com ment</w>
com a</w>
c ulo</w>
c lo
c li
bus o</w>
broad casting</w>
b orn</w>
b ezin
awar eness</w>
av es</w>
atsh al
ass um
ap ul
anno unc
ang ena</w>
amaph esenti</w>
al og
akh i</w>
akabh akeni</w>
ak elwe</w>
ahl andlela</w>
ah ambisana</w>
ac ac
abal ala</w>
Y E</w>
U kh
St and
R ob
Pre vention</w>
Palestin ian</w>
M on
Ins p</w>
In ani</w>
F ac
Enquir ies:</w>
EN T
E SI
D olobha</w>
D RC</w>
C ustom
Amath enda</w>
Abas ebenzi</w>
Ab e-
200 0</w>
199 4</w>
199 3</w>
z endawo</w>
z angasese</w>
yoku n
yo hlobo</w>
y enziwe</w>
y entela</w>
xeny eni</w>
wan ted</w>
w ind
w entando</w>
v eget
ung en
un ion</w>
un able</w>
umk lomelo</w>
uc ingo</w>
uN kulunkulu</w>
te ach
sub sections</w>
stat ements</w>
sp ending</w>
soku th
sh ow</w>
sh op</w>
sh ini</w>
sc ale</w>
repor ting</w>
rem ove</w>
record ed</w>
pre ad</w>
ph one</w>
part nerships</w>
ot echn
ol uhl
ol ile</w>
ok isi</w>
ohl wini</w>
no Mkhandlu</w>
njeng en
ngom sebenzi</w>
ngezin yawo</w>
nezing ane</w>
nem iphumela</w>
n esigaba</w>
n abas
mov ement</w>
min es</w>
meas ure</w>
loku d
l ebhizinisi</w>
kwezin hlelo</w>
kwezin dlu</w>
kwaku ng
kung ekho</w>
kun cike</w>
kos ikazi</w>
ko Mkhandlu</w>
kan y
izin cwadi</w>
iy alelo</w>
ith unywa</w>
ith ole</w>
isi Khulu</w>
ish ment</w>
isel wano</w>
is sion</w>
is enzo</w>
influ ence</w>
impor ter</w>
impor ted</w>
im posed</w>
im il
if ied</w>
idiy elwe</w>
identif ication</w>
hosp ital</w>
high -
hamb elana</w>
go t</w>
g ath
g as</w>
fi el
f ika</w>
eziy is
ezing ekho</w>
ezim ele</w>
ezim ayini</w>
ezikh undleni</w>
eth amela</w>
et ary</w>
esik ole</w>
esibh akabhakeni</w>
es aba</w>
er ic
er ated</w>
eph and
enteng iselwano</w>
eng ozini</w>
eng e</w>
end ers</w>
enc azelo</w>
en su
emb ezi</w>
eliph ethe</w>
elas onto</w>
el ements</w>
el al
ehl inz
effici ency</w>
e Bhodi</w>
dr iven</w>
do or</w>
div ersity</w>
di plom
deb t</w>
d agga</w>
contr ibute</w>
confer ence</w>
buyis ela</w>
bus a</w>
bo und
be havi
az ile</w>
at e:</w>
ar a</w>
ang ela</w>
amakh ophi</w>
al one</w>
al ezo</w>
al elwe</w>
aku s
aku ph
ak elwa</w>
ahl eni</w>
ah amb
af iny
af ake</w>
Wh ile</w>
Tr ust</w>
Toy ota</w>
T able</w>
St at
Resour ces</w>
Pro duc
Por t
P ow
P ers
P L
Ng iz
I bh
For eign</w>
Euro pe
D r
D iv
Cont rol</w>
Ch ar
Associ ation</w>
Ar ch
Appl ications</w>
Am eric
Administr ation</w>
A k
3 7</w>
00 1</w>
zis ebenza</w>
z akw
yoku z
y right</w>
y n</w>
y n
y ingxenye</w>
we Nkantolo</w>
w awo</w>
w abe</w>
v ig
urg ent</w>
ur r
uq ale</w>
uny ane</w>
un iv
ul s
uls ory</w>
ukw amukela</w>
ukutheng wa</w>
ubu dlelwano</w>
ub s</w>
u Ndunankulu</w>
tur n</w>
tr ends</w>
tor y</w>
th us</w>
th -
sub missions</w>
su per
sikh o</w>
sik azwelonke</w>
sign ment</w>
sig ns</w>
si kwazi</w>
sh ap
se ek</w>
se ats</w>
se a</w>
s old</w>
rob ber
retur ns</w>
respon d</w>
res olved</w>
rep air</w>
rem aining</w>
regul ar</w>
reg istr
rec over
po or
pert ise</w>
per mission</w>
p aper</w>
p al
ox o</w>
oug h</w>
ou ter</w>
otsh a</w>
otechn ology</w>
oper ating</w>
ong eke</w>
ond a</w>
okh ishwa</w>
ok elwa</w>
occ er</w>
o Ngqongqoshe</w>
nom phakathi</w>
nokw akha</w>
no w
no te</w>
nges aziso</w>
ng ikh
ng e</w>
nezin dleko</w>
nezikh ungo</w>
nem ithetho</w>
nation ally</w>
n athi</w>
mor t
me an</w>
m ali</w>
loku s
li hl
let ters</w>
lear nership</w>
l ost</w>
l esifundazwe</w>
l at
kus etshenziswa</w>
kuph inde</w>
kun q
kubh ek
koku l
khokh elwa</w>
isebenz ise</w>
is anayo</w>
ir respective</w>
iqh enya</w>
inv ited</w>
inter vention</w>
ins olv
ind icate</w>
ig g
hon our</w>
her eby</w>
franch is
form ed</w>
fol low</w>
fig ures</w>
fer til
fer ence</w>
f ails</w>
ezind iza</w>
ezikh ungweni</w>
ezid ingekayo</w>
ex pertise</w>
ex ist</w>
eth ulo</w>
eth i:</w>
es ishayamthetho</w>
enz uzo</w>
empow erment</w>
ell ing</w>
el ile</w>
effec tiveness</w>
effec tively</w>
econom ies</w>
eN tshonalanga</w>
e ful</w>
div ision</w>
cr isis</w>
cooper ation</w>
contr av
comp ulsory</w>
co ast</w>
centr al</w>
cent res</w>
bh amu</w>
bab oshwa</w>
b rought</w>
aw ard</w>
avo id</w>
ath engi</w>
ath emb
ard ed</w>
amoun ts</w>
akul eli</w>
akh ishwa</w>
ah hala</w>
af ika</w>
ac adem
abhl iki</w>
abam nyama</w>
abah oli</w>
ab aw
ab ango</w>
a e</w>
Wh ite</w>
Tr ade
T ax</w>
S y
S ib
R equ
R A
R 5
N aisa</w>
M ayelana</w>
K wez
K a
J an
Ith ala</w>
Imin iningwane</w>
Im vume</w>
Im ithetho</w>
I A</w>
Hosp ital</w>
G o
F rom</w>
F ree</w>
Est abl
E very</w>
E ver
E U</w>
E T</w>
Con stable</w>
Ch r
Ch iefs</w>
A R
7 0</w>
zem isebenzi</w>
zabal azo</w>
z imali</w>
yst ems</w>
yoku g
y onyaka</w>
y esivumelwano</w>
y ed
x ila</w>
woku ph
w ood</w>
w ishes</w>
w ela</w>
w angaphandle</w>
view s</w>
val ues</w>
v ula</w>
ut ing</w>
ur ies</w>
umkh umbi</w>
umkh akha</w>
um nyango</w>
ul uleka</w>
ukw ini</w>
ukh wini</w>
udl ame</w>
u ts</w>
tr ac
tif ied</w>
thre at</w>
th amo</w>
targ et</w>
t arif
suppor ted</w>
stre et</w>
stak eholders</w>
soku hl
so f
sik ahulumeni</w>
sh ow
ser ies</w>
se en</w>
se arch
sci entific</w>
satisf ied</w>
s ul
rem ed
rem ar
rehab ilitation</w>
prospec tive</w>
priv il
privil eg
plac es</w>
peti tion</w>
p are</w>
op in
op ened</w>
on qubo</w>
on line</w>
on ed</w>
olonti ya</w>
okul indeleke</w>
noth weni</w>
no t
ngezin ye</w>
ngemp ela</w>
ngay inye</w>
ng i
ng amalungu</w>
neighb our
nase ku
nam azinga</w>
nal eso</w>
n ezimpahla</w>
medi um</w>
mar ine</w>
m arg
lw en
long -
loku l
loku hl
lo yalty</w>
lit tle</w>
lin k</w>
lin ed</w>
l olo</w>
l aseNingizimu</w>
kwis igaba</w>
kwem velo</w>
kwam a
kw ale</w>
kw abanye</w>
kuth olakala</w>
kul um
kul elo</w>
kom idi</w>
ko Gu</w>
jec ted</w>
izith ombe</w>
iz izathu</w>
iz ihl
iz ifundo</w>
iz akhamizi</w>
it or
ish eke</w>
is it
is inyathelo</w>
is ibhamu</w>
is akhamuzi</w>
iqinisek iswe</w>
iq u</w>
introduc ed</w>
ing qalasizinda</w>
ind s</w>
in ikela</w>
im emezelo</w>
ikh i</w>
ik lamo</w>
ig ugu</w>
idav it</w>
id ini</w>
hosp it
ge ograph
g cwalisa</w>
futh a</w>
fun o</w>
ezin hle</w>
ez izimele</w>
ess ential</w>
esing ekho</w>
enhl a</w>
encour age</w>
emor and
em u</w>
em ail</w>
em abh
el eleka</w>
ekw eni</w>
ekhokh elwa</w>
dr ive</w>
dr aft</w>
dlweng ula</w>
direc tors</w>
det ained</w>
deal t</w>
d abu</w>
cr u
cor por
cooper atives</w>
control led</w>
clos ure</w>
ch itha</w>
cap able</w>
ca uses</w>
c over</w>
c ad
br anch</w>
bob abili</w>
bi odiversity</w>
beg an</w>
ay isi</w>
av ela</w>
aut eng</w>
ath ile</w>
and -
anc ane</w>
an ied</w>
an el
amaz isi</w>
alul we</w>
alis t</w>
al andelayo</w>
ahl ukana</w>
ag ugu</w>
accoun ting</w>
abant wana</w>
abad ala</w>
ab ela</w>
a -</w>
W ith
Uku sh
S ur
Regis ter</w>
Re port</w>
Ph akathi</w>
On ly</w>
N akuba</w>
M od
L oku</w>
K ukh
J uni</w>
Isra eli</w>
Inv estig
Improv ement</w>
I s</w>
I qembu</w>
I SA
I -</w>
Hum an</w>
H ol
E S
D em
D L
Be ij
Al though</w>
6 6</w>
11 :00</w>
zoku v
z ulu</w>
yibh ange</w>
x eph
woku Phathwa</w>
wez eM
wetsh wa</w>
we ap
we S
wash o</w>
w esithathu</w>
vis ited</w>
v ia</w>
und u</w>
um ulo</w>
um nikazi</w>
ul awa</w>
ukuny eziwe</w>
ukub ambisana</w>
uku phakela</w>
uku hambisana</w>
ub ungula</w>
ub aba</w>
u fak
tiv ity</w>
theng isela</w>
th at
targ ets</w>
targ eted</w>
t est</w>
statis tics</w>
sph ere</w>
siz aku
sel l</w>
seek s</w>
s ou
s ets</w>
s av
s abantu</w>
row n</w>
resul ted</w>
relig ious</w>
reduc tion</w>
qhath aniswa</w>
q obo</w>
prin cip
po ints</w>
po int
phak am
pe tr
over all</w>
ov u</w>
oth isi</w>
os omabhizinisi</w>
ong en
on akalayo</w>
okhokh elwa</w>
ok ob
occur red</w>
oc ansi</w>
ob us
ob ub
o tion</w>
noku sh
no daba</w>
no Mthethosisekelo</w>
ngokukh ethekile</w>
ngem ali</w>
ng ekh
nezing a</w>
nezin siza</w>
n ur
manufac ture</w>
mand ate</w>
m ach
lw ezin
lik a-
l s</w>
l ish</w>
l d
kwezim o</w>
kwal abo</w>
kuz welonke</w>
kum b
kuf akwe</w>
ku hlelo</w>
kom o</w>
ke wonke</w>
k am
izin k
izimb oni</w>
iw eyo</w>
itsh a</w>
it y's</w>
isith unzi</w>
ish iswa</w>
ish ane</w>
is ilinganiso</w>
inz a</w>
int er</w>
int ekile</w>
ink onzo</w>
initi ative</w>
indirec tly</w>
imith ombo</w>
im ithi</w>
im ihl
ilobh a</w>
ik isa</w>
ik elekile</w>
id ing
id ge</w>
icil elwe</w>
ich ibiy
ic abang
hol ding</w>
hlangan isela</w>
h ij
gre ater</w>
g al
for t
f illed</w>
ezind abeni</w>
ezikh okh
ez oku
exc ep
ex per
ex hib
etshenz iswayo</w>
et ro
esi Khungo</w>
es inq
eph ula</w>
engaph ambili</w>
engany elwa</w>
eng iswa</w>
end alo</w>
en ingizimu</w>
en -
employ ers</w>
emihl e</w>
em nothweni</w>
elihl e</w>
el ula</w>
el im
eku v
eful ly</w>
ebh usay
eb ekiwe</w>
dl uz
distr ibut
discrimin ation</w>
dis advant
consequ ence</w>
clos ing</w>
ch equ
c ust
bod ies</w>
bey ond</w>
bath ole</w>
bas e-
b it
b ilateral</w>
azam iseka</w>
az amisa</w>
ath eni</w>
ath azeka</w>
as isebenzi</w>
aqond isi</w>
angaph ansi</w>
ang az
amal ungiselelo</w>
alis ing</w>
al i
akh al
aff airs</w>
af une</w>
af firm
accomp anied</w>
acces sible</w>
ac quir
abal alisa</w>
abab ambe</w>
ab enza</w>
V er
Th ree</w>
Sou thern</w>
R en
Pro c
P E</w>
O ld</w>
O C</w>
Ngaph ezu</w>
Ng in
Mb eki</w>
M ab
Kw aku
I Khomishana</w>
H all</w>
EN D
E S</w>
Dec lar
Cont act</w>
C ent
Bo th</w>
Beij ing</w>
Am aph
A ID
zoku qala</w>
zoku phatha</w>
yem ali</w>
ye kh
y azo</w>
wez we</w>
w ed
w ad
uth azwa</w>
umb ono</w>
umb h
ul elo</w>
ul ated</w>
ukutheng isa</w>
ukuq eda</w>
ukun ikeza</w>
ukum eza</w>
ukuhl omula</w>
tr ained</w>
than ethi</w>
tearg as</w>
t o:</w>
st room</w>
si qinisekise</w>
sh own</w>
sh e
ses imo</w>
sched uled</w>
s ti
re fund</w>
r and</w>
qu an
provid er</w>
promo tional</w>
proc essed</w>
pro ud</w>
pres ence</w>
pr int</w>
pr ices</w>
ow aw
our ed</w>
ond olo</w>
omish ani</w>
omb azane</w>
ol ukh
okukhul unywa</w>
ok elwe</w>
ob uhl
nom notho</w>
no d
njeng engxenye</w>
njeng el
ngoku ya</w>
ng u</w>
ng o-
ng ib
nezin kinga</w>
nam anzi</w>
nam acala</w>
n ani</w>
mod er
ment 's</w>
mark ets</w>
m pahla</w>
luk ahulumeni</w>
laun ched</w>
l ul
l ap
kwis ishayamthetho</w>
kwez idingo</w>
kwal okhu</w>
kw eN
kus etshenziswe</w>
kukh ul
ku ka-
koku sebenza</w>
koku qala</w>
izim isele</w>
izikh ulu</w>
itshiy elwa</w>
ish iwe</w>
is sions</w>
is ic
install ed</w>
inj elwa</w>
in we</w>
in iyela</w>
in ini</w>
im iz
im fihlo</w>
ik iwe</w>
ik iswano</w>
ij ab
igh ted</w>
ich ard
ibu ted</w>
he aring</w>
hamb ela</w>
hal alisela</w>
h web
fun wa</w>
for um</w>
fo ot
fix ed</w>
fer red</w>
fak elwa</w>
ez ichazwe</w>
expir y</w>
eth iwe</w>
esi qinisek
ers '</w>
er ous</w>
er ia</w>
ep ul
ens es</w>
enj ini</w>
enhl e</w>
eng ak
el imin
el andelayo:</w>
el a:</w>
e qond
e Bh
dom in
dev ice</w>
det ailed</w>
del iber
d uration</w>
d in
d ed</w>
cr iter
cons train
conc entr
complain ts</w>
compet ent</w>
cl in
cho ice</w>
chith wa</w>
certif icates</w>
cap e</w>
buy ekeza</w>
br ief
belong ing</w>
b os
b endawo</w>
az iya</w>
ath anda</w>
asosiy eshini</w>
ar ticles</w>
aph uma</w>
aph ethe</w>
aph andle</w>
ang ab
andl u</w>
and elwa</w>
ag ree</w>
ag ents</w>
addres sed</w>
aban cane</w>
ab ambe</w>
Uku d
U z
U Mthetho</w>
U -</w>
Sci ence</w>
Saf ety</w>
SAB C</w>
Res earch</w>
P o
O ku
Ng q
M id
M a
Kus ukela</w>
Fur ther</w>
EL O</w>
De part
Co astal</w>
Ch ild
B ud
Ann ual</w>
Am as
Accord ing</w>
AID S</w>
7 3</w>
z into</w>
z akho</w>
yokush ayela</w>
y aso</w>
xazul ulwa</w>
woku l
wem a</w>
w az
vul ner
uthuk isa</w>
us ers</w>
unj wa</w>
ung wini</w>
ung ech
under take</w>
under standing</w>
um gomo</w>
ukul wa</w>
uku vikelwa</w>
uku j
ub i</w>
u ate</w>
u Dkt</w>
travell ing</w>
ti tion
ter ns</w>
sy ch
st ates</w>
sp ace</w>
soku ph
sh ot</w>
sebenz ela</w>
sci ence</w>
sam ple</w>
s ezin
s ase-
resid ents</w>
rel ease</w>
refl ect</w>
re form</w>
ra q</w>
ra ised</w>
q o</w>
present ed</w>
pr ene
plan ned</w>
ph ase</w>
pen sion</w>
p ass</w>
oy s</w>
ow nership</w>
on isa</w>
on ing</w>
on e-
om vu</w>
okud ingekayo</w>
norm ally</w>
ngu hulumeni</w>
ngokw enza</w>
nges andla</w>
ngal eyo</w>
ngab e-
namakh ono</w>
mul ti
mar ked</w>
man tis</w>
m id
m ay
lw ezimali</w>
look ed</w>
lom untu</w>
loku faka</w>
lim it</w>
leg ally</w>
le ag
la g</w>
kwez ig
kw esigatshana</w>
kw ekh
kuz o
kuth olakale</w>
kun dleni</w>
kub onakala</w>
kokub ili</w>
kh awulo</w>
k ets</w>
izin qubo</w>
izimp ilo</w>
iz er</w>
itheth osivivinywa</w>
ith olakala</w>
ith athe</w>
is ifundazwe</w>
investig ations</w>
inspec tion</w>
in thanethi</w>
in ikeza</w>
improv ement</w>
iliv wa</w>
ikwel edu</w>
if ication</w>
if a</w>
id okhumenti</w>
id ay</w>
ib ility</w>
hol ela</w>
h und
h ost</w>
go al</w>
g ame</w>
fund iswa</w>
fri ends</w>
for e
fo und
ezim ayelana</w>
ezihl obene</w>
ez ona</w>
ez ile</w>
ey i</w>
expres sed</w>
establish ing</w>
esiph ezulu</w>
esil isa</w>
es ekwa</w>
eph elele</w>
eng ine
eng as
en enj
em es</w>
em ag
ek elo</w>
eg i</w>
ef una</w>
ed es
e eds</w>
dis play</w>
dep os
d ol
d eg
criter ia</w>
coun c
continu ing</w>
cons ci
concer ns</w>
con ver
c ast</w>
build ings</w>
bu ilt</w>
beg inning</w>
b and</w>
b a
az iywa</w>
ayin we</w>
ay ine</w>
atshang wa</w>
ation :</w>
ath athe</w>
ap preci
any ana</w>
and wa</w>
amp anini</w>
ambis ene</w>
am ac
allow s</w>
aku z
akash ele</w>
ahl ala</w>
aff idavit</w>
abh a</w>
ab elwe</w>
a e
X oxo</w>
Uku ch
Te am</w>
T O</w>
S ing
R eph
P TER</w>
N O
L es
Kung athatha</w>
Jan u
Isi Khulu</w>
I sib
I raq</w>
Gro up</w>
E ach</w>
Div ision</w>
Det ective</w>
Declar ation</w>
Comm ercial</w>
Col on
CHA PTER</w>
CE D</w>
B lo
At t
A S
A K
9 3</w>
zez ifundazwe</w>
y iyiphi</w>
y ilo</w>
y entando</w>
y asem
xh aswa</w>
x il
wh er
war i</w>
w athola</w>
view ed</w>
up grad
ung ule</w>
unc ike</w>
um qondo</w>
um f
ukuth ula</w>
ukus uka</w>
ukuhl olwa</w>
ukub ulala</w>
uku fa</w>
u hambo</w>
tif iketi</w>
ter ial</w>
st ock</w>
st ability</w>
soku sh
soku bhal
sh ows</w>
serv ed</w>
se w
se ph
sc ene</w>
s olutions</w>
s indo</w>
s eg
s cor
s anc
s alo</w>
ro g</w>
res olve</w>
recre ational</w>
r iv
qhutsh weni</w>
purch ase</w>
pre pare</w>
po qo</w>
pl y</w>
per ty</w>
pat terns</w>
particip ating</w>
p ilo</w>
p i
oy o</w>
out comes</w>
ot weni</w>
osi we</w>
or al</w>
oper ate</w>
on q
ombul uko</w>
omb utho</w>
ol id
okob ezi</w>
off ences</w>
occ ur</w>
ob izwa</w>
o chazwe</w>
nu z</w>
noku thuthukiswa</w>
ng ezindaba</w>
nezin hlangano</w>
ne Lungu</w>
n entuthuko</w>
mos ph
lo M
lead er</w>
kwam ukela</w>
kwal eso</w>
kw ase</w>
kw as
kuth iwa</w>
ku bekwe</w>
kom thengi</w>
kokub onisana</w>
kohl akalo</w>
k o</w>
izith unywa</w>
iz ifundazwe</w>
ith anda</w>
it arian</w>
is izwe</w>
is ibopho</w>
ink okhelo</w>
inisek ise</w>
ing anayo</w>
im idlalo</w>
il weni</w>
il dr
ig n
i es
hol der</w>
hlaw umbe</w>
fiel ds</w>
fac ts</w>
f ine</w>
f ather</w>
f air
eziny angeni</w>
ezib ekwe</w>
ez ibh
ez enz
ey s</w>
exam ination</w>
esibh amu</w>
er als</w>
eny ezelwa</w>
ent ing</w>
eng ekho</w>
encour aged</w>
en berg</w>
emig waqweni</w>
em i
em ahhovisi</w>
elek elela</w>
el iqinisekiswe</w>
eku qhutshweni</w>
ekh ukhwini</w>
ehl iswa</w>
effec ts</w>
ed ingekayo</w>
ed ela</w>
eb eleka</w>
e to</w>
e al</w>
e H
dluz ula</w>
disadvant aged</w>
difficul t</w>
cw asa</w>
cont ained</w>
conc ep
carr ying</w>
c le</w>
bhek ene</w>
behavi our</w>
bal ance</w>
b eth
av unyelwe</w>
atsh ela</w>
ass isting</w>
ase khaya</w>
ard ing</w>
angal elwa</w>
ang wa</w>
andak anye</w>
analys is</w>
amash eke</w>
aman xusa</w>
al ungile</w>
al li
al ile</w>
af akwa</w>
adlul i</w>
ac elwa</w>
abahl ala</w>
abah amba</w>
ab abh
Z ulu</w>
Y il
Wor ks</w>
W in
W ay
W E</w>
U ph
U p
U kum
Trans port</w>
St ell
S und
S p
S c
Pro perty</w>
Ngaph ambi</w>
Ng icabanga</w>
N kampani</w>
N k
M ah
J uly</w>
Ing xenye</w>
I Phalamende</w>
I B
Hous ing</w>
Eng lish</w>
EM IA</w>
E v
E sikh
E R</w>
Counc ils</w>
Comm unic
Colon el</w>
Bh ange</w>
B ul
Afr ika
AL I</w>
A sikho</w>
6 1</w>
4 9</w>
4 001</w>
z e
z amazwe</w>
yom untu</w>
yoku ziphatha</w>
yo hlelo</w>
yo M
y s</w>
y ombuso</w>
y ol
y enze</w>
we Z
wase khaya</w>
volunt ary</w>
utsh wala</w>
us ihlalo</w>
uph o</w>
under taking</w>
un u</w>
um v
uku lw
uku k
uku funda</w>
ukan iswa</w>
uk ele</w>
uhl aza</w>
ub un
ub o</w>
tre ated</w>
tion ally</w>
t o-
suppl ies</w>
streng then</w>
stadi um</w>
sol ic
sh o
san itation</w>
s per
s olution</w>
s occer</w>
s impl
s ika</w>
robber ies</w>
represent ations</w>
regul ate</w>
rece ives</w>
r ig
qh ak
propos als</w>
ph rojekthi</w>
ow eto</w>
os ebenzisa</w>
organ ic</w>
oq inisekisa</w>
oq elela</w>
ong oing</w>
om nyaka</w>
olv ing</w>
oluth ile</w>
olog ies</w>
ol uy
ol ishi</w>
okw amanje</w>
okuv amile</w>
oku yis
oku qhubekayo</w>
oku hlanganisa</w>
od ana</w>
oc ol</w>
nom hlaba</w>
no M
ngokw ezinga</w>
nges imo</w>
ng in
nen ani</w>
ne ph
nam al
nab aholi</w>
n ine</w>
n esses</w>
n ens
n ale</w>
mom ent</w>
mo ve</w>
min utes</w>
mic ro
man agers</w>
lw al
lu tion</w>
loku n
loku gcina</w>
lem ali</w>
le- BI-
l ord</w>
l ess
l ate</w>
l ase-
kwezim oto</w>
kw ezinga</w>
kul olu</w>
kukh ombisa</w>
kukh okh
kub athengi</w>
koku v
iz ivakashi</w>
iz it
is evisi</w>
is ani</w>
is amba</w>
inz alo</w>
inc t</w>
in side</w>
in hlobo</w>
in her
imin al</w>
im prison
im isele</w>
im ic
il ele</w>
ikh eli</w>
i -</w>
human ity</w>
hum ane</w>
hal isiwe</w>
ha j
h ter</w>
gre en</w>
g un
g one</w>
g i
fail ed</w>
fac tors</w>
f it
f ever</w>
ezinhl elweni</w>
ezin k
ezim akethe</w>
ey i-
expres s</w>
exp ed
exerc ised</w>
ex istence</w>
eth er
esikh wama</w>
esikh alisa</w>
esikh alazo</w>
esib ekiwe</w>
entr al</w>
ent e</w>
enq atshelwe</w>
enq aba</w>
enj oy</w>
el wane</w>
el ess</w>
ekw akheni</w>
ekuph eleni</w>
eb izwa</w>
eb halwe</w>
earli er</w>
eM thethweni</w>
e we</w>
dlul iswa</w>
direc ted</w>
di ed</w>
deb ate</w>
d ay
cw aba</w>
custom ers</w>
cor ruption</w>
cor respond
cop yright</w>
coordin ated</w>
cont ain</w>
constrain ts</w>
cons olid
collabor ation</w>
c uph
c am
beg in</w>
bak ahulumeni</w>
b ound</w>
b enza</w>
b ax
ay we</w>
ay itela</w>
ax a</w>
av amile</w>
aut om
attemp ted</w>
attemp t</w>
ath o</w>
ath ela</w>
at mosph
assaul ted</w>
ash we</w>
ar ising</w>
aph ulelo</w>
an quma</w>
an iswe</w>
an ia</w>
an ani</w>
amav iki</w>
amash eya</w>
amash a</w>
amaph rojekthi</w>
alloc ation</w>
al ter
akhokh e</w>
akhal ekhukhwini</w>
af firm</w>
adv ise</w>
abakh ubazekile</w>
ab asha</w>
ab and
X humana</w>
W il
Um phakeli</w>
U phenyo</w>
U g
TH ETH
T ender</w>
Sub ject</w>
Strateg y</w>
S er
S ep
S as
Res erve</w>
Pro ject</w>
Pro duce</w>
P S
Ng abe</w>
Nat al</w>
N ot
L imi</w>
I tal
I nombolo</w>
He ad</w>
Fr amework</w>
For ums</w>
F reedom</w>
Ever y
Europe an</w>
E r
Director -General</w>
D ur
Cr iminal</w>
Con vention</w>
Clos ing</w>
C entral</w>
C TION</w>
C E</w>
B y</w>
B ec
: 30</w>
7 6</w>
3 3</w>
2 9
zoku n
zo Mthetho</w>
z esigaba</w>
z azo</w>
yoku ng
yel low</w>
y esifundazwe</w>
x ush
work er</w>
week end</w>
w eg
w ang
volun te
v acc
un i
umth walo</w>
ulum i</w>
ul t</w>
ukuv eza</w>
ukuq okwa</w>
ukul ingana</w>
ukub aluleka</w>
uku gcina</w>
u J
tr us
tow n
tic ket</w>
te ed</w>
sub item</w>
stud ents</w>
strateg ies</w>
st amp
som thetho</w>
s wana</w>
s imbi</w>
rub ber</w>
resid ent</w>
referr ing</w>
rec ently</w>
r s</w>
qu ick
provid ers</w>
present ation</w>
prene ur
posi tions</w>
por ting</w>
ph y
ph athi</w>
penal ty</w>
p sych
p iliyoni</w>
oy ela</w>
ow ners</w>
out come</w>
oph elela</w>
op e</w>
ont weni</w>
ong aph
ond s</w>
onak ale</w>
omb ud</w>
omb ono</w>
okw enziwe</w>
okung ase</w>
oku hle</w>
oku ba</w>
o fanele</w>
noku sebenzisa</w>
njeng alokhu</w>
ngezin to</w>
nges onto</w>
ngab i</w>
ng ey
nem ikh
namas iko</w>
nam ad
nam abh
min or</w>
min e</w>
mil k</w>
m hlaba</w>
m eli</w>
m cimbi</w>
m agistr
low -
lom thengi</w>
lo v
lin es</w>
laun ch</w>
l ikh
l ey
kwam i</w>
kwam aph
kw aso</w>
kus engaphambili</w>
kum phakeli</w>
kub on
ku chaza</w>
ku Khomishane</w>
kh odi</w>
iz idakamizwa</w>
iz i
ith ombo</w>
ith atha</w>
isith walambiza</w>
ish intsh
isc al</w>
ip esheli</w>
insolv ent</w>
ink ing</w>
ing e</w>
incor por
in ise</w>
imin ingi</w>
im pres
ilobh eni</w>
ildr en's</w>
il abh
ikhokh elwe</w>
ik elwe</w>
ik elo</w>
id igidi</w>
iN kosi</w>
iN kampani</w>
i x</w>
he ar
guaran teed</w>
govern ing</w>
go als</w>
gir l</w>
fund ela</w>
fu f
fr aud
fos ter</w>
fing er
fe el</w>
f ax</w>
eziph ezulu</w>
ezin kantolo</w>
ez amagugu</w>
ey ilanga</w>
exp enses</w>
exp and</w>
ex ecu
esi fanele</w>
er ted</w>
er ies</w>
eny i</w>
enk olo</w>
enh ance</w>
em th
em ine</w>
em ehl
elis eduze</w>
eliph ansi</w>
ek u</w>
ek e
ed olobheni</w>
ecos ystems</w>
ebhusay ithi</w>
e Kapa</w>
dis sem
det ectives</w>
deleg ate</w>
def ect</w>
de emed</w>
d ates</w>
consequ ences</w>
conf isc
conduc ting</w>
commenc ement</w>
com pr
com position</w>
col leag
cl as
carb on</w>
candid ates</w>
cancell ation</w>
bo y</w>
b lo
b aphinde</w>
b am
az wi</w>
az ali</w>
av umel
ath athu</w>
aspec ts</w>
ash intsha</w>
and e</w>
amah ora</w>
am per
alog ue</w>
al most</w>
al -
akh iphe</w>
ak omidi</w>
ak ekelwa</w>
ak ani</w>
ahlang ana</w>
af ter
achiev ement</w>
accep table</w>
accel er
abh uku</w>
abaf und
ab ange</w>
a ud</w>
Y ez
Sh ayamthetho</w>
SD P</w>
S ik
Reph abhliki</w>
R us
Prom otion</w>
P O</w>
Om unye</w>
N ov
May or</w>
M rs</w>
Inv est
IC D</w>
I fomu</w>
F ir
Ex port</w>
E quality</w>
Doc um
D om
D o
D ef
Bec ause</w>
Am ad
A sia</w>
6 3</w>
5 7</w>
1 3
zom thetho</w>
zoku hamba</w>
yoku thola</w>
yil abo</w>
yez ilwane</w>
ye Mantshi</w>
yal okho</w>
y ing
y ikho</w>
y ama-
y abasebenzi</w>
y aba</w>
wor ld
woku hlola</w>
wob andlululo</w>
w w</w>
w ww</w>
w ife</w>
vis ual</w>
v otes</w>
uth aze</w>
ush wa</w>
usebenz ise</w>
us we</w>
unj alo</w>
um yalezo</w>
um thengisi</w>
ukuv imbela</w>
ukum ez
ukul ungisa</w>
ukukh ipha</w>
uku shintsha</w>
uku hamba</w>
ukh o</w>
ud ala</w>
ub ona</w>
u j
u :</w>
truc turing</w>
ti ary</w>
thous ands</w>
teleph one</w>
te dly</w>
tax i</w>
t y
t own</w>
t ac
sur pr
st own</w>
st one</w>
st ep</w>
soku l
sid inga</w>
shar es</w>
shar ed</w>
settl ement</w>
sel ected</w>
sch emes</w>
s n
s emthethweni</w>
s aying</w>
rej ista</w>
reg ions</w>
referr al</w>
re ality</w>
rap ed</w>
r ang
q iniso</w>
princi ple</w>
pr ize</w>
post al</w>
peo pl
pay ing</w>
particip ants</w>
oy iseni</w>
oy eni</w>
ow enziwe</w>
oth intekayo</w>
os ela</w>
oph athelene</w>
omb i</w>
om nyango</w>
ol usha</w>
okub andakanya</w>
oku yim
ohl uleka</w>
og ada</w>
ob uciko</w>
o hlelo</w>
ny angweni</w>
no Mthetho</w>
njeng e-
ngokw esigatshana</w>
ngokub ona</w>
ngok omlando</w>
ngal okhu</w>
ng ezinga</w>
ng e
nesi bhamu</w>
neg ative</w>
nam azwe</w>
n umz
n qubo</w>
n ed
n ase-
n 't</w>
mod el</w>
marg in
loku q
loc ation</w>
lob ugebengu</w>
lit er
liqu or</w>
lik ely</w>
li ability</w>
labor atory</w>
l ukh
l ony
l ibe</w>
l er
l any
kwi Gazethi</w>
kwezin yanga</w>
kw ikh
kw enze</w>
kw akhiwe</w>
kuth athwa</w>
ku thuthuk
k ombuso</w>
k olo</w>
k en</w>
jo in</w>
iz ibopho</w>
iy alezo</w>
itif ikedi</w>
ith okoz
isi tion</w>
ishiyagal olunye</w>
ip asipoti</w>
intell igence</w>
instrum ents</w>
innov ative</w>
inganis elwa</w>
indus tries</w>
indiv a</w>
in ations</w>
im ane</w>
ihl inz
ig ns</w>
id a</w>
i ent</w>
i able</w>
i Xoxo</w>
i Bhodi</w>
hl oli</w>
hl ol
handl ing</w>
h ot
h ood</w>
h arm</w>
h ard
guar di
gc izelela</w>
g ene
fr aud</w>
fr ame</w>
follow s</w>
fir ms</w>
fam il
f requ
f low
ez iqond
ez iqh
ey ishumi</w>
ey enza</w>
expec t</w>
exp an
ex ists</w>
eth ri</w>
esiv ela</w>
esim anje</w>
er ad
enti re</w>
enc ing</w>
en om
emikh ali</w>
emehl weni</w>
emb isa</w>
emb assy</w>
ek elayo</w>
educ ational</w>
ec tual</w>
ec aleni</w>
e- M
e av
e an</w>
dr ugs</w>
dou b
dlul iselwe</w>
dl ule</w>
diplom atic</w>
dest ro
cwal iswa</w>
cros s-
cont ains</w>
conflic ts</w>
conf idence</w>
con y
con st
con clus
comm ended</w>
cle an
cl ubs</w>
cl am
cir cul
cint isana</w>
chang ing</w>
call ing</w>
c ro
budg ets</w>
b ona</w>
b att
b ad
att ack</w>
ath olak
ath eli</w>
at i</w>
ass isted</w>
ash e</w>
asebenz e</w>
as ini</w>
an ks</w>
an ikezwa</w>
amuk elekile</w>
amakh asimende</w>
amah hala</w>
amabh ange</w>
am end</w>
al ini</w>
akhokh ele</w>
akh ethi</w>
akam uva</w>
ak ele</w>
ak azwa</w>
adl ali</w>
ad s</w>
act ually</w>
academ ic</w>
ac w
abas eshi</w>
ab s
a we</w>
Wom en</w>
W ild
Uku sebenza</w>
Uku g
Th ola</w>
Th abo</w>
R 3
Prov ide</w>
Pro fes
Pre toria</w>
Pl ace</w>
Ph oyisa</w>
P a
O R</w>
Ny ango</w>
N on-
N om
N oku
M zansi</w>
M ov
M er
M at
K odwa-ke</w>
K e
J ul
Int ell
Int egr
Ins titute</w>
IL L</w>
I ts</w>
I K
I Bhodi</w>
F rog</w>
Every one</w>
Em ploy
E ar
Comp any</w>
C C
Bur undi</w>
8 6
40 3</w>
3 8</w>
200 3</w>
zom hlaba</w>
z enziwe</w>
z amaGugu</w>
z abasebenzi</w>
yil owo</w>
yil apho</w>
yi Lungu</w>
y athelo</w>
way es
wa M
v oting</w>
v ol
v ar
us ika</w>
ur s
ung cweti</w>
under development</w>
un lawful</w>
umkh ankaso</w>
ul ulwa</w>
ul elwe</w>
ul eke</w>
ukuz im
ukus ungulwa</w>
ukus ungula</w>
ukuq inisa</w>
ukul ethwa</w>
ukukh ombisa</w>
uku sebenzisana</w>
uku hlanganisa</w>
uM thethosivivinywa</w>
u yo
tr ying</w>
tor ate</w>
tion ary</w>
tif y</w>
termin ate</w>
tend ers</w>
tend erers</w>
t op
t a</w>
sur ro
st op
st ating</w>
soku n
shintsh wa</w>
shintsh isana</w>
sebenz elana</w>
s inqumo</w>
s cr
run ning</w>
ret ail
resul ting</w>
rem ember</w>
red ress</w>
re ti
quar ters</w>
qualif ications</w>
qond a</w>
pro sper
pro p
prin ts</w>
prac tition
pos t-
pl at
phak amisa</w>
par liam
p il
oy i</w>
oth isha</w>
or ethri</w>
oq elelwa</w>
opin ion</w>
oph iko</w>
op tions</w>
oo m</w>
onz a</w>
ony a</w>
ong e</w>
okwel apha</w>
okuv unyel
ok okuqala</w>
offic ially</w>
oblig ation</w>
obh o</w>
notif y</w>
nokw eba</w>
nokuph atha</w>
njengom untu</w>
njeng es
ngoku q
ngc ele</w>
ngaph ambilini</w>
nez omnotho</w>
nem iphakathi</w>
na kum
n ini</w>
m y
m other</w>
m ix
lw abantu</w>
lom phakathi</w>
loku phatha</w>
liqu id
lib er
legisl atures</w>
la ug
l ika</w>
l esi
l el
l alo</w>
kwes inye</w>
kwal esi</w>
kw esivumelwano</w>
kw ecala</w>
kung akapheli</w>
kud inga</w>
kud e</w>
ku ch
ku Ngqongqoshe</w>
kom phakeli</w>
kokun ye</w>
j a</w>
iz olo</w>
iz il
iz ikweledu</w>
iz ibalo</w>
iy ona</w>
itor -General</w>
iti g
ith eshwana</w>
isith ombe</w>
isiqinisek o</w>
is ti
is iphakamiso</w>
iq iz
iny o</w>
inv al
intern al</w>
intensif y</w>
inj ongo</w>
ing ase</w>
in spir
imprison ment</w>
imib uzo:</w>
im pose</w>
im per
illi ons</w>
il idi</w>
ik ile</w>
ik ij
ibh eka</w>
ib andakanya</w>
iN dawo</w>
i p</w>
i os</w>
hol ele</w>
hlangan iswe</w>
hlan za</w>
histor ic</w>
har mon
hal iswa</w>
hal e</w>
ha we</w>
h 30</w>
gener ation</w>
g ent
forc ed</w>
follow ing:</w>
fire arms</w>
fir ed</w>
fe ar</w>
fall s</w>
fac ing</w>
eziy ishumi</w>
ezint weni</w>
ezin hlanu</w>
ext end</w>
experi enced</w>
estim ate</w>
esin ingi</w>
esik oleni</w>
esig ungu</w>
esh isa</w>
es isha</w>
er ance</w>
enz ile</w>
enz alo</w>
ent re
ent ary</w>
enenj a</w>
en ingi</w>
en burg</w>
em o
em ikhulu</w>
ell s</w>
el ine</w>
el ika</w>
el edlule</w>
eku g
ek elela</w>
ef stroom</w>
ed er
e tion</w>
e Ph
dis ability</w>
dig nity</w>
dep ending</w>
de eds</w>
cust ody</w>
cre te</w>
cre ation</w>
consider able</w>
coll ective</w>
cip ated</w>
cho ose</w>
ch efstroom</w>
c ou
c ock
bu s</w>
bos ch</w>
be ph
base khaya</w>
bag s</w>
b ash
b akw
aw ule</w>
atshal aliswa</w>
at tor
as ele</w>
as ebenzisa</w>
arg aining</w>
ar y-
appro aches</w>
and ing</w>
amah hovisi</w>
am ed</w>
alloc ations</w>
al ized</w>
al eka</w>
aku n
ak iwe</w>
ak azelo</w>
ail y</w>
ahl eka</w>
ag q
ag ency</w>
ad mitted</w>
accep t
acc id
abath ini</w>
abaf una</w>
ab eng
W el
W CED</w>
Um phakathi</w>
Uku sebenzisa</w>
Uku hlinzeka</w>
U s
Tr aditional</w>
Techn ology</w>
TION S</w>
T u
Sup port</w>
S uch</w>
S te
Pow ers</w>
Pl ant</w>
Pe o
Ngakh oke</w>
Ng ale</w>
New s</w>
M y</w>
M laba</w>
M AN
M 16
L i
L I
Ku fanele</w>
K uth
Jo int</w>
Ir an
Invest ment</w>
Indi a</w>
I k
Georg e</w>
Gener al:</w>
G l
G auteng</w>
F our
EN G
E y
Des pite</w>
C ir
Bl ack</w>
B ENZ
Aud itor-General</w>
Am al
Al ber
AM A
A N</w>
6 5</w>
5 1</w>
4 3</w>
z abathengi</w>
yom sebenzi</w>
yoku ngenisa</w>
yo Mnyango</w>
yin kantolo</w>
yal esi</w>
x iv
x en
with draw
wh ere
we b</w>
way ey
wama Lungelo</w>
wam eni</w>
wam anda</w>
vulner able</w>
vis ory</w>
v eter
v el
uz oba</w>
uy iselwa</w>
us ebenzisa</w>
ungech unge</w>
ung ise</w>
un safe</w>
un q
un g</w>
umkh iqizo</w>
um on
um khandlu</w>
ulum isana</w>
ulum ela</w>
ukuz inikela</w>
ukuhl ala</w>
ukud a</w>
ukub eka</w>
uku qhutshwa</w>
u- Aice</w>
u Hulumeni</w>
tru th</w>
tr ue</w>
th r
th a</w>
terror ism</w>
substanti ally</w>
strength ening</w>
sp ok
sp ati
sour ces</w>
soku phatha</w>
sihl alo</w>
si ties</w>
sh el
settl ements</w>
sec ondary</w>
s ought</w>
s ombuluko</w>
s ahluko</w>
s ab
ro g
retur ned</w>
represent ing</w>
replac ement</w>
reduc ing</w>
re b
re a</w>
r ace</w>
qualif ication</w>
qhath anisa</w>
qal az
portfol io</w>
pol lution</w>
pl us</w>
phakam iso</w>
ph ones</w>
par k</w>
p asipoti</w>
oth athwa</w>
osh aywa</w>
os en</w>
os elwe</w>
os ay
op ening</w>
onj iswa</w>
on elela</w>
om untu</w>
oluph athelene</w>
olul odwa</w>
ol iwe</w>
okung ekho</w>
oc ingo</w>
oB ugebengu</w>
o -</w>
numz ane</w>
noku thola</w>
nj ll</w>
ngu Ndunankulu</w>
ngoku ling
ngok obulili</w>
ngam azwe</w>
ngam akh
nez ig
nem pahla</w>
n kosi</w>
n esidingo</w>
mit ting</w>
min eral</w>
meas ur
m ust
m itig
m em
loc k</w>
lika Ngqongqoshe</w>
leg acy</w>
l imi</w>
l -
kwem fuyo</w>
kwal ezi</w>
kwab esifazane</w>
kum thetho</w>
kum a</w>
kab ili</w>
k r
k amazisi</w>
izin zuzo</w>
iv al
ist an</w>
ing ing</w>
incid ent</w>
in qubekela</w>
imb eni</w>
im ishini</w>
im ingcele</w>
ill enn
ikh adi</w>
if an
ichibiy elo</w>
ichard son</w>
i ously</w>
i Gugu</w>
hweb elana</w>
hund red</w>
human itarian</w>
hos ting</w>
heh a</w>
gro w</w>
fundam ental</w>
func tioning</w>
fore ig
fin ally</w>
fal se</w>
f ile</w>
ezin jeng
ez enziwa</w>
ez anga</w>
ext ended</w>
ex tern
ew ay</w>
etshenz isiwe</w>
eth ishini</w>
eth eni</w>
esh ayo</w>
esab isa</w>
eph ulwa</w>
enz ayo</w>
eny usa</w>
entsh on
enti ally</w>
eng cono</w>
end ule</w>
emorand um</w>
emib i</w>
em an
ekh ishwa</w>
eke eping</w>
eg u
ebenz isi</w>
ebenz isana</w>
eb uya</w>
eb eni</w>
eb ala</w>
eBh odini</w>
e a</w>
dl o</w>
distribut or</w>
dis eases</w>
ded icated</w>
de ep
de aths</w>
d esi
d aily</w>
convic ted</w>
confisc ated</w>
con signment</w>
con firm</w>
commis sioner</w>
character ised</w>
c are
buy iswa</w>
buy isana</w>
bro ad</w>
bre ak</w>
be ar
az iswe</w>
ay unithi</w>
ay iz
av uma</w>
av oti</w>
att ended</w>
ass essed</w>
as ks</w>
as ed</w>
arrang ement</w>
ari at</w>
ar c
aph e</w>
ap o</w>
any iswa</w>
ann ually</w>
ang iso</w>
and elo</w>
an ese</w>
an ci
amb alwa</w>
amahl anu</w>
am am
allow ances</w>
al ter</w>
al co
al andelayo:</w>
akhokh elwa</w>
akh etha</w>
akh elwane</w>
ak aze</w>
af u</w>
ad ap
accoun ts</w>
accoun table</w>
abas eb
abang ela</w>
W eb
Un iversity</w>
U se</w>
Th uthukiswa</w>
SM ME</w>
S t</w>
S eed</w>
R 2</w>
Qu e
Q inisekisa</w>
Per mit</w>
Palest ina</w>
PA R
O S
No tice</w>
N ikeza</w>
M ond
M c
M W</w>
Legisl ature</w>
L A
Kh ipha</w>
In spec
In dependent</w>
Imib uzo:</w>
I hhovisi</w>
I G
H is</w>
G row
For t</w>
Communic ations</w>
Comm un
CM A</w>
B ar
Aban ye</w>
Ab ahl
A TION</w>
7 9</w>
4 4</w>
3 0
1 00</w>
/ noma</w>
zom notho</w>
z o</w>
z id
yoku gcina</w>
y esikhathi</w>
xhum anisa</w>
x im
wh at
wez entela</w>
wel fare</w>
we alth</w>
we ak
waM acala</w>
w esibili</w>
viol ent</w>
veget ation</w>
ut ory</w>
ush isa</w>
us er</w>
uph eka</w>
univ er
ung elwe</w>
un reasonable</w>
un ition</w>
um futho</w>
ul ula</w>
ukul etha</w>
ukul ahlekelwa</w>
ukukh etha</w>
uku sho</w>
uku hlangabezana</w>
ug e</w>
ud oti</w>
ud okotela</w>
u D
tw ent
tre es</w>
tit ude</w>
thetho-S isekelo</w>
the tic</w>
t d</w>
stat utory</w>
st er</w>
soku zalwa</w>
soku ng
sk om</w>
sis ebenza</w>
siq u</w>
sh u
sent ence</w>
sel ling</w>
sec re
se where</w>
sci ent
sal ela</w>
ru n</w>
res t
repe al</w>
rec all</w>
re ally</w>
re ached</w>
r ich</w>
publ ication</w>
pro secu
prior it
pri ority</w>
pres sure</w>
prac tical</w>
peri ods</w>
oz oba</w>
oun tain</w>
osh elwa</w>
oph enyo</w>
oph elo</w>
oper ators</w>
oper ational</w>
on elungelo</w>
on elo</w>
ol uq
ol eum</w>
okw akhiwa</w>
okuth iwa</w>
okud ingeka</w>
oku shiwo</w>
od okotela</w>
od ing</w>
occas ion</w>
obu dlelwano</w>
noku vikelwa</w>
njengel ungu</w>
ngu ye</w>
ngokuqond ene</w>
ngokuland elana</w>
ngam abh
ngal esi</w>
ng ezing
ng ezimpahla</w>
ng ef
nezin qumo</w>
nez enzo</w>
nang oku
namas evisi</w>
nal ezi</w>
n um
n ations</w>
n ar
n abang
memb ership</w>
mean ing</w>
mb ol
lom thetho</w>
lom phakeli</w>
lom hlaba</w>
lob unikazi</w>
lo Mthetho</w>
lim itation</w>
leg itim
leg es</w>
l ived</w>
l are</w>
l abasebenzi</w>
kwi Riphabhuliki</w>
kwez ilwane</w>
kwez ezimali</w>
kwes icelo</w>
kwen ani</w>
kwe Phalamende</w>
kwam azinga</w>
kwal eyo</w>
kwab oMnyango</w>
kw eph
kuv ela</w>
kuph ele</w>
kub uza</w>
kan zima</w>
jud icial</w>
j e
izin kulungwane</w>
izin kantolo</w>
iz es</w>
iz ayini</w>
it or</w>
issu ing</w>
isiqinisek iso</w>
ish elwa</w>
is tics</w>
is iza</w>
is abelo</w>
iqond iso</w>
iny elela</w>
involv ing</w>
involv es</w>
investig ating</w>
int ention</w>
int end</w>
ingc ind
inf ec
in clus
in amba</w>
illenn ium</w>
ij ondolo</w>
ig r
id okhumende</w>
ici ous</w>
ib eke</w>
i hlanganisa</w>
hom es</w>
hlinz ekela</w>
happ ened</w>
g etting</w>
fug ee</w>
fa ith
f s</w>
f our
ez empilo</w>
ey ili</w>
expropri ation</w>
es ic
es ezingeni</w>
es ebenzayo</w>
eq embu</w>
ent a</w>
engen ayo</w>
eng wa</w>
eng aged</w>
end eav
en ikeza</w>
en bosch</w>
em otweni</w>
em isha</w>
em hl
em andulo</w>
elif anele</w>
el wanga</w>
el sewhere</w>
el ij
el ashwa</w>
el ani</w>
ekh ono</w>
ehl uk
e- mail</w>
e Ng
e C
dro p
dr y</w>
div id
did nt</w>
design ation</w>
dep end
de priv
de als</w>
dat e:</w>
damag es</w>
cw aswa</w>
cw adini</w>
curr ency</w>
cuph eni</w>
contain er</w>
cont aining</w>
consult ations</w>
consul t</w>
confirm ed</w>
confirm ation</w>
con dem
col d</w>
ch ain</w>
c overed</w>
c ela</w>
c e
c ala</w>
bu ye</w>
br ief</w>
believ ed</w>
be kh
bav ele</w>
b all</w>
az ikh
ay oshaywa</w>
aver age</w>
ath weni</w>
assaul t</w>
ash iwo</w>
ash elwa</w>
appe ars</w>
anq ume</w>
andlul ula</w>
and iswa</w>
an cies</w>
amm unition</w>
amath ikithi</w>
amaq iniso</w>
am anga</w>
al okho</w>
aku th
akhul uma</w>
ak a-
ah ambi</w>
agc ina</w>
af akwe</w>
adv oc
addres sing</w>
acw asi</w>
ach aza</w>
ac abanga</w>
abel omali</w>
aban jwa</w>
abad inga</w>
ab ul
ab ekwe</w>
a u</w>
a News</w>
Wez ifundazwe</w>
Uku thi</w>
Uku setshenziswa</w>
Uku ba</w>
U Ndunankulu</w>
Th ank</w>
Su per
Stell enbosch</w>
St ud
Sin ce</w>
Sh aka</w>
Secret ary-
SA N
S is
S and
Rel ations</w>
Presid ents</w>
Pot chefstroom</w>
Pl ain</w>
P eter</w>
P an
P E
Ng ing
Ng akho</w>
N tshonalanga</w>
N ob
M pumalanga</w>
M ost</w>
M ake</w>
L td</w>
L okho</w>
L imo</w>
K ar
K AN
Iz inga</w>
Indi an</w>
IZ IN
IN G</w>
I I</w>
H el
G ard
Eminy akeni</w>
EL A</w>
E skom</w>
Dur ban
Dem oc
Dec ember</w>
Con st</w>
Ch in
C o-
Bu aNews</w>
Br anch</w>
Be fore</w>
Ang ola</w>
A gre
8 2</w>
5 -
4 6</w>
4 6
031 -</w>
-0 1</w>
zim isela</w>
z ic
z esifundazwe</w>
z amaphoyisa</w>
ye Z
ye Langa</w>
ye /noma</w>
y isi
y into</w>
y indawo</w>
y esibili</w>
y er
y eng
y an
xh as
wor ked</w>
wit ness</w>
uz okw
uz iwe</w>
ush okobezi</w>
ur ch</w>
uph ula</w>
up d
un ique</w>
un ikeza</w>
ul ations</w>
ukwehl isa</w>
ukukh ishwa</w>
uku qhuba</w>
uku gqugquzela</w>
ub andlululo</w>
u hlangothi</w>
u Gu</w>
tw o-
tur ned</w>
truc k</w>
trav el</w>
tr ack</w>
ter tiary</w>
t ex
t ests</w>
t es
t ations</w>
t 's</w>
sy n
sustain ed</w>
sun -
stud y</w>
sp ac
so il</w>
sibh ek
shintsh o</w>
se x</w>
sanc tions</w>
s onyaka</w>
s ly</w>
s ense</w>
s ?</w>
res h</w>
requir ement</w>
replac ing</w>
relation ships</w>
rel ief</w>
reduc ed</w>
recogn ise</w>
re di
re al</w>
rap e</w>
radi o</w>
ra x</w>
quan tity</w>
qhub ekisa</w>
pursu it</w>
progres sive</w>
prof it</w>
princip al</w>
prepar ation</w>
polic em
p edes
osh onile</w>
os iko</w>
ony iwe</w>
ond on</w>
on hl
olu hlelo</w>
ol ug
obon hlobo</w>
ob vi
ob ekwe</w>
o on</w>
o ice</w>
nom unye</w>
nokuhl ola</w>
noku xhumana</w>
no hlobo</w>
ngu Ngqongqoshe</w>
ngoko Mthetho</w>
ngen qubo</w>
ngen ela</w>
ngas iphi</w>
ngam a-
ng olimi</w>
ng icabanga</w>
ng enz
ng elanga</w>
ng ang
ng amanzi</w>
nezim funeko</w>
nen ombolo</w>
nen kohlakalo</w>
ne Ningizimu</w>
nam i</w>
n on</w>
n ezimali</w>
n esib
n angaph
mis sing</w>
min a</w>
mas evisi</w>
m isebenzi</w>
m hlawumbe</w>
luk azwelonke</w>
loku sebenzisa</w>
lim it
lik ahulumeni</w>
l ase</w>
kwez ombusazwe</w>
kweg ama</w>
kw atholakala</w>
kuw ona</w>
kung ab
kuk ad
kud ala</w>
ku we</w>
koku d
ko Mthetho</w>
kan ye/noma</w>
k om</w>
k new</w>
jur istic</w>
izin sizakalo</w>
izin isini</w>
iz el
itsh ela</w>
it ably</w>
is wana</w>
is u</w>
is ol
is ikole</w>
is andla</w>
iph oyisa</w>
iny elele</w>
inter medi
ingu alism</w>
ing atha</w>
in siza</w>
in othisi</w>
in ing</w>
in ikeze</w>
in hloso</w>
im is
il eyo</w>
ick et</w>
ib eka</w>
i ans</w>
hum usha</w>
ha m</w>
gro s
gene tic</w>
gcin we</w>
fur n
ful f
fort un
follow s:</w>
f it</w>
ezis ebenza</w>
ezim weni</w>
ezihl ukene</w>
ezifund azweni</w>
ev u</w>
eth ela</w>
esiph uthumayo</w>
esing en
esim eni</w>
esi w
esh iwo</w>
es sion</w>
es icelo</w>
eq eshi</w>
ephand aba</w>
ep osi</w>
entre preneur
enti ties</w>
enq unyiwe</w>
eng ahl
en kundleni</w>
en ele</w>
emz imbeni</w>
emp u</w>
ema tics</w>
em oyeni</w>
em ahl
el elana</w>
ekuthuthuk iseni</w>
eku d
ed engu</w>
ech aza</w>
eb ula</w>
e at</w>
dou ble</w>
discus sions</w>
di e</w>
deg ree</w>
dec lare</w>
dec isi
countr y's</w>
contrac tors</w>
contr ibut
consid ering</w>
cons isting</w>
con crete</w>
commis sion</w>
coll ected</w>
clo thing</w>
clear ance</w>
clas sif
clam ation</w>
chec ked</w>
ch osen</w>
cell s</w>
celeb rate</w>
cel l</w>
c ebeleka</w>
bul k</w>
bro ther</w>
bi g</w>
bath ola</w>
bas e-Afrika</w>
b igg
b ar
b akho</w>
b abh
az in
ay el
aw u
ath unyelwa</w>
ass ume</w>
asebenz ise</w>
aqh inga</w>
appear ed</w>
aph esheya</w>
ang ene</w>
amakh aya</w>
alleg ations</w>
all s</w>
akw enza</w>
akh ula</w>
akh eka</w>
ak ers</w>
ak ekho</w>
agricul ture</w>
ag enda</w>
aff ect</w>
ad ile</w>
abs ence</w>
abath ile</w>
abaph ak
ab iwa</w>
ab ile</w>
ab amba</w>
a uc
a qu
a /
WA F</w>
W SDP</w>
Vic toria</w>
Vi ol
Uku vikelwa</w>
Uku thengisela</w>
Ubu fakazi</w>
U G
T ambo</w>
St op</w>
SA L
S an</w>
R as
P aper</w>
O ut
Ng emuva</w>
N kosi</w>
Mov ement</w>
M itch
Le ad
L abo</w>
Kul okhu</w>
Ka izer</w>
Iz ing
Isikh ungo</w>
In deed</w>
IR P</w>
Gro und</w>
G er
Ex cell
Establ ishment</w>
En er
Em b
Ear th</w>
Con ference</w>
Cl ose</w>
Child ren</w>
C ongo</w>
Bu ild
Ak ekho</w>
A ir
20 14</w>
199 5</w>
1 M16
zoM thethosisekelo</w>
zi ye</w>
zez we</w>
zem velo</w>
z oMkhandlu</w>
z ase-
z amagugu</w>
z ama</w>
yoku m
yo hl
yo Mthetho</w>
year -
yal okhu</w>
y ezimali</w>
y eni</w>
y cl
y angasese</w>
y amanzi</w>
xeph ezelo</w>
woku n
woku b
wez ilwane</w>
wez ig
wel eka</w>
weap ons</w>
wa KwaZulu-Natali</w>
w esifazane</w>
w enziwe</w>
w azo</w>
w ah
v isa</w>
v ill
uz ob
ut eni</w>
ust enburg</w>
us u
uny azwa</w>
un dl
umkh iqizi</w>
um ula</w>
um lilo</w>
ul ulekile</w>
ul ekwa</w>
ukuph ucula</w>
ukulw ane</w>
ukul ungiswa</w>
ukuhl ela</w>
uku hlangana</w>
uhl ala</w>
uc wa</w>
ubh ek
ub eni</w>
u n</w>
u b</w>
u -</w>
tshon tsha</w>
tsh ela</w>
tron iki</w>
trans formation</w>
tr uly</w>
tr ain</w>
tour nam
to il
ti- ke</w>
threat ened</w>
tem per
taxpay er</w>
t om
syst em
surv ey</w>
subsequ ent</w>
stre ets</w>
stre am</w>
st ones</w>
st ation
some one</w>
som eth
someth ing</w>
soku g
sizaku sebenza</w>
si funa</w>
sh ops</w>
sex ual</w>
se kh
sam ples</w>
s ic
s aziso</w>
s awo</w>
rob bed</w>
rid ged</w>
retail er</w>
requ ests</w>
renew ed</w>
rend ered</w>
rel atively</w>
ref use</w>
recover y</w>
recomm ended</w>
re construction</w>
r y
r ug
r esig
produc tive</w>
prior ities</w>
pres s</w>
pr im
posi tively</w>
portfol ios</w>
po ol</w>
photograph s</w>
per mitted</w>
part ner</w>
par ks</w>
ow enziwa</w>
ow edlule</w>
over -
ov a</w>
ou ts</w>
oth olakala</w>
oth ini</w>
orig in</w>
oper ates</w>
onz e</w>
oniph o</w>
ongq ongqoshe</w>
on c
omp ie</w>
omish ana</w>
omb holo</w>
om iti</w>
om ede</w>
okwenz eke</w>
okuph athwa</w>
okub onakala</w>
oku bhek
ok oku
ohl olwa</w>
off ering</w>
of -</w>
od e</w>
od akazi</w>
occur s</w>
obhek ana</w>
non- refundable</w>
nom asipala</w>
no tic
ngokw eqile</w>
ngoku j
ngez ansi</w>
ngem isebenzi</w>
ng eng
ng el
nezim p
nez akhiwo</w>
net work</w>
nen hl
ne M
nam ely</w>
nam ath
nak ekeli</w>
n onyaka</w>
n al</w>
mon etary</w>
min d</w>
mean ing
mas sive</w>
m ac
li es</w>
le M
lan the</w>
lak ane</w>
l ungu</w>
l ists</w>
l ayo</w>
kwi Lungu</w>
kwem vume</w>
kwal eli</w>
kw indawo</w>
kw eth
kuthuthuk iswe</w>
kuc atshang
ku qal
ku N
koku sh
kan ti-ke</w>
k okhetho</w>
izin hlamvu</w>
iz iyo</w>
iy amu</w>
ith elela</w>
it y-
it 's</w>
isig webo</w>
isek ela</w>
is iq
is il
ire khodi</w>
iph epha</w>
invest ments</w>
inter v
inhl awulo</w>
inhl alakahle</w>
in ent</w>
im parti
im fa</w>
ilabh u</w>
il st</w>
ih olo</w>
ib ela</w>
hol ders</w>
ho l</w>
hl awulo</w>
heav y</w>
hand s</w>
hab it
h uge</w>
h ola</w>
h 00</w>
fund isi</w>
fri end</w>
fraud ul
fel t</w>
famil ies</w>
f ast</w>
ezimp awu</w>
ezim o</w>
ezihl alo</w>
ezi hambisana</w>
ez enziwe</w>
ez andleni</w>
ey iGugu</w>
ey es</w>
exc eed
eth olakala</w>
eth ize</w>
esikh ungweni</w>
es etshenziswa</w>
es e
equ ity</w>
enz eke</w>
eny akatho</w>
enterpr ise</w>
enquir ies</w>
en em
emikh akheni</w>
emb onini</w>
em ezela</w>
em ayelana</w>
el son</w>
el esi</w>
el aph
ekh ombisa</w>
ej i</w>
eh ab
edl ul
ebh angi</w>
eb u
eb eng
e ing</w>
dl ey</w>
dist inc
discus sed</w>
dis abled</w>
d il
d aug
cwan inga</w>
cre ating</w>
construc tive</w>
confirm ing</w>
com ekayo</w>
cl ass
chith iwe</w>
chem ical</w>
c up
bre ed
book s</w>
bh alo</w>
bes ayensi</w>
ban ks</w>
bak ithi</w>
b order</w>
b or
b ayo</w>
ayin wa</w>
ay eka</w>
ax olisa</w>
atsh eni</w>
atmosph ere</w>
ath elwa</w>
as es</w>
arres ting</w>
arr ived</w>
ar ity</w>
ar ekhodi</w>
aqh amuka</w>
ap preh
and eli</w>
an e
amin ithi</w>
amat lakane</w>
alco hol</w>
al aphansi</w>
al andela</w>
akhokh wa</w>
akh ombisa</w>
akh elwe</w>
aj abula</w>
ag encies</w>
ag cwalise</w>
adequ ately</w>
acqu isition</w>
accommod ation</w>
ac wan
ac knowledge</w>
abaq ashi</w>
ab utho</w>
ab uka</w>
ab opha</w>
a M
Y uro
Uku qinisekisa</w>
UK O</w>
Trade Port</w>
Th ose</w>
T ur
T oday</w>
T U</w>
Sub section</w>
St ompie</w>
Sik azwelonke</w>
Secretary- General</w>
R et
R ef
R O</w>
R 6
R 50</w>
Prov ided</w>
Par t
P ak
O ver</w>
O ver
O f</w>
Ng icela</w>
Nat ural</w>
N ot</w>
N an
Mot lanthe</w>
M thetho-Sivivinyo</w>
M aqondana</w>
L ou
Kung abe</w>
Kh anya</w>
Iz ingane</w>
Iz im
Isi v
Is ishayamthetho</w>
Indus trial</w>
Im ibhalo</w>
Grow th</w>
G aza</w>
Fund a</w>
For ce</w>
F ol
F N
Ener gy</w>
En ye</w>
E ph
E d
E -
Dom estic</w>
D own
D WAF</w>
D M</w>
Con f
Cap t</w>
C am
Bud get</w>
Brit ish</w>
Br az
Bo x</w>
Bh unu</w>
B ri
B ot
Afrika ans</w>
A w
A ny
5 4</w>
4 2</w>
3 8
2005-0 2
200 1</w>
197 6</w>
zokuph epha</w>
zoku thuthukisa</w>
zez i
z wa</w>
z amo</w>
z ama-
you ng
yoku hweba</w>
yim p
yem inyaka</w>
yal owo</w>
y nam
y ang
y ale</w>
xhum ene</w>
xh uny
wh ol
wes we</w>
wes wa</w>
we :</w>
w onkana</w>
w ebhodi</w>
w ani</w>
w amazwe</w>
v ested</w>
uy ela</w>
uy ek
util isation</w>
under -
unc tion</w>
umel elayo</w>
um zimba</w>
um thelela</w>
ul w
ukuv uma</w>
ukutheng iselana</w>
ukush ayela</w>
ukuny ezwe</w>
ukun t
ukuhl ukunyezwa</w>
uku x
uku suswa</w>
uku ngalingani</w>
uku kwazi</w>
uk elwe</w>
uf ake</w>
ub uhlungu</w>
uN k
typ es</w>
tro ops</w>
trans actions</w>
tournam ent</w>
th s</w>
te ams</w>
tax es</w>
t ext</w>
t amper
susp ended</w>
suppl ement
success fully</w>
succ esses</w>
subsequ ently</w>
sti pul
st ay</w>
spe ed</w>
solic ited</w>
soci o-
sob ala</w>
so M
si an</w>
sh aring</w>
se hl
s ports</w>
s port</w>
s isekelo</w>
s endawo</w>
s a</w>
respond ent</w>
res hold</w>
renew able</w>
recommend ation</w>
recogn ition</w>
re iter
re in
re conciliation</w>
r um
r ise</w>
qugquz ele</w>
proper ly</w>
prom p
pro sec
pro gr
pro clamation</w>
prison ers</w>
prev ented</w>
possib ility</w>
pos s
pip es</w>
pi ec
per s</w>
pat ri
pat ent</w>
oul d
otsh ani</w>
osh iwo</w>
os ukwini</w>
ordin arily</w>
oo t</w>
onj eni</w>
ongq angi</w>
ong eleni</w>
on elelo</w>
om ulo</w>
olum ayelana</w>
ol ukhulu</w>
ol andelayo</w>
okw enqatshelwe</w>
okub alwa</w>
oku w
oku fana</w>
okh ipha</w>
of -
oc ela</w>
oc curr
o hlang
o ath</w>
nor ms</w>
nokuph epha</w>
nokuhl ela</w>
noku gcina</w>
noku faka</w>
nob andlululo</w>
no tices</w>
ngokw alo</w>
ngoku jwayelekile</w>
ngoku fanele</w>
ngezin jongo</w>
nges inqumo</w>
ng xenye</w>
ng eph
nezin jongo</w>
nez oku
nez ibopho</w>
new sp
nes burg</w>
nem oto</w>
nem ininingwane</w>
nang endlela</w>
nam athuba</w>
naku ba</w>
n angaphandle</w>
manufac turing</w>
m ang
lw es
low ing</w>
long- term</w>
loku thuthukisa</w>
loku bh
lod ged</w>
ling u
lim ala</w>
li hlanganisa</w>
le Bhodi</w>
land s
l ets</w>
kwezing ane</w>
kwez ilimi</w>
kwen dle</w>
kwem inye</w>
kwamakh ono</w>
kw entela</w>
kw eNingizimu</w>
kw a</w>
kung ani</w>
kum aph
kul indeleke</w>
kuka Mongameli</w>
kuhl onyiwe</w>
kubh ekwe</w>
kub ona</w>
ku- Registrar</w>
ku hloswe</w>
ku hlinz
ku Mthethosisekelo</w>
kam uva</w>
jour ney</w>
j um
j ista</w>
izint ela</w>
izig ameko</w>
iz ela</w>
iv ayisi</w>
ith ombe</w>
ith athwa</w>
isebenz ela</w>
is iz
is ibalo</w>
inv oice</w>
inter action</w>
inter -
int ly</w>
instruc tion</w>
institu tional</w>
inq ume</w>
ink athi</w>
ingq iwe</w>
in tu</w>
in ery</w>
in adequate</w>
im aza</w>
il ela</w>
ikh walithi</w>
ikh ombisa</w>
ikh aya</w>
ik lomelo</w>
ihl anu</w>
ih ambe</w>
ig eria</w>
ifan ekiso</w>
i- asosiyeshini</w>
i or
hy dro
hospit als</w>
histor ical</w>
hal isile</w>
gr ave</w>
gr aph
g ard
fr ed</w>
foc used</w>
fav our</w>
fair ly</w>
f ushane</w>
f ula</w>
f iscal</w>
f if
f akwe</w>
ezith unywa</w>
ezimp ahleni</w>
ezil wane</w>
ezil andelayo:</w>
ezihl ala</w>
ezib halwe</w>
ez ifundazwe</w>
ez enzeka</w>
ez ansi</w>
ext ensive</w>
expan sion</w>
exerc ising</w>
ex ec
ew ona</w>
every thing</w>
ev amile</w>
eth elwe</w>
esith unzi</w>
esib halwe</w>
esiFund a</w>
esi bhekene</w>
eq iniso</w>
eph ethe</w>
ep tion</w>
eny is
ent ails</w>
enj oy
enj alo</w>
enhl oko</w>
engine ering</w>
eng xenyeni</w>
eng cupheni</w>
en stown</w>
en ikezwe</w>
emaph oyiseni</w>
em ony</w>
em as
elith ile</w>
elec tr
el ev
el apha</w>
el anayo</w>
ehl uko</w>
ed ?</w>
eb ona</w>
eb iwa</w>
eb ele</w>
eM hlabeni</w>
e er</w>
e W
diver se</w>
dis close</w>
differ ence</w>
det ail</w>
der eg
dep uty</w>
del ay</w>
defin ition</w>
d educ
d ark</w>
compl ex</w>
compil ed</w>
compar able</w>
coll ect</w>
cock er
cin we</w>
ci v
cap abilities</w>
candid ate</w>
campa igns</w>
call s</w>
c ubung
c ed</w>
bur s
bu y</w>
br inging</w>
bound aries</w>
bo x</w>
bloc k</w>
ban k
b ut
b omphakathi</w>
b argaining</w>
ay ishumi</w>
ay iphi</w>
ay ikhokh
aw ulwe</w>
av uza</w>
atsh elwa</w>
ath okoz
ass ess</w>
ash iwe</w>
ash eya</w>
arch it
aqond ile</w>
aqinisek ise</w>
aq oka</w>
aq inisekisa</w>
app ed</w>
aph athekayo</w>
announc ed</w>
an nesburg</w>
amp ula</w>
amb ene</w>
amav oti</w>
amas otsha</w>
al ulwa</w>
akh ath
akh ang
aj a</w>
ag s</w>
af ani</w>
advert is
adminis ter</w>
ad y</w>
ad inga</w>
acc ur
ab omu</w>
ab eza</w>
ab elana</w>
a ise</w>
a er
Zimbab we
W aste</w>
W al
V is
V ally</w>
V al
Um asipala</w>
U D
Tr affic</w>
Th eku</w>
T ask</w>
S ah
RE S
R ustenburg</w>
R ehab
Que enstown</w>
Pers ons</w>
P ost</w>
Olymp ic</w>
O p
Ng xenye</w>
Ng isi</w>
N A</w>
ME s</w>
M og
M ash
L og
L im
L ic
L ibr
L ear
Kw abathengi</w>
Kh abin
K ing</w>
Joh annesburg</w>
Izin hlobo</w>
Izikh ungo</w>
Isiv umelwano</w>
Isikh ulu</w>
Isi Gungu</w>
In kantolo</w>
In iti
In ingi</w>
In cwadi</w>
Im oto</w>
ISA HL
ISAHL UKO</w>
IN I</w>
I sigatshana</w>
I ngq
I m</w>
I A
H webo</w>
H ow</w>
Eng ine
Elec toral</w>
EL WA</w>
Compl ain
Commit tees</w>
Chin ese</w>
CON S
C lear
C an
C H
Blo em
B er
B en
Am endment</w>
Al fred</w>
5 6</w>
3 9</w>
2 8
1 8
zoku ng
zob ugebengu</w>
zim ela</w>
zik azwelonke</w>
zez ilwane</w>
z we</w>
z ona</w>
yis igaba</w>
yez omnotho</w>
yez olimo</w>
yes ter
yem oto</w>
yeZ izwe</w>
y our
y iyo</w>
y indlela</w>
y g
woku vikela</w>
wezo Limo</w>
wez iNkampani</w>
wesi hlanu</w>
wem isebenzi</w>
wan ts</w>
w onyaka</w>
w ezimpahla</w>
w empu</w>
w aza</w>
view ing</w>
v ide
usebenz e</w>
us ual</w>
us ile</w>
us akazi</w>
unj ini</w>
univer sities</w>
ung ezile</w>
un solicited</w>
un employed</w>
um thethosisekelo</w>
um dlalo</w>
ukw ethula</w>
ukumez ekile</w>
uku hambisa</w>
uku fakwa</w>
ukh okh
ukan iswe</w>
uc a</w>
ubung ako</w>
ub uphofu</w>
ub umpofu</w>
ub haliso</w>
uN aisa</w>
u ce</w>
travell ed</w>
trans ferred</w>
tic le</w>
ti er</w>
teach ers</w>
tal king</w>
t ox
t on
t ed
surro unding</w>
subsid y</w>
su m</w>
st ar</w>
spec ially</w>
som untu</w>
sim ple</w>
sika Mongameli</w>
sh ayela</w>
ses sions</w>
sec ret
s qu
s li
s le
s cope</w>
s az
s ayo</w>
s and</w>
restor ed</w>
respec tively</w>
res erve</w>
requir ing</w>
re alisation</w>
r iver</w>
quick ly</w>
qualif y</w>
qalaz inda</w>
q eqesho</w>
prom ise</w>
profes sion
prim arily</w>
prepar ing</w>
pr eme</w>
pla as</w>
pl icate</w>
par theid</w>
pan el</w>
p et
p e</w>
ow abo</w>
os ph
ong um
om ncane</w>
olul andelayo</w>
olu fanele</w>
ol eka</w>
okwenz ekayo</w>
okub i</w>
oku vikela</w>
oku sem
oku fanayo</w>
of i</w>
oc waningo</w>
ob alulekile</w>
o ted</w>
o il</w>
noth ing</w>
non- racial</w>
nomin ations</w>
nom untu</w>
noku land
noku gqugquzela</w>
njeng ez
ngok obuhlanga</w>
ngezin dleko</w>
ngakh oke</w>
ng culazi</w>
ng amaphoyisa</w>
ng abanye</w>
nezin d
nen kululeko</w>
nem ikhiqizo</w>
neighbour ing</w>
ne qembu</w>
nam aphoyisa</w>
nal esi</w>
n to</w>
n end
n daba</w>
n aban
multil ingualism</w>
mov able</w>
moder n</w>
mo tiv
mb iko</w>
mar king</w>
m illions</w>
lw akhe</w>
lom ndeni</w>
loku hlola</w>
loc ally</w>
lo ko</w>
lo aded</w>
lat est</w>
land fill</w>
l uv
l uq
l ay</w>
kwis imo</w>
kwis ifundazwe</w>
kwem iphakathi</w>
kwam agama</w>
kw ihhovisi</w>
kw az
kung afanele</w>
kum alungu</w>
kub aluleke</w>
ku ngaph
ku gcinwe</w>
ku fak
kom asipala</w>
koku phela</w>
khokh wa</w>
ka Mongameli</w>
k lamo</w>
k imi</w>
k i
iziny embezi</w>
izim vume</w>
iz ikweletu</w>
iz ibhamu</w>
iz ers</w>
iz elele</w>
itsh wa</w>
it ated</w>
isi b</w>
isi Gungu</w>
is wane</w>
is aneni</w>
iq oqo</w>
introduc tion</w>
int ando</w>
instruc tions</w>
initi al</w>
inis weni</w>
indic ators</w>
in wa</w>
in consistent</w>
iland elwe</w>
il unga</w>
il ing</w>
ikw eni</w>
ijab ulisa</w>
ij ini</w>
ihl ala</w>
id ity</w>
ic als</w>
iboph ezele</w>
i- akhawunti</w>
i ku
hol ds</w>
hlangan isiwe</w>
her b
heal thy</w>
he ar</w>
haz ard</w>
h otela</w>
gros s</w>
gre at
grad ing</w>
g ement</w>
fu el</w>
fri endl
fr ag
for t</w>
for ensic</w>
finy elele</w>
fe ed</w>
fe atures</w>
ezis ezingeni</w>
ezing aphansi</w>
ezing an
ezikh ethekile</w>
ezib alo</w>
extern al</w>
expres sly</w>
expres sion</w>
excell ent</w>
ex pos
ev ision</w>
eth ini</w>
et ers
est u
esith athwe</w>
esin omlando</w>
esif anayo</w>
es try</w>
es incane</w>
es es
es enziwe</w>
er ness</w>
eq ala</w>
ep id
eng ameli</w>
eng afanele</w>
en ough</w>
en ini</w>
en force</w>
emp ini</w>
emb alwa</w>
em ath
ell ed</w>
eli Khulu</w>
el i-
el f</w>
ekhokh wa</w>
ek ani</w>
ehl obene</w>
ed y</w>
e Riphabhuliki</w>
doub t</w>
don t</w>
disp utes</w>
dis posed</w>
det ention</w>
det ain
design ate</w>
der ived</w>
deploy ed</w>
d e-
cy cle</w>
cred its</w>
cour ses</w>
cor ner</w>
con dol
competi tive</w>
commis sion
comm ents</w>
cocker el</w>
cle an</w>
char tered</w>
ch em</w>
ch apter</w>
cal cul
c azelo</w>
br ut
br ah
brah im</w>
bot tle</w>
benefici aries</w>
b ush
b n</w>
b ah
aziph athi</w>
ayin iwe</w>
awon kewonke</w>
av umelana</w>
av iki</w>
av ele</w>
att ached</w>
as ts</w>
ard ous</w>
aqh ubeke</w>
aph athelene</w>
anti cipated</w>
anj iswa</w>
ang enza</w>
an x
amb u</w>
amar ekhodi</w>
amap ul
amap ayipi</w>
amag ciwane</w>
amad wala</w>
al iwe</w>
al esi</w>
al azi</w>
aku kh
aku fanele</w>
affor d
advant age</w>
adl y</w>
account ability</w>
abahl ali</w>
ab r
ab ayis
ab ase
a c</w>
Y outh</w>
Y O
V err
Um kh
Ukus ungulwa</w>
Uku thola</w>
T i
T esting</w>
Sund ay</w>
Stand ard</w>
S ri</w>
S ihl
S H
Requ est</w>
R amatlakane</w>
R V
Produc ts</w>
Prem iers</w>
Palest ine</w>
PA YE</w>
P I</w>
P HA
Oper ation</w>
O bed</w>
Ng isho</w>
Ng eke</w>
Nd iya</w>
N P
M ak
M S</w>
M ENT</w>
L ondon</w>
K uncike</w>
Jul ayi</w>
Iz indlela</w>
Iz igaba</w>
Is inqumo</w>
In kampani</w>
Ikh ophi</w>
Ig unya</w>
IS S</w>
I komidi</w>
I T</w>
H ind
F o
Em p
Eku gcineni</w>
EM ENT</w>
Down load</w>
D en
D U
D A</w>
Cong ress</w>
BENZ I</w>
B road
B e</w>
Am acala</w>
Ac ting</w>
Ac coun
A partheid</w>
9 1</w>
8 7
7 4</w>
2005 /
2 4
15 1</w>
0 7</w>
. e</w>
. 1</w>
zoku thuthukiswa</w>
zem iphakathi</w>
zasem akhaya</w>
z esi
z er
z ali</w>
yom azisi</w>
yokuth umela</w>
yoku xhumana</w>
yoku qhuba</w>
yiz ikh
yis imo</w>
yim inyaka</w>
yez we</w>
yez ezimali</w>
yez emidlalo</w>
yes imo</w>
yes icelo</w>
yem isebenzi</w>
ye Ningizimu</w>
y l
y inkampani</w>
y amaphoyisa</w>
xim ately</w>
x way
wokw akha</w>
woku hl
woku d
with draw</w>
wher eby</w>
we ar</w>
warr an
war anti</w>
wal if
waban isa</w>
wa iting</w>
w uhlelo</w>
w oM
w enkantolo</w>
w amabhuku</w>
w abantu</w>
volunte ers</w>
vo id</w>
vis its</w>
vir t
vig il
valu able</w>
v ent
uz ile</w>
uy aqhubeka</w>
ut ting</w>
ush isi</w>
us al</w>
ur ement</w>
uph oyisa</w>
under way</w>
un ikeze</w>
umb ene</w>
um ndeni</w>
um cimbi</w>
um azisi</w>
ukwehl a</w>
ukutheng a</w>
ukuph uma</w>
ukul awulwa</w>
ukul awula</w>
ukukh uluma</w>
ukug uq
ukub ika</w>
ukub ezeka</w>
uku susa</w>
uku buyiselwa</w>
uku bheka</w>
uhlinz ekele</w>
uf isa</w>
ud ingeka</w>
ubul ili</w>
ubh eke</w>
ub uth
u ters</w>
u P
tw are</w>
tsh iwe</w>
truc tion</w>
tr ied</w>
tr ian</w>
tr a
ti le</w>
th rown</w>
th reshold</w>
ter rit
tarif fs</w>
t abled</w>
su b</w>
statis tical</w>
stab bed</w>
spon s
spati al</w>
some times</w>
som yalelo</w>
som sebenzi</w>
sol id
sof tware</w>
sm all
sk in</w>
sing en
simpl y</w>
si qhubeke</w>
si faka</w>
sel ection</w>
sec toral</w>
sch edule</w>
satisf y</w>
sal es</w>
s z</w>
s pread</w>
s olved</w>
s ezi
s enza</w>
s ance</w>
s abo</w>
row ing</w>
roug h</w>
roc k</w>
ro utes</w>
ro und</w>
ro r</w>
ret ro
reserv ation</w>
reg ime</w>
reg ards</w>
refl ected</w>
read ing</w>
r ation
r a</w>
profes sion</w>
print ing</w>
pre fer
plas tic</w>
ph u</w>
per petr
p aint
p ain
ow esifazane</w>
over sight</w>
ov ers</w>
otsh wa</w>
oth umela</w>
osh weni</w>
ori ent
ong iwa</w>
on al
ombul ulo</w>
om oya</w>
om idini</w>
olun zulu</w>
ol f</w>
okuv ela</w>
okh ethweni</w>
ok ishini</w>
ohlang othini</w>
ohl akalo</w>
og o</w>
nom ination</w>
nokw akhiwa</w>
noku siza</w>
noku qinisekisa</w>
noku bhala</w>
no ted</w>
no k
no dlame</w>
no Ngqongqoshe</w>
njeng o
ngom thetho</w>
ngokuth ula</w>
ngoku zinikela</w>
ngoku zikh
ngoku sebenza</w>
ngezin hlelo</w>
ngen dluzula</w>
ngakh o-ke</w>
ng osizo</w>
ng og
ng entando</w>
ng amanye</w>
nezin hlamvu</w>
nez okuvakasha</w>
nez igaba</w>
nen qubomgomo</w>
nekh ono</w>
nam ag
nal awo</w>
nak ekela</w>
n ie</w>
n i</w>
n abab
monit ored</w>
math upha</w>
m ol
loku hweba</w>
loku busa</w>
lib r
lib eration</w>
les ishayamthetho</w>
larg est</w>
l y
l enze</w>
l enza</w>
l amanzi</w>
kwezikh athi</w>
kwen kantolo</w>
kwel ungelo</w>
kwam al
kwam agugu</w>
kwaku khona</w>
kus iza</w>
kung athatha</w>
kum khakha</w>
kuf ike</w>
kub onakale</w>
ku Masipala</w>
koku ng
koku dla</w>
ko hulumeni</w>
k ithi</w>
k ad
k -
jo intly</w>
izin ombolo</w>
izikh undla</w>
iz wekazi</w>
iz iphathimandla</w>
iz ik
itim ela</w>
itic ally</w>
isim emezelo</w>
ish op</w>
ish aya</w>
isek elwe</w>
is iteshi</w>
is etshenziswe</w>
is etshenziswa</w>
is eke</w>
iny abeza</w>
inv itation</w>
inv est</w>
interpre tation</w>
integr ity</w>
inj abulo</w>
ingu ished</w>
indep end
ind elwe</w>
in sur
in o</w>
in dl
in ated</w>
in arian</w>
imb ini</w>
im indeni</w>
ill ness</w>
il ty</w>
il om
il ayisense</w>
ik ayo</w>
ik am
ihl ahla</w>
if iso</w>
if ic</w>
idiy elwa</w>
id iyo</w>
id iph
icil ela</w>
ic king</w>
ibiy ela</w>
ibh eke</w>
ib eli</w>
i the</w>
i )</w>
hl alo</w>
highl y</w>
high est</w>
her o
he aded</w>
haz ardous</w>
h us
h ts</w>
guq ula</w>
guardi an</w>
gu ilty</w>
gu ide</w>
gu ests</w>
gro und
gr ade</w>
govern mental</w>
gc ini</w>
fun ana</w>
fraudul ent</w>
franchis ee</w>
finger prints</w>
fin ancing</w>
ezith inta</w>
eziph uthumayo</w>
eziph ilayo</w>
ezink ampanini</w>
ezing as
ezing amashumi</w>
ezin q
ez enza</w>
ey iyo</w>
ey ehlukene</w>
extr a
exp ense</w>
excell ence</w>
exceed ing</w>
et h</w>
esiqinisek o</w>
esif ushane</w>
es emqoka</w>
es andleni</w>
erv iew</w>
equ ival
eq e</w>
eq a</w>
eph ephile</w>
entshon alanga</w>
enteng iso</w>
ent ally</w>
engaph ezu</w>
eng akwazi</w>
emp eleni</w>
emer ging</w>
emb ar
emahl ombe</w>
em vume</w>
em issions</w>
em ic</w>
elek troniki</w>
el iq
el ic
eku n
ej ele</w>
eg cwele</w>
edl ula</w>
ec ture</w>
ec tor</w>
ebh ekene</w>
eb ekh
e hamba</w>
dlul ile</w>
discus s</w>
dis cre
dis closure</w>
dis charge</w>
deploy ment</w>
daug hter</w>
d ti</w>
d or
d a</w>
construc ted</w>
cons titute</w>
confid ential</w>
cind ezi</w>
chequ es</w>
chec k</w>
cer tain
cer emony</w>
centr ed</w>
ca using</w>
bul ala</w>
bu ya</w>
bu ff
br and</w>
bo Mkhandlu</w>
b uth
b all
az ib
ax humana</w>
aw oti</w>
aw ards</w>
av ile</w>
aud it</w>
attemp ts</w>
athuthuk a</w>
ath eng
ath ele</w>
ash umi</w>
as tern</w>
ari ous</w>
aph ephile</w>
any olo</w>
anno un
and er</w>
an oyi</w>
amp ilo</w>
amb ia</w>
amah olide</w>
amad oda</w>
am end
all ev
al ingani</w>
al ing</w>
akhokh i</w>
aj ele</w>
ahl ukile</w>
agc ine</w>
adminis tered</w>
acc used</w>
acac a</w>
ac company</w>
abhek ane</w>
abh orethri</w>
abav ela</w>
abath ola</w>
abaph ethe</w>
ab ridged</w>
ab oshwa</w>
ab ezindaba</w>
ab eke</w>
a id
a h</w>
a an</w>
Z uma</w>
Woku vikelwa</w>
Verr yn</w>
Ukw akha</w>
Uku fakwa</w>
Th ere
TE D</w>
T o
T V</w>
Sur v
S it
S eng
S eku
S at
R1 00</w>
R ight</w>
Po int</w>
P DF</w>
Ob ject</w>
Ng aphansi</w>
Nam hlanje</w>
N AT
Mond ay</w>
Mid dle</w>
Med iation</w>
M oh
M eyi</w>
M aj
M ac
Leg al</w>
L oku
L iqu
L aba</w>
KwaZ ulu</w>
Kul esi</w>
KW AZ
K imana</w>
Jud icial</w>
Janu ary</w>
Isi th
In hlangano</w>
In come</w>
IR P
I nj
H igh
H hovisi</w>
Gre en</w>
F ET</w>
Ex p
Esikh athini</w>
Elec tronic</w>
Elec tricity</w>
ENT S</w>
E astern</w>
Def ence</w>
D id</w>
D A
Custom s</w>
Con sul
Chair man</w>
Cent res</w>
Cap tain</w>
C s</w>
C ateg
C all</w>
Bas ic</w>
B ob
B A</w>
Ar ticles</w>
Add ress</w>
Ac tion</w>
AT M</w>
AM END
6 2</w>
5 2</w>
2 :</w>
2 00</w>
10 1
1 50</w>
- r
- off</w>
, 5</w>
' ll</w>
zing akapheli</w>
zikh ombisa</w>
zik agesi</w>
zib andakanya</w>
zez itshalo</w>
zez empilo</w>
z ohlobo</w>
z ish
z esikhashana</w>
yoku ngena</w>
yn bo
ynbo s</w>
yin oma</w>
yin ingi</w>
yin hlangano</w>
yezin to</w>
yem ithetho</w>
y olimi</w>
y iqembu</w>
y ezimpahla</w>
y empilo</w>
y amazwe</w>
xhum ane</w>
x ube</w>
x es</w>
x axa</w>
wes ine</w>
we 're</w>
wat ers</w>
war t
wan ing
w u
w inter</w>
w ile</w>
w elo</w>
w arm
w aphinde</w>
w angu</w>
w amaGugu</w>
vo ters</w>
v eterinary</w>
utsh we</w>
uth athe</w>
uq otho</w>
ung eze</w>
un ited</w>
umz ila</w>
umz ali</w>
umth amo</w>
umon akalo</w>
umb ini</w>
um qashi</w>
um ncintiswano</w>
um n
um fana</w>
um dl
ul ise</w>
ukw eseka</w>
ukw enzeka</w>
ukw ana</w>
ukuv ula</w>
ukutheng iswa</w>
ukuq eqeshwa</w>
ukun ciphisa</w>
uku xoxisana</w>
uku qala</w>
uku ku
uku gcinwa</w>
ufak ele</w>
ubu chwepheshe</w>
ubh eka</w>
u iz
tour ist</w>
tom or
to -</w>
til es</w>
th inking</w>
te aching</w>
t ob
t ings</w>
t asks</w>
t aining</w>
sus tain</w>
sun- man</w>
sugg es
subst ance</w>
st er
spon sor
spo use</w>
sou thern</w>
sol ve</w>
sokubhal iswa</w>
so -
siq ale</w>
shap e</w>
serv ing</w>
serv ic
serv ants</w>
sem i-
secre t</w>
sc en
s wor
s tim
s low
s icela</w>
s and
rol l</w>
rig ation</w>
restric ted</w>
rest aur
res tructuring</w>
res cent</w>
rem ind
regul ating</w>
regul arly</w>
regis tering</w>
rec ycl
reb ate</w>
re au</w>
r atul
ratul ations</w>
qhub ekela</w>
qhak ambisa</w>
q ekeza</w>
prosper ous</w>
proc urement</w>
pro por
print ed</w>
prev ails</w>
pl ays</w>
pl ani</w>
per cent
pe l</w>
pass ing</w>
pass eng
parliam ent</w>
p un
oz ithi</w>
ox ide</w>
ov erview</w>
ou ch
os os
ord ered</w>
or t</w>
oo dley</w>
ons wa</w>
ond er
on ikeza</w>
omp iy
omp i</w>
omb h
om ela</w>
ol ampilo</w>
okuvunyel wane</w>
okuth olakala</w>
okuph elele</w>
okukh okha</w>
okuhl ongozwe</w>
okub alulekile</w>
oku vikelwa</w>
oku hloswe</w>
oku dla</w>
oku bekwe</w>
okoz ela</w>
okh ona</w>
ok od
ok iwe</w>
ok eng</w>
oj i</w>
ohl isa</w>
of akwa</w>
obu chweph
o hambisana</w>
nt wana</w>
nt ela</w>
noth er</w>
noku ngab
noku lawulwa</w>
noku c
no Mnyango</w>
no -</w>
njeng abantu</w>
ngom lomo</w>
ngokuc ophelela</w>
ngoku zith
ngoku faka</w>
ngoM sombuluko</w>
ngen ani</w>
ngemp elasonto</w>
ngem inyaka</w>
ngef ekisi</w>
ngas ebenzi</w>
ngam abomu</w>
ngal ezo</w>
ng end
ng ane</w>
ng akw
nezing uquko</w>
new ly</w>
near by</w>
ne hhovisi</w>
nam aqembu</w>
nab aphathi</w>
n ing
my self</w>
mut ual</w>
multil ateral</w>
meth ods</w>
met ers</w>
met er</w>
ment ally</w>
mechanis m</w>
man if
mad uzane</w>
m ed</w>
m ahhala</w>
loku funda</w>
lob haliso</w>
ling ani</w>
lim its</w>
lim iting</w>
li m</w>
lay enti</w>
larg ely</w>
lak plaas</w>
lab el</w>
l uhl
l r</w>
l ou
l azi</w>
l ami</w>
kwezing xabano</w>
kwen u</w>
kwem ingcele</w>
kwem igwaqo</w>
kwem fucuza</w>
kwam ath
kwam aphoyisa</w>
kw ed
kw ase
kuz ob
kuy oba</w>
kuk agesi</w>
ku vik
ku sus
ku funeka</w>
ku Juni</w>
kos azana</w>
kom fa</w>
kany ezi</w>
kang aka</w>
kan i</w>
k olimi</w>
jour n
j ani</w>
izin hlinzeko</w>
izimp i</w>
izim funo</w>
iz ob
iz ibonelelo</w>
istr eshini</w>
is iphi</w>
iqh ubeke</w>
iq ulu</w>
iny ama</w>
inv ite</w>
ins i</w>
inj ela</w>
ing -</w>
indic ates</w>
inc ike</w>
in tr
in obho</w>
in kundla</w>
in ingo</w>
in hlinzeko</w>
in ev
in al</w>
immedi ate</w>
imith eth
imith eshwana</w>
im v
im ibhalo</w>
ill ors</w>
ikez iwe</w>
ik akhulu</w>
ij i</w>
id ays</w>
icul um</w>
ic ity</w>
ib il
ib iko</w>
i- C
i kusasa</w>
hlangany elwe</w>
happ en</w>
h ill</w>
h are</w>
gr and
gal ema</w>
g en
g ang
friendl y</w>
found ation</w>
form at</w>
foreig ner</w>
fol io</w>
fin alised</w>
fes tive</w>
fac tory</w>
f lag</w>
f ish
f inding</w>
f at
f ail</w>
ezis etshenziswa</w>
ezing aneni</w>
ezing ama
ezihl elwe</w>
ez ob
ez edlule</w>
ey ona</w>
ey iph
expl ained</w>
exhib ition</w>
exclus ive</w>
exc eed</w>
ev a</w>
etsh ezi</w>
eth elwa</w>
eth atha</w>
eth ameli</w>
esish iwo</w>
esing aphezulu</w>
esikh wameni</w>
esib haliwe</w>
esh ana</w>
equ ally</w>
eq inile</w>
enz elwa</w>
enz eki</w>
eny we</w>
enter ing</w>
ent ually</w>
ensu s</w>
enk athi</w>
engaph andle</w>
eng ag
enc h</w>
emphas is</w>
emp ilweni</w>
emin iningwane</w>
emib uzo</w>
emi hlanganweni</w>
em n
em ele</w>
elig unyaziwe</w>
el se</w>
el id
ekw ane</w>
ekusebenz iseni</w>
ekub oshweni</w>
ekub eni</w>
eku sh
ek eleni</w>
eh ora</w>
ef u</w>
ed we</w>
ed eni</w>
ec ological</w>
eb he</w>
eb e
eas y</w>
e ties</w>
e T
e D
dr af
down load</w>
di am
dep ends</w>
demonstr ated</w>
de pl
d ynam
d egr
cul isayo</w>
cover ing</w>
corpor ate</w>
cop per</w>
contr acts</w>
contr acted</w>
cons tit
confid ent</w>
condol ences</w>
conclud ed</w>
con front</w>
compl eting</w>
comp ensation</w>
col leges</w>
cl aims</w>
ci vil
ci ties</w>
chem icals</w>
ch ule</w>
ch r
ch ildren's</w>
broad er</w>
bir d</w>
bez icelo</w>
becom ing</w>
be kung
be ach</w>
ban zi</w>
ban king</w>
b ezindaba</w>
b endabuko</w>
b aba</w>
az iy
ayel itsha</w>
ay imane</w>
ay ikho</w>
ay ed</w>
ax ox
ax azul
aw us
att end
atsh ez
atholak ali</w>
at ories</w>
at asa</w>
ass ad
as itiki</w>
as is
as il
ar ia</w>
ar anti</w>
apul azini</w>
appro ached</w>
app ing</w>
ann es</w>
anc ement</w>
an isi</w>
amb ile</w>
aman tshi</w>
amakh emikhali</w>
am ini</w>
am ing</w>
al ule</w>
al though</w>
aku v
akh ipha</w>
akh ayo</w>
ain e</w>
ahl olwa</w>
ahl iwe</w>
ahl ela</w>
ah ead</w>
aff ecting</w>
af uni</w>
af anayo</w>
adv is
adl ala</w>
ad ew
activ ely</w>
achiev ing</w>
account ant</w>
abuy isele</w>
abam ele</w>
abal eka</w>
ab sol
ab akw
ab akhona</w>
Wor king</w>
W ezindaba</w>
W est
W C</w>
V lakplaas</w>
Um khandlu</w>
U the</w>
U kwes
There fore</w>
Th umela</w>
TH I</w>
T re
St adi
Sep t
Secret ary</w>
SM MEs</w>
S oweto</w>
S il
S idinga</w>
S al
Rev iew</w>
Rehab ilitation</w>
Ras ool</w>
R and
Port folio</w>
Pe ace</w>
P at
N kulunkulu</w>
Med chem</w>
Mar ine</w>
Mab otha</w>
M ul
M nuz</w>
M aint
Liqu or</w>
Khabhin ethe</w>
Kh ayelitsha</w>
Kap uteni</w>
J ord
Iz ind
Iz ikhulu</w>
Is r
Integr ated</w>
In kontileka</w>
In divid
Im pl
IS E
ID P</w>
ID B</w>
I' m</w>
I v
Head :</w>
H ar
H am
Gre at</w>
For m
F ed
Enquir ies</w>
EN I</w>
EL E</w>
E brahim</w>
E X
E PH
Det ectives</w>
D P
Cong ratulations</w>
Cl lr</w>
Chr is</w>
C IDB</w>
Bh eka</w>
B reed
B el
Americ a</w>
Am ong</w>
Am alungelo</w>
Am abh
Agricul tural</w>
Ad visory</w>
Ad di
Accord ingly</w>
Acc ess</w>
Ac ts</w>
A nother</w>
A ids</w>
A &
6 9</w>
6 8</w>
5 8</w>
2005-02 -
00 m</w>
0 7
. 3
zoku qinisekisa</w>
zoku d
zikh ungo</w>
zem ali</w>
z enhlalo</w>
z endabuko</w>
z av
z amanzi</w>
yoku thuthukisa</w>
yin hloko</w>
yi Nkantolo</w>
yez ohwebo</w>
yester day</w>
ye- elektroniki</w>
ye Phalamende</w>
y k</w>
y ezingane</w>
y ezindawo</w>
y enziwa</w>
y edwa</w>
woku sebenza</w>
wo hlelo</w>
wit n
way ele</w>
wat er
warr ant</w>
walif ikh
w in
w et
w er
w ene</w>
w anoma</w>
w amaphoyisa</w>
w abasolwa</w>
vik eli</w>
ver b
v o</w>
v ast</w>
uz oqhubeka</w>
uy azi</w>
uthuk ise</w>
us ted</w>
uq inisekise</w>
uph ethe</w>
upd ated</w>
uny eni</w>
uny aziso</w>
unj iniyela</w>
ung iswe</w>
ung ela</w>
under p
under go</w>
un ions</w>
un ingi</w>
un employment</w>
umth ombo</w>
umb uza</w>
um ise</w>
um isa</w>
um hla</w>
um gwaqo</w>
um eli</w>
ukw e</w>
ukush aya</w>
ukuph enya</w>
ukung qubuzana</w>
ukul andela</w>
ukukh uthaza</w>
ukukh athazeka</w>
ukuf eza</w>
uku tshalwa</w>
uku tshala</w>
uku ngenelela</w>
uku fakela</w>
uku dluliselwa</w>
uk el
uhl akani</w>
udl wana</w>
ud odi</w>
ub uhle</w>
u qu
tru ed</w>
trans par
tion ality</w>
tic kets</w>
theng iswa</w>
ter 's</w>
tain s</w>
t ree</w>
system atic</w>
suff ering</w>
sub mitting</w>
sub jects</w>
su ite</w>
stud ies</w>
strong er</w>
stand s</w>
st ers</w>
speci alists</w>
spac es</w>
sp ot
soku khokha</w>
soku gcina</w>
so- called</w>
sk illed</w>
siz o</w>
sith ole</w>
si x
shor t-
sent enced</w>
sc ar
sav ings</w>
sam pl
s undu</w>
s tic
s enziwe</w>
s cour
s amanzi</w>
rol led</w>
rol l
ro v
ro ute</w>
res ili
res c
replac ed</w>
re presents</w>
re place</w>
rang ing</w>
r ule</w>
r ing</w>
r ender</w>
ques tion
qub uka</w>
qond iswe</w>
qh inga</w>
prospec ting</w>
promo ted</w>
prof eshini</w>
pro posal</w>
presid ing</w>
pre jud
pre dic
prac t
pr ol
pow er
por ted</w>
pop ular</w>
play ing</w>
pl ain</w>
percent age</w>
peopl e-
peac eful</w>
particip ant</w>
pack aging</w>
p uts</w>
p um
p apers</w>
oz imele</w>
oy al</w>
ox olo</w>
oth unyelwa</w>
oth ulwa</w>
osi ves</w>
os is</w>
oph o</w>
oph ezulu</w>
op ping</w>
ondoloz a</w>
onak ekelo</w>
on ikezwe</w>
on eni</w>
ompiy utha</w>
omp ikiswano</w>
om azisi</w>
oluv ela</w>
ol k
ol is
okw akul
okuth atha</w>
okus akaza</w>
oku hambisana</w>
oku gqekeza</w>
ok odo</w>
od abeni</w>
ob ana</w>
o kanye</w>
o Hl
oHl elweni</w>
notic ed</w>
nom cebo</w>
nokul wa</w>
nokul ungiswa</w>
noku j
noku dla</w>
noku bh
nob ung
no zakw
no ph
njeng ohluleka</w>
njeng oM
nguM thethosisekelo</w>
nguM thetho</w>
ngu Khomishane</w>
ngoku sobala</w>
ngoku hamba</w>
ngez andla</w>
nges izathu</w>
ngenz ansi</w>
ngem pahla</w>
ng eS
nezin qubo</w>
nez ibhamu</w>
negoti ated</w>
neg alelo</w>
ne qhaza</w>
ne N
ncint is
nang okw
n y</w>
n empumelelo</w>
n elungelo</w>
n cwadi</w>
mut ually</w>
must -</w>
mort ality</w>
mis conduct</w>
ment ed</w>
meaning ful</w>
mar ks</w>
m s
m oun
m khakha</w>
m inyaka</w>
m ention</w>
m eleli</w>
lokuv ota</w>
lo ts</w>
lic ences</w>
lez aseKhaya</w>
le kh
le i</w>
larg er</w>
la wa</w>
l we</w>
l ish
l empilo</w>
kwen dlela</w>
kwem oto</w>
kwem ikhiqizo</w>
kwam ad
kw inxusa</w>
kw emboni</w>
kw eM
kw a-
kuy into</w>
kus eni</w>
kung abi</w>
kun zi</w>
kukad oti</w>
kud ingekile</w>
kub halwe</w>
kub asebenzi</w>
ku qhathaniswa</w>
ku Mongameli</w>
ku Mnyango</w>
kom oya</w>
kom hl
kang akanani</w>
ka Khomishane</w>
k odaba</w>
k n
k ers</w>
jud ges</w>
izin konzo</w>
izin hlangothi</w>
izim iso</w>
iz aziso</w>
iz ayo</w>
iy ali</w>
isit embu</w>
is ondlo</w>
iqond o</w>
iqinisek ise</w>
iqh ath
iq ale</w>
iph rojekthi</w>
iph ile</w>
iph ethe</w>
ip iliyoni</w>
inter s</w>
int ensive</w>
int ends</w>
inj ured</w>
ingan isa</w>
ing ene</w>
ind ication</w>
increas ingly</w>
incid ental</w>
in ikezwa</w>
in et
inet own</w>
imm un
imiz ila</w>
imith elela</w>
imb ele</w>
ill ustr
ikh anda</w>
ikez elwe</w>
ihl inzeka</w>
igh tly</w>
ig cine</w>
ig c
ig atsha</w>
ig ad
if y</w>
ide as</w>
ide a</w>
ici ary</w>
ib ikho</w>
ib amba</w>
i- Jikelele</w>
i tions</w>
hy dr
hus band</w>
hlangabez ane</w>
hel ped</w>
hamb isanayo</w>
h un
h our</w>
guid ance</w>
gu n</w>
gl ass</w>
form ally</w>
fl ed</w>
fe ature</w>
farm ers</w>
f abr
eziz wakalayo</w>
ezing aphezulu</w>
ezin ingana</w>
ezig cwele</w>
ez akhiweni</w>
ey ebiwe</w>
ey ahlukahlukene</w>
extra ordinary</w>
exemp tion</w>
exclud ing</w>
ex way
ev ele</w>
esiph elele</w>
esikh ala</w>
esig cwele</w>
esid i</w>
es eduze</w>
equip ped</w>
entr en
enter tain
enj abulo</w>
eng ela</w>
end ulela</w>
encour aging</w>
en ikezwa</w>
eminy angweni</w>
emad olobheni</w>
eliph elele</w>
eliph akeme</w>
eli- ntela</w>
el uleki</w>
el o:</w>
el isha</w>
el awula</w>
ej ista</w>
ehl ukana</w>
ehl ukahlukene</w>
eas ily</w>
ePh akeme</w>
eN y
e u
e or
e able</w>
dr iver</w>
docum ent
div or
discrimin atory</w>
discipl inary</w>
des truction</w>
der og
deleg ated</w>
dec lined</w>
de tr
dang erous</w>
d u</w>
d om</w>
cw ala</w>
custom s</w>
curr iculum</w>
cr aft</w>
cos t-
coordin ation</w>
contrav ention</w>
contrac tor</w>
cont ing
consid ers</w>
cons trued</w>
congratul ate</w>
conc ept</w>
con g
compon ent</w>
compl etion</w>
compar ed</w>
colon ial</w>
colleag ue</w>
clos ely</w>
ch ment</w>
ch e
celeb r
by law</w>
br anch
bot t
bit ration</w>
bez we</w>
be au
be aches</w>
bang as
b ung
b omhlaba</w>
b aw
b ar</w>
b ahlang
az anga</w>
aw usha</w>
avail ability</w>
att ach</w>
atsh wa</w>
ath iwe</w>
ash iy
as itela</w>
as ide</w>
ar ise</w>
aqond ise</w>
appro ximately</w>
announ ce</w>
angen ele</w>
ang isi</w>
ang ible</w>
ang elwa</w>
ang ami</w>
and elwe</w>
and ayo</w>
anal y
an ikezwe</w>
amm eli</w>
amend ments</w>
amaj aji</w>
amag umbi</w>
am atshe</w>
al ele</w>
al eki</w>
aku qala</w>
akath aka</w>
akam isa</w>
ais sance</w>
ah ox
ah olo</w>
ah a</w>
aguq uki</w>
ag er
ag asi</w>
ag anda</w>
af idav
adv ised</w>
adop t</w>
adl ula</w>
accred itation</w>
ac ele</w>
abl ing</w>
abas ebenzela</w>
abang u</w>
aband oned</w>
abam pofu</w>
abahl uph
abaf isa</w>
abab eng
ab sent</w>
ab eb
ab atsh
a to</w>
a al</w>
a B
Zimbabwe an</w>
Yuro phu</w>
Y omhlaba</w>
Y e
With in</w>
Win nie</w>
Wild erness</w>
W ed
W athi</w>
V ir
Up on</w>
Um gomo</w>
Ukub amba</w>
Uku thuthukisa</w>
UN G
UL U-
ULU- NAT
U r
U Hulumeni</w>
Tu es
Tsh alwa</w>
Techn ical</w>
TION AL</w>
T ot
T ob
T A</w>
Sy den
Som ali</w>
Siz oqhubeka</w>
Sh ar
Sec ondary</w>
SE RV
SD B</w>
SA C
S w
Rob er
Ret ur
Reg ion</w>
R oyal</w>
R oom</w>
R ichardson</w>
R enn
R SA</w>
R 4
Q ond
Prot ocol</w>
Pr in
P overty</w>
P ay</w>
Or der</w>
OM O</w>
Nor thern</w>
Ngiy abonga</w>
Ng onyaka</w>
Ng ok
N ote</w>
Mus eum</w>
M ore</w>
M ok
M illennium</w>
L eb
L aw</w>
Kub alulekile</w>
KWAZ ULU-NAT
K ler
J ap
J ac
Iz inkonzo</w>
Iz imo</w>
Iz idingo</w>
Isr ayeli</w>
Isib onelo</w>
Is aziso</w>
Inter net</w>
IM ALI</w>
IA E
I E
Hind u</w>
Head s</w>
H ave</w>
H an
For ensic</w>
Fir st</w>
Fac ilit
Exc ept</w>
Emp eleni</w>
Emb assy</w>
E C
D ay</w>
Consum ers</w>
Char ter</w>
C ul
C le
C iti
B atho</w>
Appl ic
Agre ement</w>
Ad v
Abas eshi</w>
AN E</w>
AN A</w>
AB A
A F
A C</w>
5 3</w>
10 3</w>
. 5
, 5
zokw akha</w>
zis etshenziswe</w>
zase Khaya</w>
z ee</w>
yom thengi</w>
yol awulo</w>
yoku c
yiz akhamizi</w>
yib o</w>
yi wona</w>
yi Phalamende</w>
yez ikh
yen qubo</w>
ye S
y izinto</w>
y enhl
y am</w>
y akhiwe</w>
x eka</w>
wh en
weph eshe</w>
weng ane</w>
web e</w>
we Bhodi</w>
wash isa</w>
waq eni</w>
walifikh eshini</w>
wal ense</w>
w elwa</w>
w atshela</w>
w ath
w ale</w>
w akala</w>
vis iting</w>
vill age</w>
vi able</w>
vari able</w>
v ouch
v aries</w>
uy ena</w>
uth azwe</w>
ut ors</w>
ush iswa</w>
us h</w>
uph old</w>
upgrad ed</w>
und ed</w>
umb ule</w>
umb u</w>
um theth
um in
um eni</w>
ulum ane</w>
ul eli</w>
ul ating</w>
ul ate</w>
ukw amukelwa</w>
ukuz a</w>
ukuq apha</w>
ukuq alisa</w>
ukuph azamiseka</w>
ukukh osela</w>
ukub oshwa</w>
uku xazulula</w>
uku chaza</w>
uk etshezi</w>
uk elekile</w>
ug ul
ubul ungiswa</w>
ub lic
u- Inspector</w>
u chaza</w>
u Sihlalo</w>
u G
tro p
trop ical</w>
transpar ency</w>
transl ation</w>
transi tional</w>
transi tion</w>
tomor row</w>
tol erance</w>
tob er</w>
tim e-
ti ci
thetho- sisekelo</w>
ther more</w>
th or
th e-
tel evision</w>
teach er</w>
te en</w>
t ou
t ela</w>
t aku
sy mbol
sy m
surv e
surve ill
surveill ance</w>
succ eed
subsid ies</w>
subs istence</w>
sub si
str ic
stab il
st ole</w>
st ated</w>
st -
sp ent</w>
solid arity</w>
soku shintsha</w>
socio- economic</w>
soci eties</w>
si w
si thi</w>
si j
short age</w>
seek ing</w>
sec ond
se kube</w>
sam i</w>
s isebenze</w>
s ensi
s enkantolo</w>
s ase</w>
s ak
s ac
reserv ed</w>
res olving</w>
reg n
record ing</w>
qu est</w>
qhub ek
q oqo</w>
public ations</w>
prot est</w>
promp tly</w>
prom otes</w>
prof ile</w>
proc eed</w>
pres sion</w>
prac tic
pr eside</w>
policem en</w>
per c
pedes trian</w>
p ath</w>
oz onke</w>
oway eng
ov unyelwe</w>
osh intsh
os el
os ebenzayo</w>
oq eqesho</w>
oph ob
oph ela</w>
oph ath
ong olo</w>
ond ela</w>
on ogada</w>
on isiwe</w>
omish ane</w>
om ubi</w>
om thelela</w>
olu chazwe</w>
ol uqond
ol awula</w>
okw aziswa</w>
okukh ethekile</w>
oku j
ograph y</w>
ograph ic</w>
og unyazwe</w>
odw ake</w>
odl ame</w>
occurr ing</w>
obul iminingi</w>
obtain able</w>
oB ul
o dlela</w>
ny anga</w>
notif ication</w>
non- sex
nokun ikeza</w>
nokukh ula</w>
noku ziphatha</w>
noku shintsha</w>
noku bheka</w>
no phenyo</w>
no g
njeng enhloko</w>
ngokw em
ngokub onisana</w>
ngok omnotho</w>
ngen hl
ngal ezi</w>
ng umphakeli</w>
ng ow
ng ifisa</w>
ng eg
ng ecala</w>
ng aye</w>
ng ase
nezing xoxo</w>
nezin selelo</w>
nezin kampani</w>
nezin hlobo</w>
nezin dlu</w>
nez izathu</w>
nez iph
nez ilimi</w>
nez e</w>
nen cwadi</w>
necess arily</w>
nation als</w>
nat ur
nab e-
na tively</w>
n osuku</w>
n or</w>
n ings</w>
n esig
n aso</w>
mov ed</w>
min erals</w>
mil est
met eor
med ic
math ematics</w>
man ager</w>
maint ained</w>
mach inery</w>
m shwana</w>
m igomo</w>
m ere</w>
m azwe</w>
lw abo</w>
lokw akha</w>
lokuph athwa</w>
log s</w>
lod ge</w>
lo ading</w>
lingu istic</w>
lim a</w>
lika Somlomo</w>
li w
les andulela</w>
legitim ate</w>
leg e</w>
le qembu</w>
le aving</w>
land mines</w>
lal owo</w>
l ying</w>
l ungelo</w>
l or</w>
l ist
l endawo</w>
l azo</w>
l aid</w>
kwezin sizakalo</w>
kwez i
kwez enhlalo</w>
kwes inqumo</w>
kwes ilinganiso</w>
kweng ane</w>
kwe Bhodi</w>
kwamas evisi</w>
kwam ukelwa</w>
kwam abhizinisi</w>
kwal awo</w>
kw ey
kw egunya</w>
kuz ov
kuz okwenziwa</w>
kuy aqhubeka</w>
kuth athwe</w>
kus en
kung enziwa</w>
kung ase</w>
kum be</w>
kulung ele</w>
kul awo</w>
kukh ishwe</w>
ku- Som
ku-Som qulu</w>
ku gc
ku :</w>
ku -</w>
kom gwaqo</w>
koku setshenziswa</w>
kn ife</w>
k akh
k able</w>
izin selelo</w>
izin kundla</w>
izin komba</w>
izim akethe</w>
iz ing</w>
iz ifunda</w>
iv umel
iv ela</w>
itif iketi</w>
it oli</w>
it a</w>
ist ant</w>
isihl anu</w>
is ifunda</w>
is ibh
ire jista</w>
iqh ude</w>
iph umelele</w>
inter nationally</w>
int wa</w>
int ink
intink yi</w>
inst ances</w>
inst ance</w>
inj uries</w>
initi ated</w>
inisek isiwe</w>
ingen iso</w>
ingcind ezi</w>
ing ekho</w>
ing athatha</w>
ing as
infl ation</w>
infec tions</w>
ind we</w>
ind ez
inc en
in tim
in ser
in put</w>
in iswa</w>
in ike</w>
in ali</w>
impor ting</w>
imb er
imber ley</w>
imb angela</w>
im movable</w>
im eme</w>
ik imba</w>
ik elwa</w>
ik elela</w>
ih ibe</w>
igad ier</w>
ig ration</w>
if akwe</w>
id olobha</w>
ich aze</w>
ic ongo</w>
ic a</w>
ibon akala</w>
ibh ekwe</w>
iN hloko</w>
i- mission</w>
i hamba</w>
hum ans</w>
highl ighted</w>
hear ings</w>
he ad
hal wa</w>
h uny
h it</w>
h ashi</w>
gr az
g ot
g ates</w>
fu zo</w>
franchis or</w>
form ing</w>
for d</w>
fl u
farm ing</w>
f resh</w>
eziy ingozi</w>
ezis emqoka</w>
ezis ebenzayo</w>
ezing ama-
ezid inga</w>
ezib haliwe</w>
ez ombusazwe</w>
ez obuchwepheshe</w>
extr em
extr a</w>
exerc ises</w>
excep tional</w>
every one</w>
ev i</w>
etshenz isweni</w>
et zee</w>
establish es</w>
est y</w>
ess or</w>
esit olo</w>
esil andelayo</w>
esif ungelwe</w>
esi yiminyaka</w>
esi Kh
es ichazwe</w>
equival ent</w>
eny isisa</w>
eny ezelwe</w>
ensi ons</w>
ens imbi</w>
enk onzo</w>
eng amashumi</w>
en th
en eminyaka</w>
emb oz
emb h
em o</w>
em ncintis
em ini</w>
em be</w>
elith olakala</w>
eling okomthetho</w>
el ane</w>
ekh uluma</w>
eg unyazwe</w>
eder ations</w>
econom ically</w>
ebh okisini</w>
ebh ishi</w>
ebekh ulu</w>
eb onakala</w>
e- based</w>
e qhubekayo</w>
e qh
e ply</w>
e phakathi</w>
discus sion</w>
di oxide</w>
di alogue</w>
des crib
depart mental</w>
deliv er
damag ed</w>
cwalis iwe</w>
cul aza</w>
crimin als</w>
cre ates</w>
correc tly</w>
conv ey
contain ers</w>
consul ting</w>
congratul ated</w>
concep ts</w>
complet ely</w>
comb ination</w>
collec tively</w>
co-oper atives</w>
co-oper ative</w>
clos er</w>
class rooms</w>
cl arif
cl aimed</w>
ch ungechunge</w>
ce ase
cease fire</w>
c ards</w>
buy ekezwa</w>
bus y</w>
bus uku</w>
broad cas
bro w
br id
bo xes</w>
bloc ks</w>
believ es</w>
be aring</w>
be ar</w>
b arr
az iwayo</w>
az anyiswa</w>
ay ith
aw a
av a</w>
author ises</w>
au l</w>
atsh iswa</w>
ath y</w>
ath and
ast es</w>
ast -
associ ations</w>
aspec t</w>
as yl
as m
as h</w>
arm ac
arg o</w>
ar ticle</w>
ar re
aq oke</w>
appreh ended</w>
aphak ele</w>
aph end
answ ered</w>
and h
an am
amb ela</w>
amb ekayo</w>
amat ekisi</w>
amar andi</w>
amabh asi</w>
am iswa</w>
am ily</w>
al edi</w>
aku de</w>
aid oo</w>
ahlinz eki</w>
ahl oniphekile</w>
ah ora</w>
affor d</w>
afak ele</w>
ae ological</w>
addres ses</w>
ad jud
ad j
acquir e</w>
accept ance</w>
acceler ate</w>
abaz imele</w>
abaseb ancane</w>
ab used</w>
ab ekwa</w>
ab adlali</w>
a tically</w>
a fuf
a ar</w>
Z ib
Y O</w>
With out</w>
W outer</w>
Uy s</w>
Uku xhumana</w>
Uku thuthukiswa</w>
Uku ng
UR E</w>
UM A</w>
U hlobo</w>
U hl
U cwaningo</w>
U bhal
U DF</w>
Tues day</w>
Tr ansi
Th us</w>
T er
T enders</w>
T M
Syden ham</w>
St atis
Sc ot
SERV IC
S qu
Rus sia</w>
Ren aissance</w>
Reg ulations</w>
R w
Q aph
Port ug
Par ty</w>
P inetown</w>
P O
P A</w>
Off ices</w>
Oc tober</w>
O B
Nov ember</w>
Ng c
Nd ebele</w>
Nan otechnology</w>
N ation</w>
N aidoo</w>
Mo on</w>
Mitch ells</w>
Mad iba</w>
MAN AG
M p
M ountain</w>
M il
M ashi</w>
M ari
M ali</w>
M akh
M K</w>
Le on
L ot
L et
L er
L ena</w>
Ke ep</w>
Kar oo</w>
K udingeka</w>
K intinkyi</w>
K Z
Joh n</w>
Jo e</w>
Iz imali</w>
Ital y</w>
Isi Khungo</w>
Im izamo</w>
Im iphumela</w>
IN kantolo</w>
I sig
I Y
I N</w>
H ot
H O
Govern ance</w>
G ood</w>
F UN
Em uva</w>
Em bank
E g
Democ ratic</w>
Del ft</w>
DE A&
DEA& T</w>
D S
D I</w>
Comp ensation</w>
Commun ication</w>
Co etzee</w>
Clear ly</w>
C rescent</w>
C red
C ebekhulu</w>
C amp
Build ing</w>
Broad casting</w>
Braz il</w>
Br igadier</w>
Bot swana</w>
Bl ue</w>
Bi odiversity</w>
B ILL</w>
Austr ia</w>
At l
Ar gent
Ar e</w>
Applic ants</w>
Ap pe
Aman ye</w>
Al so</w>
Ab afundi</w>
6 00</w>
5 29</w>
2005 /0
2005/0 6</w>
16 6</w>
03 1</w>
0 m</w>
0 9
. 87
. 2</w>
, 9
zokuth utha</w>
zoku hlola</w>
zoku funda</w>
zoku ba</w>
zin hlelo</w>
z aso</w>
z ase-Afrika</w>
z akhiwo</w>
yoku sebenzisa</w>
yoku faka</w>
yob usakazi</w>
y osizo</w>
y oni</w>
y ezindaba</w>
y amathenda</w>
y akw
y :</w>
xh ash
xen ophob
wr ite</w>
work shops</w>
woku gcina</w>
wid es
wides pread</w>
what ever</w>
wh ilst</w>
wh e
wez igidi</w>
wez eZ
wez aseKhaya</w>
wes ilisa</w>
wel com
welcom ed</w>
web eni</w>
we hl
we N
we M
wav uma</w>
warran ty</w>
wam aminerali</w>
wal k</w>
wab ona</w>
w in</w>
w amasevisi</w>
w age</w>
valu ed</w>
vac ancies</w>
v ibr
vibr ant</w>
v ess
uz uma</w>
uz ovela</w>
uz okwenza</w>
uz obe</w>
uz ela</w>
utsh ulwa</w>
util ise</w>
ush umb
urs day</w>
ur ged</w>
uq u</w>
uny elel
uny azo</w>
uny aze</w>
uny ana</w>
ung as
ung ab
un zima</w>
un prec
unprec ed
unpreced ented</w>
un esibopho</w>
umv undla</w>
umkh awulo</w>
umbh alo</w>
umb uli</w>
um endo</w>
um culo</w>
ul t
ukw andisa</w>
ukuv ota</w>
ukush ona</w>
ukuph endula</w>
ukunt uleka</w>
ukun c
ukun akekelwa</w>
ukuhl asela</w>
ukuf ika</w>
ukubuy iswa</w>
uku thuthuka</w>
uku dl
ukh ombisa</w>
uk isa</w>
uk ayo</w>
ugq ozi</w>
ubh u</w>
ub unjalo</w>
u fund
u Somlomo</w>
twent y</w>
tre at</w>
tr ading</w>
ti ful</w>
ti ble</w>
thre e-
that -</w>
th ina</w>
th ers</w>
termin ation</w>
t our</w>
t ested</w>
t a-
surv iv
sur name</w>
sur face</w>
su res</w>
stud ent</w>
stric tly</w>
str ik
str ict</w>
stor age</w>
stop ped</w>
station ed</w>
st ance</w>
speci alised</w>
sol id</w>
sokw akha</w>
soku ngenisa</w>
soku hlola</w>
sn a</w>
siz wa</w>
siv ely</w>
sith athwe</w>
sis ter</w>
sikh ungo</w>
sikh ombisa</w>
sibh eka</w>
sh ayeli</w>
ser iously</w>
sem inyaka</w>
sel y</w>
sel ungelo</w>
search ed</w>
se emed</w>
scre en</w>
s onto</w>
s ona</w>
s oc
s laug
s ish
s esikhundleni</w>
s esibili</w>
s ave</w>
s akazo</w>
ro us</w>
ro t
rid or</w>
restor ation</w>
requ ester</w>
remar kable</w>
rel y</w>
rel ative</w>
rel ates</w>
ref ers</w>
re cip
ra ising</w>
ra ise</w>
r an</w>
qond iswa</w>
qond iso</w>
q unywe</w>
pursu e</w>
prosecu tion</w>
prol if
prolif eration</w>
produc ing</w>
pro jekthi</w>
prev enting</w>
present ing</w>
pres sed</w>
practition er</w>
pr eli</w>
possib ilities</w>
pos ted</w>
port ation</w>
pol l
poll ut
point ed</w>
piec e</w>
oz ith
ow ing</w>
ow enze</w>
over crow
oth ula</w>
osi hlalo</w>
os ezingeni</w>
oq inisa</w>
oph awu</w>
oper s</w>
oper atives</w>
oper ated</w>
onz wa</w>
ony ane</w>
ond elene</w>
on k
omb ala</w>
om n
om khandlu</w>
om eni</w>
olu fanayo</w>
ol oni</w>
ol l
okwaku hl
okw ethula</w>
okush isa</w>
okush a</w>
okung cebeleka</w>
okun cane</w>
okub ambisana</w>
oku solwa</w>
oku sho</w>
od ay
obvi ously</w>
obh eka</w>
ob st
o tic</w>
o dla</w>
ny sna</w>
notif ied</w>
nor th</w>
nokw ehlisa</w>
nokuth ula</w>
nokukh ishwa</w>
noku vikela</w>
noku hlinzeka</w>
noku gcinwa</w>
nob uphofu</w>
njengen to</w>
njeng okub
ngom unye</w>
ngokuzith andela</w>
ngoku d
nges icelo</w>
ngem oto</w>
ngem ibuzo</w>
ngal olo</w>
ng umsebenzi</w>
ng odaba</w>
ng ithi</w>
ng ifuna</w>
ng ezimp
ng ev
ng az
ng amasevisi</w>
nezin suku</w>
newsp apers</w>
new s
nes u</w>
nec ala</w>
nas ezindaweni</w>
nam afomu</w>
n zima</w>
n onke</w>
n esifo</w>
n esibopho</w>
n enye</w>
n enyanga</w>
n eb
mus ic</w>
mus eum</w>
min ority</w>
meth od</w>
mer ely</w>
measur able</w>
me at</w>
mas ter</w>
mak ers</w>
mac ro
m aps</w>
loku m
loku hlala</w>
lo an</w>
link ages</w>
ling ase</w>
lik azwelonke</w>
li p
li e</w>
leng th</w>
lead s</w>
law fully</w>
lab aphethe</w>
l inye</w>
kwezin qumo</w>
kwez oku
kwez ifo</w>
kwez emfundo</w>
kwes imemezelo</w>
kwem igomo</w>
kwal elo</w>
kw esikhashana</w>
kw esig
kuq ale</w>
kuph endula</w>
kung ak
kum akh
kulum ompikiswano</w>
kul el
kuf akwa</w>
koku s
koku m
kh i</w>
kh etho</w>
k y</w>
k illing</w>
k illed</w>
k awonkewonke</w>
izith elo</w>
izint ombi</w>
izing xabano</w>
izing cingo</w>
izin hl
iz iv
iz itatimende</w>
iz ange</w>
iw aranti</w>
iv ers
it olo</w>
isith embiso</w>
isig ungu</w>
isig q
isic i</w>
is wanga</w>
is on</w>
iqond iswe</w>
iph athe</w>
ip s</w>
inv olve</w>
intro duce</w>
inter view</w>
int ombazane</w>
int ent</w>
instrum ent</w>
inst ead</w>
initi ate</w>
inher ent</w>
ing isi</w>
in selele</w>
in ity</w>
in ika</w>
in hlanganisela</w>
in equality</w>
in appropriate</w>
impl ied</w>
imp endulo</w>
imp awu</w>
imitheth onqubo</w>
imikh umbi</w>
im iyalelo</w>
im fuyo</w>
im eyili</w>
im akethe</w>
ili ans</w>
il es</w>
il ek
ikwel et
ikij ela</w>
ig ned</w>
if ying</w>
if ake</w>
id ivayisi</w>
id er</w>
id ent</w>
ic it</w>
iboph ezelo</w>
ib ili</w>
i- franchise</w>
i- close</w>
i- Afrika</w>
i kuphi</w>
i hambisane</w>
i et</w>
hol istic</w>
hol iday</w>
ho t</w>
hlang atshez
hlan z
hl onishwa</w>
heav en</w>
he art
haq wa</w>
happ ening</w>
h ana</w>
grow n</w>
gr a
gq ekezwa</w>
geograph ic</w>
gener ated</w>
ge ant</w>
g ear
g ate</w>
g ain</w>
g age</w>
fund i</w>
ful ness</w>
fu dum
for th
for -</w>
flo oding</w>
fi res</w>
f et
f arms</w>
eziv umel
eziv ikelekile</w>
ezith intekayo</w>
ezit eshini</w>
ezin kinga</w>
ezin hlelo</w>
ezimb onini</w>
ezimb i</w>
ezim bewu</w>
ezim alini</w>
ezil imi</w>
ezibh ekene</w>
ezek ise</w>
ez okuphepha</w>
ez epolitiki</w>
ez ab
ey aziwa</w>
ey akhiwe</w>
explo ited</w>
explo itation</w>
expl ored</w>
expl an
expir ed</w>
exper ts</w>
exemp t</w>
exc eeds</w>
ex posed</w>
every body</w>
ev umela</w>
ev ening</w>
ethemb isa</w>
esing eqile</w>
esib izwa</w>
esi phakathi</w>
es ula</w>
es sive</w>
es ez
es em
es ebenzisa</w>
eph uma</w>
eph alamende</w>
ep tive</w>
ens iza</w>
engen iso</w>
engany elwe</w>
eng ase</w>
eng ab
endl e</w>
end or
end aba</w>
en ayo</w>
employ e
emncintis waneni</w>
emhl abathini</w>
em ezele</w>
el ezi</w>
el eleni</w>
el elayo</w>
ekwenz iweni</w>
ekuthuthuk isweni</w>
ekuph athweni</w>
eku f
ek iswa</w>
ej enti</w>
ej ensi</w>
ed elela</w>
ec st
ebu dlel
ebudlel waneni</w>
e hlangene</w>
e Khabhinethi</w>
driv ers</w>
doc tor</w>
dis cour
dis connected</w>
dis abilities</w>
determin ing</w>
determin es</w>
dest ination</w>
demonstr ate</w>
dem arc
dem ands</w>
dec ades</w>
de eply</w>
d im
cur ement</w>
crimin ation</w>
counc illors</w>
convic tion</w>
contribut ing</w>
contr ary</w>
continu ously</w>
consist ency</w>
conclus ion</w>
competi tiveness</w>
comm only</w>
comm emor
co-ordin ated</w>
co m</w>
co her
clin ic</w>
cli ent</w>
cl aim
civ ilians</w>
ci th
child 's</w>
ch ance</w>
cell ular</w>
cap ability</w>
cad res</w>
c em
c eases</w>
bur den</w>
bul awa</w>
branch es</w>
blo od</w>
bhek elela</w>
bh izinisi</w>
bez empilo</w>
baz ovela</w>
bas olwa</w>
b y-
b s</w>
b ing</w>
b inding</w>
b esiKhungo</w>
b esh
b aku
az ith
ayis ik
ay iph
av unyel
attor ney</w>
athuthuk ile</w>
asyl um</w>
ass emb
ash iya</w>
ash elwe</w>
ase kho</w>
as pir
ar ts</w>
ar :</w>
appoint ments</w>
aph umelela</w>
aph elele</w>
ap par
ap ayipi</w>
anz ekile</w>
anz a</w>
ang azi</w>
ang ala</w>
andakany ekayo</w>
an ikeza</w>
amb uzane</w>
amb iswano</w>
amaph uzu</w>
aman y
amak omidi</w>
ama futha</w>
am ph
am el
alis ayo</w>
al iswe</w>
al esh
al ert</w>
aku k
ak azela</w>
ak ale</w>
aj aji</w>
ais on</w>
air ports</w>
air e</w>
ahlang aniswa</w>
agre es</w>
agr afu</w>
agal ombili</w>
ag cwele</w>
ag cwaliswe</w>
afidav ithi</w>
affirm ation</w>
afak elwa</w>
advert ised</w>
adv anced</w>
ad ult</w>
ad olobheni</w>
ad d</w>
acknowled ged</w>
ack ers</w>
ach azwe</w>
accord ingly</w>
ac isa</w>
abuy iselwa</w>
abh eka</w>
abash ayeli</w>
abas ebenzisa</w>
abam hlophe</w>
ab oMnyango</w>
a Man
a KwaZulu-Natali</w>
Y ing
Y et</w>
Wed nes
W o
Viol ence</w>
Vic ti
V arious</w>
Um g
Uku z
U suku</w>
U sizo</w>
Tsh wane</w>
Tre at
Th ursday</w>
Th eth
Th emba</w>
T al
T E</w>
Su preme</w>
Som alia</w>
Sm ith</w>
Siy azi</w>
Sh ould</w>
Sh ayina</w>
Ser geant</w>
Secret ariat</w>
Sec tions</w>
S wart
S ol
Retur n</w>
Resour ce</w>
Rec ord</w>
R ol
R A</w>
Prot ector</w>
Pro curement</w>
Pr ior</w>
Ph iko</w>
Pe tr
Parliam entary</w>
Pak istan</w>
Pa had</w>
PAR LI
PARLI AM
P op
P OR
Okw amanje</w>
Offic ial</w>
Oc cup
Ob ama</w>
O h</w>
O KH
Ng ithanda</w>
N obhala</w>
N e
Minis try</w>
M oodley</w>
M ission</w>
M ic
M arr
M P
M A
Lou is</w>
Libr ary</w>
Les otho</w>
L u
L a</w>
L E
Kh wama</w>
J OC</w>
Izin dleko</w>
In to</w>
In ingizimu</w>
Imp ela</w>
Im m
Im b
Il ayisensi</w>
IS O</w>
IL E</w>
IF P</w>
IAE A</w>
G ods</w>
Fur thermore</w>
Fr iday</w>
FN B</w>
F ax
F amily</w>
Embank ment</w>
Em pow
E min
Doc tor</w>
D ue</w>
Cor por
Conf ederations</w>
Complain ts</w>
Categ ory</w>
CO UN
C urr
C op
C ity's</w>
C CMA</w>
B ro
B E
Amaph epha</w>
Amakh ophi</w>
Am azinga</w>
Am a
Afric as</w>
Addi tional</w>
Ab enzi</w>
Ab aphathi</w>
AT E</w>
AM AG
A :</w>
7 7</w>
6 4</w>
6 -
5- 14</w>
198 8</w>
10 6</w>
. 4</w>
zokul ungisa</w>
zoku m
zith athwe</w>
zis etshenziswa</w>
zing athatha</w>
zikh okh
zif aka</w>
zez emidlalo</w>
z iw
z indlela</w>
z ezindiza</w>
z entuthuko</w>
z ekh
z ama
yom ibili</w>
yoku siza</w>
yob haliso</w>
yiz we</w>
yg er
yger berg</w>
yez enhlalakahle</w>
yez empilo</w>
yen kampani</w>
yal ezi</w>
yal eyo</w>
yab a
y ikomidi</w>
y ezinga</w>
y eg
y angaphandle</w>
xush un
xushun xush
xushunxush u</w>
xox a</w>
xiv izo</w>
xeny aneni</w>
world -
wor thy</w>
wom abili</w>
wokukh uthaza</w>
woku v
wez ezimboni</w>
wetsh iwe</w>
wel ana</w>
way i</w>
way a</w>
war ned</w>
wal king</w>
wab onga</w>
wa it</w>
w esikhalazo</w>
w esifunda</w>
w amanzi</w>
vo ice</w>
viol ations</w>
vig or
veter inarian</w>
v olum
v it
v eld</w>
util ised</w>
uth wane</w>
ush ed</w>
us weni</w>
us i
ur ge</w>
uq ambi</w>
uph uka</w>
unyelel iswa</w>
uni form</w>
ung isiwe</w>
ung akwazi</w>
un just</w>
umph athi</w>
umm eleli</w>
umb ana</w>
um ulweni</w>
um qondisi</w>
um ini</w>
um holo</w>
um fak
um ehluko</w>
ul ts</w>
ul g
ul egi</w>
ukw ethembeka</w>
ukw eni</w>
ukw azisa</w>
ukuq ashwa</w>
ukuph awula</w>
ukungab i</w>
ukun cintisana</w>
ukum iswa</w>
ukum ezeka</w>
ukuhl onishwa</w>
ukud ilivwa</w>
ukud alula</w>
ukub opha</w>
ukub andakanyeka</w>
uku qh
uku funa</w>
uku ch
ug more</w>
ub umbano</w>
ub isi</w>
ub anzi</w>
uM qondisi</w>
uM b
u Ananse</w>
tur ers</w>
tu re
tron ically</w>
tr adi
town ship</w>
toil et</w>
tiv al</w>
tim e
threat ening</w>
th- South</w>
techn ological</w>
tarif f</w>
t ness</w>
summ er</w>
sub ur
sub jected</w>
strong ly</w>
stamp ed</w>
st ood</w>
spr uit</w>
speci alist</w>
spe ech</w>
som thengi</w>
sokukh ishwa</w>
sokub ika</w>
so Mkhandlu</w>
siz o
sin cer
sil age</w>
sig ning</w>
sid es</w>
sibh eke</w>
si t</w>
si r</w>
si khona</w>
si h
short com
shortcom ings</w>
shor e</w>
shel ter</w>
sev er
sesi tifikedi</w>
sel ect</w>
seb eza</w>
se ems</w>
se at</w>
scour ge</w>
scho ol
s ud
s pl
s lo
s ichaza</w>
s ed
s burg</w>
s amanje</w>
rov insi</w>
rol e-
ro se</w>
reti r
retir ement</w>
restor e</w>
restaur ant</w>
respond ed</w>
reserv es</w>
res istance</w>
res ear
refl ects</w>
refl ecting</w>
ref used</w>
recru it
re ward</w>
re tr
re alised</w>
ra w</w>
r and
r ail
qinisek iseni</w>
q inamba</w>
prov ed</w>
prom ised</w>
pro portion</w>
pro bab
priv acy</w>
pre paid</w>
pre domin
pol it
pl eas
pip e</w>
pil ot</w>
phakany iswe</w>
ph ambilini</w>
penal ties</w>
pati ents</w>
pat rol</w>
pass word</w>
p aka</w>
p ace</w>
oz amb
oy is
oway ey
ow aziwa</w>
ow andulela</w>
ould nt</w>
osos ayense</w>
osay izi</w>
os u
os s</w>
os ovo</w>
os ini</w>
os ep
osep h</w>
os ebenzela</w>
orient ated</w>
organis ms</w>
oq we</w>
oq okwe</w>
oq iwe</w>
ony akeni</w>
on kontileka</w>
on ika</w>
on ic</w>
on ia</w>
on esi
omb andlela</w>
om isa</w>
om an</w>
om akhelwane</w>
olub alulekile</w>
olak alayo</w>
ol weni</w>
ol oba</w>
okw esibili</w>
okuq ukethwe</w>
okung enziwa</w>
okuhl obene</w>
okoz o</w>
okoph elwe</w>
okh ela</w>
ok ing</w>
ohl wa</w>
ohl aka</w>
off -
of isa</w>
od olobha</w>
obuchweph esh
obuchwephesh e:</w>
obu chule</w>
obst ac
ob uth
ob uq
ob ukhulu</w>
ob serve</w>
o /
nokw eseka</w>
nokw enzeka</w>
noku sebenzisana</w>
no hl
njeng okung
njeng esi
ngom hlaka</w>
ngokw ezimali</w>
ngokw ezezimali</w>
ngokum elene</w>
ngokuling anayo</w>
ngokul ahlekelwa</w>
ngokub eka</w>
ngam azwi</w>
ngam acala</w>
ngam a
ng os
ng is
ng iph
ng ani</w>
nezith ombe</w>
nezikh athi</w>
nez we</w>
nez ilwane</w>
new s</w>
neth uba</w>
neng qondo</w>
nen hlangano</w>
nem ibono</w>
neg lig
ne- Afrika</w>
natur alisation</w>
namad okhumende</w>
nama Sekela</w>
nam ed</w>
nam alungelo</w>
nam abhizinisi</w>
nam a</w>
nal olu</w>
nab ahl
n obuchwepheshe</w>
n ight
n esith
n ase</w>
n ane</w>
mot or
mob ile</w>
mis leading</w>
mess ages</w>
meas ured</w>
mas s</w>
man aging</w>
main stream</w>
ma p</w>
m khankaso</w>
lw ezinto</w>
loku bhalisa</w>
lo of</w>
lit res</w>
liq oke</w>
lim aza</w>
lika Sihlalo</w>
lear nt</w>
le- SARS</w>
le Nkantolo</w>
le Khabin
lay ezo</w>
l uth
l ube</w>
kwi- akhawunti</w>
kwezing xenye</w>
kwezikh ungo</w>
kwez olimo</w>
kwez empilo</w>
kwez akhiwo</w>
kwen qubomgomo</w>
kwam abh
kwal olu</w>
kwaku y
kwaku w
kwab afundi</w>
kw enhl
kw eS
kw aziswa</w>
kuz omele</w>
kuz ol
kuy u</w>
kuv ot
kus ona</w>
kun azo</w>
kum nikazi</w>
kum iswe</w>
kum a
kul omnyaka</w>
kul olo</w>
kuhl ongozwe</w>
kug cwaliswe</w>
kuM qulu</w>
ku xox
ku se
ku qhutsh
ku hambisane</w>
ku hambisana</w>
ku buy
ku Hulumeni</w>
koku c
koM phakathi</w>
ke eping</w>
ka- 2005</w>
k og
k l</w>
k inds</w>
k ic
k eys</w>
k ade</w>
jud iciary</w>
jo ined</w>
je well
j i</w>
izing ozi</w>
izin simbi</w>
izin komo</w>
iz iq
iz ila</w>
iz eni</w>
iti me</w>
it ary</w>
isikh ashana</w>
isi Fundazwe</w>
ish olo</w>
is ite</w>
is isi</w>
iph uzu</w>
iph utha</w>
iph o</w>
ip p
iny umb
inv as
intern ally</w>
intermedi ary</w>
inter rup
inter im</w>
ins angu</w>
initi ating</w>
ing ton</w>
ing id
ing eki</w>
ing aba</w>
ing ab
ind odana</w>
inclus ive</w>
in y</w>
in selelo</w>
in equ
improv ements</w>
imparti al</w>
imb uk
imb o</w>
im possible</w>
im my</w>
im iklomelo</w>
im iklamo</w>
ilek en</w>
iland ele</w>
il w
il okhu</w>
il imu</w>
il azi</w>
ikh iphe</w>
ikh andlu</w>
ij ima</w>
ij aji</w>
ihl aba</w>
ig nor
ig ciwane</w>
if ula</w>
if ting</w>
id en</w>
ich az
ibu tions</w>
ibhek ane</w>
ibh odi</w>
ib isholo</w>
ib ambe</w>
i hambisana</w>
i er
i 's</w>
hon oured</w>
hlinz eki</w>
her self</w>
hel ps</w>
hel ping</w>
happ iness</w>
haj ethi</w>
ha el</w>
h t
guq uka</w>
guaran tee</w>
grad uate</w>
glob alisation</w>
gath ered</w>
fund ed</w>
fron tier</w>
flow s</w>
fil es</w>
fan elo</w>
fac es</w>
fac ed</w>
f iv
f ighting</w>
f aster</w>
eziy isikhombisa</w>
ezingu- 14</w>
ezing aphezu</w>
ezing aba</w>
ez ij
ez emvelo</w>
ez emfundo</w>
ez akhiwe</w>
ey isisekelo</w>
ey er</w>
ey anele</w>
ey ahlukene</w>
extrem ely</w>
expor ted</w>
expl osives</w>
expl ain</w>
experi ences</w>
expec tations</w>
exec ut
exclud ed</w>
ex ports</w>
ex ac
ex -
ether lands</w>
ether iyali</w>
ethemb iso</w>
eth uthuk
estim ated</w>
est ock</w>
esinq unyiwe</w>
esikh umba</w>
esi thi</w>
esh wa</w>
esab ela</w>
es person</w>
es eduzane</w>
es eb
err y</w>
eq inisekisiwe</w>
eq inisekisa</w>
environ ments</w>
entertain ment</w>
ent 's</w>
eng agement</w>
eng aba</w>
endeav our</w>
end ebe</w>
end -
en- suite</w>
en u</w>
en cwadini</w>
emz ini</w>
emas ontweni</w>
emal ini</w>
em nyangweni</w>
em iswe</w>
em c
em af
em ac
elis eka</w>
elif anayo</w>
elib alulekile</w>
elec tronically</w>
el uleka</w>
el ih
el ibon
ekw ehl
ekus etshenzisweni</w>
ekul weni</w>
eku xazul
eku ng
ek ezela</w>
ej istreshini</w>
egu ards</w>
eg c
effici ently</w>
edl ac</w>
ed inga</w>
ed ilobheni</w>
ecos ystem</w>
eZ ulwini</w>
e- Afrikha</w>
e tr
dre am</w>
doc tors</w>
doc ket</w>
dissem ination</w>
dis mis
diam onds</w>
devel opers</w>
detain ee</w>
destro y</w>
dem ol
de adl
curr ence</w>
cru cial</w>
crip ts</w>
cover age</w>
cor e</w>
coordin ating</w>
cooper ative</w>
conven ience</w>
contr ibuted</w>
contin ents</w>
contin ental</w>
consult ants</w>
const antly</w>
con j
con currence</w>
commenc ing</w>
com r
co al</w>
cli ents</w>
clean ing</w>
ciph ise</w>
ciph a</w>
chequ e</w>
ch ase</w>
certain ly</w>
cat ering</w>
cat ch</w>
canc el</w>
c overs</w>
c ola</w>
c ester</w>
bur g
bud edengu</w>
boku ba</w>
bez ifundazwe</w>
beg un</w>
beau tiful</w>
basebenz e</w>
baf ake</w>
b id</w>
b as</w>
b amazwe</w>
b amaqembu</w>
b alo</w>
ay iya</w>
ay iv
ay elwa</w>
aw uliswa</w>
av ume</w>
aud itor</w>
att acked</w>
athuthuk iswa</w>
athuthuk i</w>
athokoz a</w>
at or
at ma</w>
at ekisi</w>
at able</w>
ash isa</w>
as sign</w>
as ikh
as etshenziswe</w>
as ayine</w>
as athuthuka</w>
arre ars</w>
aqond ene</w>
aqh uba</w>
ap olog
anz ana</w>
anti ties</w>
angaph ezu</w>
ang qondo</w>
ang isiwe</w>
and ile</w>
an xusa</w>
an th
an ning</w>
an elisa</w>
an -
amas ango</w>
amal ele</w>
amabh okisi</w>
am hlophe</w>
am elwe</w>
allev iation</w>
alesh ewe</w>
al ization</w>
al isana</w>
al ethe</w>
al awulwa</w>
al aw
akw enzeka</w>
akuz ange</w>
aku d
ahamb isane</w>
ag x
ag unyaziwe</w>
afford able</w>
aff ects</w>
af iki</w>
af ike</w>
ad ingi</w>
ad ingekayo</w>
accommod ate</w>
abh ekene</w>
abas ebenzisi</w>
abang ani</w>
abal imi</w>
abal azwe</w>
abal andeli</w>
abaf ana</w>
abab ambi</w>
ab ov
ab or
ab ophe</w>
ab ala</w>
a uth
a kum
a es
Y omphakathi</w>
Y oku
X hos
Wor cester</w>
Wil liam
W S</w>
V an</w>
V A</w>
Uph iko</w>
Ukw enziwa</w>
Ukw engeza</w>
Ubhal iso</w>
UR P</w>
U th
U hla</w>
Th ir
THETH O</w>
T ogether</w>
T anz
T U
T S</w>
Ste ve</w>
St ats</w>
Sept ember</w>
Sec tor</w>
Sch o
Sat ur
SAN DF</w>
S ulumane</w>
S oci
S ifuna</w>
S ebenzisa</w>
Rw anda</w>
Rober ts</w>
Ro od
Res erv
R 7
Qond isi</w>
Qaph ela:</w>
Pro secu
Pro f
Pot gi
Pi er
Ph ini</w>
PS L</w>
P res
Olymp i
O kokuqala</w>
O hl
O AU</w>
Not e:</w>
Ngoku ya</w>
Ng ifisa</w>
Ng enkathi</w>
N elson</w>
N edlac</w>
Mus lim</w>
Mol apo</w>
Mer we</w>
Maint enance</w>
Magistr ates</w>
M thethosivivinywa</w>
M eth
M ath
Lic ence</w>
Leon ard</w>
Lead ership</w>
L ad
Kung enzeka</w>
Kh o
KZ N</w>
K uc
K imberley</w>
K galema</w>
K al
Joh annes</w>
J immy</w>
Izin hlangano</w>
Iz ivumelwano</w>
Iz ithunywa</w>
Iz impahla</w>
Ith imba</w>
Is abelo</w>
Iran ian</w>
Intell ectual</w>
In k
Im ihlangano</w>
Iden tity</w>
IS A</w>
Ham as</w>
Gu id
Gr ade</w>
G ender</w>
G andh
Form er</w>
F our</w>
F es
F ax</w>
F al
F OR</w>
Euro pe</w>
Employ ers</w>
Eminy e:</w>
Emin ye</w>
EL E
Docum ent</w>
D il
D P</w>
D NA</w>
Cour ts</w>
Cor rec
Con struc
Ch ild</w>
Cam er
C ross</w>
C ond
C ash
C an</w>
C D</w>
C B
Bul ungiswa</w>
Brit ain</w>
Bar ade
B iko</w>
B an
B ab
Austr alia</w>
Ar m
Any one</w>
Ann an</w>
Am azwe</w>
Ac cel
Ac adem
Ab bas</w>
Ab aph
AMEND E</w>
AM AN
AL AMENDE</w>
AG E</w>
A ug
A rea</w>
7 8
4 8
2005/ 2006</w>
196 4</w>
. 0
zoku sh
zoku s
zoku lawula</w>
zoku gcina</w>
zoku dla</w>
zing ak
zin suku</w>
zi hambisane</w>
zezi Funda</w>
zase khaya</w>
z olimi</w>
z ok
z esikhathi</w>
z empilo</w>
z ang
z amacala</w>
z am
your self</w>
yoku xhasa</w>
yoku hamba</w>
yo Bulungiswa</w>
yimp umelelo</w>
yil ungelo</w>
yil eyo</w>
yi wo</w>
yez izathu</w>
yez ig
yesi tifikedi</w>
yam ahhala</w>
yam acala</w>
yal eso</w>
y r
y olwazi</w>
y ezing
y ers</w>
y entuthuko</w>
y empi</w>
xox weni</w>
x aka</w>
woku th
woku q
wind ows</w>
wezeM pilo</w>
wem ali</w>
we ather</w>
wan coma</w>
wak alisa</w>
w olwazi</w>
w il
w ezimboni</w>
w est</w>
w esi</w>
w azwa</w>
w ahl
w ac
vo y</w>
vide o</w>
ver sion</w>
ven ues</w>
val elwa</w>
uz wayo</w>
uz othola</w>
uz oph
uth umela</w>
ut ely</w>
us elelo</w>
urg es</w>
uph iko</w>
uny embezi</w>
ungis elelwe</w>
ung eke</w>
und a</w>
un consci
umv uzo</w>
umhl alaphansi</w>
umel ene</w>
umb er</w>
um sindo</w>
um ongo</w>
um ntwana</w>
um ngcele</w>
um c
ult ane
ul elekile</w>
ul al
ukw anda</w>
ukuz ama</w>
ukush isa</w>
ukus ingatha</w>
ukuph ikisana</w>
ukum elana</w>
ukul a</w>
ukukhokh elwa</w>
ukukh iqiza</w>
ukuhl elwa</w>
ukub eza</w>
uku xhasa</w>
uku vikeleka</w>
uku phakelwa</w>
uku land
uk onga</w>
uhl olo</w>
ud es</w>
ubu holi</w>
ubhek iswe</w>
ubh o</w>
ub usuku</w>
uNk k</w>
uK imana</w>
u khona</w>
u Shaka</w>
trac ed</w>
tr a</w>
tor ture</w>
ti ers</w>
theth osiviviny
thethosiviviny o</w>
there to</w>
theng wa</w>
th uba</w>
tap e</w>
tal k</w>
t estim
swe ar</w>
surpr ised</w>
suppor ts</w>
suff ered</w>
sub paragraph</w>
str ike</w>
str a
stor m</w>
st y
spr ing</w>
sol ely</w>
soku thola</w>
sith athe</w>
sit u
sim ultane
sid ingo</w>
sibhek ane</w>
si yo
si ye</w>
si funda</w>
shor tly</w>
shintsh ana</w>
sh ift</w>
sez we</w>
sev ere</w>
serv es</w>
seph omedi</w>
se Dolobha</w>
sch ol
satis factory</w>
sampl ing</w>
s isho</w>
s ezingeni</w>
s et
s empilo</w>
s ebhizinisi</w>
roug h
rol ling</w>
rol es</w>
robb ers</w>
riv ers</w>
ris ks</w>
rev olution</w>
resili ence</w>
rep airs</w>
ren ew</w>
remind ed</w>
remed y</w>
remed ies</w>
rehab ilit
registr ar</w>
recomm end</w>
read iness</w>
re ver
re kh
re jected</w>
re alise</w>
re aching</w>
r ising</w>
r ich
r eli</w>
r asi</w>
r ain
question n
questionn aire</w>
qu antities</w>
qinisek iswa</w>
qinisek iso</w>
qhub ela</w>
qal abutho</w>
q ikithi</w>
pur se</w>
publ ish</w>
prot ecting</w>
progr am</w>
pro -
privileg ed</w>
pre val
pollut ants</w>
pl oma</w>
pic ture</w>
phot os</w>
ph y</w>
petr oleum</w>
peri od
pe x</w>
par king</w>
par ked</w>
p ath
p and
p ain</w>
ozamb ique</w>
oz ayo</w>
oz ama</w>
ox ox
ow ed</w>
over se
ous ness</w>
otsh eni</w>
otsh elelwa</w>
organis ational</w>
or m
or es</w>
onj wa</w>
ong oti</w>
on kewonke</w>
omb isile</w>
om ndeni</w>
om m
olw enziwe</w>
olu tionary</w>
ol oji</w>
ol elo</w>
okw ethulwa</w>
okw engamela</w>
okw azisa</w>
okuy odingeka</w>
okuph anga</w>
okung ezona</w>
okung aba</w>
okum b
okul ala</w>
okukh ubazeka</w>
oku yiz
okh iso</w>
ok ed</w>
ohl inzekwa</w>
ograph ical</w>
ogr aph</w>
og i</w>
offic e-
of ika</w>
of anayo</w>
oblig ed</w>
ob ug
ob onke</w>
o hamba</w>
o Mthetho</w>
o G
num erous</w>
nov ation</w>
not es</w>
nom thethosisekelo</w>
nom phakeli</w>
nom azisi</w>
nokw ethulwa</w>
nokuq alisa</w>
nokub ika</w>
nokub ambisana</w>
noku lawula</w>
noku funda</w>
noku fa</w>
no Mnu</w>
njeng endlela</w>
njeng e</w>
nj al
ngum enzi</w>
ngokuph epha</w>
ngokukh ululeka</w>
nges inye</w>
ngem vume</w>
ngam athuba</w>
ngam aqembu</w>
ng umphakathi</w>
ng ocingo</w>
ng obulili</w>
ng iv
ng eso</w>
ng ebala</w>
nezin hloso</w>
nez il
ney s</w>
nen hloso</w>
nem ig
nem ic
neg ama</w>
nd enini</w>
namas u</w>
nam af
nakw ezinye</w>
nab aqashi</w>
n hlobo</w>
n empilo</w>
mo tion</w>
minim isation</w>
meth od
meteor ite</w>
may -</w>
max im
mas ishane</w>
manufac tured</w>
m numzane</w>
m iphakathi</w>
m ind
m emor
m bhalo</w>
m asses</w>
lw isana</w>
lw esi
lw eng
lw emfundo</w>
lu ent</w>
lom gwaqo</w>
loku zalwa</w>
loku shaya</w>
lo ve</w>
link s</w>
lin ing</w>
limit er</w>
lezin yawo</w>
les izwe</w>
le hl
le aves</w>
lase Kapa</w>
l ose</w>
l oluhlelo</w>
l ezihlalo</w>
l esibili</w>
l amazwe</w>
kwezin hlobo</w>
kwez ib
kwez enhlalakahle</w>
kwen kampani</w>
kwem ibandela</w>
kwel ungu</w>
kwam aqembu</w>
kwab omthetho</w>
kw ezimboni</w>
kw esifundazwe</w>
kw enyanga</w>
kw entuthuko</w>
kw aze</w>
kw athi</w>
kw akhiwa</w>
kuz odingeka</w>
kus uka</w>
kun ikeza</w>
kum phakathi</w>
kum aviki</w>
kum as
kul uhlu</w>
kul e-
kul andela</w>
kub an
ku hlangatshez
kom khiqizo</w>
kom khakha</w>
ki kuyu</w>
kan eng</w>
ka- 2008</w>
ka Ngqongqoshe</w>
ka M
k odwa-ke</w>
k l
k ie</w>
k aw
k ?</w>
jewell ery</w>
j en
j ah
izith akazelo</w>
izing qalasizinda</w>
izin ikele</w>
izimp endulo</w>
izikh wama</w>
izihl ahla</w>
izig ebengu</w>
iz ukulwane</w>
iz iqu</w>
iz iphi</w>
iz ethameli</w>
ivers ary</w>
iv amise</w>
ithokoz isa</w>
ith wa</w>
istr y</w>
isti we</w>
isis indo</w>
isiph o</w>
isim iso</w>
isikh umba</w>
isig atshana</w>
isi xazululo</w>
isi Khungo</w>
is iswe</w>
is ipiliyoni</w>
is ik
is ifo</w>
iqh inga</w>
ip ped</w>
intell ectual</w>
int ense</w>
int en
int angible</w>
inq unywe</w>
innov ation</w>
ing redi
individ ually</w>
ind eleka</w>
increas es</w>
inc ur
inc ap
in ikele</w>
in dle</w>
impres sive</w>
imp esheni</w>
imin iningo</w>
imic abango</w>
il os
il ile</w>
ikh umbi</w>
ikh odi</w>
ikh ali</w>
ikez ele</w>
ik iswa</w>
ik isayo</w>
ik ethi</w>
ihl ale</w>
if anele</w>
iding ongqangi</w>
ide al</w>
id atha</w>
ic tion</w>
ic ted</w>
ic ate:</w>
ibh i</w>
ib onga</w>
ib one</w>
ib izwa</w>
ib iza</w>
i eld</w>
i Khomishana</w>
i B
hol idays</w>
hlos elwe</w>
hij acked</w>
he m</w>
he at</w>
har v
happ y</w>
hamb ile</w>
h ur
h ung
h esi
graz ing</w>
gqugquz elwa</w>
geograph ical</w>
gener ate</w>
gard en</w>
g unya</w>
g ets</w>
g ar
fulf il</w>
ful l-
form ulation</w>
for w
flo or</w>
fit ting</w>
fir st-
fin ished</w>
fil m</w>
fertil izers</w>
fe eding</w>
fe ed
fan ekiso</w>
fall ing</w>
fak iwe</w>
faith fulness</w>
fa ith</w>
f ro
f le
f ence</w>
f ell</w>
eziy isisekelo</w>
ezith athwa</w>
ezit olo</w>
ezish iwo</w>
eziqond ene</w>
ezing xenyeni</w>
ezing ena</w>
ezin jalo</w>
ezin eminyaka</w>
ezihl inz
ezig abeni</w>
ezifund weni</w>
ezifund eni</w>
ezif o</w>
ezib hedlela</w>
ez ifunda</w>
ez icelo</w>
ez eleka</w>
ez ekisa</w>
ez anele</w>
ey ena</w>
expos ure</w>
exper im
exam ples</w>
exam ine</w>
ev umelana</w>
ev entually</w>
ett es</w>
esith ize</w>
esing aphezu</w>
esin tu</w>
esim emezelo</w>
esib i</w>
esib alulekile</w>
es obala</w>
es eng
es ekelwe</w>
es cal
es ?</w>
eqond ene</w>
ephand abeni</w>
ep o
enz iwayo</w>
enz ekile</w>
eny ama</w>
entren ched</w>
engey ona</w>
eng xenyaneni</w>
eng ikazi</w>
eng ath
eng ama-
end abeni</w>
enc oun
en orm
emuk elekile</w>
emth onjeni</w>
emith ombo</w>
emc imbini</w>
embar ked</w>
emb eza</w>
em porary</w>
em ile</w>
em aq
em ale</w>
em akh
elimin ate</w>
elek eqe</w>
el ekayo</w>
el aw
el andela</w>
ekw akhiweni</w>
ekuph atheni</w>
eku z
eku bhek
ekh oneni</w>
ekh ethekile</w>
ek anye</w>
ehol der</w>
ehluk ahlukana</w>
egr ass</w>
eg atsheni</w>
ef unwa</w>
ef er
ef akwe</w>
ef aka</w>
ed ge</w>
ed :</w>
ecst as
ecstas y</w>
ebh u</w>
ebh izinisini</w>
ebh eth
eS ikhulu</w>
eN t
eM pumalanga</w>
e i</w>
e '</w>
drop ped</w>
draw n</w>
dlul ela</w>
dl ess</w>
div ided</w>
dis tur
dis qualification</w>
direc tions</w>
dic t
develop mental</w>
derog ation</w>
den ly</w>
de ep</w>
d am</w>
cw as
cul tiv
crow d</w>
cor rup
cony wa</w>
consider ations</w>
conj unction</w>
compl ement
compet ence</w>
communic ations</w>
comm and</w>
col um
clus ter</w>
clim atic</w>
cl imb
cir c
c lock</w>
c anis
c able</w>
bre eding</w>
bre aking</w>
bre ach</w>
bound ary</w>
bir ds</w>
bi ological</w>
benefici ary</w>
be q
be khona</w>
be ach
baz okwazi</w>
basebenz ise</w>
bas ize</w>
ban jwa</w>
bakh iphe</w>
bab en
bab ambe</w>
b uk
b oys</w>
b orders</w>
b entela</w>
b assad
az z</w>
az i
az amise</w>
ayam enywa</w>
ay ili</w>
ay il
ay ele</w>
aud ience</w>
assum ing</w>
ashintsh wa</w>
as uswa</w>
as ungulwa</w>
as ting</w>
as set</w>
as ik
arrang ed</w>
arr iving</w>
arr ival</w>
ar l</w>
aq oqo</w>
aq iniso</w>
appropri ately</w>
aph oq
aph ind
aph enywa</w>
any iswe</w>
any ath
ann iversary</w>
angaph ezulu</w>
angaph ambilini</w>
ang we</w>
ang iswe</w>
ang ama-
ang ama
anci ent</w>
analys es</w>
an ise</w>
amuk e</w>
amb iqhaza</w>
amav olontiya</w>
aman ingana</w>
amakh walifikheshini</w>
amah olo</w>
amag unya</w>
am p</w>
am mon
alter ation</w>
al u
al tered</w>
al inganayo</w>
al erted</w>
al ayisensi</w>
akwa- Israel</w>
akw ethu</w>
akus asa</w>
akul a</w>
akh olelwa</w>
akh ethekile</w>
akh ele</w>
akh ela</w>
aka- xaka</w>
ak ekelwe</w>
ail ure</w>
ahlang ene</w>
ahlang abez
ahl uka</w>
ahl inzekwa</w>
ahl athi</w>
afuf usa</w>
afak elwe</w>
af ik
adlul isela</w>
ad mission</w>
acwan ingi</w>
acc um
abov e-
abhal ise</w>
abhal ane</w>
abeng ezanga</w>
abav oti</w>
abaq eqesh
abaphak eli</w>
abal one</w>
abal azo</w>
abal al
abaf anele</w>
ab uses</w>
ab onakala</w>
ab ehlukene</w>
ab akhulu</w>
aMan zi</w>
a- Mandela</w>
a f</w>
a b</w>
Z I</w>
Y unithi</w>
Y OKU
Y ANG
Xhos a</w>
Wez ikweletu</w>
Wednes day</w>
W ar</w>
V ac
V IN
Un less</w>
Un der</w>
Um buso</w>
Ukuph athwa</w>
Ukul ungiswa</w>
Ukul awulwa</w>
Uku hlola</w>
Uku c
UL U</w>
UG U</w>
U limi</w>
U Y
U P
Th ala</w>
Tel kom</w>
Techn ic
T ygerberg</w>
T s
T B</w>
Sub -
Strateg ic</w>
Stadi um</w>
Sk ills</w>
Siy abonga</w>
Sci entific</w>
Sah ara</w>
ST S</w>
S ith
S im
S P</w>
Registr ar:</w>
Re fugee</w>
R 3</w>
Profes sional</w>
Ph epha</w>
Par ticul
P ho
P ele</w>
Organis ed</w>
Org an
Oper ations</w>
On ke</w>
O k
O M</w>
Ngal eso</w>
Ng o
Ng ang
NP PO</w>
NO T</w>
N yanga</w>
N ame</w>
M erc
M emorandum</w>
M ang
M an</w>
L ez
L ek
K osovo</w>
K nysna</w>
K OM
J an</w>
Isikh alazo</w>
Ir aq
Intell igence</w>
Initi ative</w>
Ind oda</w>
In novation</w>
In c
In anda</w>
Im igomo</w>
Id olobha</w>
IT AGE</w>
IC A
I t's</w>
I pasipoti</w>
H aving</w>
H ER
HER ITAGE</w>
G ugul
G hana</w>
G IS</w>
Fol lowing</w>
Fax :</w>
F ire
F arm</w>
F aka</w>
F ak
F air
F ailure</w>
F PE</w>
F A
Eph reli</w>
En sure</w>
En d
Empow erment</w>
EN DE
Dis crimination</w>
Depart ments</w>
Del ta-
De ath</w>
D S</w>
Cred it</w>
Con c
Comp uter</w>
Co ast</w>
Clos es:</w>
Cl us
Ch urch</w>
C iv
C al
Bu reau</w>
Barade i</w>
BI- 529</w>
B uy
B ir
B eng
Argent ina</w>
Amad oda</w>
Am bassad
Am afa</w>
Al ter
Ab aqashi</w>
AN I</w>
AMAG UGU</w>
AL O</w>
AL A</w>
A wards</w>
A ngeke</w>
8 000</w>
7 1</w>
24 /
199 0</w>
10 4</w>
08 00</w>
- year</w>
- and-
zokuv imbela</w>
zokug qoka</w>
zoku vikela</w>
zoku thola</w>
zoku khokha</w>
zoku c
zikh ona</w>
zez ombusazwe</w>
zez ezimali</w>
z ithi</w>
z isebenze</w>
z iqh
z indaba</w>
z ila</w>
z idinga</w>
z ezikh
z ebiwe</w>
z amarandi</w>
z amabhizinisi</w>
you 're</w>
yom phakeli</w>
yokw enziwa</w>
yokuv uma</w>
yokuph ila</w>
yokuph athwa</w>
yoku qhutshwa</w>
yoku hlola</w>
yoku bh
yob un
yo g
yil ona</w>
yil elo</w>
yi Bhodi</w>
yab adala</w>
y okhetho</w>
y l</w>
y ikh
y idokhumende</w>
y es</w>
work place</w>
wor th</w>
wom untu</w>
wokul wa</w>
woM phakathi</w>
witn essed</w>
withdraw n</w>
wez aManzi</w>
wetsh we</w>
wes imo</w>
weph alamende</w>
wash er</w>
was nt</w>
wakh ipha</w>
wad ule</w>
w umthetho</w>
w osiko</w>
w okwenza</w>
w astes</w>
w arm</w>
w alls</w>
w akwazi</w>
w ake</w>
volunt arily</w>
volum es</w>
vol ume</w>
virt ually</w>
vess els</w>
var ied</w>
vacc ination</w>
v ary</w>
v and
uz iyamu</w>
uv eze</w>
uv ele</w>
utsh ani</w>
uth uli</w>
ush iya</w>
ush i</w>
us aka</w>
us age</w>
urg ently</w>
ung um
ung qongqoshe</w>
ung aphandle</w>
ung al
und is
un kosikazi</w>
un ecala</w>
umph enyi</w>
umm angalelwa</w>
umhl ahlandlela</w>
um umo</w>
um hlangan
umhlangan iso</w>
um ent</w>
um d
um ama</w>
ukw ethulwa</w>
ukw esekwa</w>
ukuzim isela</w>
ukuzim ela</w>
ukuz itshwa</w>
ukuz alwa</w>
ukuw ethamela</w>
ukuth umela</w>
ukuq oqa</w>
ukuq oka</w>
ukuph ila</w>
ukum ezi</w>
ukukh ulisa</w>
ukug wema</w>
ukug ula</w>
ukub on
uku ngenela</w>
uku humusha</w>
uku hlanganiswa</w>
uku dlulisa</w>
uku bhala</w>
ukh uni</w>
ukh iphe</w>
uhl ose</w>
ug ht</w>
ud ed</w>
uc ulwa</w>
ubu khona</w>
ub untu</w>
ub uc
uM asipala</w>
u ity</w>
u al
u Langa</w>
u Khomishani</w>
tshon tsh
travell ers</w>
transi t</w>
tr em
tr aki</w>
tor ies</w>
tim ela</w>
til le</w>
ti n</w>
thous and</w>
thir ds</w>
the at
th ly</w>
ter ville</w>
ter pr
ten berg</w>
tem por
techn ologies</w>
tax able</w>
tamper ing</w>
tal ks</w>
t ub
sym bo
symbo l</w>
sw it
suppor tive</w>
suppl ying</w>
sul ph
succeed ed</w>
stipul ated</w>
st ars</w>
st ad</w>
spok en</w>
spo ke</w>
specif ications</w>
som shado</w>
som phakathi</w>
sol di
sokw amukelwa</w>
sokuv uma</w>
sokuth umela</w>
soku dla</w>
siz eni</w>
sith athwa</w>
siph umelele</w>
sincer ely</w>
sikh uluma</w>
sika Masipala</w>
sik a-
sib ona</w>
sib ility</w>
sh ots</w>
sh ad
sel okhu</w>
se kus
sal ute</w>
s me
s izimisele</w>
s isebenz
s icelo</w>
s ezing
s ezikh
s ens
s aving</w>
s ama
s aba</w>
ry egrass</w>
role- players</w>
right -</w>
restric tions</w>
res h
remar ks</w>
ref uses</w>
recruit ment</w>
re viewed</w>
re fin
re alis
rap id</w>
r ul
r o</w>
r is</w>
r are</w>
r ank</w>
qu e
qond e</w>
q waba</w>
q unywa</w>
q amula</w>
public -
prov en</w>
prot ocol</w>
profession als</w>
prof ound</w>
pris ons</w>
practic able</w>
pr er
pr ay
possib ly</w>
poss ess</w>
pos tille</w>
poor est</w>
perman ently</w>
per h
perh aps</w>
peac ekeeping</w>
pati ent</w>
pas ture</w>
p up
p regn
p esheli</w>
p air</w>
oy im
ow akw
oth ize</w>
oth ando</w>
osu chithiwe</w>
os etshenziselwa</w>
os ebenzisana</w>
organ iz
or ary</w>
ophath ina</w>
oper ative</w>
op en
oo th</w>
onz iwe</w>
ony m
ony ama</w>
ons ela</w>
ongoz iwe</w>
ongoz a</w>
ong weni</w>
ong ol
ong ena</w>
ong aphansi</w>
ondl y</w>
onder og
onderog able</w>
onak ele</w>
onak ali</w>
on tsh
on traki</w>
on onda</w>
on egunya</w>
on able</w>
omn ingi</w>
ombul ula</w>
olus emthethweni</w>
ol ubhekiswe</w>
ol ayo</w>
okwenz elwa</w>
okwel ashwa</w>
okwakul welwa</w>
okwakuhl alwa</w>
okw eni</w>
okw ehla</w>
okw amukela</w>
okuz okwenziwa</w>
okuyim poqo</w>
okuth ola</w>
okus ezingeni</w>
okung ab
okun ciphisa</w>
okukh ombisa</w>
okuc atshangwa</w>
oku sebenzisa</w>
oku lingana</w>
oku bh
okh uluma</w>
ok om
og ela</w>
office- bear
of ake</w>
od eli</w>
od ed</w>
oc ks</w>
oc a</w>
obu ye</w>
objec tions</w>
obh ekene</w>
ob uhle</w>
ob ed
obed ience</w>
o we</w>
o phakela</w>
non-sex ist</w>
nom ndeni</w>
nokw ehla</w>
nokuth atha</w>
nokuq apha</w>
nokul ungisa</w>
nokul ethwa</w>
nokuhl olwa</w>
nokud idiyela</w>
noku y
noku tshalwa</w>
noku thuthuka</w>
noku hlinzekwa</w>
noku fakwa</w>
noku f
nob umpofu</w>
no z
njeng endawo</w>
ngum asipala</w>
ngokw engxenye</w>
ngokw ebala</w>
ngokuzikh andla</w>
ngokuph ind
ngokung afanele</w>
ngokukh etha</w>
ngokub halwe</w>
ngoku ziphatha</w>
ngoku setshenziswa</w>
ngoku ngen
ngoku lingana</w>
ngoku khokha</w>
ngoku fanayo</w>
ngoku dla</w>
ngok ocansi</w>
ngoL wesine</w>
ngez wani</w>
ngesi hl
ngen iswa</w>
ngem izamo</w>
ngem ibandela</w>
ngam azinga</w>
ng ezimoto</w>
ng an
ng amalungelo</w>
ng abasebenzi</w>
nezin zuzo</w>
nezin t
nezin qubomgomo</w>
nezin komba</w>
nezin hlaka</w>
nezin hl
nezin como</w>
nezig ameko</w>
nez is
nez ikhulu</w>
nesi tifikedi</w>
nes itatimende</w>
nem izamo</w>
neg atively</w>
ne S
nc ishiswa</w>
namaph epha</w>
nam av
nak ekelwa</w>
nab esifazane</w>
nab aq
n osizo</w>
n onderogable</w>
n in
n hlangano</w>
n esikhungo</w>
ms ulwa</w>
moder n
minim ise</w>
micro -
met als</w>
met al</w>
mem ory</w>
me ets</w>
mat r
magistr ate</w>
ma ize</w>
m ithetho</w>
m emorandum</w>
m aphakathi</w>
lw emisebenzi</w>
lw ayo</w>
lw ase
lw akho</w>
lul unye</w>
luka Sheduli</w>
look s</w>
lony eni</w>
loku vikela</w>
loku ngena</w>
loku khokha</w>
liter acy</w>
lis etshenziswa</w>
lil wana</w>
lika Ndunankulu</w>
let ter
leg atsha</w>
le hem</w>
lak es</w>
la ve</w>
la h</w>
l y-
l ighting</w>
l ezikh
l esis
l ena</w>
l av
kwezin kinga</w>
kwezin kantolo</w>
kwezin jongo</w>
kwezin dlela</w>
kwez itshalo</w>
kwez epolitiki</w>
kwes izwe</w>
kwes ishayamthetho</w>
kwen qubo</w>
kwem ithombo</w>
kwem ikhakha</w>
kwehl iswe</w>
kwam abhuku</w>
kw inqubo</w>
kw iN
kw i</w>
kw ezindaba</w>
kw ethulwa</w>
kw aq
kuz obe</w>
kuy adingeka</w>
kuq inis
kung cono</w>
kung al
kun zima</w>
kun kuma</w>
kun ikezwa</w>
kum azwe</w>
kul ethwe</w>
kukhul unywa</w>
kukh u</w>
kukh ishwa</w>
kuhlangatshez wane</w>
kucatshang elwa</w>
ku qhutshwa</w>
kom zimba</w>
kol elo</w>
kol awulo</w>
koku g
kob haliso</w>
kh iqizi</w>
kang ang
k tha</w>
k ombiko</w>
k okwenziwa</w>
k okhelo</w>
k er</w>
k ambiso</w>
jum ped</w>
j ikel
izing ubo</w>
izin salela</w>
izim funeko</w>
izim bewu</w>
izi xazululo</w>
iz ungezile</w>
iz oph
iz okwenza</w>
iz ic
iz akhi</w>
iy ane</w>
iw ili</w>
iw ebhusayithi</w>
iv uzo</w>
iv eza</w>
itsh ele</w>
iti us</w>
iti s</w>
ith iwe</w>
ith ina</w>
ith eng
isol ated</w>
isin como</w>
isikh angiso</w>
isihl abathi</w>
isi x
ish elwe</w>
ish an
ishan hloko</w>
ish ado</w>
isel wayo</w>
isek ayo</w>
is ize</w>
is iswa</w>
is ise</w>
is iphathimandla</w>
is iko</w>
is aphulelo</w>
is ampuli</w>
ire ktha</w>
ir a</w>
ip ul
investig ator</w>
inv ites</w>
interv ene</w>
int i</w>
inspir ed</w>
inser tion</w>
ink olelo</w>
ink inobho</w>
inev itable</w>
indirec t</w>
indig ent</w>
indic ations</w>
independ ence</w>
ind uc
ind ezela</w>
ind er</w>
incor rec
inc int
inc in
in komba</w>
in ia</w>
in hib
imper ative</w>
imin we</w>
imin otho</w>
imil ilo</w>
imbuk tu</w>
im s</w>
im ini</w>
im afa</w>
iliv ela</w>
il legally</w>
il ikithi</w>
il ed</w>
ikh uluma</w>
ikh ishwe</w>
ik ki</w>
ik izel
ik isha</w>
igr ants</w>
ig xile</w>
if akela</w>
idl y</w>
id izayini</w>
id den</w>
id able</w>
iboph ez
ibhek iswe</w>
ib ly</w>
ib ia</w>
ib anga</w>
ib ala</w>
ib al
i- South</w>
i us</w>
i alism</w>
hom el
hlang ane</w>
highl ight</w>
heav ily</w>
har ass
hamb atha</w>
hal isela</w>
ha i</w>
h iding</w>
gu est</w>
gre en
green house</w>
gra titude</w>
gr iev
gr av
gr ass</w>
govern ment's</w>
g inia</w>
g az
g ama</w>
fundam entally</w>
fund weni</w>
fun ayo</w>
ful eni</w>
fuf usayo</w>
fu d
frag mented</w>
fortun ately</w>
form ulated</w>
fl ags</w>
fin anci
fig ure</w>
fe eds</w>
fan elekile</w>
fan eleka</w>
facilit ating</w>
fac tor</w>
f oot</w>
f illing</w>
f ib
f ed</w>
eziz ayo</w>
eziyis ishiyagalombili</w>
eziy isihlanu</w>
ezith ebeni</w>
eziq inile</w>
eziph ak
ezingen ayo</w>
ezingan hle</w>
ezing xoxweni</w>
ezikhokh elwa</w>
ezif akwe</w>
ezenz weni</w>
ez osetshenziswa</w>
ez okuvakasha</w>
ez iswa</w>
ez isa</w>
ez enhlalakahle</w>
ez engeziwe</w>
ez ebiwe</w>
ey igugu</w>
expl ore</w>
exp anding</w>
execu ted</w>
eval uate</w>
eth n
eth lehem</w>
eters en</w>
est ly</w>
esis ebenza</w>
esiph athelene</w>
esim eme</w>
esikh ishwe</w>
esiboph ezelo</w>
esib indi</w>
esi be</w>
esh umi</w>
esh o</w>
esh ise</w>
esh inali</w>
es uka</w>
es ona</w>
es ichaza</w>
es ey
es el</w>
es cape</w>
erad icate</w>
er k</w>
eq enjini</w>
epul azini</w>
eph ezulu</w>
ep asipoti</w>
entr ants</w>
enth usi
ent -
enq abe</w>
enn a</w>
engen aku
eng av
eng ang
end oda</w>
end al</w>
en omlando</w>
en ix</w>
en ecala</w>
en comp
emp esheni</w>
emkh athini</w>
em pahla</w>
em iphakathi</w>
em i</w>
elel esi</w>
el ungile</w>
el iswa</w>
el ish
[...]
