.
,
go
the
e
le
ya
a
ka
of
and
to
ba
mo
di
tsa
o
in
tse
)
(
wa
se
ga
is
ke
gore
sa
for
"
that
:
be
kwa
la
fa
or
di@@
on
The
mme
are
as
-
kgotsa
;
with
Go
nna
re
ne
jwa
by
bo
will
an
bo@@
tla
ing
-@@
at
na
dira
from
se@@
S@@
it
ma@@
you
ba@@
have
mo@@
yo
tshwanetse
?
A
K@@
k@@
M@@
Di@@
not
t
e@@
this
o@@
le@@
in@@
re@@
a@@
we
i
f@@
i@@
1
jaaka
R@@
s@@
bona
ela
leng
P@@
can
b@@
en@@
p@@
eng
/
C@@
which
B@@
has
A@@
fela
an@@
T@@
es
2
n@@
g@@
nngwe
nako
ted
N@@
y@@
ed
all
teng
their
elo
el@@
your
pele
ong
tswa
d@@
thata
O
t@@
E@@
ation
ntlha
tiro
al@@
3
gape
must
botlhokwa
D@@
L@@
South
'
Bo@@
was
s
Fa
also
batho
one
ate
mongwe
c@@
m@@
u@@
r@@
w@@
am@@
gago
on@@
y
ers
I
ting
ang
ar@@
O@@
G@@
er@@
F@@
te@@
4
ti@@
who
dirisa
our
ol@@
ts
l@@
Mo@@
I@@
E
er
they
rona
This
is@@
or@@
Aforikaborwa
th@@
jalo
gagwe
un@@
v@@
may
tsh@@
5
em@@
dingwe
Ka
should
ok@@
In
ele
tion
W@@
ph@@
con@@
other
at@@
al
able
any
madi
h@@
more
nang
Ma@@
H@@
morago
ab@@
NWU
d
ag@@
ile
YBB
bone
its
maemo
been
bile
V@@
time
st@@
Se@@
It
so
ngwaga
godimo
it@@
elwa
dik@@
tl@@
Africa
m
if
tsotlhe
op@@
ro@@
tlaa
Ke
about
do
jo
neng
et@@
year
his
6
si@@
Mo
ri@@
kgona
ana
im@@
es@@
Potchefstroom
du@@
's
as@@
ik@@
people
lo@@
ts@@
tshedimosetso
ap@@
k
he
baithuti
me@@
wang
iwa
ntse
work
tlase
motho
nne
j@@
ala
baagi
om@@
dis@@
SA
Campus
sentle
land
information
use
yona
kg@@
eno
bu@@
ditiro
when
Prof
ane
ent
ated
po@@
b
but
z@@
African
U@@
such
su@@
where
community
tsaya
ations
feta
be@@
il@@
yone
7
ding
ak@@
karolo
tlh@@
u
soil
farologaneng
members
Ba@@
!
la@@
these
etse
ene
ola
thusa
ga@@
kgwebo
If
new
tsela
ur@@
make
isa
crop
were
tsamaiso
ex@@
kgolo
li@@
Mphahlele
us
eo
ne@@
ac@@
up
latelang
1@@
into
co@@
me
sen@@
olo
ntle
We
very
9
Re
IDP
din@@
ly
than
p
ine
tlhoka
sengwe
we@@
olo@@
mmogo
to@@
mmu
ad@@
thuto
what
J@@
well
out
botlhe
ra@@
elang
10
need
Act
puso
tota
ul@@
there
development
dilo
process
important
ary
wa@@
tlha@@
badiri
8
kgo@@
weng
lefatshe
mokgwa
ter
ally
metsi
ating
years
ditirelo
simolola
000
akaretsa
ut@@
af@@
ano
bon@@
ter@@
only
for@@
tshwanetseng
mor@@
netefatsa
take
dirang
man@@
government
en
go@@
S
ngwana
ha@@
ego
pro@@
them
In@@
ward
dintlha
ise
form
batla
inter@@
maize
University
tsweng
setÅ¡haba
ment
us@@
management
per@@
business
4@@
mon@@
dirisiwa
age
CBP
mmidi
public
after
l
production
would
students
tswelela
person
ek@@
de@@
Council
ileng
etseng
.@@
tle
first
used
service
each
itse
ses
bokgoni
between
siameng
bangwe
ho@@
Molao
thulaganyo
Le@@
ara
during
dingwaga
kitso
kgone
how
5@@
n
patlisiso
no@@
many
pa@@
etso
ona
ds
kopo
jang
sion
no
Afrikan
made
good
lo
setso
elong
system
her
bal@@
ity
ch@@
dip@@
Dik@@
being
through
2@@
nnang
ka@@
child
ir@@
seng
c
Y@@
gare
3@@
Th@@
etsweng
rileng
Grain
some
ru@@
following
ou@@
amogela
seabe
terms
iso
letsatsi
etsa
pe@@
Mop
plant
most
project
ets@@
the@@
kumo
8@@
order
tes
number
tswe
7@@
bor@@
setlhopha
National
elwang
bokana
place
sp@@
farmers
research
sed
der
pre@@
dir@@
before
over
>
dirwa
Mr
two
water
bol@@
DI@@
h
Kg@@
yang
tr@@
6@@
30
support
fa@@
naga
part
par@@
ensure
Con@@
ilweng
C
min@@
um
ere
g
Re@@
T
id@@
edi
0@@
education
fetileng
boleng
el
supa
te
ef@@
Lefapha
van
application
fi@@
ance
Mafikeng
tsona
ta@@
tlhabololo
elela
farm
local
tiriso
Ms
tsama@@
jwala
ati@@
of@@
tsen@@
th
mmasepala
ve
eg@@
AN@@
day
Se
ies
palo
ten@@
plan
way
mar@@
jaanong
tso
within
ic@@
eletsa
he@@
ch
ser@@
Department
bi@@
men@@
pl@@
dimela
per
tions
pha@@
Development
ono
available
ence
dintsi
ban@@
peo
D
ilwe
thu@@
different
w
under
control
then
por@@
ver@@
sub@@
mathata
like
national
services
He
qu@@
What
et
elelo
ithuta
tive
um@@
tsone
planning
own
alo
9@@
knowledge
de
12
als
needs
dijo
Committee
laola
tlhag@@
right
yotlhe
porojeke
o-@@
group
ot@@
balemirui
ar
dikg@@
wana
etswe
ep@@
gale
e-@@
access
SA@@
ded
Dr
ks
Setheo
Tsh@@
kgon@@
lu@@
three
farming
amo
jaana
lengwe
kga@@
iwang
ing@@
ci@@
setse
meeting
Ward
st
leb@@
area
sa@@
otlhe
fin@@
Le
provide
seed
aga
bana
mm@@
P
2010
fitlhelela
ip@@
x
Aforika
naya
x@@
maikarabelo
vi@@
ty
could
mak@@
get
hu@@
R
section
member
diris@@
tseng
Ga
Mar@@
programme
tlhola
maloko
kh@@
lwa
pedi
ditsh@@
she
BosetÅ¡haba
mofuta
molao
20
fe@@
gone
ic
maleba
my
country
ely
sure
ama
Khamphaseng
ying
ant
bosetÅ¡haba
its@@
possible
est
ability
tlhom@@
tlo@@
ete
says
2.@@
Ex@@
rec@@
bar@@
Komiti
gol@@
dith@@
staff
mabaka
areas
tlhotlhwa
Gape
Yunibesiti
ling
tly
bog@@
Khamphase
maikaelelo
required
ments
ons
ye
elo@@
financial
There
state
YA
office
end
tlho@@
School
ikonomi
kan@@
mekgwa
so@@
ela@@
GO
kgono
ement
These
Tlhabololo
tshwar@@
sing
ous
maatla
bobedi
mok@@
training
magareng
Ph@@
led
setheo
tiragatso
11
r
under@@
working
comp@@
ta
social
mosola
means
tlhok@@
tra@@
alo@@
tshwanelo
ving
tlhalosa
Vaal
tlha
les
ge
tse@@
tshwa@@
oketsa
those
money
oko
15
does
man
ms
activities
including
maemong
To
mefuta
days
mabapi
mangwe
mag@@
tu@@
producers
ia
tlo
tla@@
For
com@@
life
dirisiwang
As
set
ruta
best
Pro@@
tor
ved
egang
fitlha
wel@@
edi@@
action
ese@@
date
help
eletso
dijalo
2009
had
elets@@
mer@@
semmuso
Education
tirong
siwa
LE
ite
bonako
gantsi
sel@@
resources
res
ditlhopha
14
4.@@
tharo
mmung
Batho
planting
rek@@
gan@@
ob@@
because
role
puo
bua
tlamela
season
1.@@
ika@@
walo
Thuto
conditions
MA@@
rata
tswang
sup@@
include
kgatlhanong
isiwa
kgwedi
Rre
tlham@@
opo
crops
sh@@
tsha
tswel@@
mela
committee
kop@@
gae
bontsi
trans@@
farmer
tor@@
example
fo@@
necessary
same
cre@@
pu@@
Mok@@
aneng
You
ngwa
even
ega
ig@@
selegae
projects
sek@@
municipality
period
og@@
always
2011
ï»¿@@
tsena
done
ng@@
ev@@
our@@
high
rel@@
tshe
temothuo
nn@@
adi@@
mis@@
tikologo
si
tirisong
tha@@
quality
woto
leg@@
seno
An@@
ings
bok@@
taken
ative
Institutional
50
taolo
M
tsho
tseno
fokotsa
ala@@
wal@@
am
Me@@
tlang
next
moo
matlole
tin@@
Mon@@
ins
much
tsi
up@@
didiriswa
know
lefelo
maano
Molaotheo
every
col@@
bolemirui
iti@@
performance
kopano
ntsha
a-@@
Ba
against
When
ha
Es'kia
kgonang
world
des@@
ediwa
Z@@
shall
tshwanela
ditheo
received
polaseng
19@@
dec@@
red
They
Sciences
tsho@@
na@@
lenaneo
etsi
now
Tshedimosetso
Com@@
dijwalwa
eleng
mol@@
tseo
war@@
line
tlhoma
issues
lefatsheng
16
pol@@
tlhotlh@@
act
using
togamaano
AR@@
both
oro
various
har@@
da@@
over@@
economic
ents
food
ful
5.@@
TLH@@
lat@@
ther@@
utl@@
ny@@
fac@@
level
political
study
uni@@
car@@
EL@@
akanya
tlhagisa
campus
ters
kwala
tlhoko
ning
fitlh@@
diporojeke
RE@@
children
ences
SE@@
diwoto
Tsa
without
aka
learners
der@@
pat@@
skills
ric@@
tlhama
bong
18
tlam@@
os@@
mets@@
dra@@
semolao
Triangle
mefero
isi
ent@@
sive
Management
botshelo
lefelong
il
tshwan@@
experience
mmalwa
diph@@
bontsha
groups
thuso
legislation
od
ical
health
based
elwe
ni@@
res@@
K
Constitution
grain
provincial
dithulaganyo
id
ditlhokego
EN@@
ari@@
relevant
specific
ties
ore
ce
bogolo
power
dirwang
ual
How
agan@@
An
give
language
ge@@
come
B
tshwanang
ege
Fr@@
ined
Dis@@
TI@@
eng@@
apply
kana
vo@@
making
ics
future
see
Mohumagatsana
tlhokegang
ates
len@@
tshwetso
kgaolo
ini
olong
value
become
Faculty
ure
basadi
lona
tikologong
policy
botlalo
newa
ale
another
ie
du
still
tokafatsa
report
ntsh@@
uma
hol@@
while
boi@@
ditshenyegelo
medi@@
ves
participation
said
pr@@
2007
dinako
Tsamaiso
dire
kakaretso
develop
referred
gr@@
rulagan@@
ial
tlhokega
jo@@
king
key
olog@@
dikgato
isang
gu@@
ditiragalo
epe
bonwa
tlhokang
khu@@
Ditirelo
molawana
wena
loago
kgethegileng
tlhokomela
mi@@
kgato
kgang
ope
tuelo
implementation
ys
tlhomamisa
often
Woto
growth
botoka
bak@@
tlhano
anong
school
communities
tlhaloganya
ema
ith@@
wheat
ere@@
eletse
itsh@@
court
tri@@
mogolo
av@@
wan@@
gaufi
together
learning
costs
2012
sekao
ber@@
ness
tlhalo@@
tsenya
atl@@
long
less
gonne
back
Tlh@@
case
ong@@
tloga
Eloff
better
korong
sol@@
Kopo
tsang
motheo
pres@@
nageng
Dikomiti
13
Office
molemirui
ditokololo
U
tok@@
Dit@@
cor@@
tirelo
OL@@
contact
setsa
income
ako
Disaense
sekaseka
inv@@
tshegetsa
f
Sekolo
society
isano
etsang
Un@@
do@@
ory
Khansele
str@@
IC@@
Å¡@@
interest
effective
No@@
ang@@
katiso
ola@@
particular
too
ec@@
mai@@
au@@
ns
tlhokomelo
dikgang
dumela
tlisa
higher
ina
TE@@
involved
reka
low
oun@@
body
maitemogelo
Ngaka
dipuo
Lekgotla
2008
past
mog@@
price
rotloetsa
setlha
human
international
Lo@@
olwa
tax
cal@@
potential
pen@@
going
boitekanelo
bophara
porofense
plants
Moporof
result
melao
course
lekgetho
duela
among
eter@@
sec@@
fer@@
change
ght
ors
programmes
rulaganya
Al@@
3.@@
@@@
bom@@
tlotlo
tem@@
Ch@@
tiragalo
institutions
ising
Cape
ditÅ¡helete
matter
tek@@
council
La@@
sector
bantsi
ver
further
environment
ture
foromo
ata
ze
cost
tlotl@@
leloko
budget
2014
nye
ants
cannot
aga@@
0%
rights
Po@@
2013
equipment
kopan@@
leano
municipal
tlhogo
WA
IN@@
Information
whether
small
Director
want
agreement
appropriate
tshwara
fal@@
tsw@@
om
problems
ago
law
kae
bop@@
ency
sepe
ME@@
seo
team
han@@
ised
President
tÅ¡h@@
akan@@
gra@@
siam@@
tion@@
tho
ann@@
Jaaka
%
Karolo
pay
dirisang
Ad@@
ator
months
yana
tho@@
North-West
last
OF
off
Y
At
neela
equ@@
end@@
ls
women
certain
five
due
meetings
amanang
ao
lemoga
est@@
However
ist
gongwe
cri@@
mong
lands
Kwa
For@@
pi@@
gwe
TH@@
enti@@
ck
00
tshireletso
heketara
ditsela
gammogo
Centre
ditlh@@
dikomiti
tlamelo
efe
book
assist
Tlha@@
provided
bofelo
kopa
vis@@
Eish
dri@@
ars
10@@
iri
leka
ans
ational
Din@@
commercial
romela
setlamo
tlhopha
tsheg@@
199@@
Tiro
Ne@@
poelo
akany@@
thing
didirisiwa
tshwanelwa
tlhab@@
motlakase
address
areng
21
bolela
tlel@@
Co@@
25
diragatsa
sele
committees
permit
All
tshegetso
anang
Bokone-Bophirima
dr@@
100
tic
lekaneng
pula
Li@@
already
batlang
oma
sekolo
left
especially
recently
producer
fetola
br@@
term
RBN
ner@@
wor@@
0
student
tsi@@
diphetogo
198@@
seg@@
pos@@
Services
fet@@
tel@@
Service
ditshwanelo
tur@@
responsible
full
tlhoph@@
els
pon@@
just
Pele
and@@
Setlhopha
raya
dirilweng
amount
kati@@
decision
ton
lek@@
given
dikarolo
dithuto
clo@@
rate
TS@@
kgwe@@
forms
family
24
Mor@@
amog@@
held
improve
komiti
care
opportunity
malebana
tekanyetso
nnete
operation
produce
nakong
Ar@@
ages
Ac@@
gh@@
others
Committees
F
mowa
TSA
bolok@@
ntsi
him
kgol@@
lin@@
No
ry
systems
least
ngwageng
sti@@
tors
feti@@
ditshedi
To@@
position
sts
fu@@
sepolotiki
int
market
N
assessment
maf@@
dipotso
IT@@
eding
ements
kgotlatshekelo
ele@@
mal@@
Baithuti
hel@@
bongwe
Thulaganyo
prof@@
Bu@@
Government
respect
ente
set@@
request
any@@
dipalo
thobo
beg@@
tsweletsa
capacity
500
L
Bafokeng
ad
ame
comm@@
yield
port
fil@@
Pe@@
university
dipatlisiso
Theuns
THE
oko@@
ws
functions
bothata
second
plans
tsewa
LE@@
four
loc@@
7.@@
ham@@
processes
Mmasepala
iki
60
pe
State
ei@@
planted
products
En@@
ja
Research
neelana
elelang
ining
uta
kgetse
pla@@
old
test
ef
building
According
Public
gotlhe
ena
Su@@
Ã©
established
challenges
seÅ¡wa
iwe
Man@@
ality
Mme
view
tlhalogan@@
des
ology
officer
Kokoano
PAIA
fetang
mots@@
success
Pre@@
ole
around
levels
fe
ked
ned
tlile
hand
ard
tir@@
ple@@
weeds
weed
thibela
MO@@
leina
dire@@
tlhatlhobo
therefore
Par@@
Palamente
ever
correct
dithoto
tlwaelo
conc@@
karolong
Puso
dic@@
academic
official
hi@@
dimo
Ban@@
DE@@
ologo
ps
keep
AB@@
ently
ble
opo@@
diwa
proc@@
few
AG@@
record
Kgosi
maikutlo
TO
exc@@
main
Å¡h@@
poraefete
tional
usually
lebelela
sena
tsamaisa
Parliament
present
17
Tir@@
IS@@
completed
dipoelo
her@@
El@@
exten@@
ther
security
fy
did
tshekatsheko
def@@
ma
wh@@
adv@@
institution
elele
results
De@@
leba
lone
Inter@@
ON@@
start
since
2004
mengwe
developed
registration
sil@@
Mokaedi
problem
CO@@
ously
eletseng
OR@@
So@@
ir
ii
Be@@
ditshwetso
Ste@@
inten@@
legal
ow@@
Mari@@
appointed
tlhatlh@@
ko@@
dinaga
monontsha
focus
name
gola
Diph@@
5%
mafelo
Lekwa
takes
subject
kgaolong
angwa
ways
sedi@@
ratang
certificate
Badiri
million
sk@@
dirile
oto
katlego
iti
trac@@
ololo
ke@@
field
ditir@@
taking
onyana
/@@
polase
Assembly
dikh@@
lotseno
nnile
bantshakuno
Sen@@
PA@@
private
ged
d-@@
tlhomam@@
Morago
sc@@
doing
gi@@
SARS
Lenaneo
mafoko
egile
persons
objectives
ends
phitlhelelo
towards
masimong
find
ud@@
oph@@
ports
sona
progress
Merero
written
International
increase
NWU's
high@@
things
mma@@
Legoro
company
dif@@
clear
malatsi
afa@@
risk
cha@@
stage
til@@
tal@@
party
ism
egileng
TION
presen@@
previous
beng
dife
look
Language
gona
dingwageng
ler@@
tsong
ring
baya
yer
material
requirements
tokololo
diragala
Application
Executive
culture
Reg@@
wards
delivery
Kgotla
mantsi
Minister
direc@@
total
ities
ger@@
opportunities
known
KA
wane
ven@@
son
Tl@@
1998
tlhokom@@
Moh
AL@@
tumalano
large
play
regard
ste@@
sions
molemo
ft
achieve
DI
tekatekano
continue
current
Ta@@
olola
ntseng
registered
understand
head
char@@
questions
collec@@
inc@@
Sec@@
responsibility
tekanyetsokabo
setseng
mekgatlho
segolo
currently
effect
boik@@
emela
semela
account
authority
yunibesiti
requ@@
theo
Commission
boloka
Technology
letlha
lefapha
tshwana
tic@@
Kgaolo
eledi@@
Maemo
cu@@
etswa
egi
kwadilweng
ute
basic
sur@@
bur@@
fitlhela
toro
fel@@
complete
'@@
Bor@@
ility
non-@@
ill
isi@@
Balemirui
hard
ders
top
ithut@@
aka@@
Tona
ested
ship
dit@@
tractor
Affairs
ENG
sone
netefa@@
meg@@
pas@@
prices
mos@@
job
Khutlotharo
kaya
above
cause
kwadi@@
diraga@@
Ngwaga
One
dikgwetlho
ger
nam@@
agricultural
lok@@
traditional
tshwa
peomolao
ue
co-@@
Kgo@@
batl@@
ula
ine@@
19
kopanong
bap@@
centre
diheketara
pal@@
purpose
afatsa
ra
parties
BO@@
pholisi
eteng
general
tlhabolola
Patlisiso
ed@@
activity
mang
tlis@@
pop@@
eleg@@
ines
successful
cl@@
botsamaisi
She
mission
cul@@
ler
da
Kh@@
dipha@@
ss@@
tlhaloganyo
human@@
Dintlha
emo
tlhaba
tlhaeletsano
eli@@
growing
fertiliser
bega
iri@@
fied
young
makes
developing
telele
elano
setÅ¡habeng
ju@@
bre@@
diruiwa
put
black
TL@@
St@@
ki@@
mental
Municipal
rekisa
Diwoto
continu@@
sis@@
product
rol@@
anya
pan@@
Min@@
ner
kgatlh@@
ill@@
eletsweng
dikakanyo
amogelwa
communication
ari
onal
saense
gati@@
alisation
submitted
approach
ten
kang
police
impact
HIV
ically
ker@@
matters
temokerasi
Sek@@
khansele
Pi@@
maintenance
Pu@@
2000
sirel@@
sitsweng
Science
bolwetse
benefit
Kgwebo
down
moisture
anyo
citizens
receive
merero
benefits
individual
ding@@
ditono
dikhemikale
tha
justice
RA@@
mokgatlho
employees
thekenoloji
special
dikgolo
regarding
ear@@
afatso
akatemi
Ap@@
Pr@@
hours
tsamaya
kgatlhego
hectare
Chris@@
tlhomiwa
tlho
fact
moithuti
acc@@
Bar@@
event
Supreme
UN@@
critical
During
promote
alwa
dig@@
akar@@
Africans
isitsweng
tshwarwa
197@@
writing
row
eta
Some
tlhagiso
ogo
dirisana
uso
employment
Human
Programme
gat@@
The@@
sto@@
metswedi
free
list
lor@@
table
tsenngwa
ELO
dij@@
thut@@
40
ameng
dika@@
ple
regul@@
infrastructure
met@@
until
month
lekwalo
requires
Seno
content
Ts@@
ali@@
bri@@
romelwa
Institute
gaisa
kgatelelo
sal@@
mat@@
Rec@@
Deputy
oper@@
tlhago
organisations
y-@@
documents
media
6.@@
factors
actions
Trans@@
Lefatshe
Section
acy
try
property
dry
lelapa
botsayakarolo
provides
bonala
early
dikgwedi
Fela
ators
esego
quali@@
taelo
gangwe
workers
words
isiwang
Mal@@
streng@@
Chairperson
tshwanetswe
investi@@
enough
annual
countries
mmuso
below
consider
broad@@
reg@@
boditÅ¡habatÅ¡haba
20@@
nokeng
again
identified
mas@@
Ro@@
once
masimo
ase
ast
started
bao
practices
lebaka
san@@
ol
boikarabelo
contribu@@
tlog@@
issue
basis
administration
Jac@@
times
ty@@
ice
Ntlha
Mor
modu@@
Tlho@@
teaching
ung
website
burg
batsayakarolo
bag@@
determine
AND
dithata
ests
ils
fen@@
ination
poor
melawana
ben@@
elelwa
eledi
later
kgaogan@@
hon@@
personal
lekan@@
tlhopho
municipalities
decisions
solof@@
boraro
low@@
godi@@
industry
coun@@
lef@@
dib@@
common
point
tlotla
elana
participate
nature
sediriswa
8.@@
sch@@
create
Mak@@
baakanya
lecturer
baka
mananeo
analysis
related
cel@@
eletswe
themselves
tswelelang
tons
Te@@
payment
tlhokego
dge
bat@@
lot
approved
isana
dinageng
share
expres@@
boteng
bonolo
Tirelo
offic@@
Ngk
manner
direla
Ã@@
importance
addition
kotsi
Col@@
Do
gener@@
Ver@@
tshekong
sireletsa
tw@@
tseneletseng
palo@@
ess
stra@@
fication
energy
lotlhe
identi@@
issued
stakeholders
ca@@
er's
Social
pego
pri@@
tetla
type
We@@
pila
aged
subsection
tim@@
mil@@
isation
campuses
tlhamalalo
asse@@
dikopano
stri@@
aganya
Ditiro
eme
SATI
safety
compla@@
Å¡a
hand@@
paid
ngwang
kgaisano
eny@@
ran@@
author@@
SI@@
akanyetsa
rob@@
bontsh@@
aleng
simolo@@
OLO
emedi
several
damage
positive
natural
Im@@
either
X@@
kakanyo
ful@@
SetÅ¡haba
buisa
ikwadi@@
paka
ithu@@
comb@@
omolao
practice
Maloko
found
On
remo@@
phase
rain
speci@@
win@@
Len@@
home
across
duction
didiriso
lim@@
Health
dy
sor@@
Ger@@
participants
mmo@@
bonno
applied
sitswe
AT
tshimong
measures
six
tures
morafe
dits@@
dipholo
farologana
whole
leo
wn
amogetse
Cor@@
egelo
respon@@
side
Kgato
He@@
diteng
mel@@
needed
thek@@
ss
animals
eke
Mas@@
mafapha
manager
rekoto
ER@@
ES
okets@@
tiso
why
lekal@@
tshela
gatelela
elected
tre@@
malwetse
ori
bolaodi
ens
cultural
dikgaolo
botlhale
along
ace
2015
tumelo
dipal@@
bel@@
mesola
labour
dep@@
applicable
selec@@
dikgaolong
utwa
As@@
Mokgwa
interests
ite@@
ditlhopho
epo
gor@@
MO
bul@@
10.@@
hear@@
jwalwa
2005
consul@@
ili@@
tlatsa
baaging
simolotse
weu
baemedi
onteraka
tsheko
review
Poresidente
arab@@
called
&
funds
can@@
Wor@@
yields
tshwaragan@@
prescribed
ths
ek
yi
OP@@
tÅ¡hono
tsa@@
bosenyi
os
languages
technology
vention
oleng
tant
teko
atory
Ditsh@@
tlhak@@
copy
ani
apa
ape
kgotsof@@
Setso
values
Dira
Des@@
odi
promo@@
Bon@@
TSH@@
Ru@@
rarabolola
according
Wil@@
kopana
diversity
difficult
function
1994
letl@@
cro@@
than@@
akaretsang
bosiamisi
are@@
e.g.
ditsweng
iring
fund
lar@@
ngwe
Agriculture
t-@@
history
neelwa
atsa
den
23
took
ied
sim@@
amp@@
kabelo
Republic
indigenous
Thekenoloji
laolwa
ital
esa
organisation
molato
sustainable
universities
capital
AC@@
kgotla
conf@@
identify
fol@@
fetoga
implement
includes
wr@@
former
far
serve
opi
boemong
22
tation
dum@@
foko@@
winter
determined
lekana
Kgotlakgolo
laesense
Str@@
manage
Tha@@
final
ours
tletseng
province
atla
thib@@
self-@@
develop@@
ditÅ¡hono
read
vision
assis@@
mogopolo
article
maitlhomo
translation
out@@
etl@@
abe
thoko
Ter@@
schools
nnye
gre@@
maloba
ologolo
Comm@@
document
meet
rotlo@@
ens@@
Land
Local
kon@@
dikgo@@
ris@@
close
tlhakan@@
uno
soils
hy@@
living
inf@@
ature
included
ero@@
unit
elanang
gen@@
agriculture
Bophirima
tlhopheng
amang
Ko@@
KhomiÅ¡ene
attend
kitla
teg@@
bas@@
entr@@
ges
meb@@
abo
ped
disease
expected
gang
tlhe
dikerii
Trust
live
gwa
signed
eth@@
Af@@
dumel@@
ref@@
diphologolo
beke
FI@@
cla@@
tlhaka
26
Maf@@
competition
Affirmation
buil@@
major
lema
eto
AL
never
kwal@@
person@@
practical
Sekao
medi
question
cover
editsweng
TSO
Pri@@
informed
sete@@
active
bommasepala
Johan
pelo
mekg@@
diura
tsayang
eds
mariga
supply
lemog@@
vol@@
Bill
fr@@
Go@@
reflec@@
tical
yeng
tsep@@
tshu@@
population
thre@@
tlhole
procedures
12.@@
tain
investment
tlhas@@
y's
ask
tirisanommogo
wele
additional
chemicals
After
Modulasetulo
tractors
open
having
ulagan@@
tlak@@
presented
economy
alism
atiro
peeletso
nosi
advice
Photo
di-@@
conference
require
tlhoga
North
hectares
records
anc@@
tlwa@@
formal
Make
ably
molemeng
HE@@
top@@
changes
mafelong
lobaka
wala
cap@@
ire
posed
motÅ¡h@@
metÅ¡h@@
yego
accep@@
stan@@
bopa
audi@@
Ikonomi
Motho
olol@@
ption
executive
situation
reduce
olang
uo
award
livestock
ota
third
200
tsamaelana
tshwane
tsia
consis@@
Temothuo
lec@@
parts
might
log@@
ka-@@
agano
agana
understanding
rou@@
TIR@@
ater@@
SE
leruri
dates
Chapter
proper
yuniti
Uni@@
great
comple@@
notice
World
communic@@
kar@@
15@@
tlhaloso
representative
tlhophiwa
dirilwe
standard
matlh@@
calcul@@
CI@@
sitse
evaluation
mabakeng
ea@@
_
light
types
roba
learn
physical
tlhophilweng
nakwana
alised
establish
ane@@
waneng
ale@@
Mm@@
status
ediso
sediwa
With
Khuduthamaga
dil@@
United
feed
foun@@
okotso
MA
measu@@
fedi@@
mafaratlhatlha
nomin@@
dithoro
maina
Ann@@
identity
Puo
pay@@
principles
lear@@
dipo@@
Economic
vation
tlhomilweng
leaders
senior
shor@@
Mokgatlho
Bok@@
reasons
range
Saense
Har@@
she@@
ditÅ¡haba
phe@@
itsise
little
tlosa
oga
descri@@
epa
Manager
bac@@
Taolo
essential
lan@@
circumstances
plo@@
say
resource
purposes
etsong
montshakuno
ams
Learning
contribution
botho
late
stor@@
cases
attended
thulaganyong
summ@@
policies
outcomes
contribute
latela
thap@@
ren@@
data
ura
dikgwebo
jala
ads
khamphase
posi@@
attention
ntÅ¡hwa
RB@@
representatives
organ@@
lis@@
dings
fully
them@@
grant
itse@@
Other
employer
BA@@
show
pegelo
standards
West
Nation
16.@@
babedi
anced
itlh@@
gro@@
structure
aries
matlotlo
tlhaka@@
departments
dipol@@
My
aspects
modiri
even@@
English
atso
buisana
cr@@
sy@@
chemical
thataro
think
sig@@
May
Professor
gation
context
tically
Qu@@
Botsamaisi
ets
ekane
tÅ¡hwa
bedi
inquiry
Ditshwanelo
ide
vehicle
lekoko
force
thom@@
star@@
published
numbers
exercise
works
considered
ologan@@
Por@@
afalo
motlhatlheledi
structures
ening
div@@
selo
katlholo
kgakololo
cial
Yunibesiting
offence
lives
abelo
loss
eletsang
facilit@@
build
esi
Teach@@
thus@@
potlana
Baagi
thapiwa
ene@@
senya
register
phetogo
soci@@
LA@@
nor@@
away
sw@@
dom@@
new@@
ering
emer@@
conduct
part@@
Higher
fee
work@@
siwang
ach
September
ordin@@
ight
administrative
harvest
Chil@@
expec@@
moÅ¡wa
akarediwa
Kga@@
marketing
Maize
Planning
cho@@
New
strategies
tsenelela
kitsiso
Mag@@
anyi
masisi
wide
researchers
Any
thus
sid@@
licence
produced
selemo
swetsa
accordance
ack@@
mp@@
istr@@
enter@@
encour@@
parent
biological
kotlo
bantsho
rather
something
khamphaseng
interpre@@
Gakologelwa
summer
rest
Farmer
Community
ofo
protection
tlileng
Particip@@
comes
thusang
conflict
properly
Per@@
ired
grow
siame
solofela
wela
operations
Dipuo
ES@@
elopele
lead
mokop@@
250
tlaleletso
wetse
egong
bots@@
kemedi
thoto
wer
increased
spec@@
powers
lic@@
govern@@
ruri
bokoa
toral
Lek@@
ards
1.1
discipl@@
Bi@@
average
Q@@
bogo
PU@@
ofe
obtained
aware
ING
fir@@
tered
Black
Mol@@
mane
matic
dirileng
Ng@@
ank@@
tain@@
Ofisi
leng@@
iding
sugg@@
ach@@
port@@
ipa@@
organis@@
ditaelo
tshimologo
boÅ¡eng
here
wing
legislature
rules
ntshokuno
department
akanyo
Motlatsa-@@
kelotlhoko
tillage
iph@@
badirisi
27
ached
Business
ious
bonnye
Kar@@
rea@@
tan@@
80
bud@@
oli
bokete
input
allow
clas@@
discussion
ep
ulu
taining
oreng
tlhotlheletsa
enter
aro
lower
KA@@
't
August
enable
itsweng
awate
beilweng
sta@@
ditl@@
ikaegile
dipholisi
reng
adop@@
z
swe@@
nation
laws
leadership
14.@@
challenge
off@@
provision
pusoselegae
cop@@
badir@@
framework
fer
Porofense
Our
tations
tlhokiwa
details
kono@@
Free
Mel@@
Rector
house
kgor@@
1.2
motlhankedi
nom@@
determin@@
integr@@
pap@@
atiso
assistance
ediwang
bokan@@
mokg@@
FA@@
okamedi
enc@@
Afrikaans
forward
effectively
mmu@@
tswelelopele
umakiwang
fam@@
class
week
mechan@@
fic
buka
prevent
Setshwantsho
let
spe@@
Or@@
ntshodikuno
V
bakeng
www.@@
nutri@@
barutabana
task
deb@@
Financial
Remember
lekany@@
freedom
kom@@
busetsa
mabedi
ven
oketsega
atlhodi
ods
yong
rates
page
flow@@
Lwetse
Netefatsa
aganyo
mination
tlwaelegileng
nepagetseng
tsebe
ust
Motlatsa@@
tetlelelo
yo@@
uc@@
ete@@
hisetori
KG@@
thebolelo
i-@@
Law
Molaotlhomo
ous@@
mela@@
terekere
mind
yed
road
initi@@
emis@@
democracy
profit
Mog@@
short
achiev@@
pH
Traditional
secu@@
porting
ats
letter
sebaka
monitoring
Maikaelelo
tshwao
fetsa
regar@@
bro@@
mal
coming
Tr@@
however
NA@@
ough
itso
vote
monate
disonobolomo
influence
tlhatlhoba
Ga@@
gareng
gradu@@
atolo@@
tumelelo
visit
oki
dikuno
strategic
dikar@@
ditlamo
tshw@@
doc@@
white
Afrikaborwa
agalo
multi@@
ints
submit
ette
ologileng
professional
kgontsha
providing
placed
ster@@
main@@
2006
Tse
October
lenaane
tlogela
struc@@
rac@@
modir@@
tshek@@
regular
visi@@
kgolegelong
seeds
variety
bank
matl@@
rainfall
spray
hanselara
sekasek@@
setlhabelo
Medi@@
tsenela
ment@@
Training
foreign
alis@@
aedi
Many
v
efo
unong
Å¡ene
e's
Mpumalanga
methods
kgopolo
waledi
direng
moemedi
net@@
tshenyego
tlhomo
net
enyi
differ@@
Melao
Where
Association
tsha@@
ST@@
baeteledipele
ign
ish@@
Bantsho
tshwen@@
formed
ack
insec@@
Home
AIDS
ily
aph@@
atten@@
tlana
Sem@@
Bom@@
Rights
supang
plan@@
hoso
strategy
tlamo
CH@@
Royal
graph@@
kwantle
Mai@@
happ@@
tshi
abo@@
nel
kgonegang
fur@@
Sh@@
USA
youth
Vice-Chancellor
Diphalane
facilities
lit@@
satis@@
ick
bola@@
gompieno
condition
relationship
relating
sent
rile
ble@@
ground
Â@@
Pol@@
committed
tlhagelela
BA
mate
Ka@@
wish
ideas
Mu@@
Å¡wa
thekiso
ley
tshi@@
emi
tswa@@
mam@@
fun@@
aging
Moporofesara
fying
throughout
jwal@@
diyunibesiti
MP@@
gaisang
experienced
ath@@
mu@@
Do@@
deal@@
walo@@
matlhare
ditherisano
disoya
poverty
nu@@
tools
hos@@
etc
ess@@
isong
Jo@@
size
AT@@
isitswe
employed
ation@@
mater@@
dimilione
tumelano
dirise
Dika@@
W
crime
events
disa
March
Thut@@
ister
kutl@@
non@@
saen@@
apele
appe@@
Gauteng
inno@@
spra@@
babatlisisi
Nako
dirwe
Di
emor@@
Study
tser@@
cycle
outside
swa
=
90
isitse
pho@@
ditsamaiso
ances
loan
gency
lack
kgab@@
ib@@
kgat@@
dinnye
pitso
appeal
ces
acqu@@
iz@@
ish
seen
outu
insurance
bophirima
tshimologong
H
dini
mally
metshameko
Lou@@
stitutional
laol@@
thapi
Motsheganong
Sch@@
tax@@
reason
amegang
Bokgoni
inputs
ditswe
editswe
workshop
afe
itseng
kago
election
badirammogo
ables
dikgomo
achieved
ANG
pt
effec@@
ough@@
post@@
really
ditso
rural
Mat@@
wis@@
Phatwe
surface
medical
DitÅ¡helete
opa
magan@@
Year
28
diriswa
opalo
31
leaves
mm
porof@@
reports
democratic
oketsegileng
transport
tharabololo
ological
cal
R1
dikolo@@
By
Sekolong
mail
views
agong
Court
29
unless
editse
uelo
kgetho
janala
olao
ghts
val
Da@@
rebol@@
Senthara
ners
ungo
nal
TB
tsamaisong
hal@@
bathong
elec@@
particularly
ja@@
leno
Madi
dim@@
kgolagano
dikolo
bopaki
Western
mogala
tso@@
tol@@
cont@@
natla
courses
cs
func@@
botlhoko
potso
santse
ping
oil
ingu@@
olu@@
deleg@@
longer
tro@@
dibuka
itemog@@
supiwa
form@@
nutrients
Pa@@
transformation
asete
300
botsa
diseases
rand
fic@@
Mopitlwe
att@@
cultivars
khopi
Africa's
provisions
big
agi
existing
animal
compar@@
commitment
diteko
Members
Morafe
managed
dom
oms
enjo@@
mothapi
Criminal
believe
kg
omo@@
Officer
inÅ¡orense
.za
fenya
Pl@@
peri@@
dituelo
kolo@@
outl@@
benef@@
letlole
omet@@
igh@@
Porojeke
botsalano
Motlhankedi
depth
Gro@@
suitable
tile
itation
kgatelopele
Palo
source
iting
Produc@@
June
phone
phasala@@
happen@@
connec@@
ys@@
ames
maatl@@
men
extent
rotation
plac@@
perform
Kap@@
Ofising
TSE
ogan@@
fields
Loago
lab@@
NE@@
ership
phu@@
rie
Cont@@
banna
harvesting
individuals
ankana
rap@@
upon
tlhalosiwa
Res@@
some@@
lud@@
directly
tseny@@
Dirisa
etela
there@@
ately
Dithuto
Support
Ther@@
though
dem@@
tific@@
permanent
wa-@@
kgeth@@
power@@
paper
akeng
Dikgosana
TS
romel@@
koo
dise@@
athikele
Studies
recei@@
soy@@
und@@
14@@
inspec@@
gets
Togamaano
note
Sup@@
porojekeng
ves@@
OK@@
Once
leitlho
tshol@@
remember
soon
tak@@
etle@@
ber
governance
remain
Student
minutes
stu@@
teachers
tlhol@@
Indi@@
occur@@
separ@@
Mof@@
degree
modulasetulo
transfer
feedback
Tiriso
internal
inci@@
baÅ¡wa
17@@
cer@@
ditok@@
scienti@@
chec@@
Each
minimum
36
35
Å¡en@@
GA
Prov@@
letla
Is
alang
proof
diatla
Pretoria
ensuring
kgwetlho
electricity
affect
encourage
sotlhe
molaong
kgonagalo
ly@@
malatsing
Char@@
yourself
tiv@@
bokao
atlaneg@@
room
reference
akolodi
assets
walang
acts
2003
dation
From
Jaanong
boj@@
ot
High
consider@@
gar@@
graduate
roots
bonwang
eb@@
Letlole
becomes
dite@@
boswa
dikopo
protec@@
deal
eletsi
ditshiamelo
electr@@
moeteledipele
implements
tik@@
insp@@
follows
_@@
ME
trade
concerned
cm
gontsi
ero
bokhutlong
lenane@@
ply
global
tÅ¡@@
bagolo
tshamek@@
banka
16@@
well-@@
call
agalang
Although
nonofileng
significant
Ab@@
FA
greater
diporofense
opolo
pa
ku@@
amogelese@@
sala
dikabelo
tshola
Borwa
vers
Tlatsa
mafa@@
golagan@@
boikuelo
kgobokan@@
ulo
reading
toto@@
tex@@
less@@
2002
ese
brand
wat@@
jud@@
tsenyotirisong
sic
compet@@
matsapa
ntshiwa
efore
KGO@@
resis@@
sef@@
air
bonwe
yk
ced
vers@@
ofisi
overall
esente
popego
Lefapheng
gakologelwa
AS@@
December
April
simololang
alists
Mic@@
today
segompieno
Eng@@
parents
planter
pressure
decide
tlhabolo@@
whose
sekg@@
maitsholo
isani
businesses
Bontsi
Day
employee
ental
Bokone
feel
reach
2.1
setlhopheng
tance
tsidi@@
ret@@
atively
tlal@@
ekana
aim
]
gap@@
Most
activ@@
Johannesburg
ya@@
itable
implemented
balance
196@@
kgwebong
July
magolo
MENT
Pula
Communication
inking
ID@@
dents
applications
tlhotlhom@@
Ser@@
Akatemi
Tlhokom@@
UR@@
send
Cabinet
thutong
ron@@
ntÅ¡ha
Gre@@
phos@@
credi@@
kopiwa
tokafa@@
weeks
ditlhogo
sci@@
baÅ¡a
motlotlo
diriwa
direct
ept
elan@@
mmele
Finance
tured
Moreketoro
On@@
matsatsi
IT
relig@@
tlhokiwang
appoin@@
ikan@@
ngo@@
ey
kemonokeng
egwa
producing
ses@@
gender
nearest
points
ome
ntlo
fetol@@
val@@
that@@
deed
phar@@
bidiwang
onom@@
disalela
limited
dirag@@
ntlheng
manufac@@
contract
ID
Fer@@
goals
Lefelo
weetswee
ditlamorago
setlhogo
9.@@
oo
Water
arabo
herbicides
Sedimonthole
companies
Elec@@
ban
tshupo
statement
ofising
ekisi
moÅ¡a
dikgoka
godisa
ide@@
risks
Plan
abilities
Fund
arolo
ships
His
fair
choice
negoti@@
Ti@@
sepodisi
dipuisano
Seetebosigo
mof@@
lol@@
Motla@@
deli@@
step
Moranang
diterekere
preparation
diversion
pul@@
pub@@
32
Ngwana@@
feto@@
Boitekanelo
modiredi
Porof@@
candi@@
More
tively
passed
kind
likely
planned
ished
prov@@
18@@
prior
Dim@@
celebr@@
ELE@@
tswela
Mametlelelo
mentation
...
altern@@
accredi@@
vari@@
direkoto
aba
ided
primary
Tsela
gag@@
selekanyo
duelwa
indu@@
purcha@@
whom
3.1
Segosi
dly
Ber@@
arly
worked
isan@@
applicant
tshelo
ser
adiwa
approximately
ntÅ¡hwafa@@
ereiti
January
PE@@
boeteledipele
infec@@
Organ@@
prepared
kwadiso
onto
compl@@
Dan
wadi@@
But
literature
bele
sense
tlhokomedi
establishment
Tek@@
site
February
affected
tsana
occup@@
tionary
ditshwaelo
Ra@@
recommendations
advis@@
tlhog@@
kgakala
botlhok@@
sion@@
opano
Protec@@
holds
emb@@
Boleng
inary
[
design
strial
tlhatlho@@
dintÅ¡hwa
focu@@
batsadi
letsholo
MS
atives
session
recent
consent
sport
yega
ills
agiso
temper@@
kamano
responsibilities
November
dikga@@
healthy
Kabinete
bophelo
badiredi
return
mmino
siamang
fano
demonstr@@
ara@@
hab@@
cheme
grow@@
tory
motiv@@
fos@@
dro@@
OR
tileng
itumelela
motlhokomedi
theong
Fac@@
wotong
Dithulaganyo
immediately
bongola
Americ@@
difference
expan@@
tsholo
Schedule
cur@@
expla@@
aane
spective
bonang
polok@@
priority
dumal@@
diphitlhelelo
sedirisiwa
Letsatsi
followed
Your
ditirong
residents
obli@@
custom@@
face
ditshwantsho
bala
loga
board
wao
true
chairperson
eki
Complete
involvement
makoko
boemo
atong
Bt
cation
intaseteri
possib@@
porofenseng
institutional
dikhamphaseng
obser@@
radio
trust
letlhak@@
export
Wel@@
Gu@@
leave
ditlapele
ress
science
IR@@
Q
1997
expertise
poration
ye@@
fetog@@
Gore
tivity
kwadilwe
upetso
unya
je@@
kwadisa
procedure
everything
itseanape
discussed
leader
jec@@
hold
exis@@
jur@@
sebolay@@
consideration
olwane
PRO@@
sekai
Board
nitrogen
fo
tekany@@
Annette
adult
Tlhakole
kgath@@
egae
metsotso
Unit
Wal@@
ense
bofelong
eter
sunflowers
ve@@
lenaneong
wid@@
ditse
cour@@
Fol@@
dikamano
bot@@
valuable
storage
thefosano
Emplo@@
komelelo
objec@@
dikarolong
bala@@
effort
ought
buy
category
dikgopolo
rulagantsweng
distribu@@
Fun@@
run@@
Ku@@
boela
setifikeiti
demand
3.2
mose@@
setheong
integrated
sep@@
eteledipele
Use
karolwana
awards
disenyi
Phukwi
puisano
tlhoma@@
utlwa
tlholego
meleng
leboga
alist
Tu@@
ste
older
providers
merafe
wi@@
ney
farologan@@
comply
lel@@
represent
2001
bega@@
Administration
caref@@
Premier
batlisisa
itha@@
kgonne
inform
follow
prec@@
olom@@
sufficient
ikanse
foo
tlhagisiwa
books
colleagues
hope
prises
perc@@
kgan@@
gwe@@
import
oger@@
amogetsweng
front
matlo
phasal@@
Car@@
deta@@
gaka
managers
berg
dumedi
someone
easily
metlha
direga
Pan@@
thor@@
serious
dithutiso
oth@@
illi@@
itting
let@@
Mananeo
steps
pabalesego
dikgweding
HO@@
esting
move
oring
safe
omi@@
Town
farms
pharologano
ishing
root
ck@@
depend@@
Katiso
environmental
princi@@
gate
Southern
turn
Sim@@
shap@@
gak@@
enj@@
nonofo
origin@@
Cap@@
ose
councillor
metara
method
maswe
iii
Ri@@
tono
kept
itir@@
Leano
ololwa
08@@
career
yetso
guide
motsadi
useful
rev@@
maga@@
ditlhotlhwa
http://www.@@
lub
mid@@
scale
vic@@
dikago
protect
Fe@@
Coun@@
provider
stand
Identi@@
opong
sale
ditlhaka
ato
Mekgwa
bothati
porokerama
ipi
Ses@@
gotlhelele
sell
analy@@
allocated
Tlhalosa
educ@@
poso
teacher
death
Project
Kruger
yn
isag@@
Chief
consultation
enjenere
proceedings
affor@@
Translation
Ditheo
kgotlhang
association
idea
worl@@
bean
awarded
tswana
den@@
huge
alef@@
gives
holder
don@@
added
FOR@@
irs
tings
wo@@
atshe
interpreting
keeping
ditheong
tshenyo
Eastern
decided
bring
thi@@
duc@@
extre@@
recor@@
measure
sk
instance
Provincial
tent
maintain
dedi@@
Selegae
Bak@@
effici@@
buang
omp@@
anodi
itswe
indicators
ophol@@
ime
bonnete
priorities
players
tsweletse
ditokomane
seph@@
Ditokololo
boko
kalafi
olelo
tlele
Another
Sel@@
break@@
okgwebo
Vic@@
CT@@
Fo@@
produc@@
DIR@@
wi
supporting
enseng
oloji
Mets@@
round
phaposo
Every
mats@@
dikwalo
cat@@
boikaelelo
facilitate
onic
arrang@@
Cer@@
web@@
Du@@
molaotheo
mararo
bou@@
apheng
affec@@
Ferikgong
Gantsi
tlhokwa
fatsa
duce
tlhabologang
temo
lekalekantsha
behalf
elel@@
tlheng
Tshekatsheko
bosupi
istic
rarab@@
race
nationally
green
reasonable
sible
external
treatment
diri
tshwanetsweng
ille
Molemirui
upo
beans
DU@@
anti@@
boineelo
lekanya
mes@@
iled
tshireletsego
ands
show@@
2.2
became
gana
enteng
improved
LA
Mphahlele's
appro@@
matshelo
jobs
ak
webi
cattle
tsereg@@
alela
Hou@@
ready
mokaedi
agenda
Tum@@
tsamais@@
cli@@
dirisiwe
yet
Mop@@
boa
thale
sekolong
emo@@
dikhamphase
conducted
majority
AP@@
tirisano
stored
oloso
kadimo
dile@@
heat
ikwadisa
Kapa
ikgolaganya
disp@@
mek@@
represen@@
fedisa
ones
weather
kam@@
fre@@
Union
agalong
offer
tebang
appointment
states
director
ditsenngwateng
Diporofense
olwana
lesome
hom@@
bolaya
eri
gasetsa
Proc@@
Jan
objective
ogodimo
tence
Facilit@@
bus@@
PAR@@
sph@@
lena@@
lokela
announced
fiwa
guidelines
IS
atisi
elelong
api
ung@@
John
allow@@
tshitshin@@
studies
tsene
bantshadikuno
ligh@@
deg@@
rene@@
tsatsing
uni
maphata
dikhu@@
arch@@
ongor@@
conservation
sekase@@
Mandela
base
resol@@
kantorong
agala
10%
journ@@
sunflower
G
violence
diko@@
profile
criminal
preliminary
regularly
bula
Group
relations
district
don't
KE
maiteko
discuss
ega@@
birth
tis@@
segolobogolo
Buil@@
NA
tshimo
dipa@@
elete
intro@@
introduc@@
pakeng
And
prepare
particip@@
kgololosego
similar
mmala
re-@@
sul@@
evalu@@
kie
TION@@
dibolay@@
ONG
kagiso
pre-@@
bute
jus@@
expl@@
Å¡ha@@
ika
itself
mokwadi
looking
Kgotlatshekelo
kontin@@
malapa
tlisisi
units
Tikologo
lephata
Lin@@
lekwalo@@
workplace
estima@@
PB@@
dow@@
ues
technical
indi@@
docu@@
moj@@
redi@@
disc@@
ular
lekalekan@@
strong
LO@@
delivered
speak@@
WE@@
24@@
ccer
med
kaelo
grade
bioprospecting
samagana
resolution
monongwaga
sho@@
distin@@
tÅ¡ha@@
tie
ideal
art
Academic
BE@@
ontsha
fri@@
engag@@
miner@@
leaf
ditlhapi
fetolwa
piec@@
trav@@
tsholofelo
pel@@
tlhaolele
econom@@
Labour
bogolosegolo
maximum
aimed
ST
essing
clean
podisi
Tswel@@
afor@@
itsiso
cc@@
ity-@@
accoun@@
seven
Are
daily
webosaete
paragraph
Far@@
rer@@
propos@@
confir@@
elo-@@
Sub@@
eased
1.3
exp@@
ira
pris@@
tunately
tsheng
incor@@
Conference
Mola@@
self
mark@@
dikarabo
thebolo
European
tshono
eketoro
ongwa
gs
dikumo
diragalang
Rel@@
monitor
itum@@
mosadi
Ith@@
child's
ommu
okam@@
SET@@
tlhang
Kakaretso
region
seemo
Justice
long@@
dikop@@
Ju@@
sia
agreements
obtain
Please
eseng
tiki
Tra@@
Guide
chan@@
bukeng
utabana
Forum
tsin@@
tran@@
Is@@
R2
PhD
atlega
jour@@
201@@
atlegileng
etogo
gh
mul@@
dre@@
aledi
HI@@
WE
opti@@
ened
willing
nyal@@
declar@@
excellent
CC@@
mong@@
Sun@@
requester
ures
phatlh@@
machinery
link@@
covered
articles
exce@@
Setswana
senyi
waga
tar@@
aut@@
anta
secon@@
aganye
Molaodi
puong
ulation
pic@@
ilione
ongorego
ches
eele
masepala
write
tives
sign
pus@@
love
testing
CE
akha@@
imm@@
rut@@
Kop@@
cas@@
SAPS
retary
IL@@
reduced
Imvula
Rob@@
motor
rebola
dev@@
worker
statements
ikob@@
believes
carri@@
outs@@
quanti@@
Ã´@@
house@@
Jan@@
clearly
housing
target
BoditÅ¡habatÅ¡haba
histor@@
fertilis@@
disele
adima
SO
dithuso
lecturers
wadiso
Registrar
lob@@
apeng
Vis@@
specified
ki
single
tswal@@
representation
reli@@
Rephaboliki
councillors
ential
batlhatlheledi
moagi
provinces
Hon@@
ownership
laborator@@
Moadim@@
forming
Engineering
Tax
195@@
wants
ive
educational
owner
elwane
ditshupetso
CE@@
thapo
tioning
smal@@
occur
aw@@
on-@@
amano
dikotla
illing
ion
Mul@@
Fur@@
estic
milione
alities
Mongwe
mark
contin@@
dikaelo
.org@@
Production
almost
okoano
percentage
diso
versity's
kabelano
ruption
utara
option
sections
recogn@@
atis@@
increasing
gog@@
ration
Ref@@
bodies
tshakuno
elements
arabela
KAR@@
rated
adequate
araba
remains
PO@@
Metsi
veget@@
ina@@
resul@@
1996
ited
till
akgola
.ac.za
character@@
otho
abi
neetsweng
sib@@
add
tshwanelang
tsing
bosa
HA
ikaegileng
check
hanseleng
cy@@
kgonega
gene@@
konteraka
tseleng
sum@@
tatlhegelo
bewa
wadi
Pha@@
fikeiti
defin@@
kgale
mom@@
Mmidi
edisa
Cur@@
polan@@
independent
dibeke
tlhagelelang
pet@@
compon@@
People
While
l-@@
sejalo
latlh@@
retur@@
Tlhalo@@
ikgol@@
kgatlheg@@
consum@@
tshwantsh@@
ase@@
tia
ceremon@@
motsamaisi
presentation
Athikele
Indu@@
oloka
suga
Roo@@
morutabana
tsweletseng
tasks
forma@@
gok@@
Nel@@
ading
iling
Cul@@
partnership
kgatiso
ink
NG@@
concept
shown
Dir@@
learner
diforomo
tlhaelo
communal
uses
bed
Have
lose
CON@@
answer
latlhegelwa
kamogelo
appreci@@
neg@@
aster
everyone
funding
whe@@
Prof@@
Roundup
ditu@@
soybeans
khoso
liter@@
Merwe
encies
tleng
agreed
maduo
Assessment
yers
dibe@@
sectors
Seese@@
fitlhel@@
phep@@
heketareng
Mefuta
dity
Police
owned
acted
isitseng
wedi
Yuropa
valid
favour@@
blo@@
khutshwane
explain
sof@@
every@@
tsos@@
mefutafuta
read@@
pping
ipon@@
entire
wadisi
semin@@
names
omphi@@
mess@@
ully
proposed
intended
65
feletseng
memb@@
ok
Bank
machine
emikale
Dec@@
bran@@
caused
Ding@@
konokono
seny@@
use@@
Tlo@@
maik@@
gres@@
huma
ended
space
officials
leban@@
Matlole
J
bokamoso
approval
tshameki
mothu@@
atolosa
billion
kil@@
atures
collabor@@
thematics
tsweretshi
tlhabololwa
gajaana
Sus@@
Combrink
proud
iÅ¡ene
hib@@
herbicide
pak@@
bontshang
unique
Appl@@
male
&@@
batlhankedi
spo@@
respec@@
lekala
negative
duelela
tekanyo
magae
species
station
bear@@
egeng
creation
bokhu@@
29@@
Å¡he
ises
recognised
Molao@@
intellectual
Bokana
outh
FE@@
Directorate
General
Jalo
efforts
elediwa
chi@@
ralala
strugg@@
utlw@@
aims
look@@
somarela
came
emiti
150
agree
vil
tsebeng
edu@@
mmaraka
mokansel@@
tshomarelo
erong
duties
nie
motlatsa@@
batsamaisi
ream
amefero
trained
exam@@
tlhamiwa
stru@@
ici@@
phet@@
patlisisong
tlhamal@@
Bol@@
Fou@@
continent
dikgatlhegelo
dinon@@
tat@@
thanolo
simol@@
ins@@
boitshwaro
Kler@@
tatelano
sebele
ail@@
prev@@
charge
opha@@
tifikeiti
BABS
fees
Tonakgolo
ngaka
first-@@
users
Portfolio
omong
lekanyetsa
unt@@
abuse
seka@@
mafulo
atisti@@
link
defined
opinion
moletlo
balo
created
supported
appear
tekano
amana
output
sego
num@@
Tiragatso
utu
abela
invi@@
controlled
vac@@
Relations
lish@@
mofero
itsegeng
isetso
designed
gated
Farmers
Environmental
boph@@
mef@@
constitu@@
Grade
aterese
Melawana
fl@@
born
rom@@
tere
cash
olomo
ikutlwa
ick@@
eration
ric
tlamedi
dino@@
Submit
Check
pass
Vice-@@
kal@@
mmenejara
involves
istics
indic@@
pose
fi
bolelela
acknowled@@
Maik@@
mentioned
elwana
amogelang
wri@@
supilweng
normal
liqu@@
nation@@
edi-@@
portfolio
sever@@
Municipality
400
ekeng
realise
succ@@
sequ@@
ELA
grass
ditions
options
dikolong
achievement
Of@@
Gra@@
Who
indicate
Ã´
THE@@
Ker@@
residu@@
ie@@
Tsheg@@
batsi
tshiamelo
ustees
Ho@@
Botsayakarolo
tona
Au@@
ditshenekegi
title
loo
beyond
khuduthamaga
recognition
poro@@
setshwantsho
Ditshenyegelo
matlho
Herman
UL@@
emerg@@
die
Leloko
spraying
ision
provisional
Godimo
eness
Moporesitente
helps
manno
boitumelo
Academy
kwe
yalo
tes@@
winner
fitlhelwa
tlolo-molao
cent@@
-term
Sa@@
organised
store
acces@@
Jwa
elia
isanong
esidente
married
household
respond
played
amogetseng
kgal@@
watir@@
Kgosana
tlhatlhob@@
diaparo
hanseliri
Lead@@
multil@@
kapa
yoo
ass
vice-@@
Fin@@
lal@@
fru@@
survi@@
situ@@
expenditure
alam@@
mes
boima
Khonferense
puts
afeng
Cha@@
pec@@
influ@@
WAN@@
ium
teaching-learning
Nom@@
bonalang
prepar@@
Basadi
nose@@
eight
conv@@
specific@@
awar@@
bus
represented
elek@@
Foromo
nity
tool
enterprise
plus
aper
KE@@
amongst
tiwa
tshameka
aforika
orong
bl@@
recommended
tlatshek@@
Corporate
residence
orago
standing
CIS
ind
Pusoselegae
division
Bolaodi
ancy
seeing
dipe
reser@@
delegates
San@@
io
les@@
targets
Bud@@
pal
iseng
zine
etlo
lesego
depending
diragadiwa
prene@@
spent
design@@
33
rit@@
deliver
POTCHEFSTROOM
48
phaposing
politi@@
neilweng
mainly
ditogamaano
practi@@
kgonisa
3.3
rows
mentsi
wale
rement
nama
setegeniki
GA@@
politiki
ator@@
reduc@@
causes
phepa
fec@@
rulaganyetsa
omane
jects
xed
flo@@
Op@@
dipe@@
becoming
trial
ee
improvement
real
eker@@
setlh@@
cle@@
raised
correctly
sole
kokoanya
atlho@@
kwadisitsweng
ending
stages
DC
efficient
serori
Lon@@
Society
kgoneng
bidiwa
ree
equal
venue
imi
stal@@
Thanolo
equality
samples
Plessis
75
phato
Cro@@
baakan@@
motswedi
nep@@
kgara@@
easy
hat
rola
irrigation
oso
diÅ¡ere
fire
seti@@
dipuso
abelwa
koketso
avoid
contrac@@
word
toropo
tains
spread
stitution
600
tlapeomolao
improving
itekan@@
Rom@@
solution
ricul@@
eteroniki
Sp@@
Van
impl@@
fish
tlhalosang
goods
umakilweng
winners
stances
tsewang
Yuniti
kele
attem@@
leged
nnileng
motion
Afor@@
rika
ging
notes
amend@@
Pet@@
States
mogo
molelo
umo
ellow
grap@@
dula@@
diphoso
ore@@
que
categories
tics
concer@@
relationships
applies
Phi@@
Limpopo
jone
extra
Legorong
Legal
advantages
pursu@@
Dipal@@
kha@@
run
olagano
employ@@
hands
setilo
initiative
save
mile
1995
ids
water@@
ors@@
offered
adver@@
Tshireletso
km
tanding
hl@@
dal
pholo
otherwise
MBA
Kan@@
model
ebor@@
4.2
ntwa
fatso
exci@@
ices
listed
kwalwa
Stra@@
Article
tlhaola
mola@@
compliance
ul
tained
Human@@
Naga
Fre@@
11.@@
elapa
fung@@
Ge@@
boitshegang
rebo@@
Provinces
ash@@
ordinator
Stellenbosch
mation
commun@@
aganeng
arabololo
thobalano
customary
thul@@
2%
Soil
ku
please
3%
alia
disen@@
tiveness
Set@@
nayang
ikaelela
TSA@@
boneng
barutwana
At@@
HEQ@@
Why
sely
mean@@
elontle
isiwe
rati@@
RC
So
Ã©@@
apartheid
asi
Motsamaisi
aya
tlap@@
vement
places
lost
dang@@
operating
beginning
seek@@
bia
Fir@@
tirego
kamp@@
sesup@@
70
Lenane@@
gileng
keng
buleg@@
ITE@@
afala
asked
NG
ard@@
accommo@@
loans
tlhale
tong
Agricultural
SS
Foundation
ile@@
Kgwadi
makwalo
Award
sepor@@
Piet
facilitators
ditshitshinyo
utilis@@
excellence
Educ@@
Develop@@
mining
DP
izen
Foreisetata
ferred
examples
tify
iweng
exchange
melemo
ity's
IA
super@@
ported
idence
ago@@
applying
acting
olase
liam@@
CA@@
corporate
judi@@
KwaZulu-Natal
SAL@@
vative
lebelo
tas@@
inst@@
itumedisang
code
jwalwang
tsalo
thapa
fitlhelelwa
stead
adap@@
shares
shared
Dean
letleleleng
rul@@
SI
gasa
apo@@
motlola-molao
ming
assign@@
sample
jj
sioner
thly
itÅ¡h@@
saena
simply
veld
Liter@@
Phase
kete@@
core
ditlam@@
ankge
Speaker
hic
tlhomeso
Regulations
probation
agwe
academ@@
beli@@
utegi
ction
tumalanong
busy
jw@@
bs
dibolayamefero
sebopego
dithut@@
aki
fontein
Tri@@
break
Audi@@
ums
productive
Marlene
namely
athikeleng
Metshameko
aso
vering
tshwere
peop@@
translat@@
tsapa
siamo
tsereganyo
clin@@
don
failure
Tshwan@@
claim
advance
public@@
elections
addres@@
lation
letlhomeso
turing
ible
experts
tshwerwe
tlhophilwe
goes
wit@@
ali
markets
botlana
itara
Khampase
kgolwane
ampiri
reported
Yunibesithi
series
oloniale
Resources
tlholwa
BI-@@
drive
refer
kabo
suf@@
respective
lege
dependent
load
hor@@
Vi@@
Å @@
matshwanedi
sediriso
tlhatlhobi
Boikaelelo
keting
central
brary
countr@@
bolo@@
resi@@
partners
gov@@
bakwadi
amegi
gain
khamph@@
mic@@
entitled
sentence
tlhelelo
mas
Sepodisi
20%
Sta@@
accountable
Revenue
ssed
ko
Willi@@
esti@@
tiriso@@
alumni
tlwael@@
actual
tloetso
Congress
seas@@
flow
solutions
tsele
Ensure
ape@@
outcome
emiru@@
mmasepaleng
leading
kemo
dingongorego
setlheng
Sam@@
commis@@
clero@@
release
System
maikemisetso
detailed
Pholisi
kokoan@@
sel
oul@@
Bal@@
ould
Policy
SU@@
indicated
diesel
Amerika
fokotsega
inthanete
Letlha
argu@@
fuel
occa@@
kge@@
SSA
answ@@
bodirelo
near
Province
je
tlelaemete
Amendment
ama@@
gagolo
seed@@
rought
prioriti@@
kutlwano
robedi
Ã«@@
tsibogela
allows
maka@@
Est@@
RO@@
realised
khonferense
Bana
drought
Bolemirui
Tekany@@
pusong
tlisetsa
harvested
mokhanselara
shows
instruc@@
Lu@@
experiences
boto
lenane
himself
otwana
addressed
payments
.co.za
onomi
dipon@@
CC
tlhabololong
lwan@@
magaeng
Since
eile
itu@@
38
chil@@
temogo
fixed
diver@@
quick@@
panel
amente
eld
IN
Photefolio
weetso
Adv@@
year's
le's
reetsa
TLA@@
ancing
Nna
criteria
associated
fore@@
tseye
TU@@
regional
music
grazing
participatory
valu@@
eties
siding
golego
wafa@@
tlamelang
Quality
tlong
PS
iset@@
assess
items
ordinary
tlol@@
lebelelwa
certified
poto
Table
yunibesiting
modirisi
bagwebi
Tlhaeletsano
annually
ome@@
alese@@
bokae
Eno
ques
dikil@@
stop
imp@@
Afrikans
Tlamelo
bil@@
dikgak@@
no-@@
expensive
ications
know@@
cated
TSHE@@
harikhul@@
umak@@
ekan@@
__@@
fill
bitsa
my@@
setting
rol
actu@@
abled
marriage
magiseterata
ession
tein
Mots@@
khampaseng
moputso
concepts
ano@@
ventions
dress
viewed
cultivar
expand
ofi
kgaisanong
decision-@@
Form
Mahube
tlhomilwe
mogote
Tlhatlhobo
Integrated
wetsa
ists
accurate
enhance
met
modern
1%
botsh@@
excep@@
ster's
attitu@@
response
soya
nomoro
tering
aff@@
concerns
implementing
47
Ditlhopha
Botlhokwa
comprehen@@
faculty
Setlamo
tiraga@@
sitseng
itshinyo
goal
research@@
dikan@@
choose
consists
thir@@
tlhomameng
ena@@
quite
boitseanape
thati
survey
dren's
dikao
kete
ety
Access
rule
Sex@@
dikologa
law@@
tshegetsang
ediwe
apar@@
e.
Oversight
kgetlo
amogetswe
seporofeÅ¡enale
ash
edule
lekanang
matlhagatlhaga
sedik@@
spir@@
Be
broad
le-@@
mean
tshwaro
marg@@
guardian
makgaola@@
fast
zed
running
setswa
abelana
Mc@@
madirelo
ticipa@@
iliation
omiting
ikemetseng
roles
wear
emetse
morero
4.1
Jer@@
behaviour
phoso
generation
ulaganyi
Lekgetho
chang@@
fatsi
enÅ¡ene
tirement
Inv@@
poroker@@
Tourism
contained
Systems
Tlhotlhwa
olosa
tshoganyetso
ith
sometimes
factor
ON
erous
chosen
matshose@@
Pers@@
repa@@
construction
solid@@
ered
Lotseno
victim
roun@@
dipharologano
sam@@
RI@@
ongwe
friendly
za
ammaaruri
fatlho@@
Å¡weng
generally
rees
motlh@@
Wh@@
cultivation
istrate
koko@@
tually
GEP
oling
citizen
siwe
successfully
advantage
granted
highest
tsweletso
phela
lication
Ca@@
boikhutso
amogele
omen's
Moka@@
abal@@
sonobolomo
bet@@
bra@@
montshadikuno
remun@@
MOL@@
operative
legislative
zz@@
edition
rwala
Post@@
laolang
seta@@
Stu@@
kat@@
selling
sym@@
tative
probably
enyegelo
accountability
computer
2-@@
Also
tlaleletsa
bert
Accoun@@
losika
cru@@
Dikh@@
enced
tsibog@@
initiatives
aches
Nic@@
ipe@@
thought
changed
complex
botshelong
Khu@@
buisan@@
Governance
tlhaga
shops
KP@@
post-@@
phatlala@@
dinawa
compan@@
oured
tema
motlhofo
motsh@@
Work@@
Author@@
botlhano
phateng
welang
techn@@
>>
climate
launched
dipolotiki
iking
concern
Commis@@
Khampaseng
Tho@@
emerging
involve
ISO
itshupo
manual
settl@@
sound
Ni@@
Trade
ides
tlholang
isagwe
spend
examination
Win@@
giving
hop@@
ilities
consequ@@
Two
biggest
KGA@@
Procedure
naeterojene
50%
bogole
Batsayakarolo
meaning
apo
ural
spon@@
ote
beneficiaries
tlhare
itsisiwe
kalogo
NR@@
Small
-based
it-sharing
kgweetsa
Rev@@
Staff
Dilo
mechanical
Keep
Er@@
discussions
tlhakanya
ditlhabololo
evidence
Them@@
Safex
ison
GOR@@
huduthamaga
tlhokomelwa
matsa
laun@@
illage
dimogolo
managing
campaign
distance
but@@
ilosoph@@
chal@@
Mekgatlho
bararo
dikotsi
oke
raise
ourselves
gon@@
sli@@
paakanyo
sexual
psych@@
yunibes@@
dou@@
retel@@
suppli@@
Badir@@
gave
-General
30@@
Stand@@
som@@
gl@@
Koko@@
soleg@@
put@@
kopanya
consumption
emong
lets@@
dent
White
goreng
getting
repe@@
sters
itlhoph@@
kaedi
t's
lotso
privi@@
web
wed
seriti
CB@@
nesses
speak
dance
posing
tlhwatlhwa
sources
with@@
operate
ophathutano
iters
speech
pampiri
positions
pestici@@
nw@@
cribed
atlha@@
wonder@@
tefolio
loso
podi
competi@@
cultiv@@
cy
del@@
ant@@
Wes@@
ani@@
det@@
Wa@@
tlholo
ials
saf@@
sustain@@
kgwa
ammogo
.co@@
book@@
usu@@
enda
ched
arch
ilo
radi@@
vie@@
alloc@@
00@@
mit
ima
anguages
ound
challeng@@
Than@@
guid@@
oni@@
institu@@
olaodi
Boi@@
bolo
diwang
Offic@@
Nor@@
sident
eedings
shi@@
uteng
ikg@@
exper@@
ji
holders
ensu@@
commer@@
tial
half
botl@@
formance
moso
Mela@@
iso@@
etsokabo
regis@@
X
Johan@@
vehic@@
otong
resid@@
week@@
bir@@
webosa@@
ithi
cellence
dikgwe@@
ntshok@@
fairs
idi
atural
tern
hap@@
Ik@@
refer@@
thong
egelong
Leg@@
bof@@
pil@@
essi@@
amework
necess@@
admin@@
ols
sang
vir@@
diredi
alise
bos@@
ff
Plan@@
ecu@@
inclu@@
yetsa
sharing
cell@@
e.@@
versi@@
letlel@@
ath
Thu@@
bes@@
tlhatlheledi
adim@@
construc@@
establish@@
ikaborwa
vely
tshak@@
previ@@
Spe@@
Thek@@
olo-molao
RS
iter@@
dition
text
tshameko
labor@@
tatlh@@
________@@
guar@@
abor@@
see@@
onfer@@
firmation
nak@@
sun@@
dist@@
bogo@@
mogo@@
nete
stitute
d's
ult
ication
cellor
formation
unity
municip@@
..@@
inthan@@
tlhabol@@
professi@@
peti@@
gy
tech@@
ego@@
pabal@@
omen
phas@@
aker
MEN@@
Bas@@
grea@@
ilit@@
tural
Her@@
Afrika@@
tshwer@@
thara
arabelo
porofeÅ¡enale
okeng
Phu@@
une
particul@@
gram@@
kham@@
boga
bolelo
agatso
Baf@@
chem@@
ur
sen
¼@@
gg@@
wantle
alth
ame@@
Mopor@@
ticul@@
Cour@@
*
cam@@
surance
Em@@
thulagan@@
ageng
Es@@
akaretso
tshadikuno
lish
Boph@@
farm@@
gau@@
mach@@
stat@@
pase
reason@@
utes
teka@@
aspec@@
itume@@
Manag@@
mokerasi
victi@@
ditÅ¡h@@
Saf@@
Dur@@
Tech@@
st-@@
emetseng
syste@@
Pot@@
susta@@
tici@@
manag@@
ans@@
okololo
torong
mmar@@
kgak@@
ithuti
ques@@
Pub@@
far@@
exerc@@
polic@@
rer
tsay@@
omph@@
ng
urity
increa@@
Å¡eng
tshen@@
°@@
Director@@
eka
tumel@@
prise
Ha@@
emonokeng
hansele
Lef@@
ologang
iry
invol@@
rat@@
ineering
certific@@
theid
boka@@
edimo@@
Lab@@
Mer@@
ike@@
Tsa@@
fav@@
tice
________________________________________________________________@@
pow@@
apha
tled
Econom@@
emeng
estment
oa
atir@@
GE@@
olotiki
prove
otso
servation
Ag@@
stitu@@
scho@@
tum@@
regi@@
immedi@@
aseng
direlo
sika
kab@@
siamisi
contr@@
olofelo
mage
tun@@
ause
tsof@@
Farm@@
seter@@
emon@@
Cri@@
Z
avail@@
batlisisi
elese@@
dithu@@
cau@@
nes@@
CHE@@
BI@@
tified
isions
viol@@
essen@@
ulations
associ@@
Ke@@
correc@@
obs
counc@@
|
publish@@
wise
announ@@
desig@@
commo@@
ysical
lemo@@
dul@@
edom
utafuta
â@@
uly
individu@@
tern@@
Tekan@@
accor@@
citiz@@
issu@@
tal
recommend@@
Lets@@
okom@@
Tsama@@
________________@@
ery
peci@@
tsamaisi
expen@@
Communic@@
nonof@@
echan@@
ologano
kge
pli@@
tlego
lectu@@
Va@@
esid@@
dirisi
cus
Hu@@
tsayakarolo
jara
irri@@
wetso
ples
Mef@@
essor
ekegi
uty
sign@@
entral
ference
equip@@
oker@@
rastructure
temogelo
tlhaol@@
onobolomo
poin@@
tshim@@
thema@@
cies
istration
Dikgo@@
efero
ontle
won@@
Khomi@@
watlhwa
hou@@
amelo
Afric@@
200@@
iness
tise
elines
ority
tsadi
____@@
ener@@
Lear@@
Tik@@
titu@@
typ@@
ld
fron@@
Resour@@
tlhofo
latlheg@@
ourism
batlis@@
atic
awa
iru@@
mee@@
orig@@
cir@@
ich
ond
hapter
accur@@
bosigo
uri
j
stry
zing
require@@
Pretor@@
+
projec@@
nership
.ac@@
lik@@
Euro@@
advant@@
ommogo
jan@@
Sedi@@
isanommogo
opin@@
alamente
thern
eded
Municip@@
tekan@@
benefici@@
meth@@
alth@@
Rese@@
dren
conduc@@
Bokon@@
practic@@
ior
hen@@
maj@@
lead@@
signific@@
diphar@@
preci@@
ino
diker@@
tshwantsho
diriso
metho@@
Pho@@
capac@@
cle
monit@@
ai@@
proved
tlhankedi
rang@@
im
bola
setulo
utri@@
mary
demon@@
Chancellor
Tlhatlho@@
mately
proper@@
hansel@@
sing@@
=@@
nt@@
omar@@
improv@@
ester
omo
administr@@
yi@@
elop@@
Gener@@
molao@@
tlhank@@
lea@@
itl@@
ear
ekere
felo
twe
priv@@
mitted
ing-@@
esense
bolay@@
tec@@
simil@@
proble@@
sex@@
tlelelo
clear@@
bigg@@
bang
webo
teach@@
nit@@
erese
disang
tlapele
Chan@@
ni
ject
geniki
fail@@
colleag@@
olosego
male@@
ditÅ¡ha@@
environ@@
Å¡orense
rogen
increas@@
ease
alano
emplo@@
uma@@
dies
tilis@@
ember
esitente
diffic@@
stand@@
fike@@
esses
ud
akg@@
verage
youn@@
roo@@
akolog@@
tlakase
uns
gen
sana
kalaf@@
Fore@@
believ@@
sadi
experi@@
shar@@
utab@@
agetseng
extr@@
Sep@@
stribu@@
contri@@
gress
motl@@
keep@@
Bus@@
wee
charac@@
selekan@@
thob@@
grou@@
max@@
ongwaga
fici@@
Å@@
ojene
oketso
control@@
akolo@@
vey
avo@@
Admin@@
malo@@
hiset@@
.or@@
offer@@
Program@@
dikgatlh@@
mala@@
eso
versity
erc@@
stake@@
mocr@@
enjen@@
Direc@@
state@@
gran@@
applic@@
temog@@
stud@@
shop
manu@@
servic@@
pora@@
kits@@
trar
olution
import@@
ips
itment
icity
ologong
pers@@
lefa@@
putso
taseteri
ompieno
lev@@
Grou@@
anim@@
tsatsi
sych@@
alu@@
Yunibes@@
http://@@
solo@@
ditÅ¡habat@@
concep@@
spre@@
thegileng
utwana
Dep@@
his@@
Pus@@
deter@@
omarelo
omm@@
anga
th-@@
Gan@@
tment
Asse@@
stom@@
tefa@@
ually
vidu@@
bosa@@
agre@@
brea@@
ech
intellectu@@
represent@@
bopego
somar@@
appropri@@
eletsego
bic@@
esara
wana@@
porofe@@
recomm@@
¢
ex
moder@@
tlatshekelo
bololo
legislat@@
adul@@
supi
ee@@
$@@
rease
mbly
tt@@
ikh@@
intel@@
Sci@@
kiwang
lease
xi@@
q@@
program@@
circ@@
Nat@@
enh@@
simo
tioned
taseter@@
liament
f-@@
care@@
TI
ample
angle
aneg@@
ntsho@@
tlisiso
forman@@
Rephabol@@
Polic@@
ops
prac@@
eterojene
pare
bioprospec@@
High@@
Premi@@
near@@
adequ@@
uiwa
ditÅ¡habatÅ¡haba
olisi
fut@@
Afrik@@
ories
ather
olao@@
conflic@@
han
turers
versities
kamog@@
@@
proba@@
uste@@
alane
anal@@
tlhabelo
discus@@
ditshwa@@
eteledi@@
diÅ¡@@
ails
pur@@
tlhwa
knowled@@
phata
unic@@
rict
angu@@
dutha@@
utlo
health@@
iseterata
Tla@@
resp@@
tries
umni
maga
ditshen@@
NWU@@
vice
quiry
ompi@@
Govern@@
wateng
gamaano
tshir@@
expendi@@
ona@@
eket@@
esit@@
adem@@
Å¡haba
elop
mea@@
bers
onakgolo
emisetso
ekatsheko
year@@
depart@@
vest
kelo@@
duo
oselegae
etsok@@
raph
NW@@
feed@@
eve
Mohumaga@@
ither
harves@@
moker@@
Kwa@@
Sets@@
Tshir@@
ll
poten@@
oprospec@@
lenge
tlatsa@@
®
bapi
ximately
und
Rem@@
provid@@
tsenng@@
Tw@@
paseng
puter
employe@@
masep@@
glob@@
recogni@@
havi@@
aparo
Memb@@
pric@@
oj@@
condi@@
Soci@@
outhern
a's
ditional
approv@@
account@@
g.
yal
appl@@
campa@@
gotlh@@
ABS
Comple@@
elf
relev@@
ª@@
yotirisong
humaga@@
follow@@
¨
egoti@@
tegr@@
del
ulty
Moporof@@
en's
perman@@
stern
akarolo
bly
compli@@
Kgotla@@
rese@@
Å¡or@@
adi
duthamaga
Lel@@
Ja@@
amma@@
till@@
curr@@
til
ross
success@@
Hi@@
ysis
rem@@
wano
Natal
Mam@@
other@@
Foreiset@@
Å¡enale
onferense
genous
tlotharo
ikeng
aborwa
democr@@
bec@@
tshose@@
colle@@
ech@@
ditshi@@
itlho
ademy
Environ@@
?@@
ral@@
abinet
Acc@@
Kham@@
reas@@
resour@@
tlisisong
mend@@
efete
porate
ampuses
ineelo
hampha@@
ake@@
procedu@@
Regis@@
imum
±@@
masepaleng
aense
ever@@
disi
Ath@@
isture
preme
dian
kno@@
nec@@
ikaelelo
Aug@@
itted
³@@
dither@@
bosi@@
circum@@
ulu@@
portun@@
etting
ilos@@
¡@@
eas@@
decisi@@
it-@@
abinete
begin@@
ount

²
itten
elaemete
Netefa@@
¨@@
aruri
busin@@
Procedu@@
elds
@@
@@
stroom
friend@@
achi@@
percent@@
Europe@@
q
vestock
itlhelelo
sour@@
ticip@@
fero
tock
Mand@@
bation
olosegolo
$
·
tlape@@
solu@@
Accor@@
Phol@@
ternal
Artic@@
lion
lene
inst
Joh@@
esel
itumelo
fon@@
ince
mari@@
itte@@
Potchef@@
cellen@@
mafar@@
pes@@
ª
ficient
tsenngwateng
hutso
hic@@
Agricul@@
prehen@@
treat@@
cale
@@
stit@@
Mahu@@
oniki
behavi@@
#@@
tsham@@
heket@@
º
aim@@
dulasetulo
elow
*@@
eletsano
segolo@@
ailed
Mpha@@
ulaganyo
Roun@@
Foun@@
marri@@
categ@@
mokan@@
Elo@@
yond
makga@@
Chec@@
thutano
ason
nific@@
tekanelo
ikale
¶@@
¤@@
through@@
Kru@@
elaem@@
parag@@
¶
½
@@
poroj@@
mili@@
thefos@@
ases
lative
egates
okono
tlala@@
chool
Bokone-@@
ween
uro@@
ou
alogo
Nov@@
magana
ulu-Natal
responsib@@
Potch@@
¿
aneo
purpo@@
isional
wageng
strateg@@
¬@@
setÅ¡ha@@
POT@@
uropa
pover@@
selves
North-@@
ulu-@@
your@@
Î@@
+@@
ï»@@
hect@@
È@@
-molao
infall
abin@@
YB@@
@@
Å¡helete
Motsheg@@
@@
add@@
requi@@
cellent
anape
Ð@@
Aka@@
tire@@
denti@@
machin@@
tlole
Amend@@
Letsa@@

¼
remain@@
legis@@
Chi@@
§@@
tsega
ing-learning
AID@@
omiti
º@@
agricul@@
tshogan@@
ebr@@
tares
minal
cipl@@
masim@@
iseter@@
°
Stel@@
thole
Jus@@
folio
iteria
kgoni
tumal@@
farolog@@
ï@@
Amer@@
Servic@@
teraka
boto@@
reliminary
Syste@@
Mametl@@
implemen@@
agatlhaga
kgatlho
©
utaf@@
·@@
lic
Poroj@@
ikele
icals
Combr@@
includ@@
tswere@@
rom
citi@@
]@@
dup
toge@@
ruary
@@
hec@@
councill@@
 
±
Afr@@
¢@@
Oc@@
Ano@@
Phuk@@
www@@
Mpu@@
oloni@@
@@
Johannes@@
ntÅ¡h@@
Feb@@
boitsheg@@
Repha@@
motlola@@
KwaZ@@
!@@
\@@
á@@
@@
Es'@@
eget@@
effor@@
OM
cil
FSTROOM
¿@@
vern@@


Septem@@
estab@@
tshwanedi
>@@
Port@@
itshin@@
opro@@
opportun@@
kia
¹@@
Stellenbos@@
vula
entre
[@@
Seete@@
Ä@@
enoloji
etswee
­@@
@@
@@
@
vered
irima
¡
¬
³
________________________________@@
<@@
Ea@@
Sedimon@@
£@@
ele's
@@

Ï@@
¾
@@
Ë@@
ancial
sociation
<
~@@
emirui
occ@@
Å¡hel@@
@@
htt@@
tenance
ampu@@
inces
@@
kole
@@
#
nology
mmene@@
mafaratlha@@
relation@@
£
«
Reven@@
@@
%@@
ROOM
unibes@@
Octo@@
ampus
\
sunflow@@
Khampha@@
yste@@
conom@@
ikhul@@
itlwe
²@@
ikgong
herbic@@
him@@
@@
malanga
khampha@@
partment
kwadil@@
