>
die
the
of
van
en
in
and
,
*
to
is
a
.
'n
te
Government
for
Regering
or
The
)
wat
vir
Home
om
:
Tuisblad
-@@
-
Die
Cape
by
as
on
s@@
Jou
Neighbourhood
Your
be
word
Western
op
(
(@@
;
Facilities
S@@
021
Fasiliteite
Department
are
ing
d@@
Watch
aan
moet
that
k@@
ge@@
kan
R@@
Provinsiale
with
met
Provincial
s
K@@
in@@
an
p@@
se
you
ver@@
Wes-Kaapse
C@@
deur
t@@
e
f@@
B@@
en@@
Departement
&
ation
e@@
on@@
ed
es
m@@
er
M@@
D@@
t
c@@
nie
b@@
1
re@@
er@@
Public
2
G@@
o@@
will
at
g@@
E@@
South
A@@
het
N@@
T@@
Centre
de
al@@
i@@
di@@
n@@
must
sal
P@@
al
jy
Safety
ers
this
Library
?
li@@
L@@
person
r@@
op@@
be@@
n
l@@
h@@
jou
si@@
Community
v@@
st@@
your
an@@
oor
y@@
can
Services
aan@@
have
W@@
d
hierdie
'
dat
3
w@@
from
el@@
Municipality
F@@
4
s,
e,
A
H@@
a@@
6
th@@
dit
y
V@@
was
u@@
not
ar@@
le@@
3@@
5@@
Directories
ti@@
es@@
5
contact
O@@
any
may
word.
/@@
2@@
u
te@@
e.
de@@
na
s.
tot
i
Development
et@@
which
has
Local
if
Plaaslike
/
9@@
.@@
ts
Watches
Buurtwagte
hulle
Gidse
8@@
as@@
Learning
or@@
6@@
ing,
ander
is@@
un@@
Tourism
I@@
ek@@
8
ro@@
it
is:
tion
all
af@@
k
am@@
4@@
Box
ings
9
ted
uit@@
Munisipaliteit
ook
o
national
ings@@
la@@
z@@
S
ur@@
other
7
ons
Africa
om@@
7@@
se@@
nasionale
Motor
g
Vehicle
Openbare
ing@@
sk@@
's
j@@
ges@@
enige
Wes-Kaap
m
ting
2004
who
Education
ate
is,
U@@
le
nie.
ad@@
es,
sp@@
at@@
ac@@
PO
em@@
ek
voor@@
Veiligheid
ed@@
Business
Dienste
@@@
Crime
ment
Gemeenskapsveiligheid
Town
their
uit
E
us@@
Street,
es.
last
ter@@
also
us
ak@@
ou@@
ag@@
sy
p
der@@
aansoek
ul@@
provincial
Engels
beskikbaar)
(net
it@@
ent
content
page
ab@@
bladsy
inhoud
el
Dit
2006
If
mo@@
to@@
its
indien
hersien
updated
is.
laas
eg@@
Tel:
provinsiale
been
Health
we
dienste
onder@@
2005
more
bes@@
pro@@
men@@
inligting
information
ri@@
terms
permit
bo@@
der
OF
Ver@@
so@@
asie
T
word,
um@@
vi@@
c
Kaapstad
tr@@
ens@@
30
Registering
lo@@
This
public
he@@
ho@@
lik
ch@@
ol@@
like
I
ering
J@@
12@@
ding
l
As
d.
In@@
than
pdf;
ber@@
tions
Affairs
me@@
Suid-Afrika
use
y,
ated
volgende
d,
"@@
raad
You
jaar
Adult
EN
â
oor@@
meer
e-@@
gel@@
ly
reg@@
ter
National
ende
f
ine
ded
legislation
er,
wetgewing
ing.
con@@
form
10
per
19@@
Centres
D
one
ap@@
health
0
werk
type:
(File
www.@@
11@@
service
Y@@
alle
10@@
sie
dis@@
ations
African
soos
ex@@
&nbsp;&gt;&nbsp;
ei@@
t.
gr@@
asi@@
000
id@@
nie,
application
KB)
diens
1@@
13@@
0@@
ste@@
end@@
specified
ic@@
ke
our
ten@@
t,
EN@@
ance
ingevolge
In
werk@@
waar@@
Sport
following
School
nuwe
00
pla@@
such
services
mense
com@@
persoon
no@@
vo@@
her@@
Authority
for@@
City
ies
size:
200@@
ally
gebruik
Transport
oo@@
P
no
ale
tes
).
16@@
and@@
ep@@
044
new
mag
able
ers@@
government
they
ste
X@@
act
doen
str@@
we@@
need
15
x@@
dr@@
when
Nasionale
Sekuriteit
y.
een
ra@@
ma@@
Onderwysdepartement
Sekretariaat
Stad
75@@
daardie
out
h
daar
bestuur
form@@
Jy
et
fi@@
SA@@
2007
15@@
er.
Misdaadvoorkomingsentrum
im@@
pa@@
president
Security
gew@@
023
Re@@
ds
within
Be@@
per@@
ontwikkeling
Mr
res@@
Economic
r
Private
AN@@
ne@@
b
people
maak
king
waar
a,
section
Di@@
ko@@
Secretariat
76@@
THE
systems
wy@@
IN@@
ging
ef@@
012
development
il@@
do@@
equipment
ence
help
ge
get
elke
designed
deel
par@@
tor@@
ders
Office
only
da@@
Suid-Afrikaanse
It
after
stel
po@@
Ge@@
Regional
ating
Y
Vervoer
14
R
ten
ed.
gen@@
Prevention
sub@@
should
2003
min@@
including
11
binne
Publications
artikel
als
Publikasies
Al@@
lede
14@@
number
.co.za
Clinic
08@@
RE@@
vorm
fe@@
Con@@
bre@@
ger@@
ters
aal
tre@@
Bag
ry@@
ati@@
483
ments
wees
Testing
VAN
50
aa@@
ve
x
ond@@
Libraries
age
73@@
mis@@
Minister
where
dig
ity
members
inter@@
so
ING
Bay
by@@
time
wet
12
ts@@
under
su@@
Onderwys
13
20
ele
available
eer
hof
Biblioteke
wanneer
han@@
ar
To@@
Management
(Diens)
ni@@
(Service)
Opleiding
bel@@
about
constitution
SE@@
these
kind
District
mi@@
aat
ke@@
Pro@@
provinsie
Ã«@@
22@@
het,
'@@
do
Z@@
ates
ci@@
pos@@
business
President
Misdaad
hou@@
before
gaan
pre@@
SI@@
qu@@
vol@@
council
kan@@
LOCAL
18@@
MUNICIPALITY
PLAASLIKE
grondwet
party
ling
programme
L
up
AND
openbare
co@@
ens
court
ven@@
support
reg
ne
kom@@
ik@@
ty@@
BE@@
into
lig@@
022
Voertuigtoetsstasie
ont@@
ha@@
AR@@
heid
office
sh@@
Road,
sel@@
ER@@
ment.
ent@@
aar@@
68@@
Bureau
land
maar
Application
ses
gi@@
ir@@
neem
ary
van@@
Gesondheid
,@@
00@@
ui@@
local
72@@
tu@@
aange@@
but
Municipal
ass@@
"
st
het.
through
LE@@
plaaslike
Environmental
end
ves
up@@
Council
C
%
31
take
ty
work
028
k,
Ho@@
tion@@
bi@@
mon@@
Act,
man@@
teen
ure
18
De@@
item
hul
aar
100
69@@
ation.
diens@@
On@@
tri@@
g,
fin@@
sto@@
78@@
how
TE@@
eid@@
N
onder
dae
name
lik@@
To
FACILITIES:
DIE
Basiese
Licence
province
ese
vergadering
FASILITEITE:
apply
ph@@
Registration
MUNISIPALITEIT
elec@@
s:
Information
St@@
tel@@
Constitution
GE@@
sies
wan@@
M
um
hi@@
Depot
assembly
TE
sion
TB
care
ces
delike
lin@@
over
Museum
ce
land@@
member
Mo@@
ant
G
de,
BI-@@
Bel@@
al,
child
provide
e:
lid
Court
DE@@
each
nodig
Volwassenes
17@@
An@@
hou
For
pl@@
ess@@
wil
plan@@
011
Indien
fer@@
ABET
legislature
Social
br@@
En@@
program
av@@
Swimming
there
ori@@
tors
th
voor
Reg@@
sa@@
ly@@
referred
ents
my
Bo@@
Grondwet
beskikbaar
ment@@
betaal
ali@@
hoe
ec@@
management
ment,
42@@
cre@@
daar@@
Driving
Corners
O
betrokke
Ad@@
ation,
hand@@
ks
inge
made
Res@@
Sentrums
por@@
01@@
(BOOV),
Daar
Om
twee
sec@@
regering
K
Par@@
Gemeenskapsleersentrums
diÃ©
Park
lu@@
slegs
Premier
ta@@
Th@@
mar@@
gee
water
60
70
uitvoerende
right
ative
16
79@@
kon@@
work@@
a.
AL
control
two
wetgewer
executive
Hierdie
iese
Raad
2002
eni@@
ob@@
ur
kry
ev@@
vor@@
wer@@
rec@@
gesondheids@@
state
access
k.
OR@@
deel@@
medi@@
ts,
38@@
ties
order
GOVERNMENT
regte
PA@@
April
leg@@
aal@@
community
ets
20@@
ie
Act
te,
responsible
used
verantwoordelik
car@@
make
ton
ie@@
.gov.za
sek@@
24@@
tel
skap
ga@@
en.
29@@
vis@@
ES
day
Ro@@
tive
74@@
steun
functions
25
ES@@
days
minister
LI@@
.org.za
ch
between
ville
Van
toegang
tor
geen
West
wel@@
ang@@
kinders
F
net
gh@@
me
re
ation@@
01
19
Training
trans@@
enti@@
ate@@
val
66@@
were
Ar@@
21
ps
our@@
U
fo@@
HIV
DEPARTMENT
first
Po@@
ME@@
ear@@
pres@@
ening
being
does
indi@@
lis@@
SA
55@@
46@@
ls
Sake
tig
lan@@
registration
:@@
Service
Cultural
dig@@
hel@@
Ac@@
2008
Voor@@
ts.
MA@@
),
year
AA@@
kom
part
du@@
eerste
modified
39@@
Oudtshoorn
over@@
mer@@
est@@
tyd
sing
anc@@
identi@@
am
B
sport
g.
TI@@
OORSIG
verskaf
65@@
OVERVIEW
rights
pay
SK@@
2009
bor@@
tussen
vry@@
staat
less
del@@
ene
years
besluit
sie@@
required
des
2.
Ex@@
all@@
Ã«
amp@@
set
pe@@
es:
date
lic@@
ep
Wet
go@@
CAPE
HO@@
Munisipale
law
sy@@
een@@
wa@@
specially
There
certificate
subsection
ff@@
dering
35@@
44@@
ver
Ma@@
ON@@
police
SO@@
erv@@
ensure
ture
25@@
34@@
ve@@
Aansoek
30@@
af
nu@@
sluit
Onder@@
gebied
36@@
sti@@
TO@@
accordance
tes@@
Me@@
geld
projekte
Pool
est
@pgwc.gov.za
ing:
yn@@
1.
ms
met@@
gesag
sur@@
projek
Commission
en,
toe
gedoen
technology
les
urs@@
2-@@
pri@@
har@@
ard
ic
Levy
ell@@
te.
What
24
ed,
ad
Special
ere
Wes@@
Traffic
tek@@
17
1,
Ãªre
ers,
ingsk@@
then
bro@@
Af@@
val@@
November
organis@@
report
training
registered
ker@@
relevant
kun@@
datum
ooreenkoms
Si@@
tic
bin@@
ans
Authorities
production
gestel
fac@@
inge@@
resources
04@@
hy
those
employ@@
Breede
For@@
Ch@@
agreement
funksies
uring
without
process
Courts
software
ub@@
DI@@
ran@@
ry
ach
&gt
kragtens
subartikel
gn@@
Programme
bestuur@@
Museums
ker
3,
app@@
ess
provided
Entities
eng@@
ins@@
children
free
jaar@@
war@@
Motorvoertuigregistrasiesentrums
uitgereik
lig
dien
ged
ach@@
place
kantoor
haar
ple@@
on,
register
George
out@@
wi@@
Aan@@
three
berg
sonder
26
Entiteite
laat
bepaal
age@@
kor@@
eel
vehicle
az@@
ise
authority
ous
wing
Ms
s)
bied
Schools
7,
199@@
fun@@
Stellenbosch
asies
own@@
MO@@
drie
red
bare
oper@@
uc@@
toeg@@
GR@@
sko@@
staats@@
DEPARTEMENT
saam
dag
handel@@
55
comp@@
plan
led
in.
Agriculture
MIV
gro@@
laa@@
every
Inligting
whether
SERVICES:
48@@
23
besonderhede
fis@@
Fax:
mak@@
status
ref@@
ef
amp
CI@@
All
bill
02@@
ants
virus
lei@@
spor@@
AL@@
Strategic
Care
bring
assi@@
Mossel
An
Planning
raa@@
ort
ger
Town,
south
asie@@
provinces
Mar@@
listed
human
go
based
93@@
Youth
mental
ooreenkomstig
wees.
loo@@
having
Ekonomiese
ced
ys
ast
Ã@@
under@@
ure@@
Plan
Co@@
de.
what
Sports
issued
gemaak
hoof@@
September
LA@@
way
area
stem
vind
naam
22
munisipale
voorkom@@
IS
regerings@@
einde
complete
UR@@
hol@@
system
premier
27
ving
3.
4.
Vir
iemand
River
erings@@
70@@
during
8000
tra@@
PROVINSIALE
nood@@
Support
posi@@
ontwikkelings@@
ental
stre@@
ew@@
Swellendam
Spesiale
lar@@
le,
MI@@
low
wor@@
man
grond
enc@@
UN@@
80
DIENSTE:
rou@@
them
Kultuursake
Wat
gesondheid
ised
sion@@
areas
ath@@
erde
88@@
ability
dorp
Housing
project
municipal
teer
BUSINESS
permit@@
Provin@@
subject
Drakenstein
Li@@
Karoo
50@@
vier
uur@@
clo@@
means
cu@@
evalu@@
beleid
2.@@
middel@@
was@@
organ@@
uk@@
mp@@
40@@
80@@
policy
Needs
28
inheemse
hulpbronne
35
indigenous
self
details
1.@@
usable
speci@@
most
:00
toepassing
Spe@@
75
exp@@
parties
social
Recreation
au@@
Op@@
Maart
ari@@
De
water@@
VER@@
Toerisme
Magistrates'
ong
w
projects
staan
eg
uis@@
87@@
well
inform@@
voorsiening
rek@@
sake
ast@@
IC@@
AP@@
mit
week@@
part@@
ontwikkel@@
ill@@
gebiede
TR@@
Knysna
Cabinet
Faks:
RI@@
stud@@
vel@@
ouer
pe
export
90
gemeenskap
the@@
verk@@
Cape)
applic@@
inf@@
ages
Mobile
These
are@@
permanent
wh@@
Her@@
ASI@@
WESTERN
educ@@
maande
Beaufort
Omgewingsake
deur@@
Ste@@
voordat
given
teit
financial
REGERING
Skole
Eden
Ges@@
Pla@@
verslag
UL@@
ning
sport@@
opleiding
against
det@@
greater
Hoe
geneem
wit@@
provides
Werk@@
ug@@
line
skole
cor@@
f,
gesk@@
ks@@
m,
ondernemings
5,
geregistreer
kop@@
verklaring
partye
huis@@
eie
S:
.b.@@
WE@@
education
org
person@@
jo@@
ST@@
administration
4,
mission
want
No@@
plek
esi@@
Distriksmunisipaliteit
govern@@
fy
weer@@
onderneming
org@@
tion.
case
ong@@
Project
ood@@
ame
werking
Pretoria,
ula@@
facilities
waarin
table
wet@@
sper@@
sentrum
siek@@
Strategiese
sup@@
ster@@
He@@
ewe
att@@
ID@@
until
ai@@
million
Projects
hede
ght
ondersoek
mag@@
vyf
TS
bou
oun@@
baar
29
Maatskaplike
cap@@
TER@@
appro@@
le.
stelsel
aansoekvorm
behandeling
Poli@@
0001
wie
fil@@
28@@
private
conditions
Wor@@
cas
commission
ii
ood
bioprospecting
Behoeftes
33
doen.
Offices
vereis
ness
90@@
Gre@@
nog
bestaan
bur@@
ATION
verseker
dokumente
LO@@
nommer
oms
na@@
paid
May
2001
PROVINCIAL
esti@@
emb@@
school
sure
ical
(LÃªertipe:
March
(Public
proses
(Openbare
Overstrand
Ber@@
Lo@@
Vol@@
Ontwikkeling
ertifikaat
spo@@
Information)
treatment
23@@
Theewaterskloof
pay@@
medical
wyse
enn@@
cons@@
lys
Inligting)
serv@@
miljoen
ID
view
getal
groote:
ind@@
tional
ak
Uit@@
Kaapse
BO@@
toestemming
...
poli@@
bewys
biological
initi@@
least
fic@@
v
bek@@
tem@@
Uys
effective
26@@
Valley
OU@@
Small
ay
MIV-@@
munisipaliteite
seker
wn
property
begin
behoort
ders@@
400
45@@
gemeenskappe
ce@@
werker
traffic
daarvan
weg@@
powers
eke
EMDC
kennis
yn
betrekking
Per@@
win@@
dra
ming
sig@@
NO@@
wys
45
tion,
legal
ou
collec@@
ines
verwys
requ@@
Insp
How
ta
Laingsburg
pas@@
WES-KAAPSE
t-@@
both
five
HE@@
Hospital
publi@@
same
siekte
vul@@
tic@@
waarop
den@@
includes
nadat
Bes@@
ss
Winelands
spe@@
Worcester
moontlik
follows
wetsontwerp
some
biologiese
necessary
skap@@
Go@@
goods
baie
bal@@
ede
1.a.
acc@@
doel
nem@@
forms
cannot
EM@@
own
aansoek@@
ontvang
Prison
demo@@
sho@@
wes@@
iso@@
Bureaux
reken@@
ensi@@
loc@@
lag@@
ly.
submit
in,
stan@@
ei
srsa
maatskaplike
gs@@
give
quali@@
m.
IT@@
needs
ingedien
5.
ang
stand
al.
Road
copy
ers.
appropriate
un
Ons
1-@@
versk@@
established
Toerismeburo's
ron@@
uni@@
tiging
bab@@
f.
ase
Dis@@
atiewe
bed@@
urs
o-@@
represent@@
money
bou@@
PO@@
mediese
ente
shall
net@@
kel@@
Suid-Afrik@@
leerders
alis@@
NE@@
ail@@
hulp@@
ust
Witzenberg
Do@@
ful@@
Culture
regula@@
diging
voer
ek,
document
taken
beg@@
maintenance
Integrated
dige
40
W
tro@@
KE
LE
her
ag
fication
saam@@
if@@
Cape.
worker
Board
ring
Â@@
minder
very
-,
027
special
fonds
vroue
vin@@
lag
ately
general
further
vorige
ouers
opsigte
ord@@
EK@@
power
Po
BES@@
Swartland
Plans
qui@@
ale,
ther@@
period
respect
organisasies
Land
mel@@
skool@@
occ@@
huur@@
ite@@
cour@@
ton,
uitvoer@@
Metropole
beheer
ings,
ty.
Albert
finansiÃ«le
paragraph
learners
terug@@
clinic
verkiesing
ING@@
range
bevorder
El@@
provinsies
Sec@@
note
aak
leer@@
dienste@@
ds@@
.a.@@
e)
notice
constitutional
sal@@
aff@@
international
ted.
WER@@
alle@@
gene@@
related
ved
research
betaal@@
hier@@
naaste
sign@@
dri@@
der.
invol@@
specific
election
wen@@
brief
Landbou
admin@@
bly
goedere
os@@
lek@@
visi@@
Director@@
onderwys@@
Medi@@
neg@@
cla@@
2,
IS@@
inten@@
ED@@
ail
6.
AD@@
85@@
include
ys@@
ene@@
previous
fontein
sertifikaat
100@@
Avenue,
ther
ken
ton@@
ooi
field
GO@@
belasting@@
lyn
stu@@
primary
74
material
program@@
werkers
STRATEGIC
Posbus
voordele
licence
Sector
promo@@
spec@@
registrasie
voed@@
vers@@
tiewe
claim
dies
parliament
body
STRATEGIESE
capacity
IN
eh@@
stand@@
versoek
volle
vote
of@@
munisipaliteit
plaas@@
geval
vement
Gro@@
ent,
SP@@
Prince
lies
LIN@@
matters
disease
Mense
egter
Augustus
Planne
ain@@
cal
illi@@
n-@@
(F@@
kommissie
accoun@@
dra@@
eth@@
When
volgens
EK
components
plaas
q@@
Parliament
Binnelandse
dale
aw@@
Wanneer
ading
Plans:
Onderwys@@
lisensie
bu@@
DO@@
ele@@
PL@@
ward
RA@@
ore
mun@@
servic@@
tering
PLANS
subsi@@
Mei
entrum
deci@@
PLANNE
59@@
H
rak@@
communities
VE@@
Fund
women
Bergrivier
eiendom
administrasie
address
ace
using
reeds
omm@@
Sk@@
stel@@
law@@
ain
test
verkeers@@
produc@@
municipality
Kaap
ye
ult@@
So@@
ici@@
a-@@
administr@@
kliniek
deputy
skool
sions
equal
3.a.@@
adjunk@@
month@@
6,
vlak
beso@@
Arts
dag@@
voorwaardes
toel@@
August
applications
Sakeplanne:
bet@@
mark@@
1998
PLANS:
entr@@
Cederberg
SAKEPLANNE:
either
Clo@@
gehou
WC@@
week
char@@
Sek@@
author@@
tax
school@@
four
hulp
schools
liggaam
purposes
toek@@
Works
PR@@
oog@@
request
valid
People
Plan@@
contrac@@
verkry
ills
Februarie
aat@@
cal@@
stro@@
Manag@@
Vo@@
equ@@
ature
ade
integr@@
73
71
bevoegdhede
ate,
persone
kundige
Fran@@
effect
CE
News
ric@@
departement
eld
hoog@@
BI@@
ality
res
PUBLIC
persons
60@@
hul@@
aande
Mon@@
bepaal@@
DEVELOPMENT
official
another
ide
appointed
ber
commun@@
soek@@
force
ekonomiese
lear@@
January
ency
ontwikkel
inbegrip
decision
certific@@
Projekte
ingestel
rol
SOUTH
ken@@
diagno@@
Saldanha
ekte
develop@@
sorg
gebrui@@
hospitaal
receive
teri@@
ette
tt@@
February
months
erti@@
Un@@
verband
minstens
economic
bedrag
IK@@
nemende
Depart@@
doeleindes
self@@
important
ts:
asook
straat
ss@@
teen@@
ben@@
Justice
besk@@
os
municipalities
Kon@@
insluit@@
werkgewer
tw@@
six
bedryf
kr@@
sed
institu@@
Wit@@
Im@@
digheid
grondwet@@
Pad@@
safety
ut@@
comm@@
ay@@
website
Gemeenskaps@@
oop
nearest
ping
gevolg
ge,
ess.
US@@
cas@@
programmes
Mrs
amb@@
Tourism,
anti@@
category
submitted
term
Ny@@
his
DiÃ©
contribu@@
tree
bri@@
leer
spesiale
pos
aam@@
ug
Sub-@@
ill
provision
delik
polic@@
Ontwikkelingsbeplanning
Comp@@
J
Registr@@
struk@@
bevel
Bro@@
vert@@
il
adres
HA@@
kry.
siektes
IE
departemente
disp@@
word;
non-@@
letter
ann@@
beteken
Kultuur
acy
raak
Police
Ri@@
SU@@
function
projec@@
protection
Water
voorsi@@
houd@@
sam@@
tax@@
sign
sts
ids
keer
matter
aanhangsel
handel
cont@@
Liquor
!
sch@@
46
sÃª
charge
bestuurs@@
RO@@
Alle
provinsi@@
tore
er's
Pe@@
saa@@
(none)
dy
tran@@
Paarl
Wer@@
Gr@@
uses
paragraaf
organisasie
mer
reference
protec@@
West,
performance
many
ences
inv@@
fak@@
voort@@
e.g.
deposi@@
MB)
ies@@
Man@@
Deputy
motor@@
dic@@
OPENBARE
measures
79
dorp,
contain@@
sit
weke
ville,
werheid
cul@@
ying
documents
indic@@
Har@@
33@@
yl
approved
Kaapstad,
June
Assembly
http://www.@@
Toerisme@@
regs@@
saak
Fis@@
aan.
teken@@
mente
MENT
log@@
republiek
skappe
eid,
toege@@
yl@@
besoek
ard@@
0800
identity
schedule
pers@@
sionele
Funding
kin@@
republic
tiv@@
ators
vorms
inclu@@
he
ever
808
inges@@
000@@
provi@@
Ab@@
ly,
ption
dan
l,
ust@@
info@@@
recei@@
sen@@
65
WAT
promote
7.
76
compan@@
maa@@
Voertuigtoetsstasies
vereistes
Nuus
AC@@
had
facility
vaar@@
eÃ«
Hof
direc@@
full
marriage
Vergadering
repres@@
amount
held
them@@
63@@
providing
Lan@@
applicable
â
infec@@
berg,
doen,
Industry
abili@@
sla@@
neming
tur@@
stelling
oth@@
aims
uur
SAP@@
annexure
because
fre@@
determined
let@@
ut
ue
et,
bevoegdheid
train@@
don@@
EMDCs)
ee
tydperk
ren@@
Werke
Disaster
quality
Tel@@
chemical
eer@@
Agulhas
main@@
fee
nam@@
By@@
list
passed
72
STR@@
â@@
allow@@
centre
Inf@@
hor@@
verwy@@
eerde
organisations
Hoof@@
see
try
Uni@@
off@@
swan@@
consent
prescribed
meas@@
klike
psc
Onderwys-
SE
skrifte
while
Economy
TY
kinder@@
TH@@
dokument
ia
doeltreffende
different
wetgewende
ER
stell@@
WHAT
Kommissie
gere@@
Child
Tr@@
aan,
tig@@
eder@@
kry@@
z
erg@@
198@@
prevent
internasionale
nor@@
Main
voorsien
ams
y)
cr@@
sw@@
(C@@
ig
voldoen
veral
assist
funding
orders
verleen
gemeenskaps@@
lewens@@
unless
strategi@@
Inter@@
ns
ade@@
tan@@
Applications
Africa.
pr@@
Operational
Regering)
TU@@
col@@
seer
ATION@@
possible
ader
AFRICA
projek@@
vention
hoo@@
mit@@
boo@@
aansoeke
ums
libr@@
byvoorbeeld
kontrak
toerusting
y:
ouw@@
OBOS'e)
OBOS
baar@@
FA@@
aries
individu@@
regulasies
benefits
2000
hom@@
would
Secondary
moe@@
des@@
situ@@
p.
motor
volg@@
result
inc@@
Street
dro@@
lei
much
bank
iti@@
ERS
Desember
gev@@
ners
Ty@@
COM@@
amptelike
daarop
beplanning
likheid
lewering
vro@@
chi@@
ani
geriewe
come
verbet@@
New@@
Clinics
low@@
workers
ONDER@@
gratis
Permits
ank
tar@@
skakel
vision
ID-@@
len@@
sent
las@@
tric@@
bibliote@@
total
ingsp@@
heid@@
eis
Stu@@
touris@@
bedoel
aangestel
controlled
even
Klein
ethyl
Uitvoerende
proble@@
kl@@
publiek
els
employer
Se@@
61
Adjunk@@
betaling
behoeftes
beheer@@
neem.
supp@@
ent.
raam@@
Sup@@
Kuns
parents
They
continu@@
pi@@
ques@@
1999
geÃ¯@@
th,
state@@
Form
change
duc@@
(G@@
ake-@@
Junie
materiaal
77
ll@@
department
medic@@
houding
Col@@
find
telike
consum@@
vely
32
tox@@
July
produkte
der,
Offic@@
Manu@@
Bre@@
Cro@@
Skills
proof
fied
eel@@
TEN@@
mu@@
hom
ture@@
applicant
Hessequa
ret@@
atives
ator
high
19.a.@@
consi@@
P)
ck
Labour
ins
ake
middel
Er@@
histor@@
River,
tydens
soon
86@@
gs
778@@
Hospit@@
is;
verskillende
word@@
eling
nie-@@
year@@
Wynland
(Department
level
impro@@
written
enberg
eding
omgewing
vanaf
uid@@
Church
bruik
Pers@@
geleenthede
2,@@
isi@@
ased
Organis@@
veiligheid
busin@@
Br@@
bevat
skills
me,
Car@@
DE
den
who@@
vang
Ekonomie
lÃª
taking
@
risk
lewer@@
aansoeker
dek
October
stel.
later
ide@@
institutions
Trans@@
home
AG@@
personeel
transfer
Oudtshoorn,
aangeneem
ner
posed
birth
assess@@
company
aad
follow@@
pregn@@
dieselfde
behoudens
BERG
docu@@
Str@@
Staats@@
beampte
ested
radi@@
Rivers@@
lop@@
agte
fontein,
grond@@
dat@@
E:
maatskappy
theid
kennisgewing
Ter@@
sim@@
struc@@
huurder
streek@@
&@@
pap@@
Electoral
direk@@
delivery
Bar@@
verteenwoordig@@
ant@@
elected
materials
98@@
building
UC@@
TS:
family
Central
interest
elek@@
TER
visit
ult
language
e.@@
africa
George,
ful
purpose
mid@@
tyd@@
completed
terwyl
driving
.com
to:
instellings
afhan@@
dium
permanente
Ph@@
lor@@
sis
HIV/AIDS
Section
ate.
Qu@@
wo@@
As@@
certain
Noor@@
coun@@
rules
lank
intern@@
shi@@
verdere
implementation
din@@
live
still
Infrastructure
Executive
eenheid
Julie
position
AND@@
blo@@
ster
ases
Rights
reger@@
algemene
african
fr@@
registr@@
(Metropole
DA@@
ree
hospital
Huis
rel@@
Demo@@
dele
Human
y-@@
constitu@@
citizens
chem@@
Hulle
gre@@
ath
plant
aangeleenthede
finansi@@
legislative
ereg@@
increas@@
ban@@
dan@@
lea@@
kers
S)
experi@@
BER@@
Kannaland
ties.
fu@@
lige
exc@@
afdeling
Com@@
Overberg
(N@@
capable
director@@
wysiging
Khayelitsha
tensy
conduct
pen@@
koÃ¶rdin@@
Roads
Annual
94@@
regard
ok@@
offic@@
(The
fiseer
):
E-@@
sowel
working
Saf@@
Direk@@
trade
belang
ulation
sc@@
voer@@
dam@@
ING:
Nu@@
getui@@
Primary
3-@@
polisie
ce.
committee
air@@
onde
tiese
Heritage
Bay,
ors
lands
fill
vak@@
done
maatreÃ«ls
36
deling
ently
Oktober
41
fenis@@
gende
party@@
pon@@
proper@@
probleme
investig@@
Vers@@
toest@@
eids@@
ator@@
uitvoer
Cap@@
presid@@
graph@@
geb@@
ational
profes@@
aai
emergency
Privaatsak
rap@@
AFFAIRS
c.
CO@@
vacc@@
lae
sive
kale
instelling
1996
justice
vir@@
basic
making
We
Research
ister@@
childr@@
Maintenance
La@@
aged
meeste
staff
AS@@
December
Ministry
cultural
webwerf
confir@@
portefeulj@@
porting
beskerming
EL@@
Premi@@
long
omdat
Provinsie
rocket
stat@@
amin@@
brui@@
vigs
burgers
hÃª
ble
appointment
Is
health@@
Emergency
amendment
transport
above
1997
fax
ateur
avi@@
gesondheid@@
Vor@@
yk
labour
peti@@
betaal.
sin@@
skakel@@
IDP
additional
vre@@
pad@@
bev@@
spesifieke
ma
thing
Stellenbosch,
parent
(S@@
saf@@
General
hibi@@
Life
aanvaar@@
gheid
Januarie
Sim@@
Gateway
labor@@
Africa)
p,
Ontwikkelings@@
integrated
werk.
PER@@
country
life
ondersteuning
7-@@
groot
sel
ligte
Gesondheids@@
righ@@
juris@@
Agricultural
AU@@
RED
sodanige
eli@@
wis@@
enter@@
asie,
burger
ence.
mat@@
Klein@@
monit@@
bedry@@
66
activities
ing-
ekon@@
kle@@
tures
planning
tings
klik
ontwer@@
ven
open
vervoer
BR@@
lisensi@@
next
VIR
Vry@@
assistance
trac@@
noti@@
siÃ«@@
ester
ute
Operasionele
sorg@@
gevalle
a.@@
re-@@
customary
BU@@
ergi@@
good
Ek
gelys
koste
howe
Directorate
hanteer
prest@@
tourism
ity.
.00
environment
Fun@@
doc@@
TB@@
Afric@@
affec@@
95@@
ing)
Onderwysbestuur
Cont@@
ligg@@
Strand@@
cri@@
Wel@@
bud@@
verskaff@@
meld
onderhoud
year.
d.@@
se,
afskrif
multi@@
tary
ler
doen@@
geboor@@
geski@@
ligting
intro@@
uitge@@
ities
comple@@
professional
mati@@
eid
't
issue
Chief
Women
ses@@
vas@@
goedgekeur
ontvan@@
fond@@
Sy@@
St,
call
basis
TION@@
aangeleentheid
ory
ges
Educational
ATI@@
ett@@
exercise
34
Employ@@
environmental
467
mas@@
basiese
viol@@
navorsing
ported
practi@@
gri@@
delik@@
verbinding
nemings@@
State
Fil@@
us,
Cour@@
kk@@
jec@@
hold
spesi@@
old
MY
records
Sake@@
GI@@
HEID
behandel
accep@@
ukke
1993
security
supporting
Or@@
vul
atten@@
huwelik
Law
(SA@@
fair@@
teur
Sp@@
tuur
lew@@
iz@@
Verkeers@@
Elec@@
OP@@
inligt@@
testing
mil@@
(200@@
designated
rade
Bud@@
Trade
Kar@@
Streekdienste
ys.
forum
elo
Mis@@
eide
VI@@
weer
ick@@
uil@@
inspec@@
North
ca@@
Submit
Nat@@
residence
antoor
services.
exten@@
skryf
hours
Tribun@@
geestes@@
soor@@
bevordering
Registrasie
verwante
ONT@@
Te@@
duur
Cnr
regulations
verho@@
ser@@
eting
HOO@@
120
Wellington
Grondwet@@
canc@@
istr@@
reÃ«ls
vari@@
liteit@@
Children
We@@
FOR
road
dal
mate
Ã@@
vic@@
officer
bylae
sekere
ademi@@
beskerm@@
eenkom@@
Permitte
sol@@
bac@@
Voortrekker
vra
various
due
bevor@@
gereg@@
volg
lam@@
heid,
employment
paspoort
high@@
hospit@@
'N
V
INGS@@
KAN
Grond@@
ond
substan@@
lisensies
bekend
it.
Report
Op
Om@@
Policy
gesondheidsorg@@
in:
ier@@
ual
Dien
num@@
hu@@
remain@@
ethyl@@
Wes-Kaap.
CAN
ox@@
versam@@
sluit@@
ner@@
ban
Breedevallei
Vis@@
according
voertuig
FE@@
versi@@
payment
doel@@
gin@@
toets@@
verteenwoordig
belangrik
Door@@
vaardighede
bystand
determine
aring
te:
tak
passport
neem,
fit
behalwe
Land@@
current
s-
sodat
WOR@@
oop@@
TS@@
ae
inkomste
geskik@@
Biblioteekbesigheidshoekies
Sch@@
sentrums
clinic@@
Hou@@
perk
SERVICES
products
Kinder@@
regul@@
mal@@
Behuising
wn@@
komitee
skep@@
|@@
tings@@
Dr
Health@@
gevra
arbeids@@
provin@@
nomin@@
gener@@
MEN@@
482
43
dere
waarvan
getree
improve
tho@@
plus
tric
Paarl,
Day
cases
requirements
ana
BA@@
uitges@@
priv@@
flu@@
exclu@@
Jeug@@
termyn
ommer@@
Ou@@
nou
growth
Schoo@@
ensation
inn@@
refer@@
Kli@@
around
polisie@@
bestaande
Rek@@
873
oorweeg
Vi@@
kategorie@@
allocated
off
remo@@
BRE@@
groei
teg@@
cies
Pri@@
wÃªreld@@
tak@@
ask
deli@@
facili@@
vermoÃ«
However,
6620
objec@@
better
id
lied
hy@@
eff@@
Technology
gegee
monitor
Mel@@
verkry@@
baai
ka
immunis@@
pil@@
verwysing
toepaslike
Peninsula
Rec@@
(Metropool-
kus
dor@@
stem@@
.wcape.school.za
lec@@
proc@@
pass@@
cement
sum@@
272
recommend@@
reports
types
toets
its@@
role
Omgewings@@
condi@@
parti@@
inspek@@
inst@@
develop
ul
Forum
landbou@@
vlo@@
AM@@
manner
perform
eks
drag@@
atory
hele
Nood@@
goeie
ps@@
TO
fol@@
Bur@@
natural
arm@@
Ministerie
dui
ings.
hÃª.
nie@@
oefen
heids@@
toon
star@@
pas
verslae
opvoed@@
responsibility
beoor@@
common
aangebied
recreation
Le@@
TEI@@
fasiliteit
knowledge
aim
port
totdat
hof@@
lif@@
49@@
fiel@@
hip
aanbevel@@
gely@@
beoog
gehalte
earch@@
aat,
aars
Min@@
registrasi@@
agreements
know
yc@@
Kinders
raad@@
.c.@@
oortre@@
veel
TUUR@@
Provi@@
addi@@
industry
skul@@
trek
repe@@
riv@@
omati@@
eers
uk
quanti@@
ergy
Ã³f
eri@@
toor@@
applies
plat@@
appeal
Jo@@
maand
methyl@@
takes
oudi@@
put
bykomende
mentation
temporary
Committee
teer.
merk
ink@@
kommissaris
kul@@
type
dig.
aanstelling
itr@@
ope
Landbou@@
mor@@
bos
oog
genoem
mix@@
income
emo@@
leiding
plekke
afge@@
asseblief
Constitutional
criminal
ooreenkomste
waarvoor
contac@@
took
ely
ics
Fe@@
vra@@
require
lated
perform@@
Travel
og@@
middels
ough
pan@@
Matzikama
duce
abuse
berg@@
High
weens
cing
wil@@
kommunik@@
tment
Ap@@
almal
verkies@@
teur-generaal
Mitchell's
geo@@
hoof
eping
tige
kasie
soci@@
rug@@
WH@@
genoem@@
view@@
weg
versorg@@
dec@@
oeps@@
reasonable
received
ily
afhanklike
together
gestuur
bemag@@
huis
arti@@
alk@@
Handel
sake@@
ees
Bill
.a
peop@@
bel
R200
ommission@@
Ko@@
ome
skry@@
200
seksu@@
ule@@
resolution
sitting
prepar@@
back
448
chil@@
EC@@
tain
mr
tele@@
depend@@
teite
Disabled
tions.
red@@
design
Certificate
ars
complaint
Jaar@@
Parlement
8,
vies
kons@@
mach@@
99
lon@@
digh@@
vaste
propyl
daa@@
kies
suid-afrika
Aansoeke
ligh@@
OR
STAD
become
er:
Mens@@
subitem
aling
gebi@@
now
em
aanwys@@
skep
ommissie
perio@@
4-@@
betreffende
CM@@
SETA
bepaling
waarde
volledige
examin@@
SC@@
101@@
courts
ik
beheerde
regter
living
oms@@
groun@@
Befondsing
ck@@
veiligheids@@
WIT@@
Red@@
tuur@@
300
Y:
Kaapstad@@
descri@@
rol@@
Ash@@
cop@@
Family
Bestuurslisensietoetssentrums
2007/2008
achiev@@
gelÃª
Vredenbur@@
Malmesbury
Can
ling@@
Bellville
IR@@
infected
mand@@
Organisations
Guide
Atlantis
omgewings@@
manier
mens
ulp@@
TING
toerisme@@
dings
certified
Fri@@
Pa@@
termin@@
Estate
Counci@@
R1
am,
Bredas@@
Pi@@
77@@
TOURISM
ations,
times
watter
permitte
Ag@@
departe@@
hou.
acts
businesses
QU@@
tron@@
luit
No
Coast
bos@@
citizen
maak.
en's
availa@@
infek@@
verantwoordelikheid
ENVIRONMENTAL
regarding
63
except
rivier
Hospitals
can@@
Regte
regional
bl@@
arly
krag
Pr@@
Tra@@
behandel@@
Mer@@
aanse
werheids@@
existing
eiend@@
technical
therefor
klinieke
suid-afrikaanse
TB-@@
bewus@@
func@@
ept
respond@@
WEBSITE:
3.@@
Republic
fir@@
verkies
082
steun@@
audi@@
ails
years.
Direktoraat
ertifikate
housing
Centre,
key
World
UR
mee
weeks
wysig@@
cli@@
opportun@@
05
alised
les@@
bronne
Govern@@
shof
Clanwilliam
town
triese
teken
ys,
divor@@
Swembaddens
fix@@
tab@@
duction
/0@@
head
egro@@
International
ion@@
cabinet
tribun@@
uiteengesit
regver@@
verskeie
WEBTUISTE:
daarvoor
called
@capetown.gov.za
ondersteun@@
Vul
05@@
Pools
Streekdiensheffingskantore
omitee
Opvoedkundig
Participation
faks
Bi@@
aging
data
tor.
on.
Schuur
world
Worcester,
prosedure
nershi@@
teits@@
DER
relating
urse
2010
you.
hospitale
Correctional
ow@@
committees
HOW
Floor,
beper@@
ern@@
goedke@@
infrastruktuur
aantal
towards
establish@@
Bir@@
volgende:
poin@@
Deposi@@
chemicals
vervoer@@
she
Gen@@
respon@@
By
divi@@
stry@@
encour@@
woon@@
AS
klagte
gerskap
uitable
beskerm
reflec@@
annual
foreign
gerig
MM@@
names
addres@@
MDR
museum@@
gemeenskap@@
tj@@
Wynberg
Riebe@@
procedure
manufac@@
aanvaar
sports
maat@@
prin@@
ing-@@
ot
sak@@
ondersoek@@
reÃ«l@@
FOR@@
Corpor@@
Cla@@
8.
adoption
Eli@@
Doen
unit
selfs
kur@@
Vroue
best
wys@@
Dor@@
berading
Advice
determin@@
wid@@
raal
Navor@@
Water@@
continue
groot@@
bo
.a.
Groote
eve
involved
Drank@@
cs
PRO@@
graf@@
famili@@
omv@@
mond@@
Durban@@
MMW
besonder@@
Legal
Call
lang@@
bly@@
voorheen
information,
skantoor
conf@@
inisiatief
NU@@
ur.
arb@@
suff@@
Metro@@
tertiary
gebou@@
0,
assigned
veilige
fle@@
mark
gings
taal@@
prise
ium
particular
stig
adver@@
rid@@
uits@@
example,
Verkies@@
EW@@
ad,
eta.org.za
deb@@
t:
independent
Unit
migr@@
tions,
usse
beste
web@@
corpor@@
adop@@
ense
verhuurder
gaan.
inisi@@
ess,
toes@@
Ã¯@@
ooreen@@
anim@@
POR@@
rui@@
ave
sep@@
aad@@
kapit@@
participate
STI@@
gesondheidsdienste
sa
implemen@@
eis@@
Inkomste@@
bevestig
staatsdienskommissie
Rigly@@
beno@@
pun@@
ministers
said
ble.
versek@@
hand
Guidelin@@
lug@@
igh@@
Comm@@
commissioner
teach@@
TA@@
email
600
Bestuur
micro@@
redelike
uitst@@
@mweb.co.za
ny@@
ne,
SEN@@
polisi@@
vei@@
cho@@
bioprospektering
anders
atellite
ONOMI@@
among
hoor@@
lande
OND@@
TE:
youth
treated
please
gewoonlik
WY@@
nation@@
single
vehicles
ALE
ld
programme.
(only
Fi@@
uw@@
omstandighede
already
distr@@
chair@@
weapons
verhoud@@
Wal@@
ouderdom
ures
pu@@
swart
ATE@@
sections
departments
well@@
TOR@@
Gestremdhede
tenant
institution
Elke
nie;
volun@@
below
here
Tygerberg
behuisings@@
LAND
post@@
Roo@@
Inv@@
counci@@
ekom@@
'S
lities
registreer
Skakel
going
landlord
compu@@
load
(Item
belasting
Province
could
vervaar@@
Once
wer
Brand@@
tain@@
1994
fa@@
manned
physical
tegnologie
import
lewer
Impro@@
ion.
hon@@
endal
toegeken
grant
T:
register@@
affir@@
tech@@
ERS@@
werks@@
consists
arms
skapp@@
ty,
bedrywighede
ending
opleid@@
Each
Justisie
onderwys
heel@@
rig@@
advice
port,
Language
oordrag
gee.
copies
461
assessment
Financial
mm
boete
asis
krasie
chan@@
protect
totale
district
enting
weet
you@@
ured
SPORT
naam@@
09@@
vergoeding
Kan
CH@@
Fam@@
6-@@
Consumer
Gel@@
Robertson
ercial
sien
ewer
valu@@
buil@@
positive
fasiliteite
ud@@
Delft
ary,
Stads@@
verpleeg@@
isse
Bitou
clinics
argi@@
cracy
ets@@
het@@
Ont@@
201@@
accid@@
concerning
Mat@@
immun@@
centres
Char@@
herro@@
KR@@
namens
lyn@@
on-@@
countr@@
gestel@@
St
werksaamhede
close
moeder
cer@@
burg
eter@@
vervan@@
vrou
Porter@@
Tuiste
that@@
onderteken
)@@
Occupational
PROJEC@@
Schedule
rit@@
text
derde
kno@@
ented
GESOND@@
tari@@
esburg,
office.
samewerking
3/@@
distribu@@
12,
siÃ«le
BUR@@
sequ@@
gemik
success@@
rate
tuis@@
ongeluk
testi@@
instru@@
capital
Wyn@@
vlei
Accid@@
Ãª,
ARY
Science
91
95
kam@@
6530
orn@@
Work@@
road@@
heff@@
logical
verrig
resource
postal
918
uis
marri@@
associ@@
Gug@@
Presid@@
se.
Appro@@
deg@@
Recycling
standaarde
skan@@
raamwerk
veroorsaak
wel
int
rural
items
bank@@
Pre@@
?@@
gewaar@@
trial
market
cip@@
e;
(Provincial
media
kri@@
behoor@@
bar@@
Han@@
korpor@@
verp@@
heritage
nodige
advis@@
nologi@@
ations.
ondernem@@
regar@@
inves@@
Instruc@@
nat@@
tans
Branch
particul@@
voorbe@@
programm@@
steeds
JU@@
phosp@@
CENTRES
Black
aci@@
487
ence,
ports
Afrikaans
oblig@@
ened
skeiding
ig@@
de-@@
vennoot@@
ads
rivi@@
dokter
rehabilit@@
street
didate
poten@@
establish
beleg@@
Media
holder
subsystems
pasiÃ«n@@
637
someone
kontrak@@
fees
ek.
necess@@
sustainable
TIES
anal@@
304@@
hydraz@@
sig
ax@@
130
by:
signed
immedi@@
provisions
optrede
Blo@@
Bed@@
ation:
sou
primÃªreg@@
gun@@
Deelname
(P@@
Camp@@
small
ary@@
esting
Old
IM@@
mensereg@@
HIV@@
besker@@
tly
veran@@
klag@@
Access
C)
Boland
STE@@
gebruik.
Hand@@
da
ws
offici@@
redi@@
lewe
nership
klini@@
beplann@@
developing
son@@
contains
gran@@
station
TION
.gov@@
verblyf@@
procedures
moont@@
Fonds
Any
speaker
permits
goed@@
07
Opleidingsowerheid)
(Sektorale
stelsels
conc@@
Met
process@@
Wes-Kaap@@
tual
minimum
fine
.za/
uss@@
account
sion.
l.
heg
struction
geldige
works
gedra
countries
deleg@@
ell
goed
Ceres
ertifik@@
offers
Wet@@
abled
disadvantaged
Mbek@@
cally
natuur@@
commit@@
inkomste@@
Building,
dus
prosedures
Bl@@
.za/@@
esp@@
issues
Finan@@
aangew@@
job
gedeel@@
vlakke
Pierre
UI@@
bepalings
ilie
Agency
Resources
gra@@
infrastruktuur@@
tory
aai@@
Out@@
bydra@@
inligtings@@
fund
levels
ON
opgel@@
DISTRICT
u,
werknemers
staatsdiens
voorgeskryf
sta@@
test@@
lar
moedig
lamin@@
sting
Au@@
weten@@
Tax@@
Wy@@
ey
e?
resid@@
Kabinet
Republiek
MINISTR@@
won@@
REG@@
laun@@
regter@@
vergader@@
landdro@@
Mil@@
.d
drag
vrou@@
behoefte
ically
kings
begro@@
with@@
MIV/@@
Pap@@
konstitusionele
renew@@
Johann@@
bestaan@@
ampaign
Sta@@
black
New
effecti@@
published
public@@
inwon@@
wees,
kwa@@
atures
tui@@
sb@@
municipali@@
1,@@
Servic@@
Some
Ret@@
es)
42
consistent
6970
huidige
writing
ela
require@@
Musi@@
ommis@@
HEALTH
considered
skrif
KE@@
500
telephone
bron@@
Licences
pros@@
Agriculture@@
IES
Municipali@@
bui@@
accident
acili@@
ities.
action
vis
it,
tives
R1,@@
huwelik@@
eigh@@
leg
wes
econom@@
langer
Nywerheid
ink
Parow
uy@@
VO@@
sommige
s-@@
participation
ju@@
cost
preven@@
Almal
opleidings@@
decide
Ne@@
deliver@@
No.
farm
issuing
Enige
Administr@@
stig@@
48
stuur
al-@@
ship
or,
anyone
Immigr@@
verspreiding
characteristics
Revenue
aster
ital
simptome
hoÃ«
Vredendal
majority
create
consult@@
plaa@@
38
Administration
.org@@
stor@@
value
ion
MAN@@
Mag@@
nommers
lia@@
mother
nr
beskou
2004@@
trisi@@
gedurende
OVER@@
62
rekords
fire@@
Helder@@
ing;
higher
amended
avrae:
problems
languages
dui@@
kenning
xim@@
recogn@@
geleentheid
Beso@@
cover@@
gets
ente@@
111
agre@@
LIG@@
compet@@
example
aanmel@@
woor@@
origin@@
digheids@@
toet@@
ades
Heidel@@
circ@@
veiligh@@
exis@@
enberg,
wc@@
ways
laws
poly@@
toesig
Q@@
Capt
testament
eier
reÃ«@@
.Za
Apply
julle
Bemag@@
site
eienaars
lui@@
safe
professionele
.d.@@
logiese
cape
product
ingsprogram
directly
appe@@
ome@@
enz@@
-8
tricity
Protection
l-@@
Promo@@
omin@@
Empowerment
webtuiste
paar
/10/06)
REGISTR@@
setels
Associ@@
in-@@
verantwoordelik@@
dep@@
gewone
stof
02
08
fasili@@
Polic@@
CC
Building
group
voorgelÃª
Sou@@
sci@@
prop@@
ryf
Ãª
instand@@
HOE
Elsies
SW@@
emand
460
seats
82
port@@
347
348
my@@
lodge
Southern
ysi@@
judge
voertuig@@
asie-@@
afrik@@
separ@@
wag
musi@@
ongeluk@@
19.a.1.
tersiÃªre
estig@@
co-ordin@@
Hi@@
KO@@
Strand
us.
Reis
Co.Za
personeel@@
consider@@
vuurwapen
Klinieke
Caledon
sie,
anis@@
bereik
tol@@
pris@@
policies
legislatures
PROJEK@@
verlede
Park,
Plain
diar@@
ends
Tehuise
parlementswet
syste@@
boor@@
gebaseerde
soek
gebe@@
air
ENTRUMS
English
usually
fisiese
produce
increase
promotion
]
ancy
voordeel-deel@@
return
ondersteunende
start
67@@
Saldanhabaai
mited
fully
Fin@@
activ@@
Ãªreld
raaf@@
ably
212@@
dre@@
And
ties,
previously
nel
Ger@@
toekenning
bevol@@
iKapa
Issu@@
Treasur@@
deal
IG@@
oorleg
mal
tale
OMGEWINGSAKE
Sentr@@
potential
ge.
ged@@
cancer
alisation
-en-@@
regulation
ernstige
sui@@
grondwetlike
def@@
asp@@
dipl@@
37
Hill@@
ble@@
portfolio
komitees
44
lution
volhoubare
SIE
Beaufort-Wes
51
Stand@@
and,
Homes
revenue
LD@@
clear@@
operation
maan@@
TOERIS@@
voertuie
prec@@
beter
province.
stakeholders
record
ku@@
Website
repla@@
X
Sto@@
artikels
offer
level@@
Citrus@@
Who
course
Bell@@
punt
foc@@
Bonteheu@@
rest
fs@@
a)
ris@@
salar@@
verbin@@
Piketberg
benoem
On
OU
and/or
Hermanus
categories
standing
e@@@
telandse
tien
Cape,
et.
ety
vermeld
Kraaifontein
buite
uitga@@
identified
Oor@@
Bylae
anga
rates
stead
bevoeg
incorpor@@
box@@
e-
gewing
verhoo@@
early
funk@@
Tourist
shop@@
lifik@@
Groo@@
Cor@@
officers
prim@@
culture
antwoor@@
Ã¨@@
Sub@@
Bou@@
meet
terre@@
705
relations
laag
billike
employed
kel
kliÃ«nte
invul
hetsy
Fr@@
principles
dig,
ontvang.
tyke
comply
produksie
Lam@@
kontak@@
covers
inger@@
verspre@@
ool
LICEN@@
infrastructure
werhede
medium)
numbers
wysi@@
agentskap
Voorskrifte
Mc@@
Handleidings
administrative
Breederivier
Fir@@
cur@@
Afrikaans)
NY@@
tical
work.
ims
serve
ailed
el,
produk
removed
check
datab@@
Sun@@
rigting
crime
Bellville,
contract
ause
website.
materi@@
pdf)
verri@@
intelligen@@
beurse
welm@@
Inligt@@
beide
effec@@
identiteitsdokument
;@@
geme@@
ONTWIKKELINGS@@
gesien
ate:
bring.
.co@@
ra
onderrig
kantore
fair
Ini@@
an,
devices
pasiÃ«nte
verorden
OOR@@
costs
kont@@
geÃ¯ntegreerde
schem@@
Departments
Lisensi@@
competi@@
voorkom
beskikbaar.
incid@@
let
streng@@
Kuils
appoin@@
we,
roads
employees
gemeen@@
intel@@
Identi@@
etown@@
wa
OO@@
aimed
SARS
Intel@@
ORG@@
benadeelde
duced
learning
Complete
Swart
Wie
are:
willi@@
food
translation
aai,
AAN@@
MIS@@
stance
Kleins@@
Email:
AF@@
chall@@
statisti@@
THE@@
ulti@@
Ba@@
bloo@@
CON@@
eria
verteenwoor@@
versoek@@
i.
-5@@
telefoon@@
ford
ame@@
veldtog
goedgeke@@
bration
Contact
publiseer
fish
build
parlement
syn
patient
metro@@
raag@@
447
agricultural
area.
aker
administratiewe
srsa.gov.za
349
m)
verbeter
invul@@
HEIDS@@
beamptes
2006,
cohol
DIENSTE
verklaar
Velddri@@
53
-general
standards
meerderheid
orpor@@
kla@@
Mosselbaai
acting
opportunities
Plann@@
omtrent
tydse
political
elings
entreprene@@
Sport@@
lev@@
word:
hoeveelheid
gemeen
ARE
ley
funksion@@
mits
aard
minister@@
implementering
(021)
berei@@
Kultuur@@
entrum@@
environ@@
r.
Ceres,
nominated
mede@@
coo@@
verbetering
AAR@@
phosphon@@
Dur@@
64
caused
Tech@@
Caled@@
kaar@@
vader
Athlone
dikwels
judicial
Ak@@
OM
benefit-sharing
concerned
tief
LIBR@@
intervention
lating
Welling@@
Medical
correc@@
mishandeling
bru@@
logy
standard
AIDS
Institute
spread
Immunis@@
post
wettige
Metropool-@@
regstreek@@
sa.@@
online
sible
mond
Lit@@
Senior
death
2006@@
hospitals
poor
chloro@@
month
invoer@@
deelname
merkte
uitreik@@
ce,
guide
bul@@
berts@@
.c
At
prak@@
.e.@@
hersi@@
delegates
TOETS@@
Bet@@
nit@@
teit@@
kurs@@
ked
980
Lear@@
werknem@@
kulturele
rede
personal
tye
09
etting
afel@@
jaarlikse
choo@@
declared
prakti@@
defence
creening
burgerskap
handels@@
E?
navorsings@@
Oo@@
Far@@
onderteken@@
Archi@@
chief
Mari@@
Konstitusionele
Bring
rup@@
b@@@
crimin@@
vermo@@
(for
sukses@@
enter
rag
2/@@
C/O
trust
abus@@
57
ESE
gevaar@@
Marketing
bra@@
Kan@@
voltooi
aanlyn
Xhosa
Nor@@
KOM@@
esondheidsorg@@
ier
stappe
flight
-------------------------------
beginsels
Plum@@
breiding
Hu@@
=
ister
registrasie@@
BIBLIOTE@@
ooreenstemming
pleeg
daarna
extent
Lin@@
belangheb@@
X9@@
verord@@
kaart
ME
jie
Van@@
enheid
fam@@
RSA
verkeer@@
owerheid
874
defin@@
Of
One
happ@@
lote
practices
phase
Mid@@
Skool@@
aid
VOOR@@
maximum
evidence
Regul@@
2005@@
%@@
View
exerc@@
pry@@
Sur@@
ack@@
gebre@@
hoef
hoek
syn@@
Brid@@
tradisionele
aaie
counsel@@
te-@@
Waar
kol@@
parts
BS
agric@@
treat@@
geregistreerde
direkteur
Vei@@
Rekreasie
boe@@
Draft
mechanis@@
spanning
Entreprene@@
conduc@@
Do
geno@@
teerde
Cape@@
doctor
jeug@@
Rehabilitation
stic
km
MENT@@
Ã«l
Web@@
Um@@
water,
Director
stellings
reserv@@
49
0.@@
funksie
adopted
depart@@
ogni@@
vereniging
ice
klik@@
focus
politieke
any@@
PROGR@@
ross
communication
uitgevoer
present
did@@
Hospitale
town@@
78
him
pt
fase
Somerset
800@@
ected
Kin@@
skriftelik
besit
bemark@@
II@@
9.
nis@@
Tegnologie
weging
uma
expi@@
gu@@
bewaring
behalf
Lewe
monitoring
structures
VERKE@@
enb@@
2)
gepaste
hydro@@
Men@@
besigheid
Proj@@
via
Kam@@
found
bio@@
Cancer
requi@@
312
gewoontereg
defined
rewe
amban@@
chloride
straat,
Africa@@
even@@
aes
572
Tok@@
plant@@
variety
use@@
obtained
1995
affected
MU@@
Artikel
Arbeids@@
new@@
ema
Park@@
Stan@@
tha
WES@@
Joh@@
productive
enacted
en/of
size
Khany@@
developed
Distr@@
Strateg@@
ama
age.
ders.
hlumay@@
selling
c/o
verskaffing
verrig@@
plegtige
ploy@@
je@@
Other
misdaad
ki@@
appoint
sul@@
complain@@
IVIER
side
2.a.@@
verwysings@@
abinetslid
spher@@
HOSPITAL@@
doende
entrepreneurs
ula
chec@@
taining
normal
sentrum@@
Prin@@
Plett@@
offered
nÃ@@
luit@@
ommunik@@
enterpris@@
goff@@
GES@@
ED
gelyk
ontwerp
ted,
Wil@@
Suid-@@
sector
persoonlike
throughout
dge
Skool
strek
onderskeie
coordin@@
gewer@@
saaklik
kende
ongmense
Internasionale
Nuus@@
INLIG@@
conclu@@
vereis@@
awar@@
heet
342
TORE
beer
ambass@@
ULTUR@@
Son@@
riculum
Red
groepe
ter.
CHI@@
voorgeskrewe
Ã«n@@
Coun@@
bir@@
doku@@
IND@@
MOTOR
diversity
HUUR@@
framework
stemme
kategorie
traditional
Whi@@
ee@@
mek@@
Metro
Ander
group@@
Ass@@
ments.
Ladismith
Groen@@
FF@@
Was@@
Are@@
Sel@@
ned
Afrika
asked
geskiedenis
openb@@
kultuur@@
liz@@
leave
kliÃ«n@@
Lang@@
BEPLANNING
paren@@
annex
nomm@@
thma
ras@@
Umphandle
accur@@
all,
geslag@@
sels
Protector
currently
TESTING
oorspron@@
permithouer
kstoekennings
Regs@@
vacancy
(Wet)
WI@@
waaronder
ordinary
Sh@@
dr
direktoraat
com
Gesondheid@@
marketing
pose
INGS
(Act)
koming
vakature
Wes
Indus@@
glob@@
co.za
duidelik
are,
afgevaardigdes
Albertin@@
oep@@
Hout
HAN@@
ENTITIES:
Nie@@
Ministers
dek@@
loop
transform@@
binn@@
structure
wette
huur
circum@@
cent
Gemeen@@
trem@@
stad
Complain@@
Civic
maintain
entrums
citr@@
UK@@
MENTS
geveer
exported
Wetenskap
ENTITEITE:
suspec@@
nasion@@
Du
gebie@@
exually
opgedra
sames@@
tste
kil@@
asion@@
Medium
park
Wolsel@@
eters@@
ached
nel@@
struktuur
rela@@
becomes
design@@
Verbruikers@@
otherwise
citizenship
Bonniev@@
administreer
liks
Nov@@
Hug@@
eni
JAN
agter@@
River@@
Geestes@@
probleem
elk
missi@@
civil
AUTHOR@@
adv@@
navigation
ande
hyns@@
Distriks@@
amen@@
outside
Events
ership
events
eienaar
TRI@@
spoor@@
guid@@
elf@@
RES@@
ards
getrou@@
Moorreesburg
buitelandse
investigate
acces@@
Rivi@@
WKO@@
Licenc@@
Khayelitsha,
issu@@
Waar@@
ommissaris
Veterinary
denti@@
KAN@@
Mac@@
oud
87
aat:
wetgewers
fishing
grondslag
University
Please
bat@@
brand@@
cations
kers@@
edom
ool@@
KEN@@
sdk
wese
ativ@@
vrede
(L@@
ance,
ising
symptoms
voering
praa@@
Sil@@
achi@@
onts@@
agents
Hope@@
Bal@@
Onderneming
accommod@@
soeke
Farm
Brackenf@@
bekrag@@
bena@@
hier
conflic@@
nag@@
assum@@
Subsidies
mend@@
Langebaan
compli@@
responsibi@@
logi@@
nesses
duties
voldoen.
Hartenb@@
Bursaries
hoÃ«r
Property
pleeg@@
leiers
akel@@
geregtig
5-@@
mani@@
produk@@
eders
Hooggereg@@
astern
omb@@
tersaaklike
voorsitter
onderhouds@@
aangegaan
Reger@@
Innov@@
risiko@@
gn
abo@@
progres@@
buitel@@
co-@@
Enter@@
sanit@@
appÃ¨l
fenis
boek@@
hulpbron@@
envisaged
Sher@@
mes
exem@@
effek@@
ska@@
Visi@@
Getting
hal@@
down
Where
photo@@
kwali@@
geboorte
Develop@@
especially
burger@@
kontakbesonderhede
eis.
lÃª.
900
de:
beslis
doeltreffend
ults
onderwer@@
bility
En
k-@@
hospitaal@@
individual
tender
Mak@@
contact:
Protec@@
wetgew@@
Childr@@
rehabilitation
geag
RED-@@
LLEN@@
veri@@
afgel@@
es;
wish
areas.
phone
diseases
Maatskapp@@
teenwoor@@
guidel@@
7530
diseas@@
belangrike
tjie
longer
methyl
propellant
geni@@
Hei@@
sem@@
Su@@
cy@@
hing
candid@@
africa.@@
wins@@
trust@@
nur@@
weight
STREEK@@
whom
basi@@
hoofstuk
Profes@@
Por@@
6835
gevaar
werk,
Calitzdorp
los@@
Behuisings@@
indaba
Mond@@
Basic
therefore
93
EDE
lege
normale
second
estr@@
nature
ewel
27@@
Ottery
lÃª@@
produktiewe
enquiries:
Ref@@
dependent
Help
Des@@
Treatment
bv.
lee
clients
koor@@
interests
ishop
jects
Ta@@
Goodwood
we.
nemers
Universiteit
EF@@
Langeberg
wwe
Observ@@
Vigs
HIV/@@
S.
S,
y's
Mas@@
INF@@
State@@
bioprospekteerpermit
eed
T)
telling
recor@@
Assistance
mentioned
time.
ensk@@
keen
Registrar
aandag
ment's
erve
pat@@
etter@@
med
Leer@@
eling@@
pop@@
ongel@@
besigh@@
tant
VE
(R@@
there@@
gespesialiseerde
verseker.
psy@@
politan
beÃ«indi@@
HU@@
main
ine@@
efficient
complaints
uitreikingso@@
enkele
betal@@
crit@@
DIENS@@
verrigtinge
erende
distrik@@
VEHICLE
kom,
verskaf.
association
kon
kos
ko
allocations
entry
hoed@@
Drive,
TRA@@
VOERTUIG@@
implementing
Victoria
85
gebou
ternity
regulasie
195
DRA@@
participating
wat@@
casting
sm@@
2004,
says
befondsing
organisation
OM@@
MUNI@@
CITY
begroting
review
ili@@
applying
Riebeeck
ige
trek@@
Certificates
haal
must-
prehensive
Door
beleids@@
doelwitte
positief
dalk
81
patients
gesamentlike
Ei@@
Resource
sektor@@
PLANNING
gebeur
ters@@
9,
LS
HIV/Aids
Ramp@@
Elsenburg
Bos@@
Institu@@
Protea
vehic@@
toepas@@
Ten@@
tting
213
bree@@
hed
bran@@
Beskermer
i.@@
opstel
nee@@
respective
director
belangrik@@
raag
gestelde
counselling
dagvaar@@
Programmes
inligting@@
young
SV@@
696
rive
mentary
lock
child's
9.a.@@
belast@@
replacement
prokure@@
munisipa@@
kaa@@
siaal
EDE@@
eq@@
engines
groep
trical
soorte
disc@@
verb@@
Villi@@
Jan
bursaries
alkyl
LAND@@
Infrastruk@@
pur@@
Huis@@
tegniese
database
Find
.b
arie
REGIONAL
Ondersteun@@
altern@@
chemikalieÃ«
voordeel
hin@@
vac@@
OFFICES
797
arran@@
tipe
ney
gekom
temper@@
hoor
belanghebbers
wag@@
stop
ston
kenn@@
.za
gings@@
hoeveel
entitled
resul@@
government.
maak,
MIN@@
AID@@
groter
DO
rigly@@
awareness
gen
783
trus@@
ATER@@
Deur
VAL@@
ember
erings
toepass@@
PAR@@
kom.
Town.
spie@@
del
sphere
jonger
late
Program@@
k:
proceed@@
Ã«r
ingsentrum
metho@@
skriftelike
digde
DISTRIKSMUNISIPALITEIT
Vil@@
strategie
organ
bon@@
Applying
paar@@
execu@@
prosecu@@
direct
betrokkenheid
ity,
watch
craft
59
423
maatskappye
chapter
serious
eerder
amptenare
ane
jud@@
relig@@
tweede
automati@@
klein@@
alt
tronic
registreer.
reasons
ask@@
7600
redes
Communications
toe@@
once
712
sterf@@
bestuurder
Scotts@@
1.a
ture.
married
april
Finance
rac@@
structural
distrik
Metropool-Suid
klein
Over@@
jari@@
uitoefening
150
SM@@
illness
enigi@@
avrae
scientific
lang
card
toerisme
mass
Grabouw
skap,
diffic@@
succ@@
TB,
AV@@
Lav@@
impact
ary.
diegene
HOSPIT@@
sleutel@@
agt
send
komende
ces.
tot@@
ante@@
ina
concer@@
votes
arres@@
oundation
Sui@@
premis@@
mitted
Guidelines
adres@@
veel@@
firearm
um,
lier
rekord
Oce@@
resp@@
Ronde@@
benefit
learn@@
ood,
tec@@
Centre@@
Hel@@
centr@@
acceler@@
shar@@
to-@@
ertif@@
manage
INFORM@@
Dar@@
ingevul
processes
operates
guardi@@
hei@@
FEB
proclam@@
Arbeid
third
ONTWIKKELIN@@
ings-
Free
Tulb@@
ternal
EDER@@
Tesourie
ehand@@
Parlementswet
Rel@@
verkragting
rad@@
aal-@@
tand@@
koop
portfoli@@
declaration
Acade@@
agree@@
Tenders
akkredi@@
aba
remain
eno@@
ons@@
everyone
Chris@@
esse
.za.
aktiwiteite
often
industr@@
Wetsontwerp
ll
soli@@
sett@@
facilitate
verlof
injur@@
abi@@
verander@@
practice
wyd
domestic
47
gebore
TRAFFIC
changes
cili@@
House,
leerling@@
aans
clean@@
ensie
search
vand@@
54
Grassy
High@@
aanspreek@@
Crime,
share
ic,
ding@@
teur@@
inform
112@@
App@@
woon
granted
FinansiÃ«le
Montagu
eny@@
thers
include:
direk
travel@@
liter@@
wek@@
gelykheid
propor@@
bespre@@
strategy
East
kwessies
Aid
persoon@@
ments@@
few
Stat@@
operational
Eers@@
Pretoria
verhouding
prok@@
tel.
values
verskeidenheid
vereni@@
sav@@
sites
Swart@@
talle
MUNISI@@
results
rek
ches
Ladis@@
Sektorale
unable
compon@@
ths
slag
stelsel@@
particip@@
lity
resol@@
verpligt@@
ison
eld@@
versuim
AN
kap@@
uber@@
|
ur,
communic@@
verkoop
will@@
MUNICI@@
Admin@@
en-@@
retrovirale
Ontwikkel@@
abin@@
sexual
stuk
eight
staat@@
gemene
waarom
nec@@
stens
imple@@
slet@@
chlor@@
mod@@
way@@
senior
doeltreff@@
specialised
memb@@
thern
sus
Ãª@@
ruption
sies,
wetenskaplike
verlo@@
swe@@
vas
wth
Misdaa@@
guar@@
Streek@@
bil@@
viron@@
behuis@@
Sci@@
vil@@
rank@@
spek@@
Opleidingso@@
legisl@@
burg@@
quor
ake@@
polit@@
strateg@@
senbur@@
pes
waardes
enis
handeling
likse
ter,
 @@
6)
retrovir@@
Opleid@@
toeris@@
misdaa@@
ever@@
bew@@
power@@
ervic@@
ound
¡
lement
a.org.za
reason@@
volge
fonte@@
Saldan@@
allo@@
Educ@@
vla@@
KAAP@@
dam
Afrik@@
skri@@
ligen@@
groo@@
ES:
eien@@
verantwoor@@
ural
tremd@@
Tuis@@
registre@@
glo@@
tei@@
slike
Sektor@@
UM@@
Wat@@
aam
cial
kte
kredi@@
Bon@@
risi@@
Rehabilit@@
icient
krag@@
kli@@
ouderd@@
equip@@
oos
ule
geke@@
eds
stitu@@
ious
enquiri@@
muse@@
bli@@
standaar@@
pati@@
Knys@@
Ob@@
arm
categor@@
acti@@
vuurwap@@
..@@
plo@@
rag@@
gelyk@@
stitutional
esentrums
Grab@@
enste@@
belan@@
volt@@
Tran@@
veld@@
centre@@
areas@@
fairs
Geor@@
indus@@
HI@@
verle@@
Biblioteek@@
sional
================================================================================================================================@@
7/@@
omie
lease
exual
wards
AFR@@
Mitch@@
ondary
ntegreerde
roue
Diens@@
writ@@
ateg@@
ples
term@@
Arb@@
litei@@
uiteen@@
Progr@@
Toeris@@
spre@@
ommissioner
Leg@@
SAR@@
lie
yone
Na@@
cc@@
recom@@
hould
facilit@@
finan@@
Assi@@
aft
LL@@
maatskapp@@
prev@@
toral
Wets@@
webwer@@
Ju@@
fer
amend@@
Mun@@
uiteenges@@
Ãªreld@@
este
@@
maj@@
may@@
pow@@
Moorre@@
DEPART@@
v.
ile
reasie
optre@@
Bit@@
MUNISIPALITEI@@
comes
ordin@@
dom@@
verklar@@
devel@@
noo@@
fore
fur@@
appÃ¨@@
Atlan@@
must@@
rik@@
j
formation
GS@@
Elsenbur@@
cially
ermin@@
wets@@
wood
MIV@@
alk
toria
KAA@@
hab@@
thir@@
adat
t)
swar@@
jun@@
STA@@
ners@@
alu@@
spesifi@@
Ath@@
ennings
oride
SLI@@
Paar@@
gerie@@
equi@@
Wa@@
Touris@@
@@
Kaap@@
reat@@
eighbourhood
werheid@@
ch,
Pretori@@
amework
rc@@
[
alings
Roberts@@
stemming
alloc@@
estig
Berg@@
paspoor@@
MUNICIPALI@@
DEPARTE@@
Swell@@
bour@@
ority
Lab@@
fes@@
resour@@
betre@@
Dr@@
ously
betrek@@
ident
some@@
exam@@
uitger@@
REGI@@
neem@@
Publi@@
Herman@@
atief
befond@@
istor@@
Bol@@
mic@@
gsel
Town@@
bla@@
tex@@
deelde
emer@@
Bem@@
es'
upational
forei@@
ject
Alber@@
Ãª.
Good@@
©@@
Ãªre@@
Laings@@
etro@@
dok@@
Inform@@
akti@@
Em@@
Kraai@@
reas@@
atisti@@
Uitvoer@@
uurtw@@
ligt@@

 
beÃ«@@
vig@@
ORT
Libr@@
Tyger@@
kies@@
ules
sted
knowle@@
ERV@@
physi@@
imp@@
sibi@@
suid-afrik@@
tuss@@
blad
citizens@@
Clanwilli@@
[@@
Afrikaan@@
rele@@
tis
tern
bevoegd@@
Oper@@
gebas@@
aanv@@
uri@@
regn@@
vy@@
Sal@@
bioprospekteer@@
judi@@
ha,
Mark@@
sar@@
Jan@@
powerment
Mos@@
isgewing
relevan@@
Besker@@
blad@@
AT
stru@@
istering
bed
Sko@@
Eni@@
Jun@@
SAKE@@
retur@@
consist@@
eness
identiteits@@
Minister@@
aff
Montag@@
wap@@
Muse@@
beamp@@
ablis@@
Cer@@
versiteit
Lis@@
Malmesbur@@
prescri@@
enste
.c@@
sr@@
.b@@
beskikb@@
control@@
grap@@
agent@@
Kul@@
ampten@@
assy
htt@@
usti@@
ount
belang@@
nb@@
atelli@@
turele
Motor@@
akel
edere
fe
liteite
besigheids@@
pleg@@
oring
me.
werkgew@@
Wh@@
onte@@
geskied@@
verbly@@
best@@
sustain@@
abinet
aanbe@@
usin@@
SET@@
tog
ulture@@
Cal@@
istre@@
Piket@@
tem
siale
deri@@
OV@@
Mal@@
HEID@@
Langeb@@
CENTR@@
lein
meth@@
volle@@
Ã¶@@
gehal@@
iks@@
veroor@@
dik@@
dus@@
eb@@
Aids
FASILI@@
wels
B)
ha
SAKE
tersi@@
meer@@
bewar@@
ulture
Magistr@@
Gener@@
n,
ree@@
sings@@
desi@@
light
beskikbaar@@
ech@@
maatreÃ«@@
Ãªrel@@
verskaf@@
Chil@@
benef@@
mail@@
mende
ommissar@@
mpt@@
oung
Org@@
FACILI@@
ding,
fasi@@
Kle@@
Is@@
behe@@
purpos@@
Beaufort-@@
toer@@
TH
begin@@
ces@@
ous@@
lean@@
atis
langu@@
Kun@@
Delf@@
Ã³@@
liteit
tern@@
Xho@@
naa@@
advan@@
Worces@@
Vred@@
websi@@
weeg
rig
tal
legs
ests
import@@
EMDC@@
plann@@
milli@@
non@@
@p@@
au
propellan@@
skloof
sd@@
Prim@@
lack
Lev@@
Pres@@
pd@@
Communic@@
ining
ready
eck
pai@@
ENTR@@
Stad@@
entral
TUR@@
ours
teer@@
gesament@@
tz@@
tradi@@
Mobi@@
Pl@@
gov@@
ien
stige
ouw
groep@@
huwe@@
Verke@@
CIAL
wassenes
quiri@@
pho@@
Ã©
esses
strand
Lic@@
skrif@@
esondheids@@
agno@@
gres@@
Depo@@
Bestuurs@@
Voertuig@@
assen@@
Priv@@
Valle@@
C/@@
isipa@@
omy
tell@@
dated
whic@@
.wcap@@
verl@@
UMS
uitre@@
geleenthe@@
entre@@
Acc@@
fisi@@
infrastr@@
ENTI@@
Depar@@
aart
urende
uurwap@@
hol
itte@@
telik
esburg
aanhan@@
ERING
houd
ategor@@
lements@@
stakehol@@
Kap@@
eiding
nov@@
iding
benefit@@
@cap@@
trou@@
minim@@
kke
estic
im
Z
bruikers@@
afric@@
Plaa@@
tori@@
byvoorbe@@
child@@
span@@
TOE@@
Applic@@
cust@@
ation)
sing@@
D-@@
»@@
(I@@
Vic@@
kwes@@
hoek@@
tice

Englis@@
Teg@@
econ@@
ye@@
loof
PLANN@@
burs@@
hood
portun@@
bioprospek@@
@@
oon@@
FI@@
norm@@
read@@
oefening
@pgwc@@
aktiwi@@
appropri@@
Tes@@
At@@
fic
DISTRIKS@@
skaplike
ieke
Stre@@
bedrywi@@
ound@@
Weten@@
@m@@
respec@@
chemikali@@
ineland@@
tained
tial
aie
afgevaardig@@
skeie
eto@@
temming
.z@@
wcap@@
Hoog@@
enbos@@
gader@@
wever,
behoef@@
begrip
ESS
gov.za
ibu@@
µ@@
Gem@@
ution
Suid
secu@@
zenberg
mith
toge@@
WES-@@
ingskantore
modi@@
info@@
hop
jur@@
miljo@@
testa@@
volhou@@
ote@@
mechan@@
Q
Bran@@
apter
sl@@
ote:
ondheid
contro@@
org.za
differ@@
genc@@
inelands
tribu@@
Kha@@
sharing
ï@@
maxim@@
Vie@@
kasies
princi@@
ondheid@@
curr@@
ommige
kels
kend
August@@
twe@@
ehic@@
Mu@@
eland@@
dighede
Somers@@
PUBLI@@
civi@@
toesi@@
_@@
vel
through@@
Buil@@
hany@@
leid@@
tefeulj@@
leu@@
custom@@
webtuis@@
Bibliote@@
¢
Opvoed@@
Septem@@
uriteit
ver,
alise@@
eighbour@@
omite@@
heen
komite@@
spit@@
tels
dienskommissie
Cri@@
foon@@
beskik@@
siz@@
ampai@@
antore
Comple@@
ategi@@
bevoeg@@
wassen@@
vice
gly@@
SERVIC@@
ats
voorsit@@
STE
hase
Aven@@
rough
handle
Righ@@
klin@@
again@@
Khayelits@@
ouri@@
tremdhede
idse
w.@@
onds
teur-gener@@
asting
kses@@
oorsp@@
ffer@@
declar@@
ooreenkom@@
bec@@
inary
thor@@
fen@@
opl@@
ingso@@
Main@@
vidu@@
asiÃ«n@@
tter@@
bour
ourie
versity
earch
fro@@
vergoed@@
lli@@
Dec@@
=@@
PROVIN@@
nical
trak@@
retari@@
MENTAL
tics
±
<@@
Wan@@
oef@@
versui@@
ools
Calitz@@
GEW@@
jon@@
1)
toerust@@
Stellenbos@@
pe:
tuig@@
Theewater@@
annex@@
enac@@
sleu@@
Febru@@
Rep@@
til
anit@@
ouris@@
tin@@
CAP@@
proj@@
ater
Certific@@
saaklike
other@@
Deel@@
ghede
Sakeplan@@
depar@@
verwys@@
oo
lumay@@
bep@@
¿@@
diensk@@
Voortrek@@
perso@@
plain@@
lis
linieke
gh
+@@
TUIS@@
DIEN@@
same@@
ricul@@
Voer@@
alth
uly
contin@@
pal
itch@@
istreer
OBOS'@@
hoeveel@@
houds@@
proced@@
paragraa@@
enkel@@
eed@@
Ã¶rdin@@
ICT
Avenu@@
Civi@@
Recyc@@
avra@@
OMGEW@@
manu@@
cular
um)
retariat
vali@@
Fak@@
DEVELOP@@
Kapa
Guidel@@
zik@@
vid@@
maatre@@
evid@@
prosed@@

AFRIC@@
and/@@
Commun@@
Bree@@
Posb@@

Burs@@
Drakenste@@
tempor@@
enbur@@
Hom@@
Behuis@@
verkrag@@
oof@@
ein@@
navor@@
capac@@
elandse
ict
loor,
ow
rock@@
KAAPSE
*@@
Veld@@
deval@@
voorgesk@@
retariaat
skaps@@
eir
echan@@
nex@@
AFFAIR@@
goo@@
S'@@
Sw@@
Particip@@
citiz@@
foli@@
GOVERN@@
gemen@@
edule
http://@@
Buurtw@@
Arti@@
TOR
Metr@@
Oudtshoor@@
Mitchell@@
wle@@
MUNIC@@
Wes-@@
Immun@@
heu@@
entific
character@@
tract
gewoon@@
outh
Otter@@
publish@@
abinets@@
ontw@@
omstan@@
betro@@
voertuigregistrasi@@
Mossel@@
activi@@
#@@
landlor@@
efond@@
commod@@
perman@@
eiligh@@
niese
Bred@@
¼@@
produ@@
°
peri@@
lits@@
navig@@
Drak@@
Aug@@
stitution
alth@@
bers
Pen@@
twikkel
gned
skaf
ecu@@
teland@@
@@
tent
Subsi@@
Inkom@@
LIC@@
Prote@@
primÃª@@
offer@@
-gener@@
TOURIS@@
RON@@
Engel@@
pesialiseerde
Metropo@@
wise
Spesi@@
PROVINSI@@
e.school.za
$@@
weap@@
]@@
ntegre@@
onde@@
enning
trak
Mont@@
ommun@@
.za@@
rs
Author@@
\@@
linic@@
DISTR@@
gewoonter@@
Privaats@@
sigte
charac@@
treff@@
Direc@@
leidings
egene
voertui@@
kundig
Strategi@@
Wol@@
(02@@
tens
stain@@
agement
sof@@
twoor@@
Republi@@
mitte
transl@@
BUS@@
Gate@@
Agr@@
ondh@@
Khaye@@
wyl
Kannal@@
pesialise@@
near@@
Consum@@
Eng@@
eler@@
schoo@@
houdens
istreerde
tegre@@
committe@@
@@

betrokken@@
werksaam@@
Heid@@
sympt@@
Langu@@
Oc@@
Ok@@
dies@@
lisensietoets@@
ample
nologie
oordin@@
Tri@@
alitz@@
accord@@
Hart@@
PROJ@@
º@@
doelwit@@
OFF@@
Econ@@
PROV@@
vennoo@@
asionele
pesi@@
ertified
Infrastr@@
politi@@
stitusionele
cid@@
loride
paragrap@@
&nbsp;&gt@@
Kultuurs@@
OBO@@
esbur@@
behal@@
erc@@
e.school@@
hoekies
appe
retro@@
raai@@
envis@@
OFFIC@@
ple,
aut@@
wante
pale
parag@@
BOOV@@
reation
hann@@
Hop@@
TOER@@
tegr@@
voordeel@@
¾
voordeel-@@
LOC@@
rough@@
ne:
gewings@@
ually
entit@@
TRAF@@
bun@@
ekennings
10/06)
aats@@
ensive
Janu@@
plying
Veter@@
ensy
tural
Lange@@
OMGEWING@@
toep@@
Canc@@
entre
derd@@
reh@@
cil
bene@@
ederberg
hydra@@
mith@@
.Z@@
·
¿
FORM@@
+
Metropool@@
STRE@@
ulb@@
moed@@
ates'
VIER
elfde
hui@@
danige
Oud@@
vents
>@@
eris@@
ether
Agul@@
itrus@@
elling@@
assebli@@
toor
ffic@@
<
HIC@@
terti@@
ulle
WEB@@
vices
ABE@@
urity
Bestuurslisensietoets@@
rip
STING
lone
buro@@
Parti@@
pdf@@
!@@
­@@
advantaged
permith@@
rectional
Chur@@
PU@@
tement
BLI@@
toetsst@@
eers@@
dvoorkom@@
Befond@@
Motorvoertuigregistrasi@@
istics
EMD@@
²
³
ikali@@
uide
actice
VOER@@
´@@
asionale
TOUR@@
nys@@
tiz@@
HEAL@@
aila@@
â@@
@@
ENVIRON@@
cipate
geleen@@
aanspre@@
@@
preh@@
¬@@
accor@@
trent
ional
REGION@@
OPENB@@
istry
ww@@
Misdaadvoorkom@@
Saldanhab@@
illende
Occ@@
(Ac@@
@@
enber@@
p://@@
@@
specting
imming
Beau@@
ax:
verrigt@@
eidenheid
ersentrums
Ci@@
================================================================@@
#
nology
tioned
ould
addens
estes@@
©
Maat@@
PALI@@
mik
mail:
MUN@@
Emer@@
Enti@@
eik
ogn@@
VIEW
Hessequ@@
Brac@@
Chi@@
legisla@@
====@@
meerder@@
q
simpt@@
Malm@@
yns@@
eindes
Clan@@
FIC
ament@@
chemic@@
Sep@@
dise@@
Breederi@@
Matzik@@
pool@@
¾@@
========@@
OPEN@@
tshoor@@
advanta@@
twikkel@@
etoets@@
MD@@
²@@
¡@@
@@
Swellen@@
Driv@@
ween
Justi@@
srsa.@@
betrok@@
Basi@@
toraat
ief
==@@
ril
etown.gov.za
enbare
Kui@@
Binn@@
ellan@@
@@
Proper@@
gevaardig@@
mall
WEBSI@@
suid-@@
Ekon@@
omers@@
Resour@@
10/0@@
gency
@@
MINI@@
diensheff@@

riving
-sharing
TUIG@@
bevo@@
£@@
GOVER@@
Voertuigtoetsst@@
Opl@@
`@@
CILI@@
«@@
sp
neer
menser@@
werheid)
ople
Stell@@
(BOOV@@
Breedeval@@
insula
ERVIC@@
^
overnment
oorre@@
ehuis@@
embaddens
omic
&nbsp;
SOU@@
asiliteite
inheem@@
ittee
tware
Bureau@@
biopro@@
/of
BUSIN@@
WIKKE@@
tuurs@@
rector@@
abilit@@
bliote@@
omiese
Sco@@
essequ@@
(Servic@@
Treas@@
paste
twik@@
TIES:
OMI@@
ucture
