<unk>	0
<s>	0
</s>	0
▁t	-0
an	-1
le	-2
▁n	-3
▁.	-4
in	-5
▁k	-6
is	-7
he	-8
▁s	-9
la	-10
on	-11
wa	-12
en	-13
▁m	-14
▁h	-15
ti	-16
▁a	-17
ka	-18
▁ku	-19
▁v	-20
▁y	-21
re	-22
wi	-23
er	-24
▁the	-25
lo	-26
▁o	-27
ha	-28
▁e	-29
▁p	-30
▁le	-31
ri	-32
▁f	-33
▁x	-34
▁c	-35
▁b	-36
mb	-37
▁,	-38
▁na	-39
un	-40
or	-41
es	-42
▁w	-43
▁ya	-44
te	-45
▁hi	-46
al	-47
and	-48
▁to	-49
▁of	-50
ing	-51
om	-52
ga	-53
▁swi	-54
▁wa	-55
tion	-56
▁ti	-57
rh	-58
▁ma	-59
ko	-60
ke	-61
▁in	-62
▁xi	-63
▁va	-64
ts	-65
ana	-66
▁d	-67
▁T	-68
ou	-69
ve	-70
dz	-71
▁eka	-72
yi	-73
ro	-74
▁ta	-75
li	-76
▁ka	-77
ra	-78
ku	-79
▁and	-80
▁is	-81
▁i	-82
▁I	-83
▁re	-84
▁ha	-85
▁nga	-86
▁vu	-87
ta	-88
ele	-89
▁A	-90
isa	-91
ed	-92
ent	-93
ho	-94
▁les	-95
▁N	-96
wu	-97
▁S	-98
si	-99
isi	-100
▁be	-101
um	-102
▁M	-103
ar	-104
lu	-105
▁en	-106
▁la	-107
hat	-108
mbe	-109
hi	-110
▁H	-111
ang	-112
us	-113
ona	-114
va	-115
th	-116
ce	-117
ma	-118
▁sw	-119
ki	-120
ll	-121
▁ri	-122
▁lo	-123
it	-124
ec	-125
▁xa	-126
▁th	-127
ya	-128
▁wi	-129
▁K	-130
rhi	-131
▁swa	-132
eri	-133
ge	-134
▁for	-135
hu	-136
▁pro	-137
se	-138
▁no	-139
▁The	-140
ment	-141
vi	-142
ci	-143
▁yi	-144
ly	-145
▁C	-146
▁g	-147
we	-148
▁fan	-149
▁that	-150
ut	-151
me	-152
dzi	-153
▁leswi	-154
▁mi	-155
ur	-156
wana	-157
mp	-158
▁W	-159
▁are	-160
▁L	-161
▁P	-162
xi	-163
▁we	-164
gu	-165
▁on	-166
▁end	-167
ation	-168
ano	-169
▁fanele	-170
elo	-171
ld	-172
st	-173
▁V	-174
▁l	-175
▁an	-176
waku	-177
ong	-178
iso	-179
pp	-180
▁leyi	-181
▁con	-182
▁this	-183
ter	-184
▁he	-185
hla	-186
ani	-187
▁X	-188
▁:	-189
▁leswaku	-190
eni	-191
▁su	-192
ver	-193
mu	-194
▁hin	-195
tirh	-196
▁com	-197
▁ra	-198
▁u	-199
ch	-200
de	-201
▁ts	-202
wo	-203
ted	-204
et	-205
▁you	-206
fi	-207
xa	-208
ungu	-209
▁yo	-210
lela	-211
▁Hi	-212
▁de	-213
ct	-214
▁as	-215
ort	-216
▁bya	-217
▁1	-218
ela	-219
▁D	-220
kwa	-221
fum	-222
▁not	-223
▁or	-224
▁Ku	-225
mo	-226
▁R	-227
op	-228
▁E	-229
▁have	-230
▁2	-231
▁will	-232
as	-233
ers	-234
hle	-235
isiwa	-236
di	-237
▁with	-238
haka	-239
▁wu	-240
karhi	-241
ust	-242
qu	-243
▁?	-244
fri	-245
ca	-246
ble	-247
▁po	-248
vu	-249
men	-250
ces	-251
▁ndzi	-252
▁by	-253
ini	-254
▁lava	-255
ene	-256
▁)	-257
▁r	-258
hen	-259
▁mu	-260
undz	-261
▁ko	-262
gh	-263
any	-264
ir	-265
▁(	-266
res	-267
to	-268
mba	-269
▁lowu	-270
omi	-271
lang	-272
▁ne	-273
▁swin	-274
her	-275
▁tin	-276
weni	-277
▁Afri	-278
▁kumbe	-279
andz	-280
tirho	-281
oko	-282
ity	-283
▁ac	-284
ould	-285
▁it	-286
▁do	-287
pa	-288
ol	-289
lic	-290
mi	-291
▁van	-292
▁fa	-293
▁B	-294
▁un	-295
▁F	-296
ise	-297
▁We	-298
▁Xi	-299
▁se	-300
▁Ma	-301
▁si	-302
su	-303
▁me	-304
▁wo	-305
▁nd	-306
ena	-307
mbi	-308
end	-309
▁must	-310
fu	-311
▁imp	-312
oun	-313
ore	-314
▁Th	-315
▁endla	-316
ali	-317
▁lexi	-318
▁al	-319
kulu	-320
ther	-321
▁hinkwa	-322
▁fi	-323
▁go	-324
ty	-325
▁hum	-326
▁hla	-327
ant	-328
▁mati	-329
▁ex	-330
▁te	-331
eswi	-332
▁Swi	-333
▁min	-334
len	-335
tu	-336
▁This	-337
kela	-338
▁app	-339
lelo	-340
▁comm	-341
▁In	-342
so	-343
▁nkarhi	-344
koka	-345
tions	-346
▁sa	-347
▁has	-348
▁nyi	-349
▁20	-350
▁at	-351
our	-352
eriwa	-353
uni	-354
rom	-355
▁par	-356
el	-357
fumo	-358
hawu	-359
▁nkoka	-360
weke	-361
tive	-362
▁It	-363
▁wor	-364
▁can	-365
pi	-366
fa	-367
▁tim	-368
▁tirh	-369
▁li	-370
velo	-371
ist	-372
dza	-373
yo	-374
▁di	-375
▁vona	-376
▁swo	-377
▁may	-378
▁Vu	-379
▁vanhu	-380
cal	-381
▁Ndzi	-382
vo	-383
▁ng	-384
du	-385
ect	-386
▁so	-387
rd	-388
▁ni	-389
▁hina	-390
ome	-391
▁loko	-392
cip	-393
der	-394
yon	-395
for	-396
rhe	-397
sp	-398
▁Ti	-399
▁swinene	-400
▁nts	-401
yen	-402
wile	-403
▁landz	-404
ties	-405
ow	-406
tl	-407
ak	-408
▁vula	-409
riwa	-410
ad	-411
▁O	-412
▁us	-413
anga	-414
wona	-415
ate	-416
▁;	-417
▁mhaka	-418
▁need	-419
▁sh	-420
xaka	-421
▁all	-422
at	-423
▁ema	-424
elela	-425
ind	-426
lula	-427
▁our	-428
mbis	-429
▁leti	-430
▁there	-431
cial	-432
od	-433
▁ro	-434
▁from	-435
ongom	-436
han	-437
▁G	-438
ulu	-439
yimo	-440
fun	-441
ry	-442
hon	-443
▁ab	-444
▁leri	-445
tano	-446
tela	-447
▁lang	-448
▁sta	-449
▁tl	-450
onga	-451
▁pa	-452
▁nh	-453
▁rep	-454
outh	-455
▁Y	-456
▁comp	-457
ff	-458
▁st	-459
low	-460
▁ad	-461
▁kona	-462
red	-463
velop	-464
▁should	-465
cess	-466
sa	-467
ance	-468
ys	-469
▁ndlela	-470
sion	-471
▁inc	-472
po	-473
▁work	-474
ms	-475
▁ca	-476
ven	-477
ula	-478
les	-479
ub	-480
mbelo	-481
▁been	-482
▁laha	-483
ru	-484
▁South	-485
lweni	-486
▁qu	-487
tsh	-488
▁also	-489
den	-490
▁xo	-491
keri	-492
▁vi	-493
ervi	-494
out	-495
ves	-496
▁3	-497
▁Leswi	-498
kiwa	-499
▁ntirho	-500
▁whi	-501
ear	-502
ess	-503
▁coun	-504
umb	-505
▁ve	-506
▁xiko	-507
▁U	-508
▁tala	-509
ongo	-510
▁endli	-511
zonga	-512
▁kahle	-513
▁sungu	-514
▁mfumo	-515
yenge	-516
▁was	-517
▁-	-518
laho	-519
lan	-520
▁your	-521
▁Va	-522
▁mo	-523
hlweni	-524
vern	-525
eswo	-526
ina	-527
anihi	-528
yis	-529
▁swona	-530
luvu	-531
ting	-532
▁tir	-533
gn	-534
▁ho	-535
mbirhi	-536
▁cont	-537
leni	-538
▁Com	-539
andla	-540
eke	-541
▁mp	-542
pala	-543
gra	-544
▁De	-545
▁nas	-546
▁tsa	-547
▁emahlweni	-548
▁bo	-549
mbana	-550
mit	-551
ine	-552
▁pe	-553
▁per	-554
▁tlhe	-555
▁naswona	-556
kwalaho	-557
▁j	-558
▁which	-559
tic	-560
tsa	-561
ons	-562
ments	-563
ree	-564
bi	-565
▁wena	-566
phe	-567
▁Ha	-568
ublic	-569
▁"	-570
▁That	-571
go	-572
▁Afrika	-573
pport	-574
ure	-575
▁Loko	-576
gi	-577
ght	-578
ck	-579
byi	-580
ous	-581
xo	-582
▁nyika	-583
▁vuk	-584
▁xiyimo	-585
hlang	-586
▁vo	-587
▁Mi	-588
▁200	-589
fic	-590
▁nghen	-591
▁sp	-592
sipala	-593
ction	-594
▁rh	-595
▁develop	-596
id	-597
▁co	-598
▁Na	-599
▁other	-600
▁import	-601
vernment	-602
▁nhla	-603
▁19	-604
unicip	-605
ople	-606
luvuk	-607
undzu	-608
ul	-609
▁pfum	-610
▁servi	-611
▁ring	-612
ence	-613
▁xin	-614
rou	-615
leri	-616
▁exp	-617
▁tanihi	-618
▁issu	-619
▁resp	-620
▁more	-621
▁their	-622
▁yin	-623
elana	-624
kaka	-625
unhu	-626
▁year	-627
hleke	-628
▁would	-629
unity	-630
▁amu	-631
▁faneleke	-632
▁tirha	-633
▁sungula	-634
ard	-635
▁these	-636
▁byi	-637
kongom	-638
▁about	-639
bo	-640
▁they	-641
ollow	-642
ran	-643
▁fike	-644
tirhi	-645
▁people	-646
lawu	-647
omiti	-648
▁cha	-649
▁vuti	-650
orho	-651
tshwa	-652
▁Ndza	-653
za	-654
und	-655
elaka	-656
yondz	-657
▁lama	-658
▁follow	-659
ally	-660
titu	-661
▁sub	-662
▁Africa	-663
▁mitirho	-664
▁karhi	-665
rho	-666
kelo	-667
▁cin	-668
aki	-669
▁what	-670
ational	-671
ality	-672
mis	-673
▁Re	-674
huro	-675
ress	-676
ved	-677
▁kuma	-678
▁requ	-679
▁ID	-680
ary	-681
int	-682
tsongo	-683
▁ag	-684
wulo	-685
anisa	-686
▁hambana	-687
▁xiv	-688
xoko	-689
one	-690
hlo	-691
▁mb	-692
▁any	-693
tter	-694
▁Xana	-695
orhokeri	-696
gis	-697
▁who	-698
fore	-699
▁dis	-700
▁Le	-701
xe	-702
▁one	-703
▁An	-704
ery	-705
▁4	-706
▁nt	-707
▁plan	-708
▁mayelana	-709
indz	-710
kweni	-711
loy	-712
▁Ri	-713
▁pre	-714
▁hundz	-715
can	-716
eto	-717
▁kun	-718
▁count	-719
▁humelela	-720
anelo	-721
▁Eka	-722
▁Ho	-723
tional	-724
phi	-725
luvukiso	-726
telo	-727
▁tind	-728
▁langut	-729
ingi	-730
gele	-731
isano	-732
▁There	-733
▁timhaka	-734
▁/	-735
andle	-736
kongomelo	-737
duc	-738
▁katsa	-739
▁tiko	-740
mus	-741
art	-742
▁sec	-743
fundz	-744
tifi	-745
▁ants	-746
isava	-747
▁time	-748
▁Sw	-749
00	-750
▁tshe	-751
▁very	-752
cy	-753
▁teka	-754
con	-755
▁xikombelo	-756
▁inclu	-757
▁important	-758
▁Pro	-759
bili	-760
▁process	-761
▁pers	-762
▁under	-763
▁public	-764
▁kh	-765
wiri	-766
indhawu	-767
▁provi	-768
▁ndz	-769
mploy	-770
min	-771
king	-772
ew	-773
▁landzelaka	-774
viko	-775
▁ba	-776
▁make	-777
tation	-778
kan	-779
▁some	-780
▁201	-781
▁IDP	-782
pe	-783
▁African	-784
▁lebyi	-785
▁bu	-786
▁tiyis	-787
▁tra	-788
eci	-789
tain	-790
▁out	-791
mation	-792
wiritano	-793
angu	-794
▁infor	-795
mbiswiritano	-796
il	-797
▁Ka	-798
kokwalaho	-799
rity	-800
▁report	-801
▁kambe	-802
cil	-803
▁pla	-804
▁hak	-805
lawa	-806
ning	-807
yiso	-808
hlen	-809
▁sweswi	-810
▁sweswo	-811
▁Mu	-812
▁lula	-813
▁like	-814
▁endliwa	-815
ach	-816
▁municip	-817
hany	-818
▁commit	-819
akindhawu	-820
wan	-821
▁government	-822
▁loyi	-823
da	-824
leka	-825
▁da	-826
▁ques	-827
tsha	-828
▁support	-829
fer	-830
▁If	-831
wer	-832
▁tirhisa	-833
jec	-834
ges	-835
▁pri	-836
ding	-837
▁ward	-838
▁vukorhokeri	-839
ave	-840
▁Nawu	-841
▁pfun	-842
phemu	-843
zi	-844
ink	-845
▁its	-846
khon	-847
no	-848
lana	-849
hungu	-850
ba	-851
get	-852
▁fana	-853
▁As	-854
cus	-855
resi	-856
jeke	-857
by	-858
lembe	-859
yelo	-860
▁am	-861
▁munhu	-862
▁nti	-863
▁than	-864
▁community	-865
lication	-866
fanelo	-867
▁mina	-868
hlengele	-869
▁seke	-870
per	-871
▁tlhela	-872
part	-873
▁suka	-874
gram	-875
▁mali	-876
▁tsakela	-877
▁cinca	-878
indzu	-879
▁if	-880
ish	-881
kile	-882
now	-883
angi	-884
▁5	-885
▁Act	-886
hlamu	-887
man	-888
▁acc	-889
▁requi	-890
ings	-891
▁respon	-892
▁vaakindhawu	-893
▁ntsena	-894
mende	-895
ject	-896
▁199	-897
▁yona	-898
haku	-899
ue	-900
utiso	-901
▁development	-902
▁khu	-903
▁nawu	-904
▁dec	-905
▁ob	-906
khonomi	-907
tee	-908
yondzo	-909
led	-910
▁man	-911
▁lembe	-912
▁following	-913
wn	-914
▁memb	-915
umbulu	-916
▁rec	-917
▁gi	-918
▁inter	-919
▁Dzonga	-920
▁swiv	-921
▁En	-922
▁CB	-923
▁Hambiswiritano	-924
alth	-925
▁hlang	-926
hlengeletano	-927
swo	-928
est	-929
here	-930
▁prov	-931
▁tik	-932
▁mav	-933
▁xiyenge	-934
phiq	-935
▁new	-936
mbisi	-937
oni	-938
▁vatirhi	-939
▁them	-940
boho	-941
opfu	-942
▁tsha	-943
endlelo	-944
▁ke	-945
▁exi	-946
▁appro	-947
▁vaaki	-948
▁CBP	-949
eve	-950
ps	-951
liti	-952
phiqo	-953
mbiso	-954
▁loku	-955
▁Pa	-956
▁matiko	-957
mbisa	-958
teri	-959
▁hlay	-960
▁J	-961
▁part	-962
all	-963
▁such	-964
gain	-965
ors	-966
▁chi	-967
wever	-968
hurojeke	-969
rate	-970
▁tumbulu	-971
leke	-972
▁langu	-973
ving	-974
yste	-975
bu	-976
▁two	-977
▁yini	-978
Dzonga	-979
▁For	-980
ries	-981
▁timali	-982
nhla	-983
fe	-984
▁up	-985
▁byo	-986
▁fin	-987
▁information	-988
ten	-989
▁mar	-990
hol	-991
▁malembe	-992
▁ehleke	-993
▁person	-994
▁ter	-995
▁misava	-996
▁tho	-997
ration	-998
rhu	-999
▁econ	-1000
ded	-1001
▁sc	-1002
rea	-1003
irst	-1004
▁wun	-1005
ganga	-1006
▁proble	-1007
▁'	-1008
▁What	-1009
▁nk	-1010
▁masipala	-1011
ision	-1012
valeni	-1013
▁es	-1014
lave	-1015
very	-1016
wis	-1017
▁tiyisisa	-1018
ens	-1019
ingiri	-1020
▁henhla	-1021
▁kongom	-1022
▁tano	-1023
ab	-1024
▁know	-1025
ced	-1026
iti	-1027
mbo	-1028
▁tip	-1029
▁matimba	-1030
▁vut	-1031
uvo	-1032
▁kha	-1033
▁hlawu	-1034
edi	-1035
laveko	-1036
tirhisiwa	-1037
lation	-1038
▁employ	-1039
ob	-1040
▁vun	-1041
▁tran	-1042
▁take	-1043
ren	-1044
mbiwa	-1045
▁cour	-1046
▁lave	-1047
risa	-1048
▁tlula	-1049
▁nge	-1050
▁nka	-1051
▁numb	-1052
▁ikhonomi	-1053
▁vus	-1054
▁fikelela	-1055
▁6	-1056
hang	-1057
▁mpi	-1058
▁endz	-1059
▁hinkwaswo	-1060
stitu	-1061
▁kota	-1062
misa	-1063
▁tirhisiwa	-1064
ongon	-1065
form	-1066
▁but	-1067
▁!	-1068
▁child	-1069
gy	-1070
▁conc	-1071
▁mas	-1072
▁res	-1073
▁han	-1074
▁Hikokwalaho	-1075
▁Min	-1076
ji	-1077
kisi	-1078
▁sha	-1079
thing	-1080
angelo	-1081
▁made	-1082
▁cer	-1083
▁xiviko	-1084
harhu	-1085
▁country	-1086
als	-1087
bility	-1088
▁fo	-1089
ations	-1090
▁SA	-1091
▁seketela	-1092
ingiriko	-1093
eta	-1094
▁service	-1095
▁No	-1096
iseka	-1097
▁milawu	-1098
vis	-1099
▁program	-1100
ongonoko	-1101
▁meet	-1102
▁ele	-1103
sible	-1104
▁form	-1105
▁syste	-1106
tiwa	-1107
rhela	-1108
▁nhluvukiso	-1109
aka	-1110
▁contin	-1111
▁parti	-1112
sure	-1113
▁hava	-1114
hlamuleri	-1115
rhelo	-1116
▁ndhawu	-1117
wini	-1118
lemen	-1119
▁antsw	-1120
hy	-1121
▁mit	-1122
▁fe	-1123
▁number	-1124
laku	-1125
▁enge	-1126
▁again	-1127
▁chang	-1128
▁mon	-1129
ased	-1130
sul	-1131
partment	-1132
▁question	-1133
lear	-1134
llen	-1135
xini	-1136
hlangano	-1137
ond	-1138
rin	-1139
▁hinkwayo	-1140
▁To	-1141
▁tiva	-1142
▁ass	-1143
▁Par	-1144
▁offi	-1145
▁Presi	-1146
keriwa	-1147
▁over	-1148
ruct	-1149
▁now	-1150
▁maendlelo	-1151
▁inte	-1152
tara	-1153
wiko	-1154
omo	-1155
▁So	-1156
pos	-1157
weti	-1158
▁matter	-1159
▁exikarhi	-1160
▁think	-1161
mend	-1162
▁ehleketa	-1163
tiko	-1164
▁rihany	-1165
▁yena	-1166
ok	-1167
▁rixaka	-1168
anyeto	-1169
ffer	-1170
▁National	-1171
ety	-1172
ric	-1173
fambis	-1174
▁vutihlamuleri	-1175
rile	-1176
▁kan	-1177
onelo	-1178
▁my	-1179
kambe	-1180
▁only	-1181
ener	-1182
▁eff	-1183
▁were	-1184
vel	-1185
▁into	-1186
▁see	-1187
▁eku	-1188
▁services	-1189
cep	-1190
▁ndza	-1191
▁Go	-1192
▁kho	-1193
▁speci	-1194
melo	-1195
▁They	-1196
▁pfumele	-1197
▁well	-1198
▁Kambe	-1199
▁het	-1200
▁grou	-1201
▁want	-1202
▁issue	-1203
▁kungu	-1204
▁handle	-1205
▁health	-1206
ung	-1207
▁endlelo	-1208
▁application	-1209
wikoti	-1210
▁ntiyiso	-1211
hansi	-1212
ents	-1213
ory	-1214
holisi	-1215
laha	-1216
▁good	-1217
▁mahungu	-1218
wadi	-1219
ni	-1220
▁say	-1221
▁pres	-1222
▁impro	-1223
▁years	-1224
vela	-1225
▁wona	-1226
ungulo	-1227
▁tshemba	-1228
elelo	-1229
tes	-1230
reat	-1231
▁Commit	-1232
▁xiphemu	-1233
ac	-1234
uring	-1235
▁fika	-1236
dent	-1237
▁7	-1238
ural	-1239
▁cri	-1240
▁vho	-1241
▁therefore	-1242
▁xiave	-1243
esi	-1244
lia	-1245
▁af	-1246
rect	-1247
▁swiko	-1248
omic	-1249
▁lawa	-1250
hakelo	-1251
▁tshama	-1252
▁achi	-1253
▁state	-1254
tlha	-1255
cum	-1256
▁rin	-1257
▁humele	-1258
gement	-1259
▁Sweswo	-1260
▁op	-1261
▁olo	-1262
▁sime	-1263
leriwa	-1264
▁right	-1265
▁switirhisiwa	-1266
xokoxoko	-1267
▁La	-1268
▁mana	-1269
hip	-1270
ised	-1271
▁swilo	-1272
vula	-1273
▁Tim	-1274
▁Van	-1275
▁local	-1276
dya	-1277
not	-1278
▁kume	-1279
meri	-1280
▁exa	-1281
▁use	-1282
▁differ	-1283
tiv	-1284
cate	-1285
▁You	-1286
▁comple	-1287
lamende	-1288
▁cannot	-1289
▁where	-1290
ron	-1291
ler	-1292
▁ehansi	-1293
ord	-1294
licy	-1295
ans	-1296
omen	-1297
row	-1298
ture	-1299
▁agree	-1300
▁provin	-1301
▁pfuna	-1302
▁members	-1303
tives	-1304
wanano	-1305
ks	-1306
frika	-1307
▁first	-1308
▁hlamus	-1309
▁hinkwavo	-1310
▁clear	-1311
tsi	-1312
ures	-1313
▁how	-1314
fambiselo	-1315
mun	-1316
▁way	-1317
im	-1318
use	-1319
ghts	-1320
▁hete	-1321
▁needs	-1322
▁tlaku	-1323
rhang	-1324
▁These	-1325
▁But	-1326
▁reas	-1327
hed	-1328
mela	-1329
uation	-1330
▁social	-1331
▁ar	-1332
▁endzhaku	-1333
▁point	-1334
▁sit	-1335
▁wadi	-1336
▁Ndzawulo	-1337
langi	-1338
iness	-1339
▁masungulo	-1340
▁system	-1341
▁sect	-1342
▁communi	-1343
▁swirho	-1344
▁bi	-1345
cili	-1346
▁legis	-1347
▁national	-1348
come	-1349
unene	-1350
▁On	-1351
pha	-1352
ward	-1353
mission	-1354
▁vuswikoti	-1355
▁does	-1356
000	-1357
▁mpfum	-1358
▁issues	-1359
ankulu	-1360
▁pas	-1361
▁hinkwawo	-1362
rough	-1363
ph	-1364
ining	-1365
▁He	-1366
▁xim	-1367
hlay	-1368
twe	-1369
▁mani	-1370
▁many	-1371
▁done	-1372
rasi	-1373
ful	-1374
hani	-1375
dress	-1376
▁nyikiwa	-1377
▁rela	-1378
ring	-1379
▁Mfumo	-1380
usiness	-1381
▁ensure	-1382
▁pha	-1383
fy	-1384
tivi	-1385
cha	-1386
kho	-1387
mbela	-1388
teme	-1389
sen	-1390
▁vuy	-1391
.1	-1392
▁dyondzo	-1393
tlho	-1394
▁pfu	-1395
gist	-1396
▁beli	-1397
▁Coun	-1398
AN	-1399
mbu	-1400
▁However	-1401
ducation	-1402
fisi	-1403
▁project	-1404
dy	-1405
visa	-1406
▁Con	-1407
▁ngopfu	-1408
▁challen	-1409
xt	-1410
hlawu	-1411
ular	-1412
denti	-1413
▁xiboho	-1414
▁Develop	-1415
▁Kha	-1416
▁siku	-1417
▁tak	-1418
▁terms	-1419
rimi	-1420
▁yisa	-1421
Afrika	-1422
▁tindhawu	-1423
erile	-1424
▁amukela	-1425
helo	-1426
▁sti	-1427
tshala	-1428
▁policy	-1429
▁pos	-1430
▁happ	-1431
▁council	-1432
mes	-1433
▁Lexi	-1434
olo	-1435
mple	-1436
▁xona	-1437
▁place	-1438
▁repres	-1439
▁much	-1440
▁landza	-1441
▁nj	-1442
▁nhlang	-1443
▁propos	-1444
▁matirhelo	-1445
tees	-1446
umu	-1447
seke	-1448
▁consi	-1449
ffi	-1450
oro	-1451
hensa	-1452
▁Ward	-1453
bye	-1454
▁case	-1455
▁ringana	-1456
▁Xiko	-1457
▁here	-1458
▁vile	-1459
▁through	-1460
▁cons	-1461
▁Council	-1462
rac	-1463
▁10	-1464
▁hetelela	-1465
ners	-1466
iseki	-1467
▁implemen	-1468
▁inf	-1469
▁set	-1470
▁municipality	-1471
▁org	-1472
ense	-1473
gard	-1474
▁enhlo	-1475
▁swilaveko	-1476
▁eri	-1477
ehleke	-1478
dente	-1479
▁problem	-1480
▁enhlokweni	-1481
hiki	-1482
IV	-1483
▁far	-1484
tab	-1485
▁long	-1486
▁indi	-1487
▁Rixaka	-1488
table	-1489
fhu	-1490
▁said	-1491
▁Department	-1492
tween	-1493
ective	-1494
▁between	-1495
cra	-1496
▁being	-1497
ern	-1498
▁Cons	-1499
▁Parlia	-1500
tice	-1501
▁discus	-1502
bindzu	-1503
ild	-1504
ection	-1505
▁against	-1506
▁xifundz	-1507
▁vuxokoxoko	-1508
able	-1509
▁vana	-1510
hontlho	-1511
▁her	-1512
▁water	-1513
▁believe	-1514
holo	-1515
kiweke	-1516
▁antswisa	-1517
▁nakambe	-1518
chumu	-1519
▁twis	-1520
▁hansi	-1521
▁when	-1522
▁fund	-1523
▁sus	-1524
▁000	-1525
henhla	-1526
▁hungu	-1527
▁three	-1528
▁pi	-1529
▁deli	-1530
▁erivaleni	-1531
SA	-1532
ss	-1533
tern	-1534
▁mak	-1535
xiwa	-1536
▁level	-1537
▁economic	-1538
▁Palamende	-1539
uro	-1540
▁docum	-1541
utho	-1542
▁hel	-1543
▁programme	-1544
ual	-1545
tani	-1546
▁business	-1547
▁Nh	-1548
ticular	-1549
ister	-1550
▁each	-1551
▁hakona	-1552
▁laveka	-1553
▁8	-1554
hom	-1555
▁mpimo	-1556
▁inves	-1557
▁kombisa	-1558
▁Development	-1559
ough	-1560
des	-1561
inga	-1562
▁Huvo	-1563
▁resul	-1564
▁regard	-1565
sirhe	-1566
tikweni	-1567
▁anga	-1568
▁women	-1569
▁0	-1570
urn	-1571
▁own	-1572
▁xikongomelo	-1573
mocra	-1574
isiteme	-1575
jects	-1576
ult	-1577
anisi	-1578
▁nhlayo	-1579
▁institu	-1580
▁opport	-1581
▁Wa	-1582
com	-1583
▁within	-1584
▁engetela	-1585
▁tiy	-1586
▁finan	-1587
▁particular	-1588
TI	-1589
itiz	-1590
▁regis	-1591
▁Vumbiwa	-1592
▁tindlela	-1593
cri	-1594
inete	-1595
▁khensa	-1596
age	-1597
▁tiwadi	-1598
hool	-1599
▁different	-1600
▁Parliament	-1601
▁Di	-1602
▁inv	-1603
▁cor	-1604
ged	-1605
▁xiphiqo	-1606
irhe	-1607
▁kutani	-1608
tend	-1609
isana	-1610
▁fu	-1611
▁9	-1612
ency	-1613
teka	-1614
▁area	-1615
▁address	-1616
▁Constitu	-1617
▁swiyenge	-1618
▁medi	-1619
▁apply	-1620
▁suc	-1621
ources	-1622
▁particip	-1623
▁committee	-1624
▁gu	-1625
▁sign	-1626
▁regu	-1627
lution	-1628
▁kombela	-1629
van	-1630
▁prote	-1631
▁fambe	-1632
▁tumbuluxa	-1633
litical	-1634
tabl	-1635
▁still	-1636
cei	-1637
▁lear	-1638
▁perform	-1639
▁objec	-1640
cc	-1641
▁sector	-1642
▁Sta	-1643
▁same	-1644
▁pay	-1645
▁role	-1646
▁khom	-1647
▁mavonelo	-1648
ribu	-1649
ctions	-1650
▁mafambiselo	-1651
tial	-1652
▁his	-1653
▁prom	-1654
ech	-1655
▁And	-1656
▁help	-1657
fung	-1658
gress	-1659
▁Komiti	-1660
viron	-1661
▁nhlengeletano	-1662
▁Ex	-1663
ady	-1664
urther	-1665
▁concern	-1666
▁phurojeke	-1667
onkulu	-1668
▁ehenhla	-1669
▁situation	-1670
pu	-1671
sel	-1672
gingiriko	-1673
▁hilaha	-1674
▁certifi	-1675
alwa	-1676
▁used	-1677
hold	-1678
▁lavaka	-1679
▁ntlawa	-1680
▁job	-1681
▁rights	-1682
rest	-1683
▁tika	-1684
▁areas	-1685
▁month	-1686
▁accoun	-1687
▁citiz	-1688
hweti	-1689
vabyi	-1690
▁meas	-1691
▁Lo	-1692
▁why	-1693
▁kwa	-1694
▁improve	-1695
vironment	-1696
▁Xo	-1697
the	-1698
▁bud	-1699
▁most	-1700
▁invol	-1701
▁Committee	-1702
ope	-1703
▁key	-1704
▁nec	-1705
▁masi	-1706
▁lulamisa	-1707
▁vulavula	-1708
yana	-1709
▁before	-1710
wor	-1711
lain	-1712
▁supp	-1713
▁change	-1714
▁continue	-1715
▁posi	-1716
▁prin	-1717
▁grow	-1718
manana	-1719
▁Servi	-1720
▁swiyimo	-1721
eka	-1722
ouse	-1723
▁huma	-1724
▁course	-1725
▁fun	-1726
andzu	-1727
▁prio	-1728
▁rhum	-1729
▁planning	-1730
val	-1731
▁App	-1732
▁rele	-1733
muntlha	-1734
▁law	-1735
hato	-1736
yimeri	-1737
▁refer	-1738
seketelo	-1739
▁provide	-1740
▁responsi	-1741
ase	-1742
▁get	-1743
▁tlhelo	-1744
day	-1745
▁marke	-1746
▁democra	-1747
isaka	-1748
▁leha	-1749
riweke	-1750
▁those	-1751
▁include	-1752
▁equ	-1753
▁high	-1754
eneral	-1755
▁angarhela	-1756
▁political	-1757
hun	-1758
▁val	-1759
venga	-1760
isiwile	-1761
▁meeting	-1762
mula	-1763
▁just	-1764
▁shall	-1765
gevenga	-1766
▁school	-1767
▁Minister	-1768
▁poli	-1769
▁strate	-1770
homi	-1771
▁recei	-1772
▁sirhe	-1773
▁Municip	-1774
ecu	-1775
▁Nas	-1776
reme	-1777
▁order	-1778
▁nchumu	-1779
lobye	-1780
▁main	-1781
elangi	-1782
ructure	-1783
▁ava	-1784
▁xivutiso	-1785
▁mpfumelelo	-1786
▁action	-1787
▁men	-1788
hatla	-1789
kom	-1790
rge	-1791
▁famba	-1792
manyeto	-1793
▁progress	-1794
tor	-1795
▁stand	-1796
▁muganga	-1797
reed	-1798
EL	-1799
ito	-1800
▁tipo	-1801
litiki	-1802
▁taken	-1803
honi	-1804
isela	-1805
▁intern	-1806
▁rihanyu	-1807
▁required	-1808
▁financial	-1809
▁Nhluvukiso	-1810
essary	-1811
▁build	-1812
ehleketo	-1813
▁Naswona	-1814
▁ntwanano	-1815
▁countries	-1816
ill	-1817
inet	-1818
▁HIV	-1819
▁tiyi	-1820
vha	-1821
▁vote	-1822
tirhis	-1823
▁establ	-1824
▁xihatla	-1825
ris	-1826
▁12	-1827
loko	-1828
▁endlaka	-1829
ast	-1830
▁ge	-1831
utani	-1832
▁access	-1833
▁every	-1834
▁vutomi	-1835
▁nhlangano	-1836
▁timfanelo	-1837
▁facili	-1838
▁eAfrika	-1839
▁President	-1840
▁education	-1841
lar	-1842
▁deb	-1843
▁Vanhu	-1844
▁amend	-1845
ila	-1846
vany	-1847
▁yihi	-1848
▁Po	-1849
dust	-1850
▁projects	-1851
▁care	-1852
▁Kutani	-1853
▁bindzu	-1854
▁ste	-1855
▁require	-1856
▁Mp	-1857
view	-1858
.2	-1859
ud	-1860
demo	-1861
▁bas	-1862
▁fact	-1863
▁Constitution	-1864
kaya	-1865
▁khale	-1866
▁vumbirhi	-1867
▁All	-1868
▁could	-1869
ign	-1870
lob	-1871
sive	-1872
▁too	-1873
tical	-1874
unguhato	-1875
▁swikongomelo	-1876
EN	-1877
laka	-1878
▁Tin	-1879
▁lawu	-1880
▁act	-1881
binete	-1882
▁princip	-1883
▁Let	-1884
▁after	-1885
▁mfanelo	-1886
▁achieve	-1887
▁give	-1888
▁Cab	-1889
▁Hla	-1890
▁necessary	-1891
▁nghenelela	-1892
▁migingiriko	-1893
wina	-1894
▁mil	-1895
stand	-1896
leteri	-1897
anisiwa	-1898
▁hundza	-1899
▁swivutiso	-1900
▁implementation	-1901
▁ans	-1902
leswo	-1903
▁happen	-1904
IN	-1905
▁Mo	-1906
▁Cabinet	-1907
tirhisano	-1908
▁mbu	-1909
▁antswa	-1910
▁availa	-1911
orisa	-1912
kelelo	-1913
▁Khabinete	-1914
ep	-1915
▁further	-1916
▁trans	-1917
mbhoni	-1918
▁komiti	-1919
▁consider	-1920
▁pur	-1921
▁wihi	-1922
▁kumeka	-1923
hlayiseki	-1924
tle	-1925
werhu	-1926
▁nseketelo	-1927
▁Un	-1928
▁miehleketo	-1929
ism	-1930
rhangeri	-1931
▁success	-1932
▁xivangelo	-1933
ked	-1934
wuri	-1935
▁including	-1936
ffic	-1937
▁pholisi	-1938
▁non	-1939
▁tax	-1940
▁Government	-1941
engo	-1942
khe	-1943
fambisi	-1944
sed	-1945
▁Bo	-1946
tary	-1947
▁had	-1948
tivities	-1949
ON	-1950
kudya	-1951
▁then	-1952
▁possible	-1953
win	-1954
pend	-1955
ently	-1956
▁ener	-1957
▁col	-1958
▁full	-1959
▁represen	-1960
▁nto	-1961
▁spe	-1962
▁soci	-1963
▁children	-1964
▁bene	-1965
▁office	-1966
yoni	-1967
▁xikombiso	-1968
ef	-1969
eti	-1970
vhe	-1971
▁hlayisa	-1972
▁legislation	-1973
rit	-1974
▁ringan	-1975
▁swakudya	-1976
ner	-1977
▁goza	-1978
leriso	-1979
ected	-1980
▁Kho	-1981
▁Commission	-1982
ants	-1983
▁mbuyelo	-1984
cted	-1985
▁riki	-1986
▁pfuma	-1987
▁section	-1988
▁management	-1989
▁environment	-1990
lowo	-1991
▁ntl	-1992
▁available	-1993
▁fambelana	-1994
ft	-1995
hlayo	-1996
▁kuva	-1997
▁rema	-1998
▁fanela	-1999
▁xidemo	-2000
gin	-2001
▁fut	-2002
▁swiphiqo	-2003
isisa	-2004
▁promo	-2005
▁deal	-2006
▁ga	-2007
ound	-2008
▁muxaka	-2009
▁nongonoko	-2010
▁group	-2011
▁landzele	-2012
▁something	-2013
▁activities	-2014
▁lead	-2015
cation	-2016
fhumba	-2017
▁means	-2018
▁future	-2019
▁training	-2020
up	-2021
▁Xiyenge	-2022
ints	-2023
gether	-2024
letelo	-2025
▁hetiseka	-2026
▁Me	-2027
uma	-2028
pimelo	-2029
▁appli	-2030
hankulu	-2031
▁permit	-2032
lele	-2033
▁mis	-2034
pri	-2035
ated	-2036
▁cre	-2037
ER	-2038
▁cur	-2039
ctive	-2040
▁even	-2041
▁resources	-2042
▁certificate	-2043
▁mpfun	-2044
▁mabindzu	-2045
▁rivaleni	-2046
▁maj	-2047
ready	-2048
▁however	-2049
▁citizens	-2050
ital	-2051
work	-2052
▁hlamusela	-2053
▁Ca	-2054
gistration	-2055
kirasi	-2056
▁mitlawa	-2057
rol	-2058
▁ent	-2059
▁view	-2060
▁tshi	-2061
tors	-2062
▁world	-2063
▁masiku	-2064
▁second	-2065
▁cla	-2066
goza	-2067
▁let	-2068
▁fomo	-2069
▁hope	-2070
isiweke	-2071
▁Ad	-2072
▁dire	-2073
landla	-2074
ek	-2075
▁human	-2076
▁effective	-2077
lls	-2078
xop	-2079
teko	-2080
▁vugevenga	-2081
▁she	-2082
▁Comp	-2083
landlamu	-2084
▁swivangelo	-2085
mber	-2086
▁uni	-2087
▁transp	-2088
▁example	-2089
▁phe	-2090
▁huvo	-2091
▁tlakusa	-2092
gal	-2093
▁already	-2094
▁Tik	-2095
cle	-2096
mpi	-2097
▁Cha	-2098
isile	-2099
▁taka	-2100
▁rhang	-2101
▁clo	-2102
▁ski	-2103
▁cent	-2104
▁awa	-2105
▁allow	-2106
▁participation	-2107
oper	-2108
▁Swo	-2109
▁dra	-2110
▁organisa	-2111
oint	-2112
vate	-2113
▁aka	-2114
▁Tanihi	-2115
▁submit	-2116
oura	-2117
▁xik	-2118
▁twa	-2119
▁disa	-2120
▁namuntlha	-2121
enda	-2122
rast	-2123
▁che	-2124
▁veka	-2125
angala	-2126
▁nyike	-2127
▁respect	-2128
por	-2129
▁identi	-2130
▁remain	-2131
▁things	-2132
ES	-2133
of	-2134
tswa	-2135
mbeko	-2136
▁star	-2137
▁performance	-2138
esa	-2139
rame	-2140
▁both	-2141
▁hlangana	-2142
tis	-2143
omy	-2144
▁Khomi	-2145
▁going	-2146
▁hlaya	-2147
▁hikwalaho	-2148
fuwo	-2149
▁certain	-2150
ines	-2151
▁focus	-2152
▁tihlang	-2153
vent	-2154
aniso	-2155
ffici	-2156
▁working	-2157
ank	-2158
▁tiv	-2159
vumbeko	-2160
▁decision	-2161
alities	-2162
▁member	-2163
▁vumbhoni	-2164
▁prac	-2165
▁rona	-2166
▁katsi	-2167
▁khomi	-2168
▁assist	-2169
▁groups	-2170
▁specific	-2171
▁municipal	-2172
tumb	-2173
▁wel	-2174
▁kula	-2175
▁amuke	-2176
▁problems	-2177
ished	-2178
▁communities	-2179
exo	-2180
▁indust	-2181
▁sukela	-2182
▁understand	-2183
▁etikweni	-2184
▁provincial	-2185
▁tiphurojeke	-2186
▁St	-2187
leyo	-2188
▁wish	-2189
▁society	-2190
rito	-2191
round	-2192
tered	-2193
▁Bill	-2194
▁Mati	-2195
▁sisiteme	-2196
▁tipolitiki	-2197
tshun	-2198
▁call	-2199
▁peri	-2200
tumbulu	-2201
▁fanelangi	-2202
hala	-2203
mboro	-2204
▁questions	-2205
▁hikokwalaho	-2206
itor	-2207
▁kusu	-2208
▁oper	-2209
vilelo	-2210
rastructure	-2211
do	-2212
sic	-2213
▁Rep	-2214
KA	-2215
vant	-2216
▁court	-2217
▁Ta	-2218
▁budget	-2219
balo	-2220
▁hink	-2221
▁amukeriwa	-2222
▁miganga	-2223
sati	-2224
▁back	-2225
riwile	-2226
▁today	-2227
hambana	-2228
▁30	-2229
ako	-2230
▁xirho	-2231
phorisa	-2232
▁mikarhi	-2233
cipa	-2234
▁come	-2235
▁dist	-2236
▁ximfumo	-2237
▁rihanyo	-2238
▁hinkwato	-2239
cated	-2240
▁xandla	-2241
▁challenges	-2242
▁vuhlayiseki	-2243
▁given	-2244
▁olova	-2245
▁vamanana	-2246
▁Xikombelo	-2247
HA	-2248
mar	-2249
▁Ts	-2250
▁How	-2251
IS	-2252
opfung	-2253
▁better	-2254
▁together	-2255
▁End	-2256
▁debate	-2257
opfungopfu	-2258
ative	-2259
▁hakunene	-2260
▁accep	-2261
intshwa	-2262
▁answer	-2263
▁during	-2264
kuva	-2265
▁adop	-2266
▁makungu	-2267
▁ny	-2268
▁initi	-2269
▁economy	-2270
▁official	-2271
▁ndlandlamu	-2272
▁find	-2273
▁look	-2274
▁forward	-2275
▁Nt	-2276
▁tekiwa	-2277
▁Masipala	-2278
▁Z	-2279
minist	-2280
tivity	-2281
▁nghenisa	-2282
isions	-2283
put	-2284
▁Our	-2285
▁sho	-2286
▁2011	-2287
▁deter	-2288
▁points	-2289
▁tirhana	-2290
ango	-2291
gion	-2292
▁ano	-2293
mbewu	-2294
▁Sweswi	-2295
▁mpimanyeto	-2296
▁ref	-2297
▁Mhaka	-2298
▁growth	-2299
cies	-2300
ects	-2301
fety	-2302
inya	-2303
waka	-2304
ption	-2305
▁great	-2306
▁period	-2307
▁Service	-2308
duct	-2309
anyana	-2310
▁tihakelo	-2311
▁aff	-2312
▁hand	-2313
▁inst	-2314
▁vari	-2315
yaka	-2316
▁Comm	-2317
undzuku	-2318
▁another	-2319
une	-2320
▁nxa	-2321
▁ext	-2322
kheti	-2323
▁capa	-2324
▁tani	-2325
▁tech	-2326
▁hunguta	-2327
ases	-2328
ince	-2329
▁tisa	-2330
▁tekela	-2331
WA	-2332
ide	-2333
▁relevant	-2334
▁tikomiti	-2335
be	-2336
ds	-2337
mili	-2338
orts	-2339
tail	-2340
▁tal	-2341
▁gezi	-2342
▁hela	-2343
▁hakela	-2344
▁proced	-2345
▁employe	-2346
dzo	-2347
▁landzelela	-2348
lion	-2349
▁able	-2350
▁tivi	-2351
▁hundzulu	-2352
▁committees	-2353
.3	-2354
▁xis	-2355
▁assess	-2356
▁nkunguhato	-2357
▁hambanahambana	-2358
tima	-2359
▁play	-2360
▁lulam	-2361
▁condi	-2362
▁elect	-2363
▁kongomisa	-2364
▁ngopfungopfu	-2365
sela	-2366
▁tas	-2367
▁desi	-2368
▁tona	-2369
hum	-2370
lovelo	-2371
ulture	-2372
▁approach	-2373
▁provided	-2374
▁vulawuri	-2375
▁participa	-2376
▁Fin	-2377
▁land	-2378
bed	-2379
▁met	-2380
▁Nhlangano	-2381
▁Se	-2382
tact	-2383
▁Do	-2384
▁last	-2385
mberiwa	-2386
▁Public	-2387
▁Holobye	-2388
▁swifundz	-2389
▁agreement	-2390
semb	-2391
▁vum	-2392
hlanganisi	-2393
▁hlanganisa	-2394
▁Milawu	-2395
▁contribu	-2396
ging	-2397
▁life	-2398
riwaka	-2399
▁Misava	-2400
▁vutivi	-2401
ness	-2402
rong	-2403
▁koti	-2404
▁kunguha	-2405
▁xidemokirasi	-2406
hanu	-2407
▁did	-2408
kiwile	-2409
che	-2410
kisa	-2411
▁put	-2412
wangi	-2413
▁swimbirhi	-2414
ID	-2415
▁def	-2416
▁objectives	-2417
tli	-2418
▁Af	-2419
cing	-2420
▁ask	-2421
▁few	-2422
▁1998	-2423
▁next	-2424
▁vuts	-2425
yondzi	-2426
▁vekiwa	-2427
▁car	-2428
▁tirhi	-2429
ster	-2430
▁Tra	-2431
▁Wadi	-2432
isation	-2433
masipala	-2434
tifikheti	-2435
ange	-2436
xeko	-2437
▁vava	-2438
qh	-2439
sembly	-2440
▁swiboho	-2441
▁registration	-2442
▁Li	-2443
ender	-2444
▁yimela	-2445
▁curr	-2446
▁mone	-2447
ze	-2448
▁11	-2449
▁day	-2450
▁marito	-2451
▁twisisa	-2452
▁ur	-2453
andza	-2454
ession	-2455
▁produc	-2456
▁Wor	-2457
dence	-2458
▁magoza	-2459
▁At	-2460
ceed	-2461
▁vele	-2462
▁confi	-2463
lor	-2464
abum	-2465
vekisi	-2466
vention	-2467
▁invest	-2468
▁measures	-2469
khu	-2470
▁Ag	-2471
▁KU	-2472
▁stu	-2473
▁days	-2474
▁xita	-2475
tirhweni	-2476
ards	-2477
leswi	-2478
umabum	-2479
▁months	-2480
▁without	-2481
▁interest	-2482
▁Municipal	-2483
rm	-2484
▁register	-2485
fair	-2486
▁market	-2487
▁tshemb	-2488
▁complete	-2489
▁list	-2490
▁colle	-2491
▁Vuk	-2492
▁date	-2493
▁open	-2494
▁secu	-2495
▁State	-2496
▁private	-2497
▁international	-2498
▁ru	-2499
road	-2500
rities	-2501
▁wolowo	-2502
▁Assembly	-2503
▁Khomixini	-2504
▁Co	-2505
dies	-2506
less	-2507
▁beca	-2508
▁vumba	-2509
▁responsibility	-2510
▁lic	-2511
▁fore	-2512
tshunxo	-2513
▁kumi	-2514
▁xana	-2515
▁Ntirho	-2516
▁njhani	-2517
▁hinkwerhu	-2518
▁hl	-2519
▁kom	-2520
handle	-2521
tlhelo	-2522
▁delivery	-2523
▁tihlanganisa	-2524
▁infrastructure	-2525
▁16	-2526
▁Xa	-2527
duce	-2528
▁tse	-2529
isiwaka	-2530
▁ntirhisano	-2531
▁mut	-2532
tention	-2533
▁ann	-2534
musela	-2535
▁energy	-2536
▁enough	-2537
▁khumba	-2538
▁kongoma	-2539
ghingiriko	-2540
ye	-2541
jisi	-2542
veni	-2543
▁xina	-2544
▁house	-2545
▁thank	-2546
▁proper	-2547
▁partners	-2548
eriweke	-2549
▁programmes	-2550
▁lab	-2551
▁review	-2552
▁tsundzu	-2553
▁xiswona	-2554
▁timbirhi	-2555
▁vuleteri	-2556
▁Fa	-2557
▁qui	-2558
yisense	-2559
▁Hlamusela	-2560
arch	-2561
kana	-2562
verty	-2563
▁kote	-2564
▁skills	-2565
rha	-2566
siwa	-2567
tirhisi	-2568
▁result	-2569
▁swipimelo	-2570
tshalatshala	-2571
jhe	-2572
leko	-2573
▁achie	-2574
▁legal	-2575
fication	-2576
▁ntsengo	-2577
▁xileriso	-2578
▁diffic	-2579
▁Timhaka	-2580
▁kambela	-2581
▁real	-2582
▁incre	-2583
▁money	-2584
▁hofisi	-2585
mall	-2586
pose	-2587
▁off	-2588
ising	-2589
unities	-2590
▁Nawumbisi	-2591
▁NA	-2592
city	-2593
▁humesi	-2594
ramework	-2595
▁tirhaka	-2596
▁Tikomiti	-2597
ating	-2598
muselo	-2599
▁sirhelela	-2600
▁opportunity	-2601
co	-2602
▁komba	-2603
duction	-2604
▁mention	-2605
▁document	-2606
una	-2607
lomu	-2608
langu	-2609
▁food	-2610
▁Application	-2611
ane	-2612
▁15	-2613
kumu	-2614
tana	-2615
hansela	-2616
▁reason	-2617
▁lavekaka	-2618
▁rha	-2619
▁name	-2620
▁hluvuk	-2621
▁security	-2622
▁democracy	-2623
▁Presidente	-2624
▁nghena	-2625
▁vuxaka	-2626
▁vad	-2627
tswari	-2628
▁Si	-2629
▁Uni	-2630
ately	-2631
▁2013	-2632
▁Plan	-2633
misela	-2634
ecutive	-2635
▁cho	-2636
▁ser	-2637
▁reco	-2638
▁crime	-2639
▁ndzing	-2640
▁reasons	-2641
eng	-2642
▁Mb	-2643
▁quality	-2644
fied	-2645
▁ting	-2646
rector	-2647
tshungu	-2648
▁tru	-2649
▁resi	-2650
▁road	-2651
tained	-2652
▁Mitirho	-2653
▁mphakelo	-2654
vious	-2655
▁least	-2656
▁sivela	-2657
sirhelelo	-2658
▁ntolovelo	-2659
▁emp	-2660
▁Mana	-2661
▁njhe	-2662
▁andla	-2663
▁swiha	-2664
▁tiphe	-2665
ultural	-2666
LA	-2667
▁Al	-2668
▁Nd	-2669
anyo	-2670
reng	-2671
▁final	-2672
▁fambisa	-2673
▁hlawula	-2674
▁vumbiwa	-2675
kin	-2676
kelela	-2677
▁amukeri	-2678
▁responsible	-2679
▁pf	-2680
mulo	-2681
pila	-2682
hlamp	-2683
sing	-2684
rease	-2685
▁When	-2686
▁safety	-2687
ody	-2688
pfa	-2689
▁dri	-2690
▁2010	-2691
▁hambi	-2692
▁hlawuleka	-2693
▁pfa	-2694
eriwaka	-2695
▁xikarhi	-2696
residente	-2697
▁matirhis	-2698
12	-2699
lano	-2700
▁inde	-2701
▁seri	-2702
▁subs	-2703
bilities	-2704
fo	-2705
vin	-2706
▁hikuva	-2707
▁enc	-2708
▁1994	-2709
▁xexo	-2710
ger	-2711
ually	-2712
▁hatl	-2713
▁proposal	-2714
▁strategi	-2715
mer	-2716
▁AN	-2717
▁Exp	-2718
▁Cape	-2719
▁First	-2720
▁TH	-2721
keke	-2722
tified	-2723
▁less	-2724
▁vhoti	-2725
▁subject	-2726
hird	-2727
uthority	-2728
▁vuvabyi	-2729
iwa	-2730
yike	-2731
▁Swa	-2732
wihi	-2733
anile	-2734
▁xilaveko	-2735
act	-2736
▁Res	-2737
▁cop	-2738
ences	-2739
▁2000	-2740
▁endlela	-2741
▁common	-2742
▁present	-2743
huresidente	-2744
ined	-2745
selves	-2746
▁conditions	-2747
mise	-2748
sente	-2749
▁vehi	-2750
▁basis	-2751
▁control	-2752
▁mpfuneto	-2753
▁representa	-2754
▁account	-2755
▁because	-2756
▁poverty	-2757
▁rhumela	-2758
hanselara	-2759
▁nhlamulo	-2760
▁swiphemu	-2761
hwa	-2762
tho	-2763
dents	-2764
versi	-2765
▁glob	-2766
▁police	-2767
▁monitor	-2768
yone	-2769
▁Pre	-2770
amu	-2771
▁special	-2772
▁Nhlengeletano	-2773
▁18	-2774
ET	-2775
▁des	-2776
▁kwihi	-2777
eriwile	-2778
▁lowukulu	-2779
▁Hikwalaho	-2780
moun	-2781
hurogi	-2782
rant	-2783
▁data	-2784
▁mambirhi	-2785
▁consul	-2786
▁design	-2787
til	-2788
▁cost	-2789
▁enti	-2790
▁approved	-2791
ringanyeto	-2792
▁challenge	-2793
▁employment	-2794
then	-2795
▁vhota	-2796
▁experi	-2797
▁municipalities	-2798
▁dem	-2799
comes	-2800
▁benefi	-2801
▁contact	-2802
▁administ	-2803
▁appropri	-2804
▁nhlayiso	-2805
tiga	-2806
▁speak	-2807
▁vurimi	-2808
▁languta	-2809
▁protection	-2810
am	-2811
▁ley	-2812
▁reso	-2813
▁doing	-2814
▁trade	-2815
▁follows	-2816
▁rimbewu	-2817
▁im	-2818
▁gra	-2819
▁past	-2820
▁const	-2821
▁inform	-2822
hurogireme	-2823
visiso	-2824
▁tsala	-2825
tshunguri	-2826
▁facilita	-2827
▁xivandla	-2828
▁pfumelela	-2829
▁Q	-2830
ates	-2831
▁hlo	-2832
ances	-2833
fairs	-2834
▁conf	-2835
▁khumb	-2836
▁nhundzu	-2837
▁activity	-2838
▁ndzawulo	-2839
▁xivumbeko	-2840
ues	-2841
▁Some	-2842
yondza	-2843
▁prepa	-2844
▁small	-2845
▁opportunities	-2846
employ	-2847
qhinga	-2848
▁exist	-2849
▁contra	-2850
▁engete	-2851
▁mutirhi	-2852
▁Director	-2853
ists	-2854
ross	-2855
▁voni	-2856
▁khoto	-2857
▁detail	-2858
▁hundzeke	-2859
▁tlu	-2860
▁streng	-2861
▁establish	-2862
yangu	-2863
▁basic	-2864
▁laman	-2865
▁lawula	-2866
▁involved	-2867
OP	-2868
▁five	-2869
▁tirhisana	-2870
wele	-2871
▁Health	-2872
▁vonaka	-2873
▁legisla	-2874
▁tava	-2875
▁Swirho	-2876
▁fikela	-2877
▁regula	-2878
ses	-2879
▁ple	-2880
orted	-2881
ustice	-2882
mination	-2883
▁capacity	-2884
vur	-2885
▁ntlhanu	-2886
▁vuvekisi	-2887
▁department	-2888
▁discussion	-2889
▁pfumelelana	-2890
leki	-2891
▁xip	-2892
pfhumba	-2893
gen	-2894
▁14	-2895
vour	-2896
▁rhe	-2897
▁addi	-2898
▁farm	-2899
▁general	-2900
▁ide	-2901
elanga	-2902
reedom	-2903
tsundzu	-2904
▁ndzhawu	-2905
▁serious	-2906
▁constitu	-2907
▁vantshwa	-2908
▁et	-2909
line	-2910
nolo	-2911
▁rej	-2912
indlu	-2913
▁khumbe	-2914
▁simekiwa	-2915
▁tekeriwa	-2916
▁Committees	-2917
▁matshalatshala	-2918
site	-2919
▁hlamula	-2920
▁mihlangano	-2921
.4	-2922
ith	-2923
alys	-2924
maki	-2925
▁Whi	-2926
▁ear	-2927
hlampfi	-2928
RS	-2929
▁VA	-2930
▁jobs	-2931
▁cinci	-2932
▁essen	-2933
operation	-2934
miti	-2935
vidu	-2936
taina	-2937
ulani	-2938
▁tsak	-2939
▁muholo	-2940
khom	-2941
tage	-2942
kaner	-2943
▁hoxa	-2944
▁table	-2945
▁mbangu	-2946
hozi	-2947
▁four	-2948
dyondzo	-2949
▁govern	-2950
▁xibalo	-2951
fikelelo	-2952
▁encoura	-2953
▁vusweti	-2954
▁increase	-2955
▁requirements	-2956
IC	-2957
ay	-2958
lini	-2959
▁Nts	-2960
komhaka	-2961
▁resolution	-2962
▁Hak	-2963
yingi	-2964
▁free	-2965
▁tsar	-2966
jisitara	-2967
▁interes	-2968
▁licence	-2969
▁industry	-2970
▁registered	-2971
ne	-2972
▁Leyi	-2973
▁xihi	-2974
▁pfuneta	-2975
▁promote	-2976
▁thoriwa	-2977
tro	-2978
risi	-2979
▁low	-2980
▁Tran	-2981
▁live	-2982
▁meetings	-2983
▁humesa	-2984
▁income	-2985
▁tsandz	-2986
▁Africans	-2987
▁based	-2988
▁thing	-2989
▁councillor	-2990
▁Phuresidente	-2991
▁Su	-2992
▁sure	-2993
dyangu	-2994
▁dyondza	-2995
▁whe	-2996
▁biha	-2997
▁post	-2998
▁matirhiselo	-2999
oin	-3000
tal	-3001
▁asp	-3002
▁recom	-3003
▁welcome	-3004
kanerisano	-3005
▁difficult	-3006
mily	-3007
▁baby	-3008
▁dise	-3009
▁poor	-3010
▁needed	-3011
▁ehandle	-3012
▁parties	-3013
▁amendments	-3014
fit	-3015
▁ty	-3016
tics	-3017
▁workers	-3018
pt	-3019
hamp	-3020
hundz	-3021
▁vavasati	-3022
▁direct	-3023
▁kusuhi	-3024
▁Swoleswo	-3025
▁positive	-3026
▁langutisa	-3027
ath	-3028
ource	-3029
▁kuri	-3030
inkulu	-3031
▁tlang	-3032
▁global	-3033
▁fikeleri	-3034
chu	-3035
▁du	-3036
pimo	-3037
▁hamb	-3038
▁plans	-3039
▁vonelo	-3040
▁province	-3041
soci	-3042
▁Ndz	-3043
▁bri	-3044
ledge	-3045
▁lemu	-3046
▁nhlo	-3047
▁rest	-3048
▁kwalomu	-3049
▁tinxaka	-3050
▁him	-3051
xiave	-3052
teriwa	-3053
▁tivisa	-3054
▁matters	-3055
▁minongonoko	-3056
rhum	-3057
▁ene	-3058
eleke	-3059
▁amoun	-3060
ulation	-3061
▁fambis	-3062
▁Vukorhokeri	-3063
▁Chi	-3064
▁occ	-3065
▁Tiko	-3066
▁million	-3067
▁directive	-3068
▁functions	-3069
ific	-3070
tiki	-3071
▁cal	-3072
vukisi	-3073
akatiko	-3074
▁institutions	-3075
▁tinhlengeletano	-3076
▁ris	-3077
speci	-3078
▁visi	-3079
▁labour	-3080
▁essential	-3081
▁tumbuluxiwa	-3082
▁SW	-3083
▁Sa	-3084
▁hu	-3085
▁2005	-3086
▁mean	-3087
▁quali	-3088
▁request	-3089
▁Maendlelo	-3090
oloji	-3091
▁opini	-3092
dzawulo	-3093
▁Matiko	-3094
▁Timali	-3095
▁Xiviko	-3096
▁nandzu	-3097
▁attention	-3098
RH	-3099
fula	-3100
▁conte	-3101
▁major	-3102
▁power	-3103
▁making	-3104
urha	-3105
vulo	-3106
▁move	-3107
lulami	-3108
▁building	-3109
ral	-3110
▁Ko	-3111
▁My	-3112
▁rhi	-3113
andzi	-3114
▁pfuxe	-3115
▁herisa	-3116
▁makete	-3117
lhontlho	-3118
IP	-3119
jhek	-3120
▁kana	-3121
▁young	-3122
fession	-3123
▁become	-3124
vevukisi	-3125
▁leaders	-3126
▁subsection	-3127
▁tiphesente	-3128
▁appropriate	-3129
IDS	-3130
ice	-3131
▁ret	-3132
▁navela	-3133
▁others	-3134
▁hangala	-3135
▁position	-3136
▁provision	-3137
▁investment	-3138
▁Ga	-3139
pers	-3140
▁short	-3141
▁region	-3142
▁xikolo	-3143
▁relations	-3144
▁sur	-3145
▁endlile	-3146
▁function	-3147
▁tinharhu	-3148
▁maphorisa	-3149
▁eval	-3150
▁show	-3151
▁Hambi	-3152
ination	-3153
▁purpose	-3154
▁Republic	-3155
mine	-3156
▁Euro	-3157
▁best	-3158
▁ximunhu	-3159
▁framework	-3160
▁vumundzuku	-3161
▁By	-3162
▁twan	-3163
▁results	-3164
▁ringeta	-3165
20	-3166
▁Is	-3167
▁ten	-3168
▁tes	-3169
lling	-3170
kanjhek	-3171
ono	-3172
thu	-3173
ume	-3174
teur	-3175
▁Xiv	-3176
▁mats	-3177
▁attend	-3178
▁recogn	-3179
▁achieved	-3180
IT	-3181
hara	-3182
ways	-3183
▁AIDS	-3184
vation	-3185
▁really	-3186
▁struct	-3187
▁vumaki	-3188
specially	-3189
▁13	-3190
▁Nyi	-3191
lines	-3192
▁xikan	-3193
▁impact	-3194
▁foreign	-3195
▁layisense	-3196
lay	-3197
▁Imp	-3198
▁hon	-3199
▁perc	-3200
▁task	-3201
▁among	-3202
mbuyelo	-3203
▁simeka	-3204
▁Dyondzo	-3205
▁xihlawu	-3206
▁Hakunene	-3207
▁household	-3208
hoti	-3209
olonga	-3210
tiviso	-3211
▁agric	-3212
▁stake	-3213
▁whole	-3214
▁Nkarhi	-3215
▁tiyisa	-3216
kinoloji	-3217
umabumelo	-3218
▁swoleswo	-3219
▁principle	-3220
eld	-3221
▁cir	-3222
ulavulo	-3223
▁endliwile	-3224
▁nsirhelelo	-3225
▁swikombiso	-3226
▁ns	-3227
ters	-3228
cally	-3229
▁Vaaki	-3230
▁Section	-3231
tumbuluko	-3232
▁especially	-3233
hasi	-3234
▁lahle	-3235
▁Provin	-3236
▁dyondz	-3237
▁issued	-3238
▁individu	-3239
bumabumelo	-3240
▁vutshunguri	-3241
▁21	-3242
▁ci	-3243
ensi	-3244
▁web	-3245
▁Laha	-3246
xiweke	-3247
▁start	-3248
▁Rihany	-3249
▁language	-3250
ling	-3251
olen	-3252
kwama	-3253
▁allo	-3254
▁laya	-3255
▁rapp	-3256
▁conclu	-3257
▁favour	-3258
▁levels	-3259
▁record	-3260
▁underta	-3261
▁concerns	-3262
fact	-3263
▁yet	-3264
▁SARS	-3265
▁swihi	-3266
fficient	-3267
▁completed	-3268
axop	-3269
orteur	-3270
▁Europe	-3271
▁referred	-3272
▁rapporteur	-3273
fomo	-3274
utes	-3275
▁lin	-3276
wards	-3277
▁keep	-3278
▁sent	-3279
▁Local	-3280
▁cases	-3281
▁whether	-3282
▁assessment	-3283
liki	-3284
▁step	-3285
▁turn	-3286
wisana	-3287
▁found	-3288
▁quite	-3289
ference	-3290
▁letter	-3291
tainable	-3292
sirheleri	-3293
▁strategy	-3294
▁Xikombiso	-3295
na	-3296
▁MA	-3297
atho	-3298
foli	-3299
unge	-3300
▁sum	-3301
xamelo	-3302
▁recommend	-3303
MA	-3304
▁vak	-3305
mente	-3306
▁mune	-3307
▁vito	-3308
▁Tiwadi	-3309
▁analys	-3310
▁documents	-3311
has	-3312
▁ou	-3313
puty	-3314
▁May	-3315
▁hous	-3316
▁Xiyimo	-3317
▁company	-3318
▁	-3319
▁Gi	-3320
▁WA	-3321
▁aim	-3322
▁hlu	-3323
▁yima	-3324
▁grant	-3325
▁vanga	-3326
gration	-3327
leswaku	-3328
miliyoni	-3329
▁fikeleriwa	-3330
▁xifundzhankulu	-3331
▁yim	-3332
vhele	-3333
▁term	-3334
tshamo	-3335
▁khamp	-3336
▁nkateko	-3337
▁provides	-3338
▁investiga	-3339
os	-3340
kili	-3341
rial	-3342
▁THE	-3343
mberi	-3344
▁eneji	-3345
▁vuyer	-3346
▁Program	-3347
▁vehicle	-3348
▁signific	-3349
▁unemploy	-3350
▁pfumaleka	-3351
▁importance	-3352
riso	-3353
▁abo	-3354
▁down	-3355
▁endle	-3356
▁effect	-3357
▁nhlawulo	-3358
▁Per	-3359
▁bal	-3360
▁begin	-3361
▁offic	-3362
▁schools	-3363
▁fanelanga	-3364
CT	-3365
orm	-3366
own	-3367
cise	-3368
▁dele	-3369
ording	-3370
▁large	-3371
▁ololo	-3372
▁tindzi	-3373
▁established	-3374
.5	-3375
rug	-3376
▁party	-3377
▁proof	-3378
▁vulavu	-3379
▁transport	-3380
▁Xikongomelo	-3381
vil	-3382
keni	-3383
▁Hin	-3384
▁vav	-3385
▁With	-3386
▁since	-3387
▁current	-3388
▁persons	-3389
▁learners	-3390
▁langutana	-3391
▁processes	-3392
▁ins	-3393
ither	-3394
▁Swiko	-3395
▁value	-3396
▁koteka	-3397
▁mbango	-3398
▁ndyangu	-3399
▁priority	-3400
vuko	-3401
▁Sec	-3402
mfumo	-3403
lement	-3404
tatana	-3405
▁above	-3406
▁hig	-3407
▁Nhla	-3408
▁moya	-3409
vuyelo	-3410
▁Intern	-3411
▁opinion	-3412
▁swikolo	-3413
▁mindyangu	-3414
▁ntumbuluko	-3415
viki	-3416
▁old	-3417
▁para	-3418
▁ways	-3419
visisi	-3420
▁mfikelelo	-3421
▁nghingiriko	-3422
▁Ac	-3423
mana	-3424
mile	-3425
omes	-3426
sts	-3427
▁rate	-3428
▁words	-3429
▁various	-3430
lete	-3431
yela	-3432
▁Sub	-3433
▁bur	-3434
▁tis	-3435
▁equi	-3436
▁vuka	-3437
▁ying	-3438
ricity	-3439
▁enter	-3440
▁rules	-3441
▁share	-3442
▁always	-3443
▁return	-3444
kha	-3445
mary	-3446
ungula	-3447
▁third	-3448
▁tirhe	-3449
partments	-3450
▁hambiswiritano	-3451
KO	-3452
▁tr	-3453
vers	-3454
inawana	-3455
▁Pe	-3456
▁nx	-3457
redi	-3458
▁opp	-3459
▁wri	-3460
▁home	-3461
▁read	-3462
▁nomboro	-3463
▁requires	-3464
▁solution	-3465
▁Nongonoko	-3466
kanjhekisano	-3467
uto	-3468
▁xixi	-3469
misaveni	-3470
▁kombisi	-3471
▁vekiweke	-3472
ace	-3473
enti	-3474
siti	-3475
viri	-3476
▁line	-3477
▁simp	-3478
havuko	-3479
▁gener	-3480
▁guide	-3481
▁tinyike	-3482
▁implement	-3483
▁antswisiwa	-3484
▁fambelanaka	-3485
▁17	-3486
lant	-3487
▁pop	-3488
cable	-3489
winyi	-3490
▁materi	-3491
▁ringany	-3492
heka	-3493
hund	-3494
medi	-3495
▁close	-3496
▁hanya	-3497
▁ntsha	-3498
▁Deputy	-3499
▁Hinkwa	-3500
▁fanaka	-3501
hundzulu	-3502
▁developed	-3503
▁humelerisa	-3504
udi	-3505
▁nc	-3506
lect	-3507
ensus	-3508
movha	-3509
▁copy	-3510
▁lavi	-3511
▁xilo	-3512
inyana	-3513
uthori	-3514
▁broad	-3515
ruption	-3516
▁consum	-3517
▁concerned	-3518
▁standards	-3519
eleyo	-3520
hikiz	-3521
ustom	-3522
▁held	-3523
▁012	-3524
▁dinga	-3525
▁nhlamuselo	-3526
▁particularly	-3527
hlu	-3528
gges	-3529
lani	-3530
endli	-3531
mined	-3532
▁hlen	-3533
gistra	-3534
veryone	-3535
▁amount	-3536
▁create	-3537
▁vunharhu	-3538
▁organisations	-3539
orob	-3540
ariso	-3541
ority	-3542
▁2009	-3543
▁tiya	-3544
olence	-3545
▁mambe	-3546
tirhela	-3547
▁depend	-3548
▁lwisana	-3549
qing	-3550
ried	-3551
▁bir	-3552
▁lot	-3553
▁nku	-3554
▁rese	-3555
▁rejis	-3556
▁vutisa	-3557
▁changes	-3558
▁humesiwa	-3559
▁received	-3560
▁langutisisa	-3561
▁Gu	-3562
hiwa	-3563
▁Indi	-3564
vision	-3565
hlamulo	-3566
formation	-3567
▁interests	-3568
▁tsandzeka	-3569
▁strengthen	-3570
▁Mafambiselo	-3571
30	-3572
▁Man	-3573
▁ana	-3574
▁hold	-3575
▁iden	-3576
▁sche	-3577
▁tsalwa	-3578
dzolonga	-3579
yondzisi	-3580
tsundzuxo	-3581
▁swiharhi	-3582
▁Community	-3583
▁swikombelo	-3584
▁Fi	-3585
▁cap	-3586
▁boxa	-3587
leketli	-3588
rhangana	-3589
▁freedom	-3590
▁emisaveni	-3591
▁ematikweni	-3592
▁institution	-3593
▁NC	-3594
ttle	-3595
▁One	-3596
nology	-3597
▁Kungu	-3598
▁pfuni	-3599
▁intend	-3600
▁living	-3601
▁khomiwa	-3602
▁Sp	-3603
hila	-3604
▁intro	-3605
▁treat	-3606
▁vulaka	-3607
▁competi	-3608
▁policies	-3609
▁humelelaka	-3610
▁participate	-3611
▁tirhisiwaka	-3612
MB	-3613
▁mbi	-3614
inten	-3615
lated	-3616
▁true	-3617
luvuko	-3618
▁movha	-3619
▁often	-3620
▁yeleyo	-3621
▁Explain	-3622
ber	-3623
mate	-3624
▁tata	-3625
▁metho	-3626
▁rimba	-3627
▁nation	-3628
▁katsiwa	-3629
▁employer	-3630
▁lulamisiwa	-3631
▁communication	-3632
yini	-3633
▁mad	-3634
mples	-3635
▁death	-3636
▁rural	-3637
▁gender	-3638
▁Affairs	-3639
▁Timfanelo	-3640
▁authority	-3641
▁decisions	-3642
▁electricity	-3643
▁significant	-3644
▁Hum	-3645
▁mat	-3646
▁six	-3647
dered	-3648
▁Fund	-3649
▁kind	-3650
▁oppo	-3651
hundzu	-3652
yengen	-3653
▁costs	-3654
▁while	-3655
ruction	-3656
▁family	-3657
▁taking	-3658
▁details	-3659
▁disease	-3660
▁employees	-3661
▁priorities	-3662
goti	-3663
graph	-3664
kahle	-3665
▁kaya	-3666
▁swip	-3667
▁tive	-3668
▁youth	-3669
yenkulu	-3670
▁rhandza	-3671
▁hinkwaro	-3672
▁lamanene	-3673
▁Education	-3674
▁endliweke	-3675
▁democratic	-3676
kete	-3677
xelo	-3678
aneke	-3679
▁anim	-3680
▁safe	-3681
▁yaleyo	-3682
▁muthelo	-3683
▁prescri	-3684
▁Ro	-3685
ders	-3686
▁Social	-3687
▁supply	-3688
▁analysis	-3689
▁vadyondzi	-3690
▁mitlhontlho	-3691
alu	-3692
▁Cour	-3693
▁Endz	-3694
▁kuya	-3695
▁vika	-3696
▁brief	-3697
▁demand	-3698
▁indica	-3699
▁appoint	-3700
▁Programme	-3701
▁monitoring	-3702
▁YA	-3703
tori	-3704
▁feel	-3705
▁vang	-3706
holders	-3707
iseriwa	-3708
▁delega	-3709
▁hundzu	-3710
▁included	-3711
▁swivandla	-3712
▁24	-3713
▁Yi	-3714
based	-3715
▁2014	-3716
qingho	-3717
▁Board	-3718
▁funds	-3719
▁rhula	-3720
▁xiviri	-3721
▁identify	-3722
▁vatatana	-3723
▁proposals	-3724
▁ndzavisiso	-3725
▁principles	-3726
▁profession	-3727
AL	-3728
gistrar	-3729
▁hlengele	-3730
▁mavandla	-3731
▁mivuyelo	-3732
▁amendment	-3733
▁hluvukisa	-3734
▁tindzawulo	-3735
yiwa	-3736
▁abs	-3737
jenda	-3738
rheli	-3739
▁Lowu	-3740
▁feed	-3741
ungeto	-3742
▁research	-3743
▁kamberiwa	-3744
▁tidyondzo	-3745
UN	-3746
wers	-3747
etana	-3748
▁hear	-3749
▁mini	-3750
▁forms	-3751
▁staff	-3752
▁Xandla	-3753
▁hlohlo	-3754
▁medical	-3755
▁reports	-3756
▁statement	-3757
▁xihlawuhlawu	-3758
mum	-3759
hendz	-3760
ortun	-3761
▁fish	-3762
▁Batho	-3763
undzeni	-3764
▁ntshun	-3765
▁comment	-3766
▁remains	-3767
▁OF	-3768
tsong	-3769
▁Offi	-3770
▁komb	-3771
▁nave	-3772
▁remo	-3773
▁vusi	-3774
timende	-3775
▁leswin	-3776
▁nothing	-3777
▁kunguhata	-3778
law	-3779
keti	-3780
yense	-3781
▁media	-3782
rhumiwa	-3783
▁applies	-3784
▁previous	-3785
▁vatswari	-3786
▁vuntshwa	-3787
▁langutela	-3788
▁organisation	-3789
ELO	-3790
▁Ne	-3791
▁TB	-3792
ours	-3793
▁Dis	-3794
▁fee	-3795
▁sto	-3796
anies	-3797
▁2004	-3798
▁tool	-3799
hawini	-3800
reated	-3801
▁lives	-3802
▁nkarh	-3803
versity	-3804
▁matimu	-3805
▁mamiliyoni	-3806
mpa	-3807
ratu	-3808
▁enga	-3809
▁Nyika	-3810
vanyisa	-3811
▁systems	-3812
▁xifundzankulu	-3813
▁40	-3814
▁Ab	-3815
▁Fe	-3816
▁Mr	-3817
sequ	-3818
tory	-3819
venue	-3820
▁Where	-3821
▁peace	-3822
▁voted	-3823
hikelelo	-3824
▁objective	-3825
hur	-3826
lwa	-3827
uku	-3828
▁Tip	-3829
▁mal	-3830
▁cong	-3831
lawuri	-3832
tshama	-3833
▁tikho	-3834
▁papala	-3835
▁papila	-3836
▁correct	-3837
▁tirhela	-3838
▁nghenisiwa	-3839
ED	-3840
lf	-3841
jek	-3842
▁Kwa	-3843
inary	-3844
itulu	-3845
mbers	-3846
▁2001	-3847
▁beha	-3848
▁swik	-3849
makiwa	-3850
weleti	-3851
▁critical	-3852
▁commitment	-3853
TION	-3854
▁age	-3855
▁Inte	-3856
▁stat	-3857
▁birth	-3858
▁subst	-3859
▁using	-3860
▁Endlelo	-3861
▁swivilelo	-3862
RA	-3863
ffor	-3864
hela	-3865
dyambu	-3866
grated	-3867
▁agenda	-3868
▁kambis	-3869
vurisano	-3870
▁payment	-3871
▁protect	-3872
tlhontlho	-3873
▁departments	-3874
▁sustainable	-3875
GA	-3876
eal	-3877
▁Now	-3878
▁lwa	-3879
acher	-3880
▁2007	-3881
▁seen	-3882
▁below	-3883
kambelo	-3884
▁yisiwa	-3885
▁pfumela	-3886
NP	-3887
lly	-3888
miwa	-3889
▁bla	-3890
▁Pele	-3891
▁cris	-3892
▁mint	-3893
▁bring	-3894
▁event	-3895
▁motor	-3896
▁wards	-3897
▁khombo	-3898
▁tshembha	-3899
▁tipholisi	-3900
heni	-3901
lict	-3902
inene	-3903
▁body	-3904
fforts	-3905
ritten	-3906
▁Munhu	-3907
▁continu	-3908
▁officer	-3909
▁percent	-3910
▁identified	-3911
▁nhlokomhaka	-3912
dule	-3913
late	-3914
▁cli	-3915
▁nko	-3916
ament	-3917
▁swit	-3918
atives	-3919
ission	-3920
▁conduct	-3921
▁swikili	-3922
▁benefits	-3923
▁expected	-3924
wun	-3925
▁Ya	-3926
talo	-3927
▁dia	-3928
▁2003	-3929
▁aware	-3930
▁takes	-3931
▁strong	-3932
▁lokukulu	-3933
▁tindzimi	-3934
▁tiyimisela	-3935
yengentsongo	-3936
ser	-3937
xav	-3938
▁evi	-3939
▁ori	-3940
hlovo	-3941
▁char	-3942
▁heta	-3943
person	-3944
▁lerin	-3945
▁swina	-3946
▁tlher	-3947
▁longer	-3948
▁hatlisa	-3949
▁tikweni	-3950
intenance	-3951
▁xitifikheti	-3952
IF	-3953
oniwa	-3954
▁paid	-3955
▁risk	-3956
▁Other	-3957
▁Handle	-3958
▁tindlu	-3959
▁Members	-3960
▁hakeriwa	-3961
▁leyikulu	-3962
▁products	-3963
▁experience	-3964
odo	-3965
ret	-3966
▁head	-3967
▁manu	-3968
kateko	-3969
▁associ	-3970
▁negoti	-3971
▁ririmi	-3972
▁techni	-3973
▁explain	-3974
▁Swifundz	-3975
▁implemented	-3976
DP	-3977
elf	-3978
▁cate	-3979
▁once	-3980
faniso	-3981
▁Vatirhi	-3982
▁Endzhaku	-3983
▁submitted	-3984
wen	-3985
kiso	-3986
koto	-3987
yili	-3988
▁Mit	-3989
▁tele	-3990
▁xiti	-3991
▁total	-3992
▁crisis	-3993
tekaxiave	-3994
▁employee	-3995
▁nkarhinyana	-3996
ims	-3997
▁Rec	-3998
▁reli	-3999
▁Khoto	-4000
▁sectors	-4001
▁kanetana	-4002
▁procedures	-4003
▁International	-4004
wet	-4005
▁Of	-4006
hoxo	-4007
olve	-4008
▁nya	-4009
▁atta	-4010
xitulu	-4011
xiwile	-4012
▁Court	-4013
▁tshun	-4014
▁clearly	-4015
▁extreme	-4016
▁involve	-4017
▁procedure	-4018
▁Management	-4019
50	-4020
PS	-4021
gon	-4022
▁Be	-4023
iled	-4024
pter	-4025
▁tia	-4026
rhele	-4027
veral	-4028
▁exer	-4029
▁accom	-4030
▁benefit	-4031
▁Services	-4032
▁lexikulu	-4033
▁matsalwa	-4034
▁vaakatiko	-4035
▁Vuxokoxoko	-4036
OR	-4037
▁Yuro	-4038
▁hard	-4039
▁rito	-4040
▁tima	-4041
▁accept	-4042
entlemen	-4043
▁aspects	-4044
hl	-4045
funo	-4046
kanyo	-4047
▁disc	-4048
▁laun	-4049
tiweke	-4050
▁targe	-4051
▁affect	-4052
▁contain	-4053
▁mimovha	-4054
▁muthori	-4055
▁nyiketa	-4056
▁written	-4057
▁developing	-4058
mor	-4059
wal	-4060
▁Ba	-4061
anya	-4062
▁ine	-4063
▁Endla	-4064
▁little	-4065
▁efforts	-4066
▁towards	-4067
▁identity	-4068
lobyenkulu	-4069
▁Therefore	-4070
▁mimbuyelo	-4071
rict	-4072
wela	-4073
▁nsi	-4074
fortun	-4075
▁vision	-4076
▁mentioned	-4077
▁minhlangano	-4078
▁environmental	-4079
▁el	-4080
▁nea	-4081
▁Vuti	-4082
▁worker	-4083
▁transpar	-4084
▁vuyeriwa	-4085
▁cooperation	-4086
ched	-4087
essa	-4088
tely	-4089
▁limi	-4090
▁Identi	-4091
▁yelana	-4092
▁Nakambe	-4093
▁nearest	-4094
▁determined	-4095
▁successful	-4096
▁tshikelela	-4097
kini	-4098
wane	-4099
oroba	-4100
rhuto	-4101
▁kala	-4102
▁mind	-4103
▁note	-4104
ongolo	-4105
▁fight	-4106
▁agreed	-4107
▁funding	-4108
▁Acc	-4109
▁urg	-4110
sport	-4111
leleni	-4112
▁steps	-4113
▁centre	-4114
▁vandla	-4115
▁vurile	-4116
▁receive	-4117
▁kotekaka	-4118
▁treatment	-4119
raka	-4120
xiya	-4121
▁cru	-4122
▁NCOP	-4123
▁face	-4124
▁tits	-4125
fungho	-4126
▁perman	-4127
jekisano	-4128
▁Pholisi	-4129
▁tinhlayo	-4130
▁amukeleki	-4131
▁ndlandlamuxa	-4132
▁xiyengentsongo	-4133
ING	-4134
▁Ra	-4135
ided	-4136
ishe	-4137
roni	-4138
uses	-4139
▁Spe	-4140
avany	-4141
mpimo	-4142
▁Many	-4143
▁gran	-4144
▁khol	-4145
xikaya	-4146
▁veter	-4147
▁comply	-4148
▁reduce	-4149
▁context	-4150
▁related	-4151
▁tikomba	-4152
▁property	-4153
▁entirhweni	-4154
▁madzolonga	-4155
▁population	-4156
▁pen	-4157
▁wan	-4158
endlo	-4159
kangi	-4160
vered	-4161
▁emer	-4162
angeni	-4163
khombo	-4164
▁fully	-4165
▁ncini	-4166
▁vangi	-4167
▁includes	-4168
▁ntsariso	-4169
▁regulation	-4170
▁administration	-4171
clu	-4172
cts	-4173
▁Es	-4174
dela	-4175
eleb	-4176
huvo	-4177
ower	-4178
wama	-4179
gical	-4180
▁ekho	-4181
▁port	-4182
General	-4183
▁vuriwa	-4184
tifiketi	-4185
▁adopted	-4186
▁capital	-4187
▁discuss	-4188
▁velekiwa	-4189
▁vaakitiko	-4190
▁stakeholders	-4191
EC	-4192
gue	-4193
▁sy	-4194
▁try	-4195
sions	-4196
▁phase	-4197
▁compli	-4198
▁muviki	-4199
andzhaku	-4200
▁kumekaka	-4201
▁vundzeni	-4202
▁vuriwaka	-4203
▁knowledge	-4204
▁structures	-4205
▁Holobyenkulu	-4206
▁vuhlanganisi	-4207
▁Or	-4208
ight	-4209
tshu	-4210
xina	-4211
▁Mand	-4212
mpaign	-4213
▁decla	-4214
▁kanela	-4215
▁nature	-4216
▁ndzima	-4217
▁emakumu	-4218
▁response	-4219
▁evaluation	-4220
hina	-4221
fhuka	-4222
▁organ	-4223
▁times	-4224
▁either	-4225
▁xinawu	-4226
▁Xifundz	-4227
▁improved	-4228
▁vuyimeri	-4229
▁Registrar	-4230
▁endliwaka	-4231
asy	-4232
hips	-4233
▁due	-4234
fully	-4235
▁Swiv	-4236
suring	-4237
▁field	-4238
▁ajenda	-4239
▁called	-4240
▁reality	-4241
▁congratu	-4242
▁manufact	-4243
▁paragraph	-4244
ban	-4245
▁2008	-4246
kumende	-4247
▁Second	-4248
▁rhekho	-4249
▁parents	-4250
▁proceed	-4251
▁personal	-4252
▁gentlemen	-4253
▁vufambisi	-4254
cti	-4255
fil	-4256
qui	-4257
▁Ng	-4258
tile	-4259
▁byin	-4260
▁team	-4261
▁stage	-4262
hlayisi	-4263
▁reques	-4264
▁sugges	-4265
irperson	-4266
▁Finally	-4267
▁conflict	-4268
▁matlhelo	-4269
▁nxaxamelo	-4270
▁applicable	-4271
▁assistance	-4272
ages	-4273
alid	-4274
▁nat	-4275
▁Mali	-4276
▁fair	-4277
risiwa	-4278
sition	-4279
▁wrong	-4280
gangeni	-4281
▁itself	-4282
▁xivono	-4283
▁learning	-4284
▁minkarhi	-4285
▁fundament	-4286
▁vatirhisi	-4287
▁commission	-4288
opo	-4289
▁loo	-4290
aniwa	-4291
▁koma	-4292
velana	-4293
▁Agric	-4294
▁satis	-4295
▁nghozi	-4296
▁teacher	-4297
▁vululami	-4298
▁prescribed	-4299
ENT	-4300
▁60	-4301
cept	-4302
▁tit	-4303
asing	-4304
▁easy	-4305
vulavu	-4306
▁goods	-4307
▁never	-4308
▁simply	-4309
entation	-4310
▁Mandela	-4311
▁talking	-4312
▁ndzingano	-4313
▁nyikiweke	-4314
▁ourselves	-4315
▁swinharhu	-4316
▁unemployment	-4317
▁Qu	-4318
tsak	-4319
xavo	-4320
zela	-4321
▁Ina	-4322
▁week	-4323
▁Speci	-4324
▁xivilelo	-4325
▁executive	-4326
▁fambisana	-4327
▁increased	-4328
pes	-4329
uty	-4330
▁Ar	-4331
▁Nk	-4332
deni	-4333
term	-4334
▁KNP	-4335
▁run	-4336
▁boha	-4337
▁higher	-4338
▁notice	-4339
▁housing	-4340
▁pfumala	-4341
▁23	-4342
ends	-4343
viwa	-4344
wara	-4345
▁ang	-4346
uteng	-4347
ointed	-4348
▁hluvu	-4349
▁Hofisi	-4350
▁active	-4351
ditional	-4352
▁Vamanana	-4353
▁ndzimana	-4354
▁tlangela	-4355
▁discussed	-4356
▁rejistara	-4357
ulavurisano	-4358
▁vurhangeri	-4359
▁agricultural	-4360
vhi	-4361
lace	-4362
▁Des	-4363
iting	-4364
▁famb	-4365
▁mili	-4366
▁World	-4367
▁voting	-4368
▁endleka	-4369
▁outcomes	-4370
▁proposed	-4371
▁violence	-4372
▁committed	-4373
▁swinawana	-4374
▁corruption	-4375
▁maintenance	-4376
▁participants	-4377
ken	-4378
▁25	-4379
▁Mas	-4380
▁blo	-4381
▁dou	-4382
▁Thank	-4383
lutions	-4384
▁People	-4385
▁enable	-4386
▁swiviko	-4387
▁extremely	-4388
▁strategies	-4389
tshamaxitulu	-4390
▁pfumeleriwa	-4391
▁swibumabumelo	-4392
--	-4393
▁bre	-4394
▁nom	-4395
iseko	-4396
▁Nyen	-4397
▁guar	-4398
▁soon	-4399
▁Guide	-4400
▁Syste	-4401
▁around	-4402
▁tsakile	-4403
▁fanerile	-4404
▁majority	-4405
▁maqhinga	-4406
▁simekiweke	-4407
▁ntshikelelo	-4408
GO	-4409
▁kon	-4410
▁2002	-4411
▁Siku	-4412
▁lack	-4413
fumelo	-4414
▁Lembe	-4415
▁swong	-4416
▁custom	-4417
▁ndzeni	-4418
▁status	-4419
▁mavabyi	-4420
▁campaign	-4421
▁kanakana	-4422
▁practice	-4423
-1	-4424
RO	-4425
▁TI	-4426
▁AND	-4427
▁Xin	-4428
▁spa	-4429
fapfa	-4430
▁Once	-4431
cellen	-4432
▁circum	-4433
▁nyimpi	-4434
▁xitalo	-4435
▁changed	-4436
▁Complete	-4437
▁nhluvuko	-4438
▁swonghasi	-4439
ned	-4440
▁Jo	-4441
love	-4442
▁invi	-4443
▁accord	-4444
▁highli	-4445
▁avelana	-4446
▁happened	-4447
▁nkambelo	-4448
▁vayimeri	-4449
▁hlayisiwa	-4450
▁matirhele	-4451
▁improvement	-4452
▁35	-4453
▁50	-4454
▁pu	-4455
edulu	-4456
▁1996	-4457
▁Cent	-4458
▁Sche	-4459
▁hours	-4460
hlawule	-4461
▁letela	-4462
▁website	-4463
▁considered	-4464
▁contribution	-4465
.6	-4466
cs	-4467
self	-4468
▁Mar	-4469
hangu	-4470
▁mapa	-4471
▁crucial	-4472
▁regular	-4473
byo	-4474
heta	-4475
tele	-4476
▁emi	-4477
▁mul	-4478
▁sex	-4479
hance	-4480
▁Your	-4481
▁draw	-4482
▁mand	-4483
▁tama	-4484
▁emphas	-4485
▁manner	-4486
▁matikhom	-4487
▁allocated	-4488
▁certainly	-4489
▁permanent	-4490
fortunately	-4491
ot	-4492
tso	-4493
▁Te	-4494
▁sci	-4495
▁xava	-4496
▁Speak	-4497
▁budge	-4498
▁subsi	-4499
▁vhiki	-4500
▁annual	-4501
▁mpfuno	-4502
▁minutes	-4503
▁natural	-4504
▁addition	-4505
▁fundamental	-4506
▁landzelerisa	-4507
hans	-4508
mani	-4509
▁Ste	-4510
iseni	-4511
riage	-4512
▁tibo	-4513
▁tour	-4514
tition	-4515
▁After	-4516
▁Trans	-4517
▁works	-4518
▁immedi	-4519
▁kwalaho	-4520
▁regional	-4521
▁switirho	-4522
▁ringanela	-4523
▁khumbekaka	-4524
▁thekinoloji	-4525
yu	-4526
▁cy	-4527
▁Why	-4528
▁tli	-4529
▁vul	-4530
aleko	-4531
▁mode	-4532
▁Parti	-4533
▁until	-4534
okodela	-4535
▁Office	-4536
▁across	-4537
rum	-4538
hong	-4539
▁Cor	-4540
duced	-4541
▁rene	-4542
hundla	-4543
▁celeb	-4544
chudeni	-4545
omestic	-4546
hikizano	-4547
▁complain	-4548
▁existing	-4549
▁rhijisitara	-4550
▁er	-4551
hana	-4552
land	-4553
▁1997	-4554
▁brea	-4555
miseko	-4556
stances	-4557
wangiki	-4558
▁Ntlawa	-4559
▁lemuka	-4560
▁ololoxa	-4561
▁pfunaka	-4562
▁partnership	-4563
anyi	-4564
▁197	-4565
isiwi	-4566
▁hoyo	-4567
▁test	-4568
▁thola	-4569
xopaxop	-4570
▁applic	-4571
▁fikele	-4572
▁indeed	-4573
▁mahala	-4574
pimanyeto	-4575
▁comments	-4576
▁strategic	-4577
▁hlayanyana	-4578
▁timasipala	-4579
▁hlanganisiwa	-4580
UL	-4581
ap	-4582
ls	-4583
thi	-4584
▁BI	-4585
ader	-4586
▁Are	-4587
▁ina	-4588
▁2012	-4589
▁sing	-4590
reater	-4591
▁check	-4592
▁khoma	-4593
▁miako	-4594
pendent	-4595
▁origin	-4596
▁Mahungu	-4597
▁endleni	-4598
▁several	-4599
▁creation	-4600
▁election	-4601
▁examples	-4602
▁determine	-4603
▁hlohlotela	-4604
▁technology	-4605
▁varhangeri	-4606
cin	-4607
back	-4608
kara	-4609
solu	-4610
▁else	-4611
▁temp	-4612
rative	-4613
▁civil	-4614
▁victi	-4615
▁nsinya	-4616
▁writing	-4617
▁Planning	-4618
▁affected	-4619
▁khumbaka	-4620
▁tshamaka	-4621
▁switsongo	-4622
▁mintlhontlho	-4623
gov	-4624
▁Vi	-4625
▁ce	-4626
reen	-4627
xeka	-4628
▁Ple	-4629
▁mec	-4630
dziha	-4631
ector	-4632
▁mfuwo	-4633
▁nkulu	-4634
▁poten	-4635
▁tsevu	-4636
▁vukha	-4637
andzele	-4638
▁etlhelo	-4639
▁levhele	-4640
▁ntokoto	-4641
tirhisani	-4642
▁effectively	-4643
▁representatives	-4644
els	-4645
▁Any	-4646
▁Cont	-4647
▁Poli	-4648
▁book	-4649
▁messa	-4650
▁reser	-4651
▁valid	-4652
cations	-4653
quality	-4654
▁reform	-4655
hurisano	-4656
vumbirhi	-4657
▁respond	-4658
▁xitiviso	-4659
▁rhumeriwa	-4660
▁households	-4661
anti	-4662
▁Mbu	-4663
iselo	-4664
▁Home	-4665
▁kayi	-4666
▁advan	-4667
kulobye	-4668
▁tivaka	-4669
▁balance	-4670
▁everyone	-4671
je	-4672
ANA	-4673
rib	-4674
▁eP	-4675
ises	-4676
yiki	-4677
▁Vus	-4678
▁Who	-4679
▁Hink	-4680
▁fall	-4681
▁kond	-4682
▁pima	-4683
▁susa	-4684
▁cover	-4685
▁parent	-4686
▁justice	-4687
▁prevent	-4688
▁ntlhontlho	-4689
▁Municipality	-4690
▁consultation	-4691
▁recommendations	-4692
tisa	-4693
▁mom	-4694
▁tino	-4695
veness	-4696
xinara	-4697
▁serve	-4698
▁waste	-4699
▁tiyimis	-4700
▁ensuring	-4701
▁evidence	-4702
▁manharhu	-4703
▁nyiketiwa	-4704
▁provinces	-4705
head	-4706
yeni	-4707
▁Ass	-4708
▁ren	-4709
uniti	-4710
▁Tata	-4711
▁rifu	-4712
phepha	-4713
▁Mpfum	-4714
▁cause	-4715
▁twala	-4716
▁famili	-4717
▁targets	-4718
▁vutshila	-4719
▁sungurile	-4720
▁accordance	-4721
▁provisions	-4722
▁themselves	-4723
▁vusirheleri	-4724
▁&	-4725
ctor	-4726
▁198	-4727
▁ite	-4728
▁sca	-4729
▁stop	-4730
▁koteki	-4731
▁twanana	-4732
▁Executive	-4733
▁komberiwa	-4734
▁represent	-4735
▁production	-4736
kage	-4737
▁mun	-4738
hwane	-4739
▁Form	-4740
▁ntsa	-4741
▁Ripha	-4742
▁makes	-4743
▁choice	-4744
▁tsariwa	-4745
▁Xinawana	-4746
▁mphikizano	-4747
▁Switirhisiwa	-4748
▁circumstances	-4749
▁consideration	-4750
ng	-4751
pr	-4752
▁VU	-4753
rayi	-4754
ured	-4755
xana	-4756
▁She	-4757
▁Vut	-4758
wanga	-4759
▁Inde	-4760
▁More	-4761
▁Swin	-4762
▁conn	-4763
▁force	-4764
lations	-4765
▁effici	-4766
▁moment	-4767
▁Ntwanano	-4768
▁exercise	-4769
▁nghenela	-4770
▁xifundza	-4771
▁swiringanyeto	-4772
▁understanding	-4773
▁]	-4774
▁CC	-4775
▁KA	-4776
▁Ke	-4777
time	-4778
vise	-4779
▁vit	-4780
istic	-4781
▁black	-4782
vonkulu	-4783
▁Please	-4784
avanyisi	-4785
dzidziha	-4786
▁deliver	-4787
fications	-4788
▁Xivutiso	-4789
▁nxungeto	-4790
▁vutshamo	-4791
▁xitshunxo	-4792
EK	-4793
ala	-4794
chi	-4795
pre	-4796
▁100	-4797
▁Tirh	-4798
▁stri	-4799
▁later	-4800
▁mirhi	-4801
▁ntshu	-4802
▁plant	-4803
hanyelo	-4804
ungundz	-4805
▁descri	-4806
▁hakelo	-4807
▁tshika	-4808
▁Firstly	-4809
▁climate	-4810
▁ntikelo	-4811
▁pleased	-4812
▁tsakisa	-4813
▁lulamile	-4814
▁continent	-4815
▁providing	-4816
▁technical	-4817
▁ntshamiseko	-4818
▁xiringanyeto	-4819
tla	-4820
atal	-4821
▁bor	-4822
▁vol	-4823
iture	-4824
▁Vana	-4825
▁Zuma	-4826
▁liqu	-4827
▁tile	-4828
▁khuta	-4829
▁study	-4830
▁Vurimi	-4831
▁extend	-4832
▁Chapter	-4833
▁tiawara	-4834
▁Identify	-4835
▁herisiwa	-4836
▁standard	-4837
▁according	-4838
▁currently	-4839
▁hileswaku	-4840
▁kambisisa	-4841
▁swiletelo	-4842
layi	-4843
▁etc	-4844
▁insp	-4845
▁teke	-4846
▁offer	-4847
▁raise	-4848
▁swimi	-4849
▁expand	-4850
▁single	-4851
▁vilela	-4852
tability	-4853
▁Justice	-4854
▁Particip	-4855
▁Hinkwerhu	-4856
▁leyintshwa	-4857
▁vulavisisi	-4858
▁vutleketli	-4859
bly	-4860
dequ	-4861
onst	-4862
void	-4863
xeni	-4864
▁bar	-4865
matic	-4866
▁known	-4867
▁United	-4868
▁absolu	-4869
▁mavito	-4870
▁Rihanyo	-4871
▁ntsakelo	-4872
▁yintshwa	-4873
▁hlamuseriwa	-4874
MS	-4875
▁90	-4876
▁br	-4877
tari	-4878
xile	-4879
▁Pri	-4880
▁bro	-4881
poses	-4882
▁bohi	-4883
▁duty	-4884
▁talk	-4885
▁upon	-4886
▁appeal	-4887
▁ground	-4888
▁makumu	-4889
▁chayela	-4890
▁measure	-4891
▁pfhumba	-4892
▁langutis	-4893
xin	-4894
▁IN	-4895
lida	-4896
▁phu	-4897
▁nono	-4898
▁sele	-4899
▁veke	-4900
▁visit	-4901
▁Yuropa	-4902
▁kaneta	-4903
▁makaya	-4904
▁mechan	-4905
▁comprom	-4906
▁confirm	-4907
▁endleke	-4908
▁priorit	-4909
▁reasona	-4910
▁elections	-4911
▁officials	-4912
▁governance	-4913
▁initiative	-4914
dzidziharisi	-4915
▁initiatives	-4916
▁representative	-4917
fux	-4918
med	-4919
▁fra	-4920
▁Econ	-4921
▁hlela	-4922
▁method	-4923
▁miholo	-4924
▁thyaka	-4925
▁express	-4926
▁excellen	-4927
▁internal	-4928
▁marriage	-4929
▁purposes	-4930
▁vamasipala	-4931
▁tinyiketela	-4932
RE	-4933
▁[	-4934
▁av	-4935
▁eK	-4936
hari	-4937
▁Mav	-4938
▁war	-4939
mpopo	-4940
ofisi	-4941
▁2006	-4942
▁Kuma	-4943
▁bank	-4944
▁wahi	-4945
member	-4946
purasi	-4947
ternal	-4948
▁might	-4949
▁rates	-4950
▁Rights	-4951
xopaxopo	-4952
▁allowed	-4953
▁tikhamp	-4954
▁vukheta	-4955
▁Mabindzu	-4956
▁happening	-4957
▁languages	-4958
▁potential	-4959
OT	-4960
▁ki	-4961
rely	-4962
hleri	-4963
isted	-4964
▁deci	-4965
▁obli	-4966
▁pasi	-4967
▁took	-4968
▁unac	-4969
kiniki	-4970
mended	-4971
pikara	-4972
▁kholwa	-4973
▁Speaker	-4974
▁Training	-4975
▁relating	-4976
▁leadership	-4977
▁ntshunxeko	-4978
▁lahlekeriwa	-4979
way	-4980
▁Vum	-4981
▁phy	-4982
▁onha	-4983
liniki	-4984
making	-4985
▁ntalo	-4986
▁occur	-4987
endlele	-4988
▁Nhlayo	-4989
hasipala	-4990
▁katsaka	-4991
▁pfuxeta	-4992
▁khampani	-4993
▁papalata	-4994
▁xiletelo	-4995
▁appointed	-4996
▁mahanyelo	-4997
par	-4998
inyi	-4999
vile	-5000
▁Tat	-5001
▁Vun	-5002
dingo	-5003
wunti	-5004
▁ntli	-5005
▁vaka	-5006
▁Langu	-5007
▁abuse	-5008
▁clini	-5009
▁khopi	-5010
▁tindz	-5011
▁Nhlang	-5012
▁simple	-5013
▁vuleke	-5014
elonkulu	-5015
ventions	-5016
▁applicant	-5017
▁conference	-5018
▁Vaakindhawu	-5019
▁legislature	-5020
11	-5021
lled	-5022
▁Cri	-5023
▁aid	-5024
▁ena	-5025
▁mor	-5026
andid	-5027
rated	-5028
▁Goza	-5029
▁cinc	-5030
▁nxavo	-5031
▁prosp	-5032
▁tsaka	-5033
▁vatho	-5034
▁events	-5035
▁export	-5036
▁extent	-5037
ceptable	-5038
▁Miganga	-5039
▁distribu	-5040
▁hoyozela	-5041
▁vunyingi	-5042
▁Hinkwaswo	-5043
▁Matirhelo	-5044
▁solutions	-5045
▁individual	-5046
▁Agriculture	-5047
ERI	-5048
▁TO	-5049
wani	-5050
▁1.1	-5051
▁Eku	-5052
▁Exa	-5053
▁SAS	-5054
▁Tod	-5055
▁Mula	-5056
▁figu	-5057
▁repe	-5058
▁yaka	-5059
▁Nkwama	-5060
▁duties	-5061
▁komisa	-5062
▁tifomo	-5063
tiveness	-5064
▁tlakuka	-5065
▁material	-5066
▁ndhavuko	-5067
▁sunguleni	-5068
▁tsundzuka	-5069
▁unacceptable	-5070
▁institutional	-5071
LE	-5072
miso	-5073
▁Sum	-5074
▁Kumbe	-5075
▁Provi	-5076
▁Women	-5077
▁learn	-5078
▁mbilu	-5079
▁tsema	-5080
▁values	-5081
▁Xiphemu	-5082
▁pfuniwa	-5083
▁navelela	-5084
▁tlhelela	-5085
▁Namuntlha	-5086
▁establishment	-5087
YI	-5088
elwa	-5089
know	-5090
lity	-5091
yamu	-5092
▁SWI	-5093
▁arr	-5094
▁don	-5095
olved	-5096
▁aims	-5097
▁away	-5098
▁link	-5099
gister	-5100
wandle	-5101
▁exclu	-5102
▁ntshe	-5103
▁sense	-5104
▁ekhoto	-5105
▁nhloko	-5106
▁obtain	-5107
▁mimpimo	-5108
▁direction	-5109
▁Provincial	-5110
▁regulations	-5111
▁08	-5112
riwi	-5113
thwa	-5114
▁Phe	-5115
▁Over	-5116
▁sepa	-5117
▁text	-5118
▁type	-5119
▁vule	-5120
hovelo	-5121
▁Child	-5122
▁Human	-5123
▁Today	-5124
▁While	-5125
▁range	-5126
eration	-5127
hongeri	-5128
tistics	-5129
▁Facili	-5130
▁complex	-5131
▁product	-5132
▁tivisiwa	-5133
▁hlawuriwa	-5134
▁structure	-5135
ury	-5136
kepe	-5137
weta	-5138
▁add	-5139
ented	-5140
▁dang	-5141
▁mang	-5142
▁page	-5143
tlhari	-5144
▁noted	-5145
▁Employ	-5146
▁Police	-5147
▁kotaka	-5148
▁kumile	-5149
▁pulani	-5150
▁vukati	-5151
poration	-5152
▁greater	-5153
▁practical	-5154
▁tsundzuxa	-5155
▁contribute	-5156
dge	-5157
mic	-5158
▁27	-5159
▁il	-5160
tshe	-5161
xeke	-5162
▁Org	-5163
▁Yes	-5164
▁sea	-5165
erous	-5166
folio	-5167
▁East	-5168
▁miri	-5169
▁tiny	-5170
fuxeto	-5171
lotiki	-5172
▁Water	-5173
▁Ndlela	-5174
▁appear	-5175
▁kondle	-5176
▁elected	-5177
▁encourage	-5178
▁increasing	-5179
▁legislative	-5180
▁vatekaxiave	-5181
.7	-5182
▁22	-5183
▁UN	-5184
▁au	-5185
MENT	-5186
poto	-5187
yiti	-5188
pment	-5189
tside	-5190
▁SAPS	-5191
yikelo	-5192
▁compa	-5193
▁forum	-5194
▁xinka	-5195
▁tlanga	-5196
▁xavisa	-5197
▁actions	-5198
▁instrum	-5199
▁testing	-5200
▁informed	-5201
▁xinawana	-5202
ilt	-5203
mod	-5204
▁Da	-5205
▁Mon	-5206
▁mud	-5207
▁Regu	-5208
▁sala	-5209
yisiso	-5210
▁Prote	-5211
▁swisi	-5212
▁xithe	-5213
isekeke	-5214
▁propor	-5215
▁Mbuyelo	-5216
▁consist	-5217
▁Secondly	-5218
fapfarhuto	-5219
▁amukerile	-5220
hlawulekisi	-5221
▁mpfumaleko	-5222
▁supporting	-5223
▁hlawuriweke	-5224
▁vadyondzisi	-5225
DC	-5226
anu	-5227
ose	-5228
gers	-5229
▁Mak	-5230
▁hun	-5231
ached	-5232
tiviwa	-5233
▁Nkoka	-5234
▁goals	-5235
ecurity	-5236
▁compet	-5237
▁crimin	-5238
▁helela	-5239
▁Tshwane	-5240
▁citizen	-5241
▁culture	-5242
▁decided	-5243
▁addressed	-5244
▁tinhlampfi	-5245
PI	-5246
▁Bodo	-5247
▁idea	-5248
▁kuna	-5249
▁Trade	-5250
▁equal	-5251
▁lavis	-5252
▁reach	-5253
▁tasks	-5254
▁theme	-5255
anyingi	-5256
▁driving	-5257
▁tsarisa	-5258
▁swimakiwa	-5259
▁councillors	-5260
ash	-5261
▁28	-5262
▁36	-5263
▁Bu	-5264
▁ww	-5265
teki	-5266
▁Jac	-5267
▁VAT	-5268
▁www	-5269
▁Every	-5270
▁tools	-5271
▁enawini	-5272
▁longolo	-5273
▁Provinces	-5274
▁beginning	-5275
▁humelerile	-5276
▁indicators	-5277
▁Nghingiriko	-5278
▁Commissioner	-5279
1)	-5280
tt	-5281
sia	-5282
sit	-5283
usa	-5284
▁75	-5285
cles	-5286
xika	-5287
▁3.1	-5288
▁von	-5289
▁Medi	-5290
▁pros	-5291
▁vuyi	-5292
▁pfala	-5293
▁refle	-5294
isekaka	-5295
▁decide	-5296
▁rhanga	-5297
keleriwa	-5298
▁Revenue	-5299
▁consequ	-5300
▁message	-5301
▁nyikaka	-5302
▁phemiti	-5303
▁Economic	-5304
▁directly	-5305
▁congratulate	-5306
▁switsundzuxo	-5307
▁transparency	-5308
▁Unfortunately	-5309
▁swifundzhankulu	-5310
▁big	-5311
▁cle	-5312
thane	-5313
▁affi	-5314
▁hosp	-5315
▁carry	-5316
▁enget	-5317
hangala	-5318
▁breast	-5319
▁humaka	-5320
▁powers	-5321
▁qhinga	-5322
▁settle	-5323
▁outside	-5324
▁kayivela	-5325
▁resource	-5326
▁tiyimela	-5327
▁mbulavulo	-5328
▁tindzhawu	-5329
▁xitifiketi	-5330
▁professional	-5331
▁swifundzankulu	-5332
-2	-5333
emp	-5334
ile	-5335
gues	-5336
▁mix	-5337
▁net	-5338
▁pat	-5339
bliki	-5340
▁hele	-5341
▁asked	-5342
▁joint	-5343
▁obser	-5344
▁tihlo	-5345
▁expect	-5346
▁hlamar	-5347
▁raised	-5348
▁Gauteng	-5349
▁criteri	-5350
▁outcome	-5351
▁phakela	-5352
▁tirheni	-5353
ciliation	-5354
▁Security	-5355
▁prepared	-5356
▁Maphorisa	-5357
▁equipment	-5358
▁twisiseka	-5359
ungundzwana	-5360
▁lulamisela	-5361
▁seketeriwa	-5362
▁Information	-5363
▁mbulavurisano	-5364
MO	-5365
bor	-5366
nel	-5367
pon	-5368
▁XA	-5369
vice	-5370
▁Pha	-5371
▁emb	-5372
▁spi	-5373
fambo	-5374
hakan	-5375
indza	-5376
iseke	-5377
▁harm	-5378
▁sphe	-5379
graphi	-5380
inated	-5381
istory	-5382
▁Impro	-5383
▁influ	-5384
vhesiti	-5385
▁compla	-5386
▁kurisa	-5387
▁phepha	-5388
▁useful	-5389
▁xixima	-5390
▁factors	-5391
▁limited	-5392
▁approval	-5393
▁milandzu	-5394
▁improving	-5395
▁reference	-5396
▁additional	-5397
▁facilities	-5398
HO	-5399
bur	-5400
ood	-5401
ror	-5402
hisa	-5403
tulu	-5404
▁tsh	-5405
anela	-5406
dzile	-5407
vance	-5408
▁Then	-5409
▁byela	-5410
enthara	-5411
▁defini	-5412
▁sayini	-5413
▁travel	-5414
▁cinciwa	-5415
▁khutaza	-5416
▁Vulawuri	-5417
▁nyikiwile	-5418
▁supported	-5419
▁XI	-5420
wati	-5421
▁ali	-5422
▁flo	-5423
▁inj	-5424
▁mih	-5425
▁won	-5426
ening	-5427
▁divi	-5428
▁goal	-5429
▁rhur	-5430
▁Jacob	-5431
▁SASSA	-5432
▁lavan	-5433
▁ngati	-5434
▁Yaleyo	-5435
▁having	-5436
▁launch	-5437
wetlembe	-5438
▁Project	-5439
▁mikateko	-5440
▁dyondzisa	-5441
▁competition	-5442
lid	-5443
vey	-5444
yer	-5445
▁31	-5446
gree	-5447
kota	-5448
▁Not	-5449
▁yan	-5450
famba	-5451
jensi	-5452
▁nkhu	-5453
▁riva	-5454
▁phuro	-5455
▁views	-5456
ferense	-5457
ofisiri	-5458
▁Submit	-5459
▁boheka	-5460
▁xihoxo	-5461
▁created	-5462
▁looking	-5463
▁tingana	-5464
hakankulu	-5465
▁nyikiwaka	-5466
▁guidelines	-5467
▁tiyimiserile	-5468
▁swidzidziharisi	-5469
ELA	-5470
asi	-5471
hele	-5472
kimi	-5473
▁SADC	-5474
▁asse	-5475
▁fail	-5476
▁whom	-5477
▁Kahle	-5478
▁Union	-5479
▁bangi	-5480
▁ideas	-5481
▁former	-5482
▁Nomboro	-5483
▁Special	-5484
▁primary	-5485
▁Ikhonomi	-5486
▁timakete	-5487
orobankulu	-5488
univhesiti	-5489
▁byintshwa	-5490
▁Mpimanyeto	-5491
▁tanihilaha	-5492
▁vukhongeri	-5493
▁Swikongomelo	-5494
cu	-5495
▁Ob	-5496
▁em	-5497
pris	-5498
ruit	-5499
▁Lab	-5500
▁air	-5501
▁mpa	-5502
alana	-5503
ought	-5504
▁khon	-5505
hlahla	-5506
▁Chief	-5507
▁creat	-5508
▁durha	-5509
▁animal	-5510
▁effort	-5511
▁owners	-5512
▁susiwa	-5513
politiki	-5514
▁mfungho	-5515
▁minimum	-5516
▁Xiletelo	-5517
▁maintain	-5518
▁Ntirhisano	-5519
▁compromise	-5520
▁switandzhaku	-5521
AS	-5522
DZ	-5523
EP	-5524
pro	-5525
tse	-5526
ubl	-5527
TIRH	-5528
tify	-5529
ying	-5530
▁Def	-5531
sungu	-5532
▁inno	-5533
lekile	-5534
▁House	-5535
▁clari	-5536
▁class	-5537
▁draft	-5538
▁happy	-5539
▁leave	-5540
thanete	-5541
xikarhi	-5542
▁Manana	-5543
▁expend	-5544
▁rather	-5545
▁external	-5546
▁Mbulavulo	-5547
▁appointment	-5548
▁languteriwa	-5549
▁nhlanganelo	-5550
HL	-5551
ilu	-5552
kano	-5553
▁Cer	-5554
▁jud	-5555
▁doub	-5556
▁koxa	-5557
▁side	-5558
▁adver	-5559
▁break	-5560
▁multi	-5561
▁phasa	-5562
▁Ndhawu	-5563
▁accomp	-5564
▁titsar	-5565
▁tlhele	-5566
ensation	-5567
▁Tirhisa	-5568
▁xitirho	-5569
▁accepted	-5570
▁mundzuku	-5571
▁transfer	-5572
▁vuyerisa	-5573
crimination	-5574
▁hundzuluxa	-5575
▁khanselara	-5576
▁phurogireme	-5577
▁vakhanselara	-5578
10	-5579
eks	-5580
▁Ju	-5581
eral	-5582
hood	-5583
isms	-5584
▁Inf	-5585
▁Town	-5586
though	-5587
▁ahead	-5588
▁exemp	-5589
▁super	-5590
tations	-5591
▁acknow	-5592
▁coming	-5593
▁though	-5594
▁Rihanyu	-5595
▁mavhiki	-5596
▁ntlangu	-5597
▁elements	-5598
▁landzaku	-5599
▁mitlangu	-5600
▁companies	-5601
▁swisiwana	-5602
▁nkanerisano	-5603
▁facilitators	-5604
TS	-5605
IFA	-5606
edu	-5607
ket	-5608
▁jo	-5609
fang	-5610
▁bil	-5611
isini	-5612
kwana	-5613
▁drug	-5614
▁palu	-5615
▁yoxe	-5616
urance	-5617
▁coord	-5618
▁khume	-5619
▁pheji	-5620
▁weeks	-5621
dequate	-5622
rayivhe	-5623
▁Policy	-5624
▁Strate	-5625
▁Limpopo	-5626
▁tshembe	-5627
▁Xipikara	-5628
▁domestic	-5629
▁rhangela	-5630
▁Authority	-5631
▁Phurojeke	-5632
▁providers	-5633
▁vupfhumba	-5634
▁engeteleka	-5635
▁everything	-5636
▁relationship	-5637
RI	-5638
ancy	-5639
riki	-5640
sign	-5641
xavi	-5642
▁dya	-5643
sical	-5644
▁Land	-5645
▁anti	-5646
▁gain	-5647
▁weak	-5648
tiwile	-5649
vuxika	-5650
▁byona	-5651
▁hlula	-5652
mahungu	-5653
▁Register	-5654
▁lawuriwa	-5655
▁riqingho	-5656
▁tihlampfi	-5657
▁ringanyeta	-5658
▁vuyerisaka	-5659
▁expenditure	-5660
▁matikoxikaya	-5661
KU	-5662
ISI	-5663
mon	-5664
▁yel	-5665
rehen	-5666
▁Fore	-5667
▁Xexo	-5668
▁rihi	-5669
▁tiho	-5670
▁Amend	-5671
▁Khota	-5672
▁avoid	-5673
▁built	-5674
▁muako	-5675
▁nyiki	-5676
▁announ	-5677
▁formal	-5678
▁signed	-5679
anakanyo	-5680
▁Kombisa	-5681
▁bumabum	-5682
▁vukhale	-5683
▁employed	-5684
▁khumbeka	-5685
▁Kavanyisa	-5686
▁yingisela	-5687
▁Khotavuxika	-5688
▁involvement	-5689
▁xitatimende	-5690
▁construction	-5691
lt	-5692
tin	-5693
hile	-5694
most	-5695
▁Its	-5696
kanya	-5697
place	-5698
▁FIFA	-5699
▁late	-5700
▁xika	-5701
encies	-5702
funeto	-5703
tshami	-5704
▁cycle	-5705
angwini	-5706
▁Xedulu	-5707
▁angula	-5708
▁tiveka	-5709
▁applied	-5710
rayivhete	-5711
▁actually	-5712
▁intended	-5713
▁maAfrika	-5714
▁excellent	-5715
▁maendlele	-5716
▁kongomisiwa	-5717
▁negotiations	-5718
▁interventions	-5719
▁CO	-5720
cula	-5721
▁sui	-5722
mbele	-5723
▁pati	-5724
▁rule	-5725
▁send	-5726
gative	-5727
unguby	-5728
▁presi	-5729
▁vinyi	-5730
▁Indust	-5731
▁Vaholo	-5732
▁kunene	-5733
▁mother	-5734
▁Finance	-5735
▁history	-5736
▁muendli	-5737
▁station	-5738
▁Mulawuri	-5739
▁Swiyenge	-5740
▁ntshovelo	-5741
▁tinhlamulo	-5742
wetlembetano	-5743
MP	-5744
HAT	-5745
sta	-5746
used	-5747
wala	-5748
milar	-5749
▁seek	-5750
▁tido	-5751
andlan	-5752
coming	-5753
gories	-5754
yivelo	-5755
▁About	-5756
▁claim	-5757
▁humes	-5758
▁sindz	-5759
▁sound	-5760
▁tsana	-5761
dential	-5762
hansele	-5763
▁Centre	-5764
▁During	-5765
▁compon	-5766
▁placed	-5767
▁Address	-5768
▁endzela	-5769
▁criteria	-5770
▁leteriwa	-5771
▁switiviwa	-5772
▁tinhundzu	-5773
que	-5774
▁Ms	-5775
▁ir	-5776
yani	-5777
▁Use	-5778
▁khe	-5779
sting	-5780
▁ndze	-5781
gation	-5782
▁nyama	-5783
▁types	-5784
▁volun	-5785
isekile	-5786
▁conduc	-5787
▁unable	-5788
▁andlala	-5789
▁farmers	-5790
▁misinya	-5791
▁someone	-5792
▁anything	-5793
▁sunguriwa	-5794
▁Nkunguhato	-5795
▁tisisiteme	-5796
▁Chairperson	-5797
▁sirheleriwa	-5798
jo	-5799
bil	-5800
igh	-5801
khi	-5802
rid	-5803
▁Zi	-5804
▁Nku	-5805
▁lex	-5806
▁tar	-5807
▁left	-5808
▁maxi	-5809
▁says	-5810
▁word	-5811
tivisi	-5812
▁Youth	-5813
▁acces	-5814
▁board	-5815
▁byala	-5816
▁gives	-5817
▁pregn	-5818
▁price	-5819
▁remar	-5820
tsariwa	-5821
▁maxelo	-5822
▁tiboha	-5823
▁yoleyo	-5824
▁billion	-5825
▁maphepha	-5826
▁xanisiwa	-5827
uthorities	-5828
▁absolutely	-5829
▁hlengeleta	-5830
▁accountable	-5831
▁matikhomelo	-5832
▁swirhangana	-5833
ug	-5834
eli	-5835
▁oc	-5836
gory	-5837
hone	-5838
yina	-5839
▁196	-5840
▁Hon	-5841
▁lost	-5842
▁publ	-5843
ongomi	-5844
▁Paper	-5845
▁recon	-5846
▁trust	-5847
▁Ladies	-5848
▁Tatana	-5849
▁recent	-5850
khawunti	-5851
▁Manager	-5852
▁Mutirhi	-5853
▁consent	-5854
▁hanyaka	-5855
▁reached	-5856
▁swifuwo	-5857
eladyambu	-5858
largement	-5859
▁contract	-5860
▁hakelela	-5861
▁mafumelo	-5862
▁regarding	-5863
▁tirhisaka	-5864
▁vutsoniwa	-5865
▁tanihileswi	-5866
▁accountability	-5867
▁administrative	-5868
plo	-5869
enen	-5870
meta	-5871
▁Non	-5872
elson	-5873
▁Fomo	-5874
▁Lear	-5875
▁norm	-5876
▁tack	-5877
▁tell	-5878
▁Nghen	-5879
▁akiwa	-5880
▁leswo	-5881
▁persp	-5882
▁pfula	-5883
ections	-5884
endleko	-5885
▁Agency	-5886
▁altern	-5887
▁content	-5888
▁variety	-5889
▁vathori	-5890
▁enelangi	-5891
▁mahlweni	-5892
▁muyimeri	-5893
▁teachers	-5894
▁Vuswikoti	-5895
▁pfuxetiwa	-5896
▁businesses	-5897
▁categories	-5898
▁constitutional	-5899
ANG	-5900
ney	-5901
Zulu	-5902
▁500	-5903
▁hal	-5904
▁mid	-5905
▁July	-5906
▁Such	-5907
▁dest	-5908
isteme	-5909
tiraka	-5910
kanelwa	-5911
yisweni	-5912
▁behalf	-5913
▁guaran	-5914
▁mining	-5915
▁threat	-5916
▁voniwa	-5917
▁hluleka	-5918
▁started	-5919
▁succeed	-5920
▁tourism	-5921
▁rhekhodo	-5922
▁vuriweke	-5923
hundzuluxi	-5924
▁efficient	-5925
▁vutirheli	-5926
▁humeleleni	-5927
▁kondletela	-5928
▁proportion	-5929
▁Phurogireme	-5930
▁traditional	-5931
rese	-5932
wisa	-5933
yisa	-5934
▁2.1	-5935
▁358	-5936
▁Ema	-5937
▁ePa	-5938
▁fri	-5939
dyana	-5940
hunga	-5941
tious	-5942
▁Each	-5943
▁High	-5944
▁June	-5945
▁fees	-5946
▁tihi	-5947
▁vevu	-5948
▁xiya	-5949
ulamis	-5950
xavisi	-5951
▁occup	-5952
▁roads	-5953
▁Discus	-5954
▁causes	-5955
▁likely	-5956
▁sekete	-5957
xanisiwa	-5958
▁arrange	-5959
▁concept	-5960
▁endzeni	-5961
tumbuluxi	-5962
▁military	-5963
▁khamphani	-5964
▁Vuhlayiseki	-5965
▁individuals	-5966
ert	-5967
▁LE	-5968
▁auth	-5969
▁siva	-5970
▁town	-5971
estern	-5972
▁ready	-5973
ourable	-5974
▁collea	-5975
▁tekaka	-5976
lawulelo	-5977
▁Matimba	-5978
▁fishing	-5979
▁ndzhaka	-5980
▁ntlimbo	-5981
▁sayense	-5982
▁Schedule	-5983
▁Vantshwa	-5984
▁applying	-5985
▁Amendment	-5986
▁vatirhela	-5987
▁Convention	-5988
▁humeleleke	-5989
▁reasonable	-5990
▁sufficient	-5991
▁tiyisisiwa	-5992
kwe	-5993
etro	-5994
kani	-5995
lamu	-5996
yala	-5997
Natal	-5998
kumba	-5999
▁Kapa	-6000
▁Lava	-6001
▁laws	-6002
anyisa	-6003
cident	-6004
▁Nyeny	-6005
▁affor	-6006
▁dealt	-6007
▁nongo	-6008
tionary	-6009
▁Nation	-6010
▁Report	-6011
▁hetisa	-6012
▁target	-6013
▁General	-6014
▁vhotela	-6015
▁vumunhu	-6016
▁Tihakelo	-6017
▁cultural	-6018
▁Hileswaku	-6019
▁conducted	-6020
▁hatlisisa	-6021
▁residents	-6022
▁ePalamende	-6023
▁mbhurisano	-6024
▁submission	-6025
▁tinyunguby	-6026
▁vukungundzwana	-6027
zed	-6028
▁HI	-6029
long	-6030
meke	-6031
mune	-6032
pite	-6033
sini	-6034
▁DHA	-6035
▁nor	-6036
langa	-6037
▁Mawu	-6038
▁kasi	-6039
▁occa	-6040
▁vuli	-6041
alanga	-6042
vanuna	-6043
▁Forum	-6044
▁Premi	-6045
▁excep	-6046
tsakelo	-6047
▁Nelson	-6048
▁candid	-6049
▁unless	-6050
▁demonst	-6051
▁separate	-6052
▁acceptable	-6053
▁hangalasiwa	-6054
▁independent	-6055
▁applications	-6056
zo	-6057
oma	-6058
tra	-6059
▁Sc	-6060
burg	-6061
play	-6062
▁win	-6063
etiwa	-6064
qweta	-6065
▁Vona	-6066
▁cash	-6067
▁fire	-6068
▁muni	-6069
▁radi	-6070
cember	-6071
hakeri	-6072
▁China	-6073
▁Mpimo	-6074
▁early	-6075
▁exact	-6076
▁model	-6077
▁scale	-6078
▁engage	-6079
▁mavoko	-6080
▁tabled	-6081
▁Communi	-6082
▁khumbhe	-6083
▁overall	-6084
kongomiso	-6085
operative	-6086
rehensive	-6087
▁negative	-6088
tification	-6089
▁hangalasa	-6090
▁integrated	-6091
▁Environment	-6092
HU	-6093
luko	-6094
ming	-6095
pril	-6096
▁Vad	-6097
ilure	-6098
lwana	-6099
▁deta	-6100
▁pimi	-6101
▁poso	-6102
▁site	-6103
cement	-6104
hatelo	-6105
ilding	-6106
▁March	-6107
tically	-6108
timente	-6109
tsongwa	-6110
▁Xikaya	-6111
▁exceed	-6112
ological	-6113
vulavuri	-6114
▁empower	-6115
▁partner	-6116
▁vuhleri	-6117
▁December	-6118
kajekisano	-6119
▁swintshwa	-6120
▁difference	-6121
▁mianakanyo	-6122
▁governments	-6123
▁Swifundzhankulu	-6124
hes	-6125
lip	-6126
ple	-6127
▁New	-6128
▁Nka	-6129
▁pho	-6130
▁tri	-6131
chini	-6132
eding	-6133
lined	-6134
tures	-6135
▁City	-6136
▁Here	-6137
▁Most	-6138
▁Tool	-6139
▁proc	-6140
▁tiso	-6141
visory	-6142
▁Apply	-6143
▁clean	-6144
▁ngari	-6145
▁vital	-6146
mentary	-6147
▁liquor	-6148
▁nkwama	-6149
▁passed	-6150
▁rhamba	-6151
▁stress	-6152
▁tekile	-6153
▁Makungu	-6154
▁Systems	-6155
▁mandate	-6156
tsongwana	-6157
▁boxiweke	-6158
▁Integrated	-6159
▁hundzisela	-6160
▁vutitivisi	-6161
▁constitution	-6162
AR	-6163
mpt	-6164
dzam	-6165
erve	-6166
reci	-6167
▁Cin	-6168
▁EKA	-6169
▁Ins	-6170
▁fir	-6171
ground	-6172
kitara	-6173
opaxop	-6174
prises	-6175
▁comes	-6176
▁heard	-6177
▁inten	-6178
▁paper	-6179
▁quick	-6180
formance	-6181
isheries	-6182
▁animals	-6183
▁chavisa	-6184
▁tirhisi	-6185
ulamiselo	-6186
▁Tindhawu	-6187
▁vambirhi	-6188
▁hinkwabyo	-6189
▁hungutiwa	-6190
▁langutiwa	-6191
▁agreements	-6192
▁conclusion	-6193
▁amukeriwile	-6194
▁developments	-6195
▁investigation	-6196
▁representation	-6197
qa	-6198
acy	-6199
ies	-6200
▁80	-6201
enge	-6202
tled	-6203
ungh	-6204
wise	-6205
forms	-6206
kitsi	-6207
▁Leri	-6208
▁milk	-6209
rexini	-6210
▁Rimba	-6211
▁khome	-6212
▁vumbi	-6213
mbisiso	-6214
rhalang	-6215
▁kumaka	-6216
▁states	-6217
▁appreci	-6218
▁central	-6219
▁numbers	-6220
▁victims	-6221
▁Vululami	-6222
▁feedback	-6223
▁mutswari	-6224
▁nghenele	-6225
▁senthara	-6226
▁vaviseka	-6227
▁yelanaka	-6228
wamapurasi	-6229
▁akhawunti	-6230
▁Tanihilaha	-6231
▁heteleleni	-6232
▁prevention	-6233
▁association	-6234
▁integration	-6235
are	-6236
▁LO	-6237
▁MP	-6238
▁hy	-6239
godi	-6240
pute	-6241
side	-6242
▁mum	-6243
▁quo	-6244
orary	-6245
redit	-6246
socha	-6247
utisa	-6248
▁Only	-6249
▁teki	-6250
visiwa	-6251
▁Inter	-6252
▁grants	-6253
▁mpahla	-6254
▁figures	-6255
▁growing	-6256
▁passport	-6257
▁tikeriwa	-6258
▁residence	-6259
▁workplace	-6260
▁hundzuluxo	-6261
▁lavatsongo	-6262
▁immediately	-6263
WU	-6264
swi	-6265
▁Vo	-6266
meki	-6267
ront	-6268
▁Sci	-6269
▁ban	-6270
enced	-6271
ility	-6272
tices	-6273
▁huge	-6274
▁xite	-6275
▁yile	-6276
ercial	-6277
fundza	-6278
hlapfa	-6279
nesses	-6280
▁April	-6281
▁alone	-6282
▁chava	-6283
▁seems	-6284
▁shows	-6285
▁spend	-6286
▁manage	-6287
▁Tsundzu	-6288
▁Western	-6289
tatimende	-6290
▁Business	-6291
▁remember	-6292
▁xihundla	-6293
▁certified	-6294
▁hlayiseka	-6295
▁kombisile	-6296
▁operation	-6297
▁tsariweke	-6298
▁industrial	-6299
▁throughout	-6300
▁Directorate	-6301
▁authorities	-6302
▁represented	-6303
▁tidokumende	-6304
▁vutihlanganisi	-6305
cer	-6306
eca	-6307
mat	-6308
kele	-6309
▁Aid	-6310
▁Feb	-6311
▁eli	-6312
▁reg	-6313
▁shi	-6314
dzana	-6315
eleni	-6316
enior	-6317
gious	-6318
ition	-6319
logue	-6320
lorhi	-6321
mises	-6322
▁basa	-6323
▁maku	-6324
▁seed	-6325
▁thin	-6326
▁woxe	-6327
ancial	-6328
▁White	-6329
▁blood	-6330
▁doubt	-6331
ression	-6332
▁Labour	-6333
▁Vumaki	-6334
▁kumiwa	-6335
▁wanted	-6336
biliyoni	-6337
▁happens	-6338
▁reflect	-6339
▁hinkwako	-6340
▁landzela	-6341
▁ndzhendz	-6342
▁physical	-6343
hundzuluxo	-6344
▁manyikelo	-6345
▁Kahlekahle	-6346
▁efficiency	-6347
▁statistics	-6348
▁vavevukisi	-6349
▁xirhangana	-6350
kongomelonkulu	-6351
CD	-6352
bit	-6353
phy	-6354
vut	-6355
chav	-6356
gine	-6357
hete	-6358
mage	-6359
roud	-6360
▁ANC	-6361
▁Tho	-6362
▁Find	-6363
▁From	-6364
▁Note	-6365
▁pass	-6366
▁vady	-6367
ghting	-6368
▁Swilo	-6369
▁Under	-6370
▁entry	-6371
▁hloni	-6372
▁light	-6373
▁union	-6374
▁tafula	-6375
▁yimisa	-6376
dzamhala	-6377
▁equality	-6378
▁materials	-6379
▁kahlekahle	-6380
▁proceedings	-6381
▁xitirhisiwa	-6382
ME	-6383
SI	-6384
rs	-6385
dra	-6386
▁nu	-6387
ecut	-6388
lexi	-6389
lier	-6390
rugg	-6391
▁ala	-6392
▁ves	-6393
▁kule	-6394
lenary	-6395
tative	-6396
▁Inves	-6397
▁along	-6398
▁calls	-6399
▁credi	-6400
▁magon	-6401
▁older	-6402
▁worth	-6403
▁Summit	-6404
▁assets	-6405
▁rendzo	-6406
▁saying	-6407
▁source	-6408
lidarity	-6409
▁accredi	-6410
▁affairs	-6411
▁dealing	-6412
▁dispute	-6413
▁meaning	-6414
andlanene	-6415
anisiweke	-6416
▁fanelaka	-6417
▁hundzuka	-6418
▁tshamise	-6419
▁complaint	-6420
▁seketelaka	-6421
▁Nyenyankulu	-6422
▁Constitutional	-6423
.9	-6424
GE	-6425
cro	-6426
dia	-6427
lus	-6428
ziva	-6429
▁tou	-6430
▁xit	-6431
▁yes	-6432
going	-6433
isati	-6434
▁Free	-6435
▁Mats	-6436
▁Port	-6437
▁Road	-6438
▁Tech	-6439
▁ambi	-6440
▁mark	-6441
▁news	-6442
▁xaxa	-6443
morrow	-6444
rought	-6445
▁Since	-6446
▁cross	-6447
▁proud	-6448
▁swing	-6449
▁tinyi	-6450
▁titwa	-6451
enenene	-6452
untshwa	-6453
▁Assess	-6454
▁Magoza	-6455
▁giving	-6456
▁pasisa	-6457
▁please	-6458
▁produce	-6459
▁resolve	-6460
▁vhotile	-6461
▁Administ	-6462
▁Organisa	-6463
▁district	-6464
▁tomorrow	-6465
▁inthanete	-6466
▁swifundza	-6467
▁tikonkulu	-6468
▁mechanisms	-6469
▁pfumeleleni	-6470
▁Xifundzankulu	-6471
tsongwatsongwana	-6472
apa	-6473
ass	-6474
lli	-6475
ths	-6476
▁EN	-6477
▁Wu	-6478
▁eM	-6479
laya	-6480
load	-6481
mbho	-6482
tala	-6483
▁FET	-6484
▁Gra	-6485
▁NGA	-6486
▁SWA	-6487
▁Tis	-6488
▁led	-6489
▁pim	-6490
ology	-6491
▁self	-6492
cetelo	-6493
change	-6494
hlayis	-6495
▁Hlawu	-6496
▁Stand	-6497
▁sport	-6498
komberi	-6499
orobeni	-6500
rations	-6501
usayiti	-6502
▁doroba	-6503
▁kandzi	-6504
▁thanks	-6505
▁urgent	-6506
▁yindlu	-6507
▁mafundza	-6508
▁provider	-6509
▁Framework	-6510
▁diversity	-6511
▁makanelwa	-6512
▁tlakusiwa	-6513
▁tlhontlho	-6514
▁colleagues	-6515
▁completely	-6516
▁hakanyingi	-6517
▁inequality	-6518
▁murhangeri	-6519
▁tipolotiki	-6520
▁tinyungubyisa	-6521
▁Mutshamaxitulu	-6522
AC	-6523
RIC	-6524
adi	-6525
haps	-6526
lawo	-6527
loye	-6528
pped	-6529
udit	-6530
▁adj	-6531
▁ago	-6532
▁fla	-6533
▁muk	-6534
hwalo	-6535
thern	-6536
tshan	-6537
▁Give	-6538
▁Work	-6539
▁fung	-6540
▁goes	-6541
▁rero	-6542
dzweni	-6543
kisiwa	-6544
xekile	-6545
▁Dziva	-6546
▁ekule	-6547
▁evalu	-6548
▁heart	-6549
▁moder	-6550
▁secre	-6551
theless	-6552
▁charac	-6553
▁charge	-6554
▁hakeri	-6555
▁speech	-6556
leriweke	-6557
▁prepare	-6558
▁adoption	-6559
▁criminal	-6560
▁vonakaka	-6561
▁Vutirheli	-6562
▁hluvukaka	-6563
▁ntshuxeko	-6564
▁xinkadyana	-6565
▁agriculture	-6566
▁enlargement	-6567
▁discrimination	-6568
.8	-6569
AT	-6570
ara	-6571
ins	-6572
fect	-6573
gies	-6574
huti	-6575
loni	-6576
mbab	-6577
yisi	-6578
▁LES	-6579
▁div	-6580
▁pac	-6581
eleko	-6582
▁depo	-6583
▁susp	-6584
▁wide	-6585
filung	-6586
fisini	-6587
lekaka	-6588
timate	-6589
▁ekaya	-6590
▁kwala	-6591
▁notes	-6592
ographi	-6593
outhern	-6594
▁aspect	-6595
▁Xitirho	-6596
▁advance	-6597
▁ehleketi	-6598
▁heleleke	-6599
▁nhlayelo	-6600
▁swiendlo	-6601
▁Companies	-6602
wendzamhala	-6603
▁Mpfumelelo	-6604
▁consequences	-6605
▁distribution	-6606
▁swihlawulekisi	-6607
ea	-6608
fuge	-6609
welo	-6610
▁Nor	-6611
▁hay	-6612
▁ver	-6613
mbile	-6614
ranch	-6615
uhari	-6616
▁1999	-6617
▁Post	-6618
▁comb	-6619
▁stay	-6620
▁unit	-6621
▁vuya	-6622
gional	-6623
▁conso	-6624
▁explo	-6625
▁hlamu	-6626
▁incor	-6627
▁mahlo	-6628
walungu	-6629
▁Hilaha	-6630
▁tshiki	-6631
▁vulavur	-6632
▁Facilita	-6633
▁creating	-6634
▁facility	-6635
▁students	-6636
▁vuriwile	-6637
▁continues	-6638
▁fambisiwa	-6639
▁compliance	-6640
▁njhekajekisano	-6641
(1)	-6642
▁70	-6643
book	-6644
hume	-6645
mits	-6646
▁GDP	-6647
▁Tax	-6648
khuva	-6649
▁half	-6650
▁onge	-6651
▁phen	-6652
▁Febru	-6653
▁hlamb	-6654
▁sensi	-6655
▁whose	-6656
kamberi	-6657
▁Foramu	-6658
▁assign	-6659
▁discre	-6660
▁strugg	-6661
▁tihuvo	-6662
▁veleka	-6663
▁brought	-6664
▁healthy	-6665
▁qualify	-6666
▁sources	-6667
▁families	-6668
government	-6669
▁Ministers	-6670
▁Swinawana	-6671
▁tsakelaka	-6672
▁tshembeka	-6673
indzakhombo	-6674
▁solidarity	-6675
▁Performance	-6676
▁perspective	-6677
▁undertaking	-6678
▁vutumbuluxi	-6679
▁landzeleriwa	-6680
▁tumbuluxiwile	-6681
bya	-6682
tha	-6683
▁46	-6684
kali	-6685
read	-6686
▁1.2	-6687
▁Dec	-6688
eriwe	-6689
▁Beca	-6690
▁deep	-6691
▁room	-6692
▁urge	-6693
▁Ameri	-6694
▁susum	-6695
▁Yindlu	-6696
▁facing	-6697
▁tisola	-6698
umalanga	-6699
▁Because	-6700
▁Nations	-6701
▁ndzhaku	-6702
▁similar	-6703
▁entitled	-6704
▁opposite	-6705
▁vavanuna	-6706
▁Vaholobye	-6707
▁employers	-6708
▁facilitate	-6709
▁swivumbeko	-6710
iry	-6711
ump	-6712
zet	-6713
andi	-6714
▁eti	-6715
celwa	-6716
▁2030	-6717
▁mafu	-6718
▁mimp	-6719
▁quar	-6720
▁rini	-6721
mbabwe	-6722
ourism	-6723
verage	-6724
yakayo	-6725
▁Cinca	-6726
▁Indeed	-6727
▁advice	-6728
tsakanyo	-6729
▁Further	-6730
▁Tinxaka	-6731
▁masangu	-6732
▁consumer	-6733
▁followed	-6734
▁lavisisa	-6735
▁letikulu	-6736
▁leyinene	-6737
▁highlight	-6738
▁nkayakayo	-6739
▁satisfied	-6740
▁Xitifikheti	-6741
▁xithekiniki	-6742
▁Environmental	-6743
▁languteriweke	-6744
▁transformation	-6745
DL	-6746
cks	-6747
dle	-6748
▁Am	-6749
hind	-6750
stry	-6751
▁PMS	-6752
▁Stu	-6753
▁tib	-6754
endzi	-6755
rable	-6756
tages	-6757
wable	-6758
▁Part	-6759
▁hany	-6760
▁loss	-6761
▁visa	-6762
▁xoxe	-6763
alango	-6764
angulo	-6765
▁Bills	-6766
▁added	-6767
▁aimed	-6768
▁apart	-6769
▁parts	-6770
▁possi	-6771
▁roles	-6772
etiweke	-6773
▁Tsalwa	-6774
▁linked	-6775
▁medium	-6776
▁tekeri	-6777
▁ability	-6778
▁economi	-6779
tliliniki	-6780
▁designed	-6781
▁hinkwaxo	-6782
▁mihandzu	-6783
▁premises	-6784
▁Financial	-6785
▁Kumbexana	-6786
▁Mufambisi	-6787
▁hlamarisa	-6788
▁ownership	-6789
▁xikweleti	-6790
rhalanganyi	-6791
▁Riphabliki	-6792
▁confidence	-6793
▁undertaken	-6794
▁Tiphurojeke	-6795
▁discussions	-6796
▁hlamuseriweke	-6797
▁26	-6798
▁32	-6799
▁eN	-6800
care	-6801
vele	-6802
▁Bud	-6803
▁ICT	-6804
▁mab	-6805
▁spo	-6806
▁vux	-6807
▁wit	-6808
cking	-6809
ental	-6810
▁Good	-6811
▁mach	-6812
aching	-6813
hesion	-6814
reness	-6815
▁Allow	-6816
▁khoso	-6817
▁Action	-6818
▁Tifomo	-6819
▁brings	-6820
▁commen	-6821
▁mipimo	-6822
▁parlia	-6823
▁tinhlo	-6824
▁markets	-6825
▁summary	-6826
▁vavhoti	-6827
▁hospital	-6828
▁obtained	-6829
▁leswinene	-6830
▁statements	-6831
▁intervention	-6832
▁comprehensive	-6833
▁qualifications	-6834
17	-6835
▁NP	-6836
bedl	-6837
lala	-6838
yeri	-6839
▁Cup	-6840
▁Day	-6841
▁Inc	-6842
▁chu	-6843
▁ngu	-6844
clear	-6845
▁Even	-6846
▁Prom	-6847
▁dign	-6848
▁easi	-6849
▁near	-6850
▁told	-6851
▁tshu	-6852
▁xiha	-6853
▁Third	-6854
▁mista	-6855
▁names	-6856
▁Descri	-6857
▁abroad	-6858
▁clinic	-6859
▁vulner	-6860
lavisisi	-6861
▁Ntsengo	-6862
▁Premier	-6863
▁amended	-6864
▁obvious	-6865
▁tiyisiwa	-6866
▁vuyelela	-6867
▁character	-6868
▁swileriso	-6869
▁temporary	-6870
▁xikambelo	-6871
▁achievement	-6872
gs	-6873
ISA	-6874
RSA	-6875
hli	-6876
kon	-6877
mal	-6878
▁..	-6879
▁IS	-6880
▁dz	-6881
▁lu	-6882
econ	-6883
lexo	-6884
▁...	-6885
gence	-6886
times	-6887
▁euro	-6888
ingano	-6889
lekeke	-6890
tiyiso	-6891
▁comba	-6892
▁eKapa	-6893
wankulu	-6894
▁behind	-6895
▁regret	-6896
▁xipano	-6897
seketeri	-6898
▁Discuss	-6899
▁formula	-6900
▁burisana	-6901
▁dialogue	-6902
▁dokodela	-6903
▁interpre	-6904
▁Transport	-6905
▁affecting	-6906
▁delegates	-6907
▁presented	-6908
▁processing	-6909
▁xipolitiki	-6910
▁manufacture	-6911
▁implementing	-6912
▁participatory	-6913
FU	-6914
▁z	-6915
▁48	-6916
▁RI	-6917
ored	-6918
ream	-6919
viso	-6920
▁Yet	-6921
▁fea	-6922
gency	-6923
uteri	-6924
▁Cong	-6925
▁Make	-6926
▁Rela	-6927
▁buku	-6928
▁mpha	-6929
▁mindz	-6930
▁vaaka	-6931
▁white	-6932
▁hayona	-6933
▁kavany	-6934
▁contrib	-6935
▁enhance	-6936
▁nkhensa	-6937
▁sitting	-6938
▁tirhile	-6939
hampfhuka	-6940
▁detailed	-6941
▁kaneriwa	-6942
▁thinking	-6943
▁xifaniso	-6944
▁Masungulo	-6945
▁consumers	-6946
▁endhawini	-6947
▁Honourable	-6948
▁lamatsongo	-6949
▁operations	-6950
▁simekiwile	-6951
▁tlherisela	-6952
▁developmental	-6953
RC	-6954
mbha	-6955
rily	-6956
▁Vak	-6957
▁bad	-6958
iring	-6959
ously	-6960
▁Take	-6961
▁Vito	-6962
▁fine	-6963
▁ntse	-6964
buliki	-6965
jected	-6966
▁exten	-6967
▁hands	-6968
▁copies	-6969
▁envisa	-6970
▁fikile	-6971
▁foster	-6972
hundzulo	-6973
▁Example	-6974
▁linkage	-6975
▁trained	-6976
▁February	-6977
▁contrary	-6978
▁exchange	-6979
▁timinete	-6980
▁tinghozi	-6981
▁tivikana	-6982
▁amukeleka	-6983
▁mitsakelo	-6984
▁nkayivelo	-6985
▁vafambisi	-6986
▁represents	-6987
▁veterinary	-6988
▁langutisiwa	-6989
▁mihundzuluxo	-6990
▁partnerships	-6991
▁nkwetlembetano	-6992
▁Hu	-6993
----	-6994
band	-6995
heid	-6996
xihi	-6997
▁Can	-6998
▁Out	-6999
▁eho	-7000
▁ful	-7001
pping	-7002
rison	-7003
▁Lang	-7004
▁endl	-7005
▁fear	-7006
▁risi	-7007
henelo	-7008
▁Never	-7009
▁facts	-7010
▁mathe	-7011
▁scope	-7012
hlawulo	-7013
▁Access	-7014
▁Associ	-7015
▁Xiboho	-7016
▁ladies	-7017
▁listed	-7018
▁lulama	-7019
▁vonile	-7020
leriwile	-7021
▁Xiphiqo	-7022
▁covered	-7023
▁offence	-7024
▁Language	-7025
▁Mayelana	-7026
▁Nhlayiso	-7027
▁Regional	-7028
▁Tinhlayo	-7029
▁ndzingan	-7030
▁rhurhela	-7031
▁swipfuno	-7032
▁vehicles	-7033
▁vusiwana	-7034
▁kombisaka	-7035
▁portfolio	-7036
▁published	-7037
▁Ndzavisiso	-7038
▁background	-7039
▁designated	-7040
▁practition	-7041
▁switshunxo	-7042
▁tikhamphani	-7043
▁fikeleriwile	-7044
▁mikanerisano	-7045
▁vulavurisana	-7046
aly	-7047
col	-7048
reet	-7049
rete	-7050
urna	-7051
▁Key	-7052
▁clu	-7053
▁jus	-7054
▁khi	-7055
▁vup	-7056
chisi	-7057
isiwe	-7058
▁bear	-7059
▁hafu	-7060
▁item	-7061
▁mala	-7062
▁nkha	-7063
▁outs	-7064
afrika	-7065
ducing	-7066
▁anama	-7067
▁nhlay	-7068
▁pursu	-7069
kulorhi	-7070
▁anyone	-7071
▁mixavo	-7072
▁spirit	-7073
▁walowo	-7074
▁Contact	-7075
▁amongst	-7076
▁constru	-7077
▁granted	-7078
▁manager	-7079
▁married	-7080
▁involves	-7081
▁lerinene	-7082
▁relation	-7083
▁According	-7084
▁nxopaxopo	-7085
▁personnel	-7086
▁commercial	-7087
▁titsarisela	-7088
▁Registration	-7089
56	-7090
pid	-7091
▁TA	-7092
ingu	-7093
rust	-7094
▁Nxa	-7095
▁Vup	-7096
▁lea	-7097
▁top	-7098
cture	-7099
urban	-7100
▁CCMA	-7101
▁Dist	-7102
▁Grou	-7103
▁Last	-7104
▁join	-7105
▁sets	-7106
▁swia	-7107
▁Offic	-7108
▁sayina	-7109
▁vekela	-7110
bedlhele	-7111
▁Freedom	-7112
▁KwaZulu	-7113
▁answers	-7114
▁dignity	-7115
▁gingiri	-7116
▁invited	-7117
▁managed	-7118
▁methods	-7119
▁treated	-7120
▁vantima	-7121
▁benefici	-7122
▁original	-7123
▁Swivutiso	-7124
▁Vufambisi	-7125
▁fambiselo	-7126
▁organised	-7127
▁particulars	-7128
▁requirement	-7129
dom	-7130
yin	-7131
dvan	-7132
lish	-7133
▁Xip	-7134
▁xan	-7135
anana	-7136
aneni	-7137
elexo	-7138
ghted	-7139
ishes	-7140
labor	-7141
other	-7142
phasi	-7143
▁Enti	-7144
▁Name	-7145
▁Vate	-7146
▁bohe	-7147
▁tsho	-7148
foliyo	-7149
▁Clear	-7150
▁Crime	-7151
▁Mudya	-7152
▁Promo	-7153
▁Those	-7154
▁Xirho	-7155
▁integ	-7156
▁kaner	-7157
▁owner	-7158
▁rhavi	-7159
▁speed	-7160
diarity	-7161
▁Govern	-7162
▁behavi	-7163
▁houses	-7164
▁laveki	-7165
angameri	-7166
economic	-7167
▁Improve	-7168
▁michini	-7169
▁mimfumo	-7170
▁spatial	-7171
▁tshungu	-7172
▁xopaxop	-7173
hlayiselo	-7174
▁Exikarhi	-7175
▁Nhlamulo	-7176
▁Zimbabwe	-7177
▁disadvan	-7178
▁payments	-7179
▁susumeta	-7180
▁tihofisi	-7181
▁Mudyaxihi	-7182
▁Swiletelo	-7183
▁achieving	-7184
▁tinomboro	-7185
▁Hambileswi	-7186
▁Swikombiso	-7187
▁mabiliyoni	-7188
▁Milawumbisi	-7189
▁Minhlangano	-7190
▁Vusirheleri	-7191
OL	-7192
sh	-7193
vit	-7194
▁29	-7195
▁Ve	-7196
lest	-7197
mali	-7198
mati	-7199
tiso	-7200
▁bul	-7201
▁got	-7202
onses	-7203
tichi	-7204
verse	-7205
▁Char	-7206
▁voko	-7207
ngopfu	-7208
▁track	-7209
hungasi	-7210
▁Hikuva	-7211
▁Vuxaka	-7212
▁courts	-7213
▁rhurha	-7214
▁vuenti	-7215
▁Eastern	-7216
▁Institu	-7217
▁failure	-7218
▁offices	-7219
▁spheres	-7220
istrexini	-7221
sunguleni	-7222
▁Children	-7223
▁Southern	-7224
▁agencies	-7225
▁kusuhani	-7226
▁lavakulu	-7227
▁relative	-7228
▁schedule	-7229
▁consensus	-7230
▁generally	-7231
▁mufambisi	-7232
▁stability	-7233
ekajekisano	-7234
governmental	-7235
▁khumbhekaka	-7236
▁provisional	-7237
▁Nevertheless	-7238
▁achievements	-7239
▁phurayivhete	-7240
▁Participation	-7241
lg	-7242
ets	-7243
gum	-7244
kun	-7245
lon	-7246
org	-7247
ush	-7248
zil	-7249
▁LA	-7250
lipi	-7251
test	-7252
utri	-7253
▁aut	-7254
ronic	-7255
▁Kuna	-7256
▁came	-7257
▁code	-7258
▁kuce	-7259
▁sale	-7260
▁topi	-7261
humele	-7262
hurofe	-7263
▁flexi	-7264
▁input	-7265
▁lower	-7266
chayeri	-7267
vations	-7268
wakudya	-7269
▁Bindzu	-7270
▁disapp	-7271
▁koloko	-7272
▁motion	-7273
▁maximum	-7274
▁olovisa	-7275
▁plenary	-7276
▁receipt	-7277
chaviseki	-7278
▁Everyone	-7279
▁Mpfuneto	-7280
▁Sisiteme	-7281
▁cohesion	-7282
▁imported	-7283
▁matlhari	-7284
▁vilerisa	-7285
▁awareness	-7286
▁contained	-7287
▁indicated	-7288
▁influence	-7289
▁lebyikulu	-7290
▁promoting	-7291
▁reporting	-7292
▁substance	-7293
▁tilevhele	-7294
▁unemployed	-7295
▁kombisiweke	-7296
▁hundziseriwa	-7297
▁malulamiselo	-7298
▁rhangisiwaka	-7299
ewu	-7300
tch	-7301
body	-7302
haxi	-7303
lent	-7304
year	-7305
▁2.2	-7306
▁gen	-7307
▁ill	-7308
mbeki	-7309
orter	-7310
▁Have	-7311
▁Lemu	-7312
▁Well	-7313
▁Year	-7314
▁sani	-7315
▁tife	-7316
holder	-7317
▁delay	-7318
▁seats	-7319
▁Safety	-7320
▁actual	-7321
▁allows	-7322
▁factor	-7323
▁ntsako	-7324
▁option	-7325
▁tinhla	-7326
▁tolove	-7327
▁xelexo	-7328
chuchisi	-7329
ikhonomi	-7330
▁Another	-7331
▁Democra	-7332
▁Mitlawa	-7333
▁exactly	-7334
▁fambaka	-7335
▁morning	-7336
▁precise	-7337
▁science	-7338
▁setting	-7339
▁usually	-7340
▁Swakudya	-7341
▁Vuleteri	-7342
▁mpfuxeto	-7343
muneration	-7344
▁introduced	-7345
▁nhlayiseko	-7346
▁Entiyisweni	-7347
19	-7348
au	-7349
EKE	-7350
ITY	-7351
ero	-7352
kes	-7353
▁dp	-7354
fund	-7355
hati	-7356
▁Cla	-7357
▁Hen	-7358
▁haz	-7359
dende	-7360
omiso	-7361
onela	-7362
phiki	-7363
thisi	-7364
▁Anim	-7365
▁Both	-7366
▁ding	-7367
entage	-7368
hlenge	-7369
▁leyin	-7370
▁liter	-7371
▁nyany	-7372
▁author	-7373
▁tikhom	-7374
▁vekisa	-7375
▁vessel	-7376
▁Despite	-7377
▁Tourism	-7378
▁cincile	-7379
▁hileswi	-7380
▁mission	-7381
▁quickly	-7382
▁relates	-7383
migration	-7384
▁Xitiviso	-7385
▁difficul	-7386
▁mintlawa	-7387
▁pasisiwa	-7388
hotifoliyo	-7389
▁marketing	-7390
▁langutaneke	-7391
▁hundzuluxiwa	-7392
▁subsidiarity	-7393
▁Tinhlengeletano	-7394
ete	-7395
lot	-7396
uts	-7397
▁45	-7398
▁AU	-7399
ande	-7400
fumu	-7401
mbhi	-7402
pula	-7403
yara	-7404
▁Sep	-7405
▁lif	-7406
light	-7407
prise	-7408
▁Bank	-7409
▁List	-7410
▁demo	-7411
▁dplg	-7412
▁lova	-7413
anding	-7414
thwaso	-7415
xekeke	-7416
▁Chang	-7417
▁argum	-7418
▁extra	-7419
▁grate	-7420
▁karha	-7421
▁lungh	-7422
▁shown	-7423
▁solve	-7424
▁voice	-7425
▁Budget	-7426
▁Census	-7427
▁entire	-7428
▁expert	-7429
▁shared	-7430
▁vumune	-7431
▁vutshe	-7432
▁operate	-7433
▁ringani	-7434
▁Although	-7435
▁bohiweke	-7436
▁suitable	-7437
▁sensitive	-7438
▁recognised	-7439
▁declaration	-7440
▁vatirhisani	-7441
▁tiphurogireme	-7442
IA	-7443
TC	-7444
TER	-7445
YEN	-7446
hest	-7447
▁Aug	-7448
▁Two	-7449
▁vir	-7450
dable	-7451
earch	-7452
mbano	-7453
sight	-7454
zette	-7455
▁core	-7456
▁dead	-7457
▁tlha	-7458
▁yimi	-7459
ousing	-7460
terile	-7461
▁Eskom	-7462
▁Khapu	-7463
▁enhan	-7464
▁murhi	-7465
▁story	-7466
▁surna	-7467
▁taxpa	-7468
▁census	-7469
▁instru	-7470
▁kotile	-7471
▁listen	-7472
▁repeat	-7473
▁vukona	-7474
▁nkuriso	-7475
▁grateful	-7476
▁hetisisa	-7477
▁Mimbuyelo	-7478
▁delivered	-7479
▁intention	-7480
▁protected	-7481
▁ringanana	-7482
▁xifundzha	-7483
▁Mpfapfarhuto	-7484
▁MI	-7485
ason	-7486
hata	-7487
heri	-7488
many	-7489
meko	-7490
requ	-7491
vana	-7492
wula	-7493
▁PRO	-7494
▁Tha	-7495
▁Tsa	-7496
▁beg	-7497
ering	-7498
rowth	-7499
tocol	-7500
▁card	-7501
▁ever	-7502
tember	-7503
▁Refer	-7504
▁enfor	-7505
▁recre	-7506
▁vuyis	-7507
enerali	-7508
hanyisa	-7509
▁Gender	-7510
▁hoxeka	-7511
▁mbirhi	-7512
▁spread	-7513
▁xikepe	-7514
▁Provide	-7515
▁Support	-7516
▁consult	-7517
▁deposit	-7518
▁nyikile	-7519
▁pension	-7520
▁perfect	-7521
▁reduced	-7522
▁category	-7523
▁hetisiwa	-7524
ectiveness	-7525
▁Swilaveko	-7526
▁envisaged	-7527
▁inspector	-7528
▁muhlayisi	-7529
▁pregnancy	-7530
▁receiving	-7531
▁requested	-7532
▁addressing	-7533
▁lowuntshwa	-7534
▁vulavulaka	-7535
▁xintshunxo	-7536
▁differences	-7537
▁prioritised	-7538
▁translation	-7539
▁participating	-7540
UR	-7541
▁39	-7542
▁76	-7543
▁Ge	-7544
fana	-7545
hini	-7546
jini	-7547
mind	-7548
ober	-7549
umer	-7550
uter	-7551
visi	-7552
yers	-7553
▁4.1	-7554
▁Sha	-7555
▁cat	-7556
▁cut	-7557
▁dep	-7558
▁fix	-7559
▁mus	-7560
▁Madi	-7561
▁accu	-7562
▁regi	-7563
action	-7564
heleko	-7565
lihood	-7566
phikiz	-7567
tshuxo	-7568
▁audit	-7569
udicial	-7570
▁Henhla	-7571
▁failed	-7572
▁highly	-7573
▁katsak	-7574
▁rifuwo	-7575
▁tilula	-7576
▁vuyele	-7577
▁Vantima	-7578
▁Without	-7579
▁becomes	-7580
▁evening	-7581
▁finance	-7582
▁highest	-7583
hangalasa	-7584
kulukumba	-7585
▁pressure	-7586
▁resolved	-7587
▁Huvonkulu	-7588
▁September	-7589
▁Vugevenga	-7590
▁hambanile	-7591
▁kombisiwa	-7592
▁pfumalaka	-7593
▁recognise	-7594
▁responses	-7595
▁vadyuhari	-7596
▁collective	-7597
▁complaints	-7598
▁alternative	-7599
▁enterprises	-7600
▁facilitator	-7601
▁Infrastructure	-7602
ams	-7603
lha	-7604
lum	-7605
osi	-7606
▁55	-7607
▁NS	-7608
▁RA	-7609
ands	-7610
gira	-7611
selo	-7612
sile	-7613
yond	-7614
▁1.3	-7615
▁Bra	-7616
▁Col	-7617
▁hea	-7618
▁red	-7619
enses	-7620
lenge	-7621
qhing	-7622
tweni	-7623
▁1993	-7624
▁Pfum	-7625
▁andz	-7626
▁city	-7627
ongeni	-7628
roniki	-7629
▁Again	-7630
▁Their	-7631
▁avany	-7632
▁enorm	-7633
▁fraud	-7634
▁kumis	-7635
▁matsa	-7636
entific	-7637
▁Review	-7638
▁basisa	-7639
▁phikiz	-7640
▁prefer	-7641
▁scheme	-7642
▁worked	-7643
ongomiwa	-7644
▁contemp	-7645
▁farming	-7646
▁helping	-7647
▁manyala	-7648
▁withdra	-7649
▁Senthara	-7650
▁declared	-7651
▁movement	-7652
▁vusimeki	-7653
▁yourself	-7654
▁Fisheries	-7655
▁celebrate	-7656
▁emergency	-7657
▁geographi	-7658
▁languteka	-7659
▁nkucetelo	-7660
▁voluntary	-7661
▁vurhumiwa	-7662
▁fikeleleka	-7663
▁hetisekeke	-7664
▁xitsundzuxo	-7665
▁strengthening	-7666
US	-7667
cade	-7668
cked	-7669
ergy	-7670
iter	-7671
leto	-7672
▁3.2	-7673
mbalo	-7674
xirho	-7675
▁situ	-7676
ongori	-7677
▁drawn	-7678
▁exiko	-7679
▁khexe	-7680
▁users	-7681
sungula	-7682
▁Animal	-7683
▁Energy	-7684
▁Struct	-7685
▁herile	-7686
▁senior	-7687
▁spouse	-7688
▁tatiwa	-7689
▁ongoing	-7690
▁options	-7691
▁release	-7692
▁Research	-7693
▁makhombo	-7694
▁mphamelo	-7695
▁ntshembo	-7696
▁released	-7697
▁reported	-7698
▁vevukisa	-7699
▁behaviour	-7700
▁carefully	-7701
▁inclusive	-7702
▁promotion	-7703
▁religious	-7704
▁bumabumela	-7705
▁fikelerile	-7706
▁interested	-7707
▁swikweleti	-7708
▁Association	-7709
▁Migingiriko	-7710
▁arrangements	-7711
▁introduction	-7712
tirhisiwankulu	-7713
▁documentation	-7714
▁langutisisiwa	-7715
▁makunguhatelo	-7716
▁Administration	-7717
▁Swifundzankulu	-7718
IL	-7719
ISO	-7720
ire	-7721
nes	-7722
vun	-7723
▁Ci	-7724
▁Im	-7725
walo	-7726
wang	-7727
wenu	-7728
▁Tas	-7729
▁nur	-7730
▁rhu	-7731
atory	-7732
dency	-7733
hluri	-7734
phone	-7735
where	-7736
▁BRIC	-7737
▁THAT	-7738
▁Tind	-7739
▁dedi	-7740
▁flow	-7741
▁kept	-7742
▁maka	-7743
▁reti	-7744
▁slow	-7745
▁tibu	-7746
cators	-7747
tarata	-7748
▁Phase	-7749
▁drive	-7750
▁enqui	-7751
▁incen	-7752
▁items	-7753
▁nguva	-7754
▁spent	-7755
▁truth	-7756
▁xavis	-7757
lamente	-7758
phakeri	-7759
▁August	-7760
▁Growth	-7761
▁bohaka	-7762
▁phases	-7763
▁Control	-7764
▁Perhaps	-7765
▁focused	-7766
▁katsiwi	-7767
▁lessons	-7768
▁realise	-7769
▁swimila	-7770
▁Building	-7771
▁humeleli	-7772
▁tekiweke	-7773
▁varhumiwa	-7774
andzelerisi	-7775
▁disability	-7776
▁permission	-7777
▁corporation	-7778
▁effectiveness	-7779
▁recommendation	-7780
..	-7781
ja	-7782
ETA	-7783
lit	-7784
▁74	-7785
ator	-7786
fare	-7787
gidi	-7788
yizi	-7789
▁His	-7790
▁MEC	-7791
▁Pan	-7792
▁xia	-7793
▁Food	-7794
▁base	-7795
▁hung	-7796
▁khor	-7797
▁paka	-7798
▁rail	-7799
▁seem	-7800
▁sold	-7801
▁thus	-7802
▁voxe	-7803
ctober	-7804
handzi	-7805
hawuri	-7806
▁etind	-7807
▁lines	-7808
▁urban	-7809
ability	-7810
▁Import	-7811
▁belong	-7812
▁boxiwa	-7813
▁chance	-7814
▁places	-7815
▁average	-7816
▁closely	-7817
▁lwandle	-7818
▁ntshamo	-7819
▁Describe	-7820
▁Khansele	-7821
▁Nghenisa	-7822
▁diseases	-7823
▁informal	-7824
▁lamakulu	-7825
▁occasion	-7826
▁swidingo	-7827
▁vekiwile	-7828
▁yitsongo	-7829
▁Nxaxamelo	-7830
▁apartheid	-7831
▁dangerous	-7832
▁mapfhumba	-7833
▁definition	-7834
▁vulnerable	-7835
▁manufacturing	-7836
15	-7837
DF	-7838
gwe	-7839
hop	-7840
let	-7841
phu	-7842
ssi	-7843
▁ST	-7844
karh	-7845
sese	-7846
tisi	-7847
▁det	-7848
anced	-7849
eriwi	-7850
krasi	-7851
rance	-7852
undlo	-7853
vants	-7854
▁Pers	-7855
▁emin	-7856
leleka	-7857
liance	-7858
misoko	-7859
telela	-7860
▁align	-7861
▁green	-7862
▁rapid	-7863
isisiwa	-7864
tablish	-7865
tsoniwa	-7866
▁Family	-7867
▁System	-7868
▁concer	-7869
▁kusuka	-7870
▁terror	-7871
▁vuyela	-7872
▁wonder	-7873
▁defined	-7874
▁element	-7875
▁nkanelo	-7876
▁nkomiso	-7877
▁tihlamu	-7878
▁	-7879
a	-7880
e	-7881
i	-7882
n	-7883
o	-7884
t	-7885
l	-7886
s	-7887
h	-7888
u	-7889
r	-7890
k	-7891
w	-7892
m	-7893
d	-7894
y	-7895
c	-7896
v	-7897
g	-7898
f	-7899
p	-7900
.	-7901
b	-7902
x	-7903
,	-7904
z	-7905
T	-7906
A	-7907
I	-7908
N	-7909
S	-7910
M	-7911
H	-7912
'	-7913
P	-7914
K	-7915
0	-7916
C	-7917
1	-7918
L	-7919
-	-7920
D	-7921
E	-7922
W	-7923
j	-7924
V	-7925
2	-7926
R	-7927
X	-7928
:	-7929
q	-7930
B	-7931
O	-7932
)	-7933
?	-7934
(	-7935
F	-7936
3	-7937
9	-7938
U	-7939
G	-7940
4	-7941
5	-7942
Y	-7943
;	-7944
6	-7945
8	-7946
7	-7947
"	-7948
/	-7949
J	-7950
!	-7951
Z	-7952
%	-7953
Q	-7954
	-7955
&	-7956
*	-7957
[	-7958
@	-7959
]	-7960
_	-7961
\	-7962
’	-7963
=	-7964
|	-7965
é	-7966
•	-7967
+	-7968
#	-7969
$	-7970
⁄	-7971
‐	-7972
£	-7973
â	-7974
í	-7975
`	-7976
¢	-7977
á	-7978
©	-7979
–	-7980
„	-7981
è	-7982
ô	-7983
^	-7984
	-7985
€	-7986
{	-7987
}	-7988
	-7989
Ã	-7990
ç	-7991
ï	-7992
ó	-7993
ö	-7994
̄	-7995
̧	-7996
