.
,
the
of
and
to
in
a
noma
or
kanye
for
;
is
that
The
be
ukuthi
on
with
by
as
are
futhi
will
any
an
at
this
from
have
not
must
has
was
uma
you
which
may
it
South
kumele
we
I
ukuba
A
our
ukuze
other
all
Act
been
who
their
Afrika
were
person
also
terms
:
Council
lapho
y@@
-
African
its
abantu
w@@
Africa
z@@
umuntu
goods
if
khona
kakhulu
b@@
phakathi
i-@@
Uma
s@@
such
S@@
This
consumer
-@@
into
he
your
can
l@@
kw@@
services
We
es@@
ngendlela
kanti
section
they
ngaphandle
kodwa
one
ng@@
public
within
National
In
isicelo
government
ngesikhathi
as@@
It
L@@
application
ab@@
kufanele
time
ku@@
M@@
his
people
these
ay@@
en@@
B@@
national
al@@
should
more
information
N@@
no
mayelana
when
in@@
isikhathi
un@@
but
imali
members
ez@@
out
form
provincial
njengoba
after
el@@
umsebenzi
W@@
n@@
ang@@
new
e@@
e-@@
e
kube
service
two
If
ngaphansi
an@@
i@@
made
izimpahla
m@@
subsection
development
do
had
would
u@@
use
i
than
business
said
is@@
where
?
legislation
ela
us@@
under
being
K@@
kahle
only
those
noku@@
ing
zonke
before
Ng@@
office
us
umthetho
lokhu
kuphela
Constitution
az@@
Commission
through
iz@@
oku@@
there
year
eng@@
Executive
njeng@@
D@@
indawo
police
ey@@
about
ing@@
am@@
A@@
up
work
E@@
I-@@
between
over
ngenxa
R@@
Department
ed
I@@
supplier
ukusebenza
Mthetho
order
number
izinto
Uku@@
T@@
on@@
agreement
imisebenzi
ngaphambi
years
take
Y@@
member
O@@
so
her
right
em@@
endaweni
make
including
suspects
ngokuthi
Lokhu
lokho
eb@@
ung@@
wonke
them
yimuphi
yoku@@
lw@@
ulwazi
country
U@@
ol@@
water
process
required
President
uhlelo
ensure
Parliament
following
kazwelonke
well
k@@
C@@
P@@
areas
ob@@
amandla
state
loMkhandlu
ne-@@
ukwenza
court
indlela
provide
G@@
kaZwelonke
os@@
Minister
no@@
date
iy@@
ngoku@@
eNingizimu
system
om@@
responsible
days
ele
respect
contemplated
F@@
kahulumeni
means
against
phansi
t@@
area
um@@
yini
Mr
ngokwemibandela
es
er
loku@@
il@@
matter
management
property
aw@@
uku@@
used
u
support
three
Application
bese
im@@
ezing@@
period
eni
economic
land
Z@@
ngayo
kabusha
H@@
yonke
each
ong@@
ak@@
Assembly
kokuba
local
okung@@
o
apply
o@@
ow@@
uy@@
ub@@
isa
nje
amazwe
yiziphi
ezin@@
1
emva
ate
some
Isicelo
permit
first
ul@@
registration
province
ala
uz@@
need
umthengi
kum@@
ne@@
kusho
ib@@
ama-@@
ad@@
iqhaza
le
functions
g@@
ye-@@
ula
during
supply
access
then
zoku@@
koku@@
Government
nanoma
ezindaweni
2
law
ag@@
ifomu
ath@@
ise
nez@@
si@@
ers
okumele
s
c@@
financial
There
kunoma
ile
soku@@
programme
ed@@
Board
available
njalo
maqondana
many
place
Cape
impahla
Service
name
set
part
emuva
,@@
notice
esigabeni
se@@
amasevisi
authority
social
be@@
p@@
ngalo
both
further
my
kuy@@
without
case
kung@@
persons
bonke
re@@
abang@@
E
policy
omunye
subject
ayo
elwa
she
able
oPhethe
another
Provincial
isimo
d@@
provided
To
am
aph@@
An
You
protection
wa
relevant
what
necessary
certificate
Bill
amanzi
izwe
ngemuva
5
esi@@
abab@@
muntu
V@@
community
rights
ka
3
abasolwa
eka
Iz@@
30
isivumelwano
could
Republic
ac@@
Kw@@
kuz@@
phambili
resources
does
Um@@
r@@
include
very
kwez@@
These
regard
way
lowo
Noma
Ab@@
eziningi
h@@
like
amalungu
a@@
report
All
iwe
No
nab@@
shall
day
ation
ahl@@
izindawo
aku@@
most
iyiphi
ezweni
yez@@
esikhundleni
izindlela
umphakathi
iswa
umphakeli
sing@@
security
document
baz@@
yakho
me
lapha
programmes
ale
we-@@
ngokw@@
kulo
vehicle
kanjalo
sikhathi
f@@
oz@@
delivery
akh@@
t
woku@@
Public
When
yikuphi
okw@@
established
referred
y
issued
bab@@
elwe
siz@@
kwi-@@
As
whether
Chief
ini
enze
suspect
kuyo
kwe-@@
particular
nom@@
communities
ase@@
ana
Development
international
eke
interest
meeting
4
kub@@
ated
uka
Police
registered
izimali
Le
000
continue
manner
udaba
ilungelo
same
eli
amabili
ik@@
human
kwabantu
av@@
activities
ngaphakathi
ezinye
They
angase
ash@@
ngeke
sector
izinhlelo
various
Durban
J@@
ika
ane
's
legislature
accordance
ngcono
ama
him
age
enza
bay@@
because
kul@@
abasebenzi
ating
education
ikakhulukazi
ngokushesha
and@@
way@@
ch@@
coastal
arrested
ikh@@
6
labo
yethu
ngenhloso
ith@@
effect
children
world
eth@@
ngoba
conduct
countries
taken
uhulumeni
nokuthi
ar@@
trade
purposes
months
zimpahla
kumelwe
parties
prescribed
ic@@
ziy@@
tax
Deputy
v@@
capacity
ezimbili
society
S
er@@
full
together
And
provision
payment
ig@@
aban@@
id@@
sokuthi
nezinye
lezo
least
He
azi
ekh@@
training
ku-@@
komthetho
industry
lethu
conditions
Member
it@@
imithetho
en
kusukela
now
uMkhandlu
power
ibe
site
iph@@
ezis@@
C
crime
Heritage
abe
yalo
zikahulumeni
.@@
ek@@
O
kwab@@
control
quality
incwadi
bas@@
th@@
consumers
eph@@
nang@@
transaction
isi
end
enkulu
weni
Kodwa
kukhona
ali
u-@@
zabo
four
amathuba
charge
kun@@
In@@
kwenziwe
izinga
amaphoyisa
omusha
inani
women
written
five
dis@@
kuzo
For
esigatshaneni
documents
ngabe
provides
Court
aba
language
lo
yisiphi
executive
kwezimali
address
bang@@
health
emhlabeni
nase@@
eku@@
abaz@@
nge-@@
company
esing@@
wez@@
effective
promote
official
private
umhlaba
register
le-@@
Road
ok@@
complete
li@@
action
ani
own
at@@
matters
ubufakazi
eg@@
yi-@@
political
wayo
submit
yase@@
izinsuku
know
uM@@
party
igama
specific
requirements
10
alo
ezithile
nam@@
status
held
Afrikha
zing@@
efanele
old
last
kuze
kus@@
determined
wethu
amount
extent
yeningi
give
ates
20
abo
provisions
cannot
if@@
includes
different
ev@@
leyo
ku
ap@@
possession
while
we@@
iza
high
2@@
paid
per
found
nemisebenzi
important
given
sesifundazwe
Am@@
ziz@@
group
sakho
yiluphi
athi
uth@@
amb@@
request
od@@
enkantolo
ukusetshenziswa
change
emthethweni
man
staff
received
abas@@
role
abanye
economy
ukuthola
yabo
amalungelo
kule
project
licence
wesifundazwe
leso
Committee
aq@@
Uhlelo
kwanoma
yakhe
j@@
issue
account
iswe
just
did
next
eThekwini
life
bal@@
money
Premier
ihl@@
level
having
forms
Officer
isinqumo
special
kubantu
oy@@
issues
enye
copy
result
good
ibhizinisi
working
ban@@
uph@@
sonke
general
basis
sel@@
performance
ababili
Park
child
ling@@
growth
yiliphi
how
KwaZulu-Natal
powers
certain
ona
icala
ngab@@
q@@
iv@@
end@@
D
Any
Affairs
purpose
past
kwalo
interests
still
kuph@@
ndawo
emphakathini
possible
anga
siy@@
done
ngokuvumelana
ting
izidingo
Section
'@@
projects
non-@@
house
oph@@
isaziso
se-@@
kom@@
al
related
course
Management
anda
value
ngaso
le@@
building
come
ngez@@
izindaba
appointed
ze-@@
ngonyaka
ezi@@
act
ethile
State
lwe-@@
less
Th@@
eM@@
ube
B
already
poverty
applicable
Im@@
elibhekele
sigaba
Lo
ukuz@@
nes@@
again
uk@@
ph@@
elithi
wase@@
improve
kwamanye
permanent
circumstances
due
assist
lo@@
SAPS
konke
legal
T
bank
abaningi
among
okungenani
plan
zethu
measures
kwesikhathi
ts
ola
esikhathini
unless
ngazo
reasonable
Is@@
corporation
ingxenye
ehl@@
alwa
etha
Services
facilities
environment
appropriate
ec@@
ukub@@
Umuntu
City
ations
long
kwenziwa
heritage
kuye
izimoto
schools
UM@@
municipality
ov@@
determine
opportunities
get
olwa
/@@
letter
Fakela
lezi
Agency
okh@@
Amaphoyisa
free
paragraph
nas@@
approved
involved
departments
ukuqinisekisa
relating
implementation
SARS
ye@@
18
olung@@
nature
nabo
Cabinet
go
Uhulumeni
ekela
contact
based
officer
kwabo
sh@@
ngom@@
kwayo
Centre
centre
U
needs
ilungu
nem@@
lom@@
institutions
amacala
term
until
omhlaba
zabantu
waste
zin@@
sis@@
ngosuku
administration
data
af@@
establish
But
!
kwaku@@
ama@@
Gcwalisa
Complete
Province
infrastructure
imininingwane
nokw@@
Commissioner
wab@@
Kumele
led
maintenance
back
ekile
Abantu
12
completed
intela
ukuya
eliphezulu
omkhulu
school
ies
kwakhe
izinyathelo
ent
ezib@@
investigation
help
ro@@
ehhovisi
material
ngokulandela
stolen
2007
want
submitted
kwem@@
price
11
ngo
manje
therefore
home
Yobulungisa
making
nazo
amaningi
inqubo
behalf
ud@@
Tribunal
kancane
website
either
kungenzeka
pay
nawe
Members
7
ngakho
appointment
tr@@
languages
down
x@@
took
eminyakeni
lonke
kokuthi
kanjani
o-@@
yom@@
21
road
kwabathengi
statement
izimo
require
close
similar
ohl@@
call
Submit
decision
election
IN@@
see
okuz@@
eling@@
Africans
Schedule
(@@
eside
here
ngqo
skills
ukw@@
body
zez@@
esiPhezulu
eza
identity
bez@@
current
elele
kuya
amanye
natural
open
around
ukela
put
sez@@
kwam@@
approach
50
However
Njengoba
become
SA
ings
Ngesikhathi
eziz@@
large
fact
duties
applicant
aya
market
even
og@@
kulesi
imvume
1999
Registrar
additional
lez@@
kh@@
elela
3@@
okwenza
criminal
every
oba
zomphakathi
wesicelo
oth@@
return
ush@@
review
small
akwazi
kuwo
levels
iminyaka
sib@@
regarding
yokuthi
Crime
usizo
onke
increase
ezintathu
upon
uhl@@
investment
foreign
today
ef@@
ish@@
esh@@
ine
wakhe
okukhulu
komhlaba
kwemisebenzi
Un@@
kubandakanya
citizens
ene
ngemva
ted
kwethu
ina
lesicelo
potential
awo
ule
otherwise
okwenziwa
amba
igunya
import
any@@
esis@@
okufanele
considered
fee
usa
perform
m
umbiko
eq@@
ezifana
egameni
Amalungu
systems
P
sakhe
addition
kwalokho
15
once
Health
nganoma
isitifikedi
Western
uza
sin@@
ney@@
nabantu
family
exercise
25
bes@@
Abasolwa
Ukuze
lolu
omphakathi
premises
MEC
ezehlukene
ant
angeke
regional
That
young
say
Office
receive
resolution
abathengi
budget
Town
naye
ind@@
products
medical
provinces
procedures
esin@@
At
especially
isayo
event
Lapho
approval
Education
direct
som@@
9
better
eki
ngokuphelele
planning
M
sokuba
eziy@@
Umthetho
force
proof
situation
OF
ah@@
ngo@@
ugesi
elayo
usuku
impact
function
off
ingane
or@@
st@@
ethu
taking
six
ukusebenzisa
ePhalamende
kwawo
major
committee
ukuph@@
motor
credit
aza
previous
ir@@
month
across
sas@@
)
lakhe
umela
ukul@@
base
income
applies
directly
liy@@
8
ka-@@
ngum@@
int@@
2005
oq@@
much
ukung@@
away
challenges
justice
uNgqongqoshe
baseNingizimu
firearm
standards
ukh@@
jikelele
vote
ngaphezulu
media
ic
environmental
common
elo
evidence
okub@@
offer
consideration
ukufinyelela
changes
base@@
nama-@@
details
uMthethosisekelo
yab@@
develop
oMkhandlu
cases
marriage
uq@@
nomthetho
ike
United
ezikh@@
eleni
nen@@
complaint
concerned
kwaba
ngokuhambisana
iq@@
municipalities
Siy@@
amagama
ezi
research
iqembu
esikhulu
Provinces
efanayo
hlelo
above
armed
sil@@
care
oc@@
opportunity
department
emb@@
developed
immediately
amakh@@
results
establishment
Sh@@
eziphathelene
others
million
uKhomishane
ben@@
framework
High
uc@@
ka@@
emsebenzini
iso
capital
nendawo
association
present
abh@@
risk
osh@@
elin@@
inkampani
azo
Chairperson
basic
ngokusemthethweni
employment
tender
kuleli
daba
rate
elelwa
Lesi
izingane
namanye
lisho
60
ngem@@
existing
UMkhandlu
a-@@
abahl@@
Yebo
isiwe
okunye
phambi
ethi
amaqembu
yis@@
komphakathi
wakho
processes
akw@@
ug@@
kulowo
assistance
izicelo
zaseNingizimu
inkantolo
Local
wal@@
Corporation
nearest
declaration
remain
izin@@
kuleyo
team
ar
lokuthi
kwempahla
consultation
ukudla
est
umsolwa
enter
elinye
Q@@
zib@@
zokusebenza
energy
conducted
entsha
olo
lesi
signed
endlini
wana
nalokho
36
kwebhizinisi
reasonably
yabantu
waseNingizimu
tions
operation
imigomo
attend
towards
proceedings
kuchazwe
Kuy@@
second
vehicles
board
komnotho
atholakala
pl@@
using
Kh@@
Isigaba
osebenza
ukwakha
General
peace
line
esiz@@
impilo
iya
future
meet
ezezimali
reports
going
U-@@
beng@@
nokunye
Justice
fish
emergency
contract
question
ngumthetho
Our
Unit
izwa
few
soon
wish
35
too
outside
ezim@@
yaseNingizimu
ekwa
practice
eyay@@
nawo
wePhalamende
nezin@@
station
ngokusebenzisa
re-@@
umnotho
bethu
amakhono
eNkantolo
e:
practices
Trade
head
strategy
imoto
rules
Kun@@
zi@@
wathi
kwazo
ngale
Dr
Revenue
Fund
cost
ngam@@
identified
nayo
nokwenza
defined
aka
ase
olu@@
Yonke
lab@@
olunye
elelwe
yo@@
ot@@
yem@@
expected
als
liz@@
Kapa
ally
imiphumela
responsibility
benefit
uli
violence
ngiy@@
benefits
efforts
Speaker
ize
okun@@
production
ukuth@@
evela
times
Rights
elikhulu
Futhi
later
moon
soMthetho
isibonelo
birth
yokuhlala
live
baph@@
food
comply
ia
amazinga
kulabo
create
uke
kukh@@
think
democracy
yokwenza
op@@
eceleni
progress
elis@@
whom
called
abal@@
UNgqongqoshe
amathathu
l
death
key
men
supplied
amaph@@
wase
kwamanzi
1@@
samaphoyisa
ngokuphathelene
ezingeni
yomphakathi
groups
kwes@@
una
ezinsukwini
ebh@@
13
atha
beb@@
democratic
fishing
amabhizinisi
wom@@
institution
sites
Lezi
dl@@
allocated
labour
ngen@@
reference
seb@@
activity
umb@@
was@@
ngamunye
kulezi
ukufaka
Zonke
ent@@
inter@@
currently
ekhona
yoMthethosisekelo
facilitate
inhlangano
One
kweminyaka
participation
40
writing
ingi
agreed
onga
zom@@
kabanzi
fully
el
isela
informed
Indawo
ade
Companies
After
owner
ses@@
commitment
wam@@
white
example
experience
intended
okuy@@
isikhalazo
uMongameli
elweni
nokusebenza
hl@@
ip@@
nob@@
Municipal
sase@@
legislative
zase@@
transport
ake
affected
bel@@
ezith@@
R
wenza
ukuhl@@
kwesimo
se
iLungu
kwamandla
okus@@
ukum@@
appear
adi
wendawo
ikhophi
West
charged
main
ngal@@
oni
zalo
ulwa
On
Yes
regulation
cash
uMnu
best
izindlu
amath@@
elana
lawo
policies
uthi
nokub@@
kwesigaba
failure
objectives
Security
context
ngokuqondile
ithi
kwezinye
ukukh@@
ethe
acting
ukuxhumana
International
municipal
connection
ngokubambisana
cause
no-@@
ngawo
allegedly
ence
requires
providing
ithuba
indima
inzuzo
isigaba
ngokomthetho
What
Municipality
et@@
k
air
yay@@
integrated
ezig@@
weeks
co@@
kwe@@
ibh@@
majority
administrative
known
kwezimpahla
Union
dispute
ebese
isikhundla
ngabantu
nezinhlelo
THE
organisation
UN@@
product
officials
lu@@
bath@@
point
SA@@
a:
electricity
ukwazi
ezaz@@
iqiniso
ist
7@@
angaphandle
ne
region
sustainable
yokw@@
obe
izingxenye
procedure
ngu@@
great
testing
charges
valid
Clause
Siz@@
agent
Ngaphandle
iNingizimu
eziph@@
kwemali
L
eminingi
traffic
certified
inyanga
N
achieve
ekhaya
amafomu
lin@@
transfer
bo@@
treatment
EN@@
esinye
She
ezintsha
nabanye
build
participate
constitutional
olun@@
words
amas@@
conflict
kudingeka
complainant
izinhlobo
UMongameli
problems
reported
90
plans
izindleko
imizamo
ulu
learners
Emva
ikwa
akhe
emazweni
Sky
abaph@@
poor
cr@@
labantu
ex@@
amadokhumende
Ch@@
apartheid
since
ngempumelelo
several
export
yiz@@
freedom
eye
Imali
exchange
focus
lem@@
nezinto
kwakho
imp@@
uhlobo
find
funds
esib@@
'
ezihl@@
uzi
lelo
safety
grant
UN
zibe
abafundi
athola
zem@@
p
isi@@
Information
individual
uMthetho
indoda
ubugebengu
yami
whose
efficient
31
ezimali
ethwe
duty
structures
ephathelene
rates
ili
marketing
managed
committed
esimweni
former
parents
eduze
equipment
third
kuhl@@
koMthethosisekelo
competition
listed
costs
week
yokusebenza
suppliers
wenze
continent
ie
black
field
6@@
over@@
komsebenzi
vessel
ised
umhlangano
agricultural
emisebenzi
ethwa
population
mhla
consent
lase@@
roads
committees
eminye
went
2008
eya
kulokho
andla
par@@
offence
except
inde
applied
kukahulumeni
izinhlangano
knowledge
lakho
ngaphezu
hope
uthole
according
specified
b
fl@@
funding
esibucayi
nezindawo
regulations
believe
eleka
ity
professional
represented
arrest
lutho
alleged
campaign
kwezin@@
kuhlanganisa
ur@@
yayo
ithenda
Gazette
msebenzi
Ang@@
kubo
proposed
abath@@
applications
ezingu
okufaka
supporting
be-@@
hlobo
ngaleso
4@@
ukungena
leaders
lung@@
meetings
nation
city
uhlaka
mthetho
Kazwelonke
ole
.g
eS@@
fr@@
45
district
ekwenzeni
iny@@
visit
esiph@@
yi@@
Umsebenzi
con@@
Manager
ability
amakhulu
compliance
deal
regarded
billion
integration
uleka
night
ANC
passport
ukusiza
phezu
ngisho
kud@@
up@@
ents
En@@
aye
nokung@@
kuhulumeni
kufaka
kumthengi
asked
Street
Apply
concerning
yokuqala
generally
soMthethosisekelo
aze
prior
alisa
zis@@
ep@@
representation
Bank
izinyanga
wesiFundazwe
njengokusho
accept
construction
eMkhandlwini
incidents
emithathu
et
read
bu@@
Njeng@@
res@@
wezimali
ezil@@
emibili
came
laws
akumelwe
bring
/
kwenzeka
aimed
oway@@
ye
Ministers
council
World
16
nakhona
uphawu
commercial
things
Kuz@@
ngasinye
limited
unit
residence
ekelwa
plant
ingozi
Ukw@@
illegal
Home
ebekwe
njengom@@
Ing@@
principles
ukwenziwa
annual
2004
view
passed
Akukho
Ph@@
akho
mining
ukuthuthukisa
ground
kuw@@
babe
Iran
amu
ators
arrangements
inda
oma
leli
Tr@@
eny@@
list
yawo
ziph@@
victims
authorised
housing
enz@@
isidingo
asi
ezinkulu
never
authorities
sections
sikh@@
esiFundazweni
kwendawo
leave
lwez@@
th
wukuthi
species
reason
scheme
lokuba
St@@
amancane
kulezo
ohlelweni
kwezinto
ants
cultural
actions
nasem@@
esikh@@
van
imb@@
ngubani
impumelelo
relations
unelungelo
emgwaqweni
boku@@
Constitutional
he@@
bl@@
inc@@
ngenye
makes
nendlela
So
loss
ukukhula
ukuphathwa
nokusetshenziswa
uba
granted
ous
Finance
ekelwe
Community
Forum
eN@@
eyodwa
physical
lal@@
unomphela
akwa
iwa
robbery
iw@@
esith@@
ena
global
isitatimende
reduce
nesikhathi
face
wem@@
aj@@
14
ngenhla
ezahlukene
ekele
ucwaningo
removal
living
lokuqala
copies
kosuku
aseNingizimu
agreements
ew@@
und@@
category
record
nalabo
Protection
morning
code
thi
ayin@@
la
kuka
abay@@
relation
nokuhl@@
okuthile
d
technical
Social
emihlanu
zikh@@
ikhona
emkhakheni
kwezwe
othile
nokuphathwa
aphinde
wena
removed
ach@@
namandla
kulokhu
bahl@@
nalokhu
andela
ame
kuqala
implement
provisional
yen@@
nezidingo
customer
izenzo
Ukukh@@
employees
promotion
5@@
located
appoint
delegation
ans
ufuna
reasons
okuph@@
Your
um
delivered
ors
nezindaba
akhiwo
IS@@
ase-@@
ters
semali
always
North
kuzoba
ngalinye
object
saseNingizimu
included
h
ti@@
Kung@@
nakho
item
HIV
Leli
mis@@
wentela
nohlelo
njengamanje
uze
nokuba
Nations
zil@@
ehambisana
grounds
Ilungelo
let
allow
okuth@@
ant@@
e-
nalo
governments
Part
sibe
gave
Ung@@
ezwa
ukubona
kwis@@
ekw@@
imiphakathi
sign
monitoring
enable
sesi@@
ij@@
ative
post
luz@@
elected
aziwa
oshwa
Supply
Two
published
izakhiwo
technology
bav@@
below
umoya
Al@@
continues
esifundazweni
bakwazi
ilo
hal@@
kwal@@
designated
kwenza
position
far
sengathi
zakhe
AM@@
nesimo
suspected
delegates
Other
yet
olw@@
abazali
mentioned
okuhl@@
nel@@
zombuso
traditional
attention
job
ment
whole
athwa
sent
River
ange
amukele
Ngenxa
names
hand
okukh@@
protect
defence
Umshwana
outstanding
siph@@
associated
message
improving
semvume
total
aware
Programme
F
uye
serious
emanzini
play
iNkantolo
kaHulumeni
ila
phezulu
ikela
Umsolwa
District
CC
sp@@
2002
AN@@
sem@@
ungu
ethemba
kalula
tion
ngumuntu
uv@@
asetshenziswa
tive
zaz@@
parts
description
themselves
iseni
izinkinga
customary
however
higher
questions
damage
nakw@@
ume
prevent
yesikhashana
ying
kwemithetho
ihhovisi
search
yim@@
AND
ukwaziswa
amaphepha
representatives
izinqumo
Once
sobhaliso
citizen
lob@@
Chapter
oyedwa
consistent
onto
Inhloso
previously
ukuthuthukiswa
jobs
SI@@
Registration
told
vacancy
mark
yanoma
particularly
itself
sezulu
isishayamthetho
wokuthi
yezin@@
Yenza
EM@@
success
ukulimala
ens@@
ebalulekile
ezincane
director
yes@@
bh@@
El@@
fair
yesigatshana
fire
anything
lokuvikelwa
okwaku@@
rather
zokw@@
kuka@@
ask
aso
keep
il
edlule
iko
kumuntu
Form
sesiFundazwe
imibuzo
Imisebenzi
Policy
omb@@
look
courts
left
proper
nezindlela
kamasipala
workers
yam@@
Agriculture
thank
often
Special
separate
ukuziphatha
ziv@@
ons
kuleso
Authority
bom@@
sal@@
akukho
eliz@@
eli@@
processing
elections
Economic
inga
yesigaba
ay
ukuq@@
crimes
nemali
yona
ehlukene
incazelo
hlangano
offered
initiatives
ens
produce
Em@@
akhona
ukheshe
House
utha
takes
low
remains
wan@@
idl@@
materials
RE@@
condition
opha
uMnyango
along
ukud@@
lula
ways
ekwe
Ex@@
izi
ary
ebe
lead
ILungu
Ms
ngas@@
Mandela
recovered
Isahluko
interventions
ukhetho
olwandle
isweni
UMnu
ngezin@@
encane
adopted
sure
kwabasebenzi
linked
of@@
liable
kwezinsuku
kabi
variety
zokuthi
Umnyango
i:
hhayi
finance
neminye
imikhakha
isele
ly
9@@
o:
ter
zikaHulumeni
okungenzeka
engaphansi
Manje
esithile
24
enziwa
uswa
ukus@@
iPhalamende
sokuqala
75
payments
light
obtain
kweziMali
yase-@@
nges@@
zindawo
dealing
ukuy@@
ngolwazi
kwamalungu
nkonzo
kushiwo
ilayisensi
hold
collection
driving
needed
ose
1998
maximum
efana
start
qu@@
receipt
likaMongameli
G
Environmental
sim@@
carried
asebenza
nokuph@@
sectors
operations
aki
okulandelayo:
10:00
declared
companies
id
Africa's
elilodwa
Ar@@
kaMasipala
abakh@@
izikhathi
for@@
kwe
ngokucacile
constitution
Isimo
ngokung@@
Summit
bokuthi
challenge
wabo
Labour
seng@@
appeal
enacted
ebusuku
Ama-@@
started
side
yob@@
anyone
orders
theft
okukhulunywe
sale
ndawonye
ising
consider
eziyisithupha
naleyo
Ngoku@@
learning
contribution
critical
share
lib@@
atsh@@
alternative
nalapho
eze
nohulumeni
organisations
indicated
facility
endawo
lives
zith@@
US
nomsebenzi
imikhiqizo
assigned
resource
kuba
nolwazi
ayela
accredited
primary
n
demand
Landmark
range
ukuphatha
lona
ekuseni
why
married
yimaphi
ulimi
isana
out@@
R1@@
problem
Where
sig@@
forward
ezela
flow
mission
might
ass@@
ngokub@@
man@@
Then
umenzi
olus@@
zig@@
ohlala
unywa
senze
wes@@
jurisdiction
saw
nguMkhandlu
300
strategic
offices
civil
fees
Ngakho-ke
Inspector
ezingu-30
personal
housebreaking
odi
victim
School
UKU@@
With
remuneration
ayis@@
namhlanje
kunesidingo
obtained
kwen@@
azisa
0
umbuso
murder
An@@
nguMongameli
ngokuph@@
impela
payable
kwezomnotho
abesifazane
amasu
isikhungo
abash@@
anc@@
amp@@
elib@@
Izindawo
amukela
nokukh@@
expenditure
bantu
unyaka
ement
ngiz@@
implementing
ithola
all@@
military
amanani
apha
representative
esifundeni
lis@@
Water
steps
ngokuba
card
ipha
God
imibiko
wele
decided
22
enga
engu
enziwe
yena
relationship
afanele
ngumthengi
masinyane
doing
etc
ethula
under@@
rural
ezibalulekile
kwamalungelo
ering
cishe
eyenziwe
yilungu
communication
followed
esig@@
kuqinisekiswe
NG@@
osi
abathintekayo
April
ej@@
UKhomishane
def@@
sun
elandelayo
nesicelo
naku@@
athole
original
situated
recent
owned
ordinary
abroad
himself
nesi@@
nyaka
Ngu-R@@
der
eB@@
serve
isho
applying
ten
design
son
ngezikhathi
Mnu
iselwa
displayed
yi
officers
recommendations
izikole
bul@@
Ukwenza
kwalezo
Br@@
com@@
kwisigatshana
Regional
advance
obala
kuv@@
ezifanele
performed
ax@@
dla
yendawo
cl@@
ekayo
kug@@
struggle
improved
animals
Ukuq@@
ekutheni
kuyona
ending
ofuna
seku@@
Director
intuthuko
Kanti
ond@@
umyalelo
EL@@
enzeka
izilimi
babo
engen@@
br@@
ezikoleni
numbers
disease
estate
becomes
Ilungu
izinsiza
spirit
East
kind
naw@@
umele
ling
izikhungo
Ub@@
ehlisa
anele
e?
described
ut@@
particulars
carry
New
emali
ndlela
ngenyanga
ich@@
s:
alwe
Please
regulatory
isikhala
kuth@@
Izin@@
ozi
Station
ulayo
34
INingizimu
kuso
plants
class
okusebenza
SADC
categories
ator
ago
Re@@
ance
ilanga
afaka
Basson
okulandelayo
abaf@@
ology
longer
Certificate
uny@@
c
ikwe
iningi
documentation
Ukufaka
dr@@
houses
determination
amabh@@
namalungu
seven
Bills
equitable
IC@@
.za
Tel:
amasiko
amalunga
g
ubh@@
ukwakhiwa
ukukhokhela
records
izigaba
hours
ch
ibuye
amane
lokwenza
Igama
type
les@@
emiphakathini
behind
ehla
ukug@@
red
ical
kwama-@@
kungaba
ngokungemthetho
waseThekwini
Inqubo
System
welcome
bem@@
Ukuph@@
page
kokw@@
ngokugcwele
deposit
hard
single
abag@@
41
izilwane
qubo
promoting
uphenyo
investigate
nobugebengu
oli
ngaphambili
requested
Kukhona
entitled
imibono
kubalulekile
samaGugu
esas@@
omdala
car@@
joint
wokuqala
ngezimali
maintain
sound
izinguquko
please
kuthi
ukubamba
azwa
19@@
sky
book
kunjalo
imibandela
nuclear
ery
ema
MTEF
iSekela
events
Amandla
omasipala
ehlala
ive
inombolo
esiy@@
Izinhlelo
Directorate
X@@
ohulumeni
nabasebenzi
ubuye
sihl@@
direction
decisions
short
kagesi
zawo
undertaken
olwazi
bakh@@
kwenye
abathathu
Y
Let
interested
developing
usebenza
isikweletu
kwalowo
ship
esil@@
esi
ngokuhlanganyela
allowed
Dube
driver's
obo
Izicelo
created
clause
Supt
anisa
lomsebenzi
Isi@@
inkinga
accepted
Ku@@
consumption
unity
units
sivumelwano
asela
arrests
oda
UMnyango
abane
wel@@
final
importance
yas@@
xusa
lizwe
youth
chief
ubudlelwane
esibhedlela
Ezinye
table
ezisemthethweni
yal@@
akha
nokuz@@
ulela
kwamacala
ered
wesiBhakabhaka
iba
qoka
namuhla
entered
ukuthatha
Sudan
leadership
China
ans@@
aphezulu
story
Mar@@
try
nokuv@@
ukun@@
de
1973
ambi
Dis@@
Ez@@
eziq@@
safe
Ngiy@@
renewal
ezimbalwa
ke
eight
zim@@
isikhulu
added
ve
angal@@
ukutholakala
Bonke
Honourable
ukuhlinzeka
UL@@
besifazane
Financial
urban
kwezindawo
offers
ian
abuse
kungakhathaliseki
ahamba
unyelwa
zal@@
continued
asem@@
zombili
lokuthola
suku
yemvelo
yoMkhandlu
early
involvement
clear
Zimbabwe
ukubhekana
2006
speak
industrial
minimum
became
loku
sikhundla
y-@@
1996
chairperson
gr@@
consists
okuchazwe
monitor
Training
emhlanganweni
ngokwesigaba
ehluleka
Ingabe
ist@@
esihle
comprehensive
inq@@
ad
nemigomo
individuals
sokw@@
specifically
Cup
udinga
okuthi
temporary
near
identify
deceased
di@@
represent
kohlelo
ks
Business
yabathengi
031-311
ayini
ngob@@
racism
woman
les
nomthelela
items
laba
kwasho
partners
ingabe
advice
27
23
eK@@
okwenzeka
ishayamthetho
ezikhona
NE@@
80
ehlukile
awula
womhlaba
produced
yase
omsebenzi
Do
web@@
computer
lokw@@
enzi
ngokusho
domestic
Kuvalwa:
mainly
unga
wo@@
Tourism
caused
ulwe
sid@@
Sihlalo
ophethe
ngokubhala
ukusukela
culture
Now
farm
actual
obugebengu
omthetho
spheres
sokubhalisa
governance
ukuvikela
stations
ekelele
nokwenziwa
amele
esivumelwaneni
esedlule
household
kuzona
isitifiketi
zob@@
waph@@
a?
simo
Isikhathi
animal
clearly
stage
households
zif@@
abasebenza
echazwe
intsha
ism
ezic@@
effort
iziphakamiso
Veterinary
Isitifikedi
lif@@
Ngokw@@
throughout
organ
nal@@
disposal
States
ikhasimende
ngohlelo
IM@@
directive
2010
Ukwakhiwa
decide
usually
izitshalo
heard
history
ezwe
iye
implemented
17
konyaka
objects
athe
48
assessment
ishwa
top
zezimali
released
seized
oqa
increased
nesigatshana
andakanya
forces
independent
AU
okuphatha
kwamazwe
active
wayeng@@
unfair
claim
grants
enc@@
entry
anikeze
responsibilities
1947
unlicensed
ard
baq@@
wona
wane
ezivela
kuma-@@
kwifomu
ukubonga
indigenous
isile
esemthethweni
yomhlaba
Magistrates'
assets
gender
evaluation
task
str@@
guidelines
zihl@@
employer
respective
ukuqhubeka
osemthethweni
eliseduzane
successful
Wonke
prescribe
.gov
inkululeko
ekugcineni
ities
Floor
zokwenza
eyedlule
Man@@
es:
izim@@
nalowo
ics
Aice
Wez@@
refer
2009
formal
qondo
lot
Ukuhl@@
iphinde
positive
ondo
iN@@
kolwazi
seed
Ulwazi
kuq@@
19
emp@@
28
eleke
obu@@
Hl@@
H
Land
ezif@@
wala
equality
ekuqaleni
pertaining
amaf@@
onsa
Treasury
osi@@
employed
izincomo
prohibited
nezimo
ever
alised
correct
ukuhlinzekwa
lokub@@
izinjongo
trans@@
imba
ukubhalisa
receiving
ngamandla
significant
las@@
February
iminyango
imboni
R1
ibona
izinhloso
kwelinye
informal
lokusebenza
zemfundo
manage
room
e's
ikwazi
aseb@@
trust
attacks
Consumer
bakhe
wase-@@
usho
impacts
ments
waw@@
drug
esisodwa
Well
0@@
umasipala
izinhlaka
siza
comes
Somlomo
strong
weziFundazwe
uses
mechanisms
dec@@
growing
intengo
entity
zomsebenzi
works
ma
akumele
Sin@@
emukela
zayo
uqala
aman@@
uxolo
owenza
sufficient
repealed
sifundazwe
itha
uku
isisa
citizenship
ukwehluleka
ends
amendment
car
functional
nokuthuthukisa
nama@@
indela
May
ver@@
deliver
June
judge
sen@@
komuntu
amended
bag@@
eh@@
ezayo
umlando
mhlangano
ezihamba
esiteshini
kwi-website
partnership
producer
Primary
ngalokho
envisaged
answer
izinhlanzi
nalezo
fill
kuhla
Bas@@
okud@@
Plan
adoption
NCOP
prevention
Con@@
and/or
Indlela
Pirates
zab@@
lik@@
ure
Ucingo:
afuna
met
database
pro@@
Izinto
acts
kusebenza
amehlo
businesses
amad@@
itsh@@
equal
kangcono
siq@@
inform
sokusebenza
ensuring
Sun
asha
kokuthola
uhlinzekela
Inkosi
izimpawu
fight
luy@@
Cha
objective
concern
tell
recognised
esizayo
othi
understand
giving
Okunye
Industry
ekeni
ishi
ushintsho
Language
SE@@
8@@
conferred
siphinde
s'
yin@@
okum@@
ukile
ende
nging@@
lamalungu
standard
kwenzeke
amazwi
iphi
Senior
ready
baf@@
policing
aqhubeka
suitable
amal@@
thereof
okuningi
saKwaZulu-Natali
ukukhokha
performing
personnel
akhiwa
Lolu
prepared
Some
ikhono
tourism
ou@@
ekusebenzeni
osiza
amongst
organised
izikhali
Metro
su@@
eligible
VAT
isakhiwo
imfundo
monthly
ets
Ukul@@
word
so@@
athatha
Amafomu
ethule
t-@@
title
alela
yimiphi
structure
amasosha
ars
55
ko@@
nezing@@
kwezinsiza
Pro@@
ourselves
ezilandelayo
Sicela
senior
indlu
reach
ukuphepha
co-operation
woMkhandlu
iqh@@
isizathu
ezindawo
ambo
vision
nokug@@
uthola
placed
electronic
climate
conservation
elekile
organs
ink@@
yisakhamuzi
cent
submission
ogwini
benze
sokwenza
kuc@@
cha
W
Konke
Ubu@@
pr@@
endala
increasing
ngokwanele
ezine
permits
ango
During
nomphumela
substantial
izifo
uN@@
onakala
eliy@@
1997
Orlando
designed
lwethu
aziyo
inkulumo
ice
pleased
wen@@
o?
emazingeni
multi-@@
ry
2006/07
negotiations
sezimali
rest
elwayo
uthe
the@@
esim@@
ches
neng@@
KU@@
aim
endimeni
Animal
zokuhlala
zimo
hamba
lokuph@@
de@@
12@@
umile
thing
pre-@@
ulile
ezifanayo
ukuhlola
ality
yenza
kush@@
ail@@
ton
sey@@
zas@@
ha@@
revenue
gives
nenqubo
att@@
achieved
developments
emisebenzini
peoples
Ukuv@@
dlu
ephakeme
unyelwe
quite
ngenjongo
engage
kuMkhandlu
Umhlangano
ukuv@@
izakhamuzi
abav@@
yokuphatha
odlule
kuyo@@
abi
response
Bay
amag@@
obligations
ezomnotho
ulisa
Umbiko
thought
Many
isebenza
changed
okuq@@
says
Import
components
March
eba
omba
ngenkathi
umphumela
Kul@@
ikeza
inspector
iswayo
aneni
1994
liv@@
okuv@@
imfucuza
aziswa
uqobo
uR@@
yebhizinisi
awareness
imigwaqo
sitting
coming
source
alis@@
KW@@
comm@@
-based
setting
per@@
self-@@
eziv@@
ongo
uS@@
nominated
Insp
kwi@@
hlangene
ers@@
impi
send
Abasebenzi
secure
imihlangano
kept
wanga
zone
size
handed
injury
wami
stop
io
okumelwe
owodwa
ful
Enquiries:
FIFA
comment
yomthetho
nokuth@@
visitors
asho
extension
odwa
DRC
nomthengi
ngu-@@
Amathenda
izivumelwano
war
ter@@
installation
older
emba
ngezizathu
ahla
indele
sethu
ada
eliwe
ngezindlela
500
ness
born
eda
ezindlini
ank@@
okwesikhashana
inqubomgomo
broadcasting
yokuba
ill@@
Inani
komunye
Prevention
Palestinian
nokutholakala
engeke
investigated
ebhaliwe
wum@@
employee
content
womphakathi
oke
oko
US@@
2000
nemibandela
ahlukene
eyenziwa
indeed
omuhle
enterprises
season
lack
don't
yokwakha
nesigaba
Par@@
imbela
ngomsebenzi
Resources
debt
union
Table
Israel
nezingane
ami
ekuph@@
EZ@@
isation
noMkhandlu
Bafana
isenzo
conference
esibhakabhakeni
igaba
identification
ofaka
sur@@
hlangothi
influence
wob@@
zik@@
kungekho
ucingo
ako
Trust
eliphethe
ayisithupha
recorded
zangasese
partnerships
kwezinhlelo
got
land@@
izincwadi
amakhophi
qhaza
zezin@@
yohlobo
wentando
yentela
ty
koMkhandlu
kuncike
alabo
distribution
contribute
ezimele
unable
ain
emfundo
uphinde
While
lebhizinisi
ngezinyawo
namakh@@
V
na@@
elal@@
okwakha
show
ony@@
ekiwe
29
remove
gas
uf@@
reporting
umklomelo
hospital
antshi
Ellis
subsections
ial
Foreign
wash@@
uNkulunkulu
abam@@
importer
imposed
statements
eBhodi
nemiphumela
kwezindlu
dagga
untu
spending
elements
ezingekho
ning
Control
Gr@@
measure
efficiency
diversity
ahlekelwa
esebenza
movement
yenziwe
ins@@
Association
ists
e-Afrika
uthaza
ID
Applications
zendawo
imported
ohlwini
effectively
honour
uluma
signs
comp@@
Mb@@
ezidingekayo
enforcement
Imithetho
sikazwelonke
eme
expertise
uNdunankulu
intervention
ezikhungweni
compulsory
Tax
lost
nol@@
zisebenza
alisation
po@@
siv@@
baboshwa
resolved
ukuc@@
akul@@
imi
crisis
turn
weNkantolo
paper
irrespective
nemithetho
abamnyama
yingxenye
sold
regulated
thus
nokwakha
qubomgomo
exist
indicate
kuphinde
IL@@
sea
nokun@@
ethi:
fanele
central
Imvume
asa
trends
elil@@
izingxoxo
nokud@@
cooperation
operating
nomphakathi
figures
uhlu
seats
andakanyeka
tor@@
effectiveness
ukwamukela
fails
follow
uqale
nathi
Every
amounts
iM@@
ngesaziso
hereby
brought
ri@@
invited
wabe
sikwazi
award
division
umbula
abaw@@
remaining
ze
TI@@
anayo
seek
regular
Free
Hospital
empowerment
26
akhiwe
ongeke
ently
ukuthengwa
White
returns
oya
70
wawo
inisa
col@@
submissions
avoid
nokuq@@
mean
repair
Mayelana
coast
Naisa
centres
nezikhungo
lesifundazwe
rec@@
urgent
Ithala
economies
permission
nezindleko
parent
ubudlelwano
From
nokul@@
kusetshenziswa
option
Imininingwane
Chiefs
izifundo
encourage
Mor@@
umkhumbi
zes@@
causes
te@@
Report
elith@@
kwale
ngayinye
bobabili
rehabilitation
edwa
Register
ngamalungu
Zondi
places
izizathu
alelwa
lic@@
okulindeleke
Mas@@
Nakuba
Israeli
pol@@
aphakathi
loyalty
sikahulumeni
Phakathi
yesivumelwano
drive
anti-@@
capable
isisekelo
ngempela
kwisigaba
ulekile
mat@@
introduced
qinisekisa
abadala
chaza
compl@@
umnyango
ezizimele
ikw@@
nezimpahla
stakeholders
Human
alandelayo
accounting
values
cover
link
biodiversity
residential
directors
akal@@
olub@@
ingqalasizinda
kutholakala
ish
esha
normal
Although
Only
Ukub@@
eliph@@
etsh@@
uhla
kulelo
supported
street
medium
er-@@
esingekho
os
uzwa
cooperatives
uB@@
naleso
series
kwemvelo
er's
ard@@
threat
abad@@
liph@@
qh@@
ezindlu
kukho
ungisa
olakala
wela
iS@@
isheke
little
laseNingizimu
bus@@
okug@@
ely
OM@@
ekhokhelwa
ngezinye
essential
ede
yonyaka
sub@@
draft
Bh@@
Loku
scientific
Is
seen
koGu
Ikh@@
isibhamu
namazinga
satisfied
abaphathi
target
marine
online
athile
zemisebenzi
20@@
ide
branch
prospective
began
Improvement
ties
avela
oshiwe
protected
looking
umkhakha
ezinhle
detained
wangaphandle
kwabanye
I-
lolo
izakhamizi
isinyathelo
empumelelo
wishes
dealt
Iqembu
izithombe
opened
Hall
asiza
sell
statistics
affairs
era
cont@@
nezinga
endleleni
test
religious
azise
afune
indirectly
umelela
targets
wokuPhathwa
yil@@
abanikazi
ih@@
ifaka
aqala
As@@
Inter@@
Ukun@@
overall
ier
wezin@@
indaba
imithi
racial
isilinganiso
bodies
occurred
umnikazi
ezelwa
angu
Ngaphezu
emnothweni
greater
ox@@
imithombo
bed@@
washo
amalungiselelo
Kwaku@@
okhokhelwa
discrimination
points
sphere
hlangana
K
ukuphakela
okul@@
izinkampani
IKhomishana
mandate
ST@@
ese
uw@@
angas@@
uliwe
ikezelwa
Southern
bilateral
kwel@@
ansela
Three
kuzwelonke
ezindabeni
resulted
ukuhambisana
nezinsiza
utho
targeted
Both
qembu
asisebenzi
aid
sk@@
kuhlelo
ukubambisana
ngokukhethekile
Mbeki
elikh@@
ekuq@@
BI-@@
ingxabano
ngemali
inxusa
ises
initiative
ayi
ungula
manufacture
eyo
bathole
kwalabo
izimboni
sub-@@
visited
isha
bed
isithunzi
via
unywe
kuk@@
stand
consequence
franchise
rel@@
tsh@@
nodaba
abenza
elihle
tional
noMthethosisekelo
Old
yibhange
hol@@
accompanied
okuqala
holding
beyond
Contact
isikh@@
ebekiwe
TH@@
rev@@
employers
njengoku@@
adl@@
akashela
ubaba
seeks
ishwe
kwezimo
isikhwama
izo
reduction
empi
sabantu
funda
aphuma
njengengxenye
abe-@@
abaq@@
choice
Kusukela
installed
promotional
ngokuya
ra@@
reg@@
okukhulunywa
ended
yemali
ngu
U-
lwe@@
yazo
hand@@
complaints
fixed
vume
nezinkinga
ukunikeza
kwakung@@
Research
articles
teargas
sesimo
wini
ithimba
detailed
oluz@@
agents
zokuqala
yokukh@@
AIDS
weba
shown
abancane
duration
ekuhl@@
ebhange
ING@@
competent
osha
ukuthengisa
Jikelele
Com@@
Be@@
fall
prices
cur@@
Administration
wakh@@
ns
proud
refund
scheduled
provider
belonging
izikhulu
Coastal
ashi
Uz@@
kwisishayamthetho
namacala
Science
nomnotho
adala
min@@
sokukh@@
enda
ezichazwe
Further
kokusebenza
sigatshana
launched
wazi
kwalokhu
nani
UMthetho
zokuphatha
processed
AB@@
obung@@
angen@@
ngokuhl@@
amagugu
forum
ngokukh@@
hearing
to:
mpahla
presence
ELO
ukuhlomula
Oku@@
markets
enhle
ziq@@
edi
Safety
walo
siqinisekise
umbono
elandelayo:
ubha
device
certificates
trained
According
addressed
ukuqeda
abambe
arms
owaw@@
Annual
namanzi
bendawo
lukahulumeni
dlulisela
expiry
wezwe
isebenzi
ombisa
AL@@
wanted
kusetshenziswe
agree
kob@@
kwezidingo
enywa
kubonakala
ephelele
Port
pass
art@@
off@@
zakho
lwezimali
1993
concerns
okudingekayo
normally
wokw@@
RC
okuxhumana
Team
izinqubo
ngaleyo
nguhulumeni
obun@@
raised
zinto
display
ukeka
ency
ezimayelana
beginning
Detective
obuchwepheshe
Ac@@
lun@@
reform
azile
ngokwenza
Group
sase-@@
alula
mas@@
Commercial
TO
kwiz@@
lil@@
ats
users
lomuntu
science
states
affidavit
expressed
itholakala
athwe
residents
olelwa
IsiKhulu
ngok@@
esiphezulu
waz@@
izikh@@
enhl@@
namakhono
kwesigatshana
letters
CHAPTER
kutholakale
yokub@@
limit
wag@@
investigations
ess@@
iki
PH@@
Declaration
buildings
pre@@
mantis
criteria
bezin@@
kokub@@
okuphathelene
looked
yokushayela
Sing@@
Kungathatha
planned
understanding
ebenzisa
establishing
kokubili
waba
azela
sokuph@@
aphansi
presented
now@@
ifa
iyo
game
friends
ukulwa
elect
shot
ngesandla
idokhumenti
ezikhundleni
okwazi
32
esikhathi
uDkt
AS@@
els
mali
efuna
izimpilo
travelling
ebhizinisi
umgomo
goal
aims
Ad@@
ekul@@
ownership
inikeza
ening
akub@@
ukush@@
release
lokufaka
yaso
athathe
phase
nos@@
oluth@@
improvement
okungen@@
ezihlobene
inspection
sample
ota
R2@@
imele
ukuvikelwa
engas@@
Each
undertake
isifundazwe
built
continuing
host
yisikhathi
lika@@
mar@@
allows
reflect
trial
ashwa
engozini
ulweni
effects
yokuph@@
Mal@@
ilwane
kokubonisana
amise
scene
patterns
ezulu
alise
kuthiwa
isiKhulu
bi@@
nge
father
okush@@
abahlala
sob@@
afake
Councils
solutions
uhambo
imo
naseku@@
disadvantaged
emvelo
empilo
leading
Sekela
ezingen@@
kwase
asebenzi
ezinyangeni
contained
engekho
operate
kwaleso
abona
outcomes
esihl@@
Ngaphambi
nentuthuko
Works
Kwez@@
edl@@
kokuq@@
ee
shows
prepare
est@@
edingekayo
nezinhlangano
imidlalo
offences
Di@@
yilo
isizwe
Ningizimu
facts
stability
ngezindaba
abaholi
Ingxenye
July
umqondo
participating
ngokuz@@
imvelo
komthengi
akhul@@
oM@@
English
fine
zokukh@@
Housing
ukuthula
enya
amasheke
occur
eNtshonalanga
kwabe-@@
eL@@
sion
4001
emigwaqweni
assisting
izithunywa
Kub@@
leader
ukuhlolwa
ulelwa
ukubulala
zezifundazwe
ore
sith@@
Darfur
neLungu
Sikh@@
hloko
37
Ngicabanga
izifundazwe
a-
49
olile
umel@@
yiyiphi
61
Asikho
controlled
behaviour
ezibekwe
umbuzo
ifundazwe
eliqinisekiswe
ekuqhutshweni
ingen@@
EMIA
ukusuka
alone
elile
note
encouraged
salo
Pr@@
hlinzeka
obizwa
ci@@
emahhovisi
carrying
ochazwe
idinga
amile
umba
inkokhelo
Constable
IPhalamende
inj@@
idi
esiv@@
aphinda
Sheduli
ajwayelekile
isibopho
nokuthuthukiswa
kubekwe
balance
ari@@
ours
recreational
EU
resolve
served
aqh@@
yokuq@@
yentando
Transport
Property
ukufa
wide
wathola
wood
difficult
analysis
entela
abangen@@
okuhlanganisa
sika
yokuziphatha
lwal@@
Freedom
uh@@
Reserve
Tender
hlangabezana
nokush@@
Convention
Umphakeli
oqwa
assaulted
aziso
17@@
ikheli
Xhumana
ome
proposals
Head
ithemba
athathwa
ombolo
ezind@@
benza
express
ukufunda
well-@@
supplies
olwe
ima
inhlobo
Se@@
representations
ekukh@@
mod@@
osomabhizinisi
voluntary
eningizimu
ebhalwe
soccer
kulolu
king
Sub@@
managers
yombuso
ayisa
Bo@@
collaboration
isevisi
abakhubazekile
lus@@
respond
Framework
isebenzisa
ezimakethe
petition
eMthethweni
zokuhl@@
allocation
Inombolo
Strategy
ngin@@
customers
Om@@
fakela
green
half
nale
nine
copyright
ezid@@
fu@@
ekub@@
solution
i-
died
bakahulumeni
earlier
existence
late
amathenda
ikomidi
moment
exercised
robberies
minutes
enjoy
regulate
sanitation
humanity
ayina
phrojekthi
ngokwezinga
oj@@
corruption
kan@@
kubathengi
Subject
wh@@
amaviki
amasha
afana
Natal
stadium
inside
elene
Director-General
ezingu-@@
ukele
Abe-@@
ekupheleni
move
constraints
Uphenyo
hambisana
fever
European
okuqhubekayo
CA@@
lemali
Project
zamazwe
inzalo
oshwe
nenani
oluthile
PL@@
ny@@
attempt
okho
nabaholi
Central
work@@
osebenzisa
ongoing
ast@@
amaphrojekthi
cons@@
abasha
ahle
Mod@@
ES@@
33
hlanga
noM@@
yenze
arising
ifunda
akhishwa
attempted
cwaba
76
izivakashi
advise
utshwala
ekwakheni
failed
factors
lord
yohlelo
esibekiwe
ulala
akuph@@
ite
kukhombisa
undertaking
esikhalisa
Ngabe
neph@@
begin
strengthen
nomhlaba
tim@@
hum@@
contain
By
okuvamile
isamba
Closing
hlanganisa
lokugcina
izing@@
ansi
Forums
okwamanje
Criminal
treated
ages
Ngiz@@
kwezinga
directed
Produce
receives
sets
lam@@
kwezimoto
yomuntu
ebizwa
bac@@
ngesimo
z
ngokum@@
debate
la@@
okuhle
kuKhomishane
ong
formed
ley@@
yesifundazwe
iNkosi
behl@@
icilelwa
guaranteed
ON@@
ukuqokwa
Sch@@
zoMthetho
mhlaba
positions
Mrs
enhance
weekend
filled
boy
ids
ovela
mcimbi
providers
closing
wang@@
HL@@
ande
ukubaluleka
ofanele
okuba
defect
Trans@@
portion
eKapa
okungase
ements
awun@@
kwaso
carbon
elig@@
governing
63
ezinga
ai
isithwalambiza
detectives
ear@@
eyilanga
ously
Asia
nezim@@
Promotion
referring
izidakamizwa
zazo
consequences
co-@@
akhiphe
uquko
vumelana
njengalokhu
olukh@@
dates
kufakwe
Omunye
strategies
kwami
lomthengi
oluph@@
ikisana
insolvent
subitem
students
esifanele
omnotho
Ngqongqoshe
learnership
om
presentation
baphinde
amar@@
penalty
recently
yokug@@
lower
umhl@@
&
usi
nokusebenzisa
SABC
worker
namasiko
Equality
non@@
owners
ukulingana
ababambe
Because
ithatha
ethulwa
bam@@
uJ@@
foster
launch
amash@@
aniswa
ecosystems
Export
afika
eziphezulu
Fr@@
composition
Car@@
sik@@
uni
elihl@@
ukugcina
Ifomu
somthetho
PA@@
asimende
zen@@
almost
expenses
kusengaphambili
elel@@
outcome
ikezwa
minor
feel
ngokus@@
ishini
aphela
goals
commencement
cancellation
played
ezimboni
ational
kuchaza
expand
rubber
ezamagugu
delegate
eliphansi
obh@@
air@@
umthwalo
qhubeka
nabas@@
ukuveza
qala
isane
milk
ukunyezwa
girl
ngezinto
conducting
ungiswa
eliseduze
He@@
emine
ombud
edolobheni
zesigaba
Mayor
aspects
players
kumphakeli
cwadi
fax
okwenziwe
achievement
ngesonto
ubula
izig@@
candidates
ikisa
saying
academic
raped
osa
indiva
ono
ophathelene
postal
kuthathwa
door
utsh@@
sc@@
confidence
educational
akhawunti
onipha
innovative
shares
on-@@
taxi
iselwe
budgets
zomthetho
esivela
kwakhiwe
likely
join
Kus@@
eyenza
ngokomlando
403
ukuvimbela
Mongameli
Khomishani
semthethweni
ons@@
umyalezo
ukulungisa
ungen@@
Beijing
entire
elisa
assisted
owenziwe
kwiGazethi
yokuth@@
drugs
selected
nokum@@
Pl@@
instruments
anikezwa
izibopho
noMthetho
Burundi
wife
ngabe-@@
nge@@
yaba
prize
cap@@
laboratory
angab@@
unc@@
asebenze
visual
eleli
zokuph@@
uleni
location
intelligence
ipasipoti
lobugebengu
emehlweni
Place
okubandakanya
liability
iXoxo
othintekayo
abela
attack
yesi@@
ecaleni
amabhange
town
participants
kuphi
ngokubona
regions
industries
kubh@@
uj@@
Institute
wokuhlola
diplomatic
Pretoria
paying
amend
changing
model
settlement
Everyone
shared
ahlang@@
ekho
lokuq@@
kwezinyanga
eyishumi
follows
wobandlululo
namazwe
emihle
nesibhamu
Company
ins
negative
schemes
ukuhamba
angena
harm
udlame
contains
aziwe
nase-@@
amuk@@
IBhodi
Noku@@
Women
step
oNgqongqoshe
yeMantshi
hulumeni
sokus@@
bona
principle
ngezinga
kwekh@@
yabasebenzi
ized
ukanisa
abanga
liquor
accessible
sidinga
expect
zokuhamba
hlaba
olusha
R3@@
anoma
andwa
Kodwa-ke
libe
umthengisi
embassy
driven
yama-@@
reality
emikh@@
base-@@
tly
J
actually
x
usebenzise
ukukhipha
kombuso
ngalokhu
hle
hla
acela
votes
yalokho
nqubo
Provide
ukushintsha
yilabo
iBhodi
ngokwesigatshana
2003
Frog
yokuthola
calling
exists
Thola
Its
amakhasimende
azwe
telephone
Toyota
ano
yezilwane
Ukusebenza
commended
conflicts
thousands
bad@@
handling
emikhulu
estimate
extend
qualifications
nemiphakathi
My
ungile
ombe
legislatures
nokuphatha
yilowo
yilapho
ain@@
ezintweni
Such
ukukhombisa
esiningi
engamele
isiphakamiso
underdevelopment
izolo
disability
kudinga
okokuqala
wa@@
lwabantu
depending
lomphakathi
kululeko
onom@@
approaches
lika
Umphakathi
tenders
amela
qualified
ejwayelekile
historic
ezinhlanu
eminyaka
fear
10@@
izibalo
amahhovisi
Ukud@@
generation
considerable
lokuphatha
kwalesi
cast
umkhankaso
kuNgqongqoshe
inhl@@
abahamba
following:
lalo
angi
abafuna
nokweba
ingase
remember
Ukuhlinzeka
fired
ngaphambilini
isithombe
trying
nini
uyo@@
ast
creation
ied
ically
kude
fields
i?
ezingane
kwecala
marked
custody
Black
fakelwa
ix@@
kwesivumelwano
voting
Mlaba
zabasebenzi
anzi
ambisana
obligation
ukusungulwa
beph@@
kwesi@@
Powers
esisha
impose
falls
Nt@@
Ngakhoke
Colonel
Investment
eledlule
endula
lub@@
anj@@
Joint
ines
kokunye
ukuhlanganisa
yiLungu
OKU@@
komphakeli
xhasa
zomhlaba
zamaGugu
qulu
onya
yasem@@
gu@@
faka
hlala
tors
cul@@
ahluko
wesithathu
ta
11:00
othisha
ondlo
yalezo
internal
Ibh@@
ue
resulting
ehliswa
njengomuntu
ched
officially
Auditor-General
adequate
esikoleni
ngaph@@
izikweledu
sinqumo
collective
ya
basekhaya
De@@
experienced
eziyishumi
WCED
imibuzo:
odl@@
unlawful
tenderers
uMthethosivivinywa
Ngale
Support
phone
Technology
entuthuko
ngesi@@
facing
kokuhl@@
ences
allocations
sokub@@
Ukush@@
ngokuq@@
omele
olobha
rand
mother
othatha
nezomnotho
deeds
65
kungakapheli
Kufanele
amukelwe
ukuqinisa
ibheka
notify
admitted
Despite
firearms
Traditional
stating
our@@
ID@@
holo
loc@@
ukusungula
ukulethwa
India
AMA@@
wayes@@
opinion
uliswa
terminate
ill
options
hambisa
sam@@
ikile
AT@@
ezik@@
ezoku@@
ited
intensify
wetshwa
dignity
ably
connected
redress
ingo
kwesinye
iwo
bags
zenziwe
running
imprisonment
dlala
bash@@
lim@@
ened
azini
ukuw@@
formation
tic
purchase
ukusebenzisana
angaphansi
Division
imbi
Ukusebenzisa
art
eration
isiqiniseko
isib@@
choose
agency
ukubeka
His
zabathengi
yokungenisa
umkhandlu
oliwe
ombuso
yomsebenzi
dlela
ikhadi
kamazisi
amisa
onikezwa
false
web
kwemfuyo
assessed
a's
Fort
Use
R2
cor@@
annually
SMME
St
qugquzela
Ihhovisi
beg@@
settlements
sought
cwele
broad
Abahl@@
sokuphatha
strengthening
amak@@
hlaka
ezinjeng@@
hamb@@
diseases
uzoba
nokus@@
inv@@
oBugebengu
amasheya
ezimayini
anya
Hulumeni
red@@
Master
Permit
kumthetho
sources
confiscated
Uy@@
ishiwe
OS@@
anq@@
presents
University
ned
umo
reducing
Mon@@
representing
though
usha
acy
Notice
okungekho
replacement
amahlanu
del@@
yokuz@@
Nikeza
dedicated
wamaLungelo
ekhishwa
akaze
uHulumeni
vulnerable
othathwa
CM@@
Khipha
ngokobulili
grow
nesidingo
amah@@
ngamazwe
accountable
ingana
ukuqhutshwa
allowances
zimali
Communications
humanitarian
Ver@@
lihl@@
30@@
Seed
engcono
opening
athela
o-
emibi
alter
eBhodini
ngi@@
imingcele
ithole
mb@@
substantially
inqubekela
returned
aphi
fundamental
likaNgqongqoshe
incident
truth
kwabesifazane
ngokush@@
accounts
ATION
true
portfolio
yoMnyango
commissioner
akhokhelwa
ebuya
hundred
umkhiqizo
akhamuzi
arrangement
kwalezi
100
sika@@
ekez@@
enzela
secondary
confirm
file
nguNdunankulu
print
park
enge
njll
Imibuzo:
f
ukuzinikela
aking
44
sahluko
Abanye
ick
uya
79
enzayo
convicted
nkosi
ukuhlala
olulodwa
Eng@@
u-Aice
legacy
lokukh@@
alandelayo:
nempahla
abez@@
terrorism
inqumo
break
umbi
ezenziwa
emakhaya
ezinhlelweni
lwezin@@
lig@@
imishini
usebenzisa
mineral
yalelo
hosting
characterised
unsafe
kokuph@@
nokuthola
daily
WE
finally
izinzuzo
yinkantolo
Legislature
Qinisekisa
extended
kabili
pollution
oluphathelene
deaths
sab@@
yalesi
Es@@
wekazi
distributor
consignment
ekuv@@
ures
functioning
ze@@
odinga
andisa
wasekhaya
Amakh@@
Independent
wama@@
njengelungu
engaged
ESI@@
lived
namasevisi
amathikithi
alayo
inta
intend
Iraq
Ukuba
repeal
emu
occasion
uzo
alism
Tsh@@
confirmed
esebenzayo
ho@@
chain
likh@@
ayoshaywa
labasebenzi
ashintsha
bavele
Izinga
err@@
quma
membership
assault
investigating
kwesicelo
Ukusetshenziswa
kanzima
recall
cold
ihlanganisa
afak@@
didnt
reached
wesi@@
UNdunankulu
ngo-@@
periods
arr@@
sm@@
zokub@@
osetshenziswa
kwaboMnyango
emqoka
Ngin@@
nokuvikelwa
Indian
port
kubuza
meaning
ozoba
priority
Peter
esezingeni
cre@@
kwamazinga
onelungelo
abadinga
emotweni
gone
consult
container
esifundazwe
ukuletha
Presidents
loMthetho
ekuth@@
ukuhlangabezana
zomnotho
brief
kwenani
Make
Sib@@
appears
isiqinisekiso
elifanele
umfutho
ngokwez@@
Before
ners
isig@@
izib@@
kuvela
fa
trees
Most
run
Way@@
pressure
hlophe
nezinqumo
Ind@@
nguM@@
resident
HI@@
azikh@@
ngokuqondene
okuthiwa
udoti
ngalesi
wezentela
date:
confirmation
o-ke
Since
qobo
amahora
involving
eyi-@@
waMacala
nekh@@
containing
ther@@
limitation
Ukuthi
kwiRiphabhuliki
enqaba
coordinated
nguye
holder
ngokulandelana
engqondo
Nor@@
ukulahlekelwa
lomhlaba
lomphakeli
isabelo
vegetation
stand@@
intention
kwaleyo
currency
Qu@@
ibeke
damages
Thank
ubeka
okudingeka
addressing
average
kwama@@
nan@@
Mpumalanga
welfare
okushiwo
nations
hor@@
lomthetho
elsewhere
Plain
Mad@@
emandulo
uqond@@
bound
ezempilo
othola
ack@@
dlulisa
expropriation
ions
consultations
unreasonable
yokuhl@@
izinkulungwane
Ngakho
Zulu
believed
December
ills
issuing
e-mail
dry
Relations
okhu
yesikhathi
Branch
nyama
Potchefstroom
Phalamende
qondisi
ber@@
gcwalisa
siqu
andiswa
ingq@@
athu
46
fac@@
kwezilwane
sisebenza
happened
66
kuphele
statutory
kundla
rich
ELA
yokugcina
afakwe
kwePhalamende
82
publication
esifunda
emisha
weZ@@
ath
pos@@
bax@@
Ltd
designation
really
Lokho
Ukuth@@
engenayo
involves
ukusho
Ananse
bekh@@
aland@@
izinkantolo
lobunikazi
WA@@
nezenzo
ikele
Wezifundazwe
front
Eminyakeni
anqume
uD@@
abekwe
deemed
sentence
eZ@@
ombono
egunya
practical
nalezi
kwezezimali
deals
elula
scale
stock
omula
homes
enikeza
ious
ephile
khulu
ngezimpahla
omile
sokuzalwa
ukukhetha
operational
violent
operators
031-
ammunition
Const
covered
nak@@
getting
Eskom
fak@@
yeLanga
juristic
nohlobo
travel
turned
kuka-@@
likahulumeni
len@@
Yez@@
Indeed
lase
nezimali
ikiwe
ngikh@@
entities
lwazi
oluv@@
ezindaba
1995
ukuqhuba
discussions
base-Afrika
alelwe
Stop
yesibili
worked
non
echaza
cweti
ungulwa
ngama-@@
uch@@
ukukhishwa
iswana
missing
s?
kwegama
iqiza
esiw@@
Ukh@@
unyaza
aqond@@
commission
ngolimi
iteshi
isandla
considering
eH@@
ekuthuthukiseni
Ubufakazi
wards
neNingizimu
ust@@
Rec@@
Victoria
kuwe
esimeni
enqunyiwe
nezimfuneko
lay@@
allegations
olul@@
umayo
relief
kanye/noma
contractors
Ngemuva
degree
Isikhungo
progressive
angaz@@
requirement
nomunye
ongen@@
-up
Akekho
ech@@
bakho
1M16@@
Gu@@
ahambisani
amakhaya
unique
andl@@
ezihlukene
Close
Conference
sense
misebenzi
w
ses
sex
clearance
lokusebenzisa
pursuit
yed@@
zesifundazwe
kokud@@
space
soil
real
WSDP
ngicabanga
genetic
pres@@
akaza
isikole
ass
bar@@
Gre@@
zo@@
agenda
wama
Kukh@@
affect
unikeza
isu
akekho
assume
Children
esid@@
kuwona
izinsizakalo
ubandlululo
isim@@
uluzi
emoyeni
tical
ngasiphi
tests
mhlawumbe
onishwa
elek@@
Kulokhu
ompyutha
ishe
OL@@
clubs
Kaizer
ezisebenza
quantity
ubung@@
ell@@
masevisi
sol@@
ot
ICD
kwezombusazwe
sokuhl@@
Establishment
witness
ezifundazweni
ngenqubo
Movement
ibeka
big
nguNgqongqoshe
ohlobo
nokuhlola
ngib@@
ukuk@@
Congo
chosen
principal
oluhl@@
aholela
ithathe
ezimweni
buy@@
clothing
concrete
checked
celebrate
absence
abhal@@
esiphuthumayo
nokuxhumana
collected
aselwa
ibophezela
onda
obekwe
ngamanzi
lukazwelonke
preparation
mina
isekelo
uhlangothi
sonyaka
a/@@
Ukuvikelwa
ont@@
azayo
Paper
bathola
eshiwo
bulk
ezimp@@
Go@@
aluleke
radio
des@@
nami
edela
reduced
aba@@
recognise
amukelwa
ikezela
ebiwe
inye
elanga
Labo
follows:
akwenza
kudala
gq@@
inhloso
ukugqugquzela
ikhulu
inikeze
izimp@@
truck
replacing
oshonile
knew
le-BI-@@
kwatholakala
koMthetho
nenkohlakalo
ephu
San
00
fund@@
ngokoMthetho
enkundleni
andakanye
agriculture
consisting
country's
yinto
abantwana
okelwa
yindawo
kwazi
ukwehlisa
athunyelwa
det@@
cell
sanctions
awa
ichaza
abamba
nenombolo
cells
relationships
insiza
ikazi
study
die
ville
ulo
uGu
lwem@@
ER
emzimbeni
ude
ngelanga
sustained
Ukuthengisela
brother
zamaphoyisa
esidingo
asebenzise
double
declare
izind@@
mo@@
rape
Earth
ones
can@@
Tambo
itshela
ethize
TradePort
Those
ulumi
ezo
refundable
ulele
obhala
threatened
huge
occurs
Khanya
ugu
positively
acted
survey
of-
ubungula
Sikazwelonke
usayo
recovery
abopha
massive
Subsection
RS
pool
Nd@@
mor@@
lists
operates
Ukuqinisekisa
arm@@
umlilo
bayo
ukuhlangana
investments
ngeng@@
Gaza
izinhlamvu
saziso
zezwe
wezilwane
portfolios
ngokweqile
tor
Box
retailer
ekisa
owenziwa
ukuphucula
sexual
it's
partner
phathi
confirming
Ukus@@
njenges@@
atmosphere
alcohol
xile
inge
Imibhalo
kokul@@
emayelana
OR@@
press
ashe
kwemvume
engisa
E-@@
Over@@
net
igugu
Of
zoMthethosisekelo
ahlala
layo
sifuna
ation@@
Natural
hlanganiswa
enyanga
tion@@
rojekthi
Energy
ziye
email
Maqondana
ds
requests
families
productive
friend
Gauteng
akazi
ameko
ngezansi
embonini
transformation
hweba
lika-@@
Growth
kanti-ke
akwe
ngokuc@@
Industrial
ner
namath@@
abaseshi
enhla
top@@
holders
discussed
iphepha
uthwa
ications
afa
kwaleli
ess
rendered
bus
enterprise
constructive
adequately
origin
weapons
ezinto
robbed
someone
engu-@@
something
endl@@
isigwebo
arrived
yokung@@
besayensi
nezakhiwo
ships
zamagugu
wenziwe
ukuhlela
tically
Izingane
culo
arresting
re
Budget
ukelwa
truly
ilinganiso
ances
Ngicela
apho
ibon@@
refuse
renewed
engiswa
recommended
onyaka
loM@@
bakithi
streets
wezoku@@
yangasese
1976
over-@@
ayinwa
zoMkhandlu
taxpayer
wazo
sebenzisa
banks
esayensi
enenja
azamisa
hands
emin@@
Secretary-General
akethe
fraud
lungu
mind
isekela
Over
Hlelo
ekhombisa
lel@@
eyes
kuthuthukiswe
enquiries
kwindawo
Not
priorities
read@@
uhlala
DWAF
yamanzi
nomasipala
waKwaZulu-Natali
elim@@
train
parks
inhlalakahle
ngemisebenzi
unye
alandela
okwenzeke
asekhaya
ukulungiswa
unyiwe
54
permitted
agcwalise
heavy
subsequent
uK@@
kokukh@@
creating
owedlule
agencies
imfa
esikhungweni
inhlawulo
holi
acquisition
ished
akhokh@@
sawo
ezihambisana
yoMthetho
Capt
On@@
tshela
Motlanthe
war@@
yezimali
hos@@
visa
asebenzisa
kweN@@
non-refundable
esetshenziswa
forced
idingo
George
koM@@
ezenziwe
akhelwe
namely
emikhakheni
Cr@@
akamuva
irekhodi
ungiselela
akhombisa
British
ari
awu
Isishayamthetho
with@@
monetary
yalokhu
zase-@@
esishayamthetho
reconstruction
offering
okubonakala
views
DM
nonyaka
konzo
network
enzelwe
wokub@@
Afrikaans
div@@
ahamb@@
waq@@
2001
inf@@
lines
photographs
etholakala
kweng@@
iholo
Kungabe
relatively
Provided
Today
Mthetho-Sivivinyo
eji
accommodation
ME@@
kokhetho
samples
Force
ticket
disabled
Enye
uzob@@
coll@@
otholakala
enj@@
ophiko
kwiLungu
closed
acknowledge
rem@@
zemvelo
Vally
kwezilimi
interaction
bringing
anjwa
nemininingwane
abafund@@
administer
ngesinqumo
kuM@@
isebenzela
nangendlela
evamile
kungani
definition
ekomidi
kwamakhono
diverse
soM@@
taxes
frame
nezinjongo
recognition
kwezingane
pers@@
historical
grave
Us@@
Ny@@
Kwabathengi
iNdawo
transactions
kuhlonyiwe
Izinhlobo
Johannesburg
abeni
kungen@@
nokufaka
stay
IF@@
IK@@
Hol@@
cane
Persons
journey
ku-Registrar
avuma
uyela
ngokujwayelekile
ication
Nom@@
focused
ababh@@
kamuva
aqinisekise
aqinisekisa
subsequently
kwenze
cas@@
bakw@@
teams
adinga
okufana
recommendation
detail
prevented
Khomishana
ubuhlungu
abathi
lith@@
utilisation
dark
sports
elithile
disclose
organic
sokuq@@
ann@@
ecala
zokuthuthukisa
kweNingizimu
tournament
qhamuka
enzile
ingeke
Isivumelwano
ret@@
webhodi
ndeni
long-term
ba
bargaining
yeminyaka
namas@@
esibhekene
pension
akela
Amas@@
candidate
ukushayela
patent
izith@@
okuw@@
Rustenburg
obub@@
okubalwa
holela
Iningi
nemoto
kubhekwe
Traffic
engcupheni
abelo
compiled
izit@@
expansion
notices
Co@@
eshe
institutional
olumayelana
eW@@
www
prem@@
troops
Post
imm@@
ezenzeka
Inkantolo
Izikhungo
Incwadi
campaigns
okwa
collect
one-@@
onile
engineering
anti@@
uleke
ukuhlukunyezwa
lezin@@
sl@@
emaphoyiseni
osukwini
olukhulu
complex
abon@@
ngey@@
olandelayo
ezibhalwe
izela
NA@@
successes
nobandlululo
uzwe
instruction
Olympic
esit@@
i-asosiyeshini
aged
ephethe
ayishumi
author@@
abili
yokuhweba
zama-@@
ANG@@
inadequate
capabilities
umthelela
ikhombisa
types
nezibopho
ukuthengiselana
ordinarily
si
sa
izigameko
Imoto
aphe
sezin@@
ukungalingani
lokud@@
eqeshwa
delay
lilo
Waste
AR@@
endo
hospitals
rooms
hom@@
assess
announced
izintela
ological
ezihlala
sport
Alfred
unj@@
izinda
fiscal
entails
ezilandelayo:
norms
wamazwe
cebo
IsiGungu
exercising
nakum@@
nangaphandle
oza
Bhange
namathuba
buy
comparable
vis@@
Umasipala
sew@@
possibility
ukethwe
osiwe
enjalo
ungule
high-@@
suspended
properly
sif@@
ukukwazi
kulindeleke
Chinese
inkathi
dlula
azange
isin@@
eMhlabeni
athint@@
kukaMongameli
zokuphepha
ikhi
engxenyeni
lihlanganisa
56
successfully
everything
oath
ukumeza
EK@@
ngokwalo
ebiwa
lokuthuthukisa
ohlelo
isiv@@
ngokun@@
ithathwa
15@@
ed?
afani
ebengu
Woku@@
manufacturing
enikezwe
leBhodi
ISAHLUKO
njengen@@
Ma@@
How
awule
ikhaya
Electoral
sendawo
nokuphepha
bomphakathi
Committees
ukuvuma
phak@@
ngokufanele
prisoners
onisa
njenge-@@
ombiko
anyana
Sas@@
proclamation
athelene
lokuhl@@
ufake
lase-@@
oti
ukususwa
isibalo
28@@
and-@@
enzo
boundaries
oshiwo
shop
favour
kweminye
sharing
acceptable
enhlalo
Wh@@
alul@@
yalowo
extensive
Amendment
ngezinjongo
Ukug@@
King
kwentela
umzimba
nokugcina
reconciliation
esibhalwe
iting
text
okwenqatshelwe
kwendle
aphathekayo
rise
isebenze
lwes@@
ebona
difference
ezimpahleni
Isikhulu
kuhloswe
wayey@@
Isigatshana
respondent
wokukh@@
yale
kuMthethosisekelo
abalalisa
ental
nokuhlela
agg@@
Im
vested
calls
CO@@
kubona
wonkana
lodged
itshalo
akhi
sokuv@@
deputy
esibopho
Task
nakuba
CH@@
ngxenye
esenziwe
bheka
avumelana
indeleke
ades
amaj@@
umkh@@
Inkampani
ezinkantolo
ukuhambisa
inconsistent
yokush@@
wants
kulumo
sand
ukuj@@
Ukusungulwa
Premiers
Download
ON
istic
mbiko
ekelela
yezomnotho
PE
intando
fontein
nabang@@
ciwane
disputes
Izindlela
reserve
ihlala
aliswa
isib
esincane
loko
ubungako
aleni
Kuncike
ambalwa
requiring
ngokobuhlanga
esifanayo
ngamaphoyisa
zobugebengu
clean
enforce
ayisensi
aphandle
indo
star
zwe
non-racial
komasipala
kwisifundazwe
initial
marking
restored
ngokug@@
multilingualism
WA
emboni
nandi
draw
abahlali
usihlalo
ikhokhelwe
ilunga
engaph@@
izinyembezi
akhokhe
holds
engwa
odokotela
akhokhele
obalulekile
excellent
isiza
ime
Congress
nemikhiqizo
51
ndaba
andi
Amacala
umthethosisekelo
aleka
ezingaphansi
courses
MENT
Testing
sum
okubi
ashiwo
qualify
instructions
engafanele
okufanayo
kubaluleke
Izigaba
examination
Ass@@
Ngeke
lawful
nj@@
modern
eningi
kaMongameli
ekhokhwa
inza
omncane
nenkululeko
Products
expression
amapayipi
ace
wezimpahla
session
judicial
yezolimo
bn
ngamabh@@
doubt
Request
cwaliswa
designate
nomuntu
comments
zona
kwihhovisi
ey
attached
esikhwama
Operation
credits
usebenze
feed
user
nothing
accountability
iding@@
gcinwa
alising
wokuvikela
fuel
sho
esenti
indelekile
Sunday
Stellenbosch
unemployed
kokuphela
ubhaliso
IG@@
engeza
engak@@
akufanele
ISS
saz@@
angaphakathi
neg@@
Ag@@
okwenzekayo
gross
lwakhe
oleka
ethini
sikaMongameli
Ramatlakane
esithathwe
zokuq@@
introduction
Int@@
talking
der@@
zikazwelonke
teachers
wonyaka
ezibalo
hear
cw@@
millions
wezoLimo
kwisimo
ameni
akam@@
esinomlando
umdlalo
luka@@
tel@@
lomndeni
empini
competitive
ululwa
deployed
iqoqo
olufanele
alist
xhaso
isek@@
kugcinwe
specially
nalesi
beneficiaries
indicators
transferred
subsidy
izikweletu
151
azweni
scope
kwamagama
elif@@
eqile
yemoto
detention
nokugqugquzela
ezisezingeni
isis@@
ngezindleko
race
amagciwane
namaphoyisa
namaph@@
uNaisa
akukh@@
aliwe
Ukuthola
kwemiphakathi
wo
obus@@
pose
Igunya
uthukisa
BuaNews
kimi
anticipated
aphathelene
latest
aniswe
tered
ster
.1
.e
panel
imala
Limi
ati@@
Sri
kinga
njengez@@
abase@@
ehlobene
eqesha
features
mine
ukufakwa
olulandelayo
ays
ngakhoke
kumalungu
oil
angenza
landfill
dont
yeZizwe
dleko
simple
asim@@
adlul@@
realisation
izibhamu
obela
DU@@
eC@@
akhamizi
quickly
eleleka
57
chapter
healthy
sokun@@
ngculazi
ilandelwe
amabhuku
Ekugcineni
weziNkampani
akan@@
shado
For@@
sayo
74
somuntu
ekug@@
sessions
ubumpofu
ezikhethekile
preparing
Iph@@
vumel@@
zasem@@
91
AC@@
anis@@
lokuhlola
unsolicited
primarily
eqala
locally
Acting
yiyo
advantage
esif@@
Ngisho
Palestine
lul@@
river
respectively
lokuth@@
epha
ngabanye
travelled
yisigaba
adingeka
nominations
kungaph@@
alities
lay
nto
forensic
Res@@
Ir@@
kweph@@
angela
Or@@
okhishwa
external
i-akhawunti
neqembu
amula
derived
zezilwane
eliKhulu
izimvume
neighbouring
kuzo@@
ner@@
ukwethula
16@@
nezith@@
referral
luq@@
oto
Be
cockerel
obudlelwane
lokh@@
al-@@
phones
chartered
zokung@@
avele
corner
DA
ubuphofu
enough
eRiphabhuliki
IB@@
bottle
London
unwa
Apartheid
yindlela
oqala
hazard
tic@@
surrounding
Ikomidi
akiwe
cycle
Standard
agcina
expressly
attended
isiGungu
IS
IT
Youth
disposed
etshenziswa
eP@@
Ikhophi
embalwa
universities
log@@
igomo
akazwa
ashintsh@@
uhlaza
Isinqumo
stat@@
kufike
noNgqongqoshe
kubonakale
esimo
Monday
illness
ambe
awards
Ukufakwa
nodlame
elic@@
sometimes
311
ikeze
esemqoka
iseke
Att@@
sokung@@
Eastern
nabab@@
audit
nezokuvakasha
46@@
integrity
ere
isimemezelo
Mat@@
cono
whereby
profession
Str@@
injongo
xabano
abavela
ngokuthula
ezinkampanini
Legal
onj@@
invitation
zemiphakathi
ubheke
oversight
financing
ehamba
guide
kwelungelo
ngokuzinikela
ubul@@
nalawo
Per@@
ebhodi
constitute
heha
Centres
nezikh@@
ukubuyiselwa
unikeze
headed
mal@@
highest
guests
Sp@@
yezwe
January
ukubh@@
round
ezenza
esandleni
Mus@@
imindeni
njengo@@
conc@@
isetshenziswe
Ntshonalanga
threshold
icelo
Right
ukuthenga
kungathatha
Action
afund@@
ngendluzula
tertiary
engahl@@
Captain
esik@@
ekisi
ngomthetho
abathola
Le@@
abaphethe
haliswe
colon@@
wear
okhethweni
ezingas@@
DE@@
kwamagugu
Esikhathini
ceremony
ngokuv@@
expense
ands
Ground
kwenkantolo
run@@
yokuxhumana
regime
lesishayamthetho
sub
AK@@
ekud@@
ense
nokubhala
ebhekene
franchisee
Kulesi
eyiyo
abah@@
yokuthumela
largest
yezemidlalo
yellow
causing
abezindaba
uhlinzekele
asebenz@@
ohwebo
okuvela
spatial
khiqizo
abeke
Laba
fund
withdraw
mathupha
uyaqhubeka
standing
lokuhweba
ahlwa
atholwa
Loku@@
da
Electricity
angu-@@
spread
singen@@
satisfy
nomination
Call
yinkampani
ilayo
underway
sales
administered
confidential
nangoku@@
Pol@@
reflected
Hel@@
ngena
acala
sw@@
exceeding
visits
eziphilayo
accused
FET
yesimo
iphoyisa
ngezinhlelo
ambiso
wokuph@@
Articles
skin
Mo@@
ngakho-ke
reading
wamabhuku
otho
egcwele
Plant
edlula
ukulawula
zoM@@
DA@@
Fl@@
Meyi
uhle
ifuna
deployment
isebenz@@
Ukwakha
ngokuth@@
olug@@
ejele
inyabeza
kohulumeni
akuth@@
Electronic
ang
athele
amadoda
invest
kokudla
ential
thrown
unyazwe
stable
,5
regards
itimela
wema
sifaka
yemisebenzi
disclosure
stabbed
izinombolo
ufisa
Kimana
Did
inis@@
ngamanye
150
enhlalakahle
fraudulent
lokubusa
liberation
iziphathimandla
kolo
ukubika
arding
ata
ibandakanya
valuable
Address
kwenz@@
sabo
Comp@@
olunzulu
Point
enkolo
yamaphoyisa
amaqiniso
sit@@
nezinhlamvu
ciphisa
Defence
daughter
kwakukhona
highly
Verryn
nokuqinisekisa
angene
hlangan@@
kuMasipala
kwezikhathi
ngang@@
Wokuvikelwa
statistical
kungab@@
avunyelwe
axh@@
Customs
ukuphuma
omoya
athanda
ephephile
kantolo
fomu
reservation
wokuhl@@
Middle
outer
hambo
Ngaphansi
umcimbi
senza
Chairman
fingerprints
KwaZulu
fun@@
in-@@
esifushane
wokwakha
ukwehla
TED
excellence
00@@
ubulili
rock
yomazisi
Col@@
nokusiza
ba@@
embu
angisa
iweyo
2:
ishaya
wabantu
umazisi
simply
ngentando
jointly
38
Judicial
yisimo
uswe
kunq@@
qhutshwa
qubuzana
aluleka
monitored
52
plus
somyalelo
discharge
guilty
ngosizo
legally
zasemakhaya
62
accompany
tariffs
UB@@
ding
discuss
tabled
zid@@
Object
lenza
lenze
umndeni
dle
uP@@
laph@@
Basic
93
kumkhakha
nekhono
printing
Namhlanje
routes
ATM
yokuqhuba
siqhubeke
stone
nezigaba
ezish@@
lwen@@
iti
lamanzi
ezithinta
wenkantolo
ukulawulwa
back@@
ying@@
ukususa
yezezimali
volunteers
hlang@@
nationally
eyehlukene
schedule
law@@
ancy
icilela
kithi
somsebenzi
owesifazane
tried
yesicelo
dti
ukubheka
ida
izikhundla
emerging
engakwazi
eseka
entshonalanga
hazardous
ngokusebenza
isiteshi
attempts
guardian
ingan@@
ambili
azam@@
nokwakhiwa
azib@@
yeNingizimu
itation
emissions
Income
mental
izwekazi
ilayisense
eziphuthumayo
boMkhandlu
Inhlangano
Seng@@
R100
selection
nenqubomgomo
empeleni
ion
inz@@
brand
interpretation
aphesheya
check
constructed
olum@@
plastic
ukukhuluma
zokuthuthukiswa
ungo
cheques
Zuma
hhovisi
noted
waiting
ekus@@
ezingamashumi
sun@@
Thabo
Mediation
ngomlomo
ungele
fit
lokul@@
ashelwa
mahhala
okuthutha
corporate
ezandleni
ukugcinwa
Her@@
roll
Amaph@@
entering
printed
ela:
IRP
xaxa
umg@@
yiningi
DP@@
akuv@@
elling
condolences
zish@@
Portfolio
Marine
methods
broader
Inkontileka
baba
kokuqala
Pe@@
ukunciphisa
a-ke
zezitshalo
okuphepha
ukwenzeka
ngokucophelela
indicates
emihlanganweni
namaqembu
children's
onikeza
ayense
kufuneka
ikeziwe
iti@@
yemithetho
regularly
no-
serving
nezinguquko
IZ@@
Agricultural
Riphabhuliki
thetho-Sisekelo
ezihlelwe
polic@@
qhuba
okubalulekile
yokuv@@
ubheka
upheka
esikhwameni
ucwa
ngefekisi
sokubhaliswa
TION
ekubeni
although
achaza
servants
Bheka
indi
limits
bezicelo
imitheshwana
kwemingcele
abuyisele
demonstrated
Sidinga
zabalazo
ova
icate
azin@@
else
ukuqala
ment@@
ephula
foreigner
ges
yamazwe
sustain
colleges
eshana
ekusebenziseni
Mc@@
shape
imibhalo
sic@@
lobhaliso
dluliselwa
aur@@
izimpi
approached
zikhombisa
liq@@
ngeminyaka
umonakalo
ukuvula
Working
newly
ible
ngoMsombuluko
kuf@@
emg@@
Among
Congratulations
Medchem
Therefore
embiso
nabaphathi
zingakapheli
ikel@@
amanga
ishelwa
yezinto
ngokufaka
okuhlongozwe
noMnyango
onswa
day@@
abakhona
Mnuz
Uthe
weng@@
confront
concluded
engaphandle
ahlolwa
yikho
exceed
ngamabomu
Ngal@@
substance
explained
isakhamuzi
Another
fail
isebenzise
winter
dlwengula
yinhlangano
elelo
affecting
myself
kos@@
Vlakplaas
immediate
tro@@
sed
regulating
bezindaba
isil@@
kwase@@
abakw@@
zesikhashana
bird
ley
umfana
ohambisana
kuyoba
Review
mechanism
uthathe
xhumanisa
okuvikelwa
ihamb@@
yezimpahla
correc@@
flag
yolimi
Abas@@
ezelwe
Advisory
depends
Amalungelo
ubu@@
ek
Gungu
okubekwe
ahead
abha
abalala
voters
Integrated
download
zohlobo
yinoma
mon@@
Dr@@
kol@@
amaz@@
ishing
accountant
ngenani
bekung@@
kwemigwaqo
yokungena
eshi
kwamaphoyisa
akhipha
zikagesi
ongqongqoshe
Izikhulu
chemical
izimfuno
onza
invite
ufakele
qhakambisa
SMMEs
akhokhwa
aziya
emezela
achieving
bre@@
eyiGugu
esibhaliwe
iqhubeke
covering
phakela
umqashi
procurement
leg@@
ekhokh@@
empilweni
meters
angaph@@
kukagesi
emphasis
spouse
post-@@
exhibition
we're
uso
kangaka
okhona
THI
okuvunyelwane
esabisa
Ndunankulu
okutholakala
kwamakh@@
ezisetshenziswa
umzali
inhlinzeko
Amabh@@
foundation
ebuli
Soweto
ukweseka
uselela
tasks
kuzob@@
uki
Mabotha
Rasool
ti
banking
ests
IR@@
format
ubona
ur
ahlangana
amanxusa
meter
sions
izibonelelo
kwenu
festive
beach
sun-man
zezempilo
umthamo
zimba
hare
becoming
fo@@
kwezingxabano
sa@@
overview
passing
Aids
xube
waphinde
abathile
Komidi
esish@@
conf@@
umkhiqizi
zokuth@@
ungwini
America
kokun@@
ukwana
ngane
Acts
finalised
29@@
equally
nehhovisi
enti
ENG@@
happen
phumela
okuphelele
esiFundazwe
akhuluma
lokuv@@
registering
Mol@@
thwalo
Rehabilitation
semi-@@
Liquor
are@@
ululekile
bendabuko
copper
angwa
ikakhulu
yiqembu
ngempelasonto
lami
afanayo
maduzane
her@@
nokulawulwa
confident
thethosivivinywa
aching
tourist
to-
PRO@@
ukuqeqeshwa
prevails
58
ophe
kolimi
inyaka
Su@@
68
69
ili@@
ELE
gc@@
eligunyaziwe
finding
ezedlule
eqinile
afakwa
esingaphezulu
kwemfucuza
sicela
coun@@
Accordingly
limiting
eT@@
inothisi
inyama
elungelo
asele
Sal@@
iwayo
easy
umncintiswano
Angola
veterinary
izob@@
ethatha
asis@@
form@@
kuJuni
ekuboshweni
Izind@@
ezob@@
ukuxoxisana
Palestina
equity
Enquiries
ezimoto
Bel@@
apping
ethelwa
i-C@@
nokuc@@
friendly
oring
fin@@
qal@@
eD@@
lokufunda
hlanganyela
ple
southern
wamaGugu
izinhlinzeko
nearby
Sil@@
thinking
komfa
Great
I'm
aff@@
xazululo
Peace
multilateral
Access
Wezindaba
cela
okuhloswe
Bur@@
Li@@
emib@@
Detectives
IDP
teaching
Umkhandlu
cala
restricted
CE@@
mutual
umzila
namabh@@
prosperous
claims
berg
ikelwe
inyango
njengabantu
kuN@@
hlanganise
inkundla
eG@@
label
contracts
PE@@
emininingwane
Head:
esicelo
enzelwa
emele
otsh@@
okotela
nation@@
ezinganeni
waters
united
compensation
aywa
esishiwo
rebate
sokug@@
isiphi
ecological
Thumela
abamele
kwas@@
Si@@
Secretary
go@@
contracted
restructuring
exclusive
ayikho
acac@@
ts@@
ubuchwepheshe
siqale
coma
cities
esiq@@
ikusasa
Jaji
ick@@
ukuthengiswa
completing
largely
ngalezo
secret
ezimpawu
ular
yempilo
ahlela
replaced
Ukuthuthukisa
ezansi
inganiselwa
ukufeza
ambene
Sec@@
lekh@@
dlul@@
Pay
MW
Isibonelo
nokulungiswa
Izidingo
intends
Winnie
zic@@
accreditation
uqinisekise
amagumbi
speed
hambelana
resid@@
sithole
Te@@
onikezwe
nempumelelo
books
zokul@@
so-called
lots
PS
nezinqubo
compared
emidlalo
customs
kuqhathaniswa
azamiseka
render
approximately
subjects
kwemikhiqizo
yePhalamende
ihlinzeka
icabanga
s-@@
congratulate
tu@@
concept
Museum
hanjiswa
acelwa
SDB
ams
tiv@@
uzoqhubeka
popular
sentenced
08@@
ngokusobala
ight
igcine
ezakhiweni
evele
azisi
iqizwa
ukaniswa
formally
chithwa
ser@@
kudingekile
delegated
ayisense
yokuthuthukisa
destruction
undla
increasingly
kubhalwe
fil@@
ETH@@
umthombo
amaphesenti
kwezig@@
specialists
Ngok@@
affirm
selelo
amav@@
advised
ching
zokuqinisekisa
aries
Poverty
kuyinto
ezinhl@@
zenhlalo
Batho
Izinkonzo
umgwaqo
skilled
hour
Id@@
encouraging
row@@
vula
akuqala
extraordinary
bob@@
izimiso
emkh@@
excluding
KH@@
eyebiwe
construed
licences
iqinisekise
colleague
unemployment
ali@@
awe
papers
Ukubamba
Charter
Kubalulekile
zamanzi
emal@@
thuthukisa
participant
beaches
anikezwe
lempilo
must-
wohlelo
ePhakeme
ensi
ukutshalwa
okanye
njengohluleka
kuMnyango
Have
amajaji
warrant
epolitiki
ezifundazwe
nguKhomishane
larger
ayiz@@
-0@@
abanjwa
ilivwa
curriculum
ukukhuthaza
Within
Israyeli
bur@@
yama@@
represents
ngenzansi
ukhula
ver
spaces
studies
mul@@
prov@@
ezingaphezulu
equipped
hlanganiswe
nomcebo
Ref@@
zendabuko
ezigcwele
ishintsh@@
kokuth@@
bey@@
okuhambisana
Me@@
firms
inyathelo
Agreement
hel@@
imizila
ye-elektroniki
omuntu
Aban@@
du
eliphelele
webo
injelwa
mkhakha
kweM@@
Sw@@
enyakatho
kangakanani
Except
ncwadi
husband
ilidi
angenele
ukuphenya
Somali
iphrojekthi
sec@@
olakele
completion
SD@@
iphethe
kwendlela
ge
ibamba
amukelekile
Hindu
ukudluliselwa
route
tivity
attach
border
negalelo
inzeka
baw@@
judges
appeared
tend@@
ingene
invoice
track
Wathi
Izimo
IT@@
marks
neN@@
ood
amatshe
discriminatory
kubasebenzi
water@@
Ngonyaka
ophezulu
okwe
izayo
idea
Empeleni
ped
bezwe
Technical
kodaba
Pre@@
eng
ented
nokubh@@
Embassy
add@@
kwa
nguMthetho
bahlang@@
Note
udodi
mutually
othulwa
unjiniyela
arise
hedlela
yezohwebo
Yomhlaba
ANA
exemption
ukungqubuzana
endulo
abampofu
ase-Afrika
Consumers
kokush@@
packaging
Richardson
oluvela
sindo
enzeke
Upon
tering
imithelela
esigcwele
sokukhokha
feature
omazisi
predic@@
tree
okuthatha
IMALI
ebula
indication
cwaninga
under-@@
kukadoti
uphethe
yiNkantolo
eliphakeme
kungabi
st
Royal
lawa
considers
ubuhle
agq@@
dluliswa
aud@@
uthu
enq@@
isitembu
systematic
ukulandela
suffering
Stompie
ikhanda
2014
Isaziso
ukutshala
wav@@
qhinga
qubekela
kaKhomishane
atr@@
izinkonzo
kwemoto
esigaba
absent
ING
R4@@
aM@@
okugqekeza
esiphelele
nc@@
ngempahla
inter-@@
Order
Internet
Mzansi
enikezwa
aside
ulelwe
eable
zemali
obhekana
sihlalo
vast
103
lwe
ward
yokus@@
otela
abafisa
wanoma
kwamad@@
zikhungo
nelungelo
etho
ohlolwa
andakany@@
ually
R6@@
izinhlangothi
e-M@@
driver
ahlukahlukene
colonial
deed
amendments
angisi
ned@@
ukungenelela
component
evisi
ezizwakalayo
kwemboni
iqale
R50
Millennium
Region
velo
nokulwa
ethamela
proposal
aguquki
samanzi
ifundo
prospecting
contravention
Sizoqhubeka
lokuvota
announce
nokudla
savings
kuMongameli
ell
bylaw
submitting
abuka
nguMthethosisekelo
mortality
oHlelweni
AZ@@
RSA
ideas
adopt
farmers
Ngiyabonga
ngezandla
eless
six@@
UHulumeni
don@@
ozimele
pan@@
More
che@@
73
xox@@
declined
contractor
ukukhathazeka
odabeni
closely
umbuza
fled
dlo
abandoned
dabu
wabasolwa
glass
Wilderness
lesi@@
presiding
bekwa
ati
amam@@
umise
umisa
ulawa
olu
umelele
First
Rev@@
lezaseKhaya
bung@@
ngokuhamba
kwinxusa
yezindawo
amasotsha
Mok@@
elisha
isondlo
wokusebenza
aug@@
abul@@
okwakhiwa
iphathimandla
aqondise
umelana
stronger
finyelela
iqhenya
rule
misconduct
R5@@
Er@@
ils
khandlu
peaceful
alele
yezingane
Law
uyazi
undergo
kubon@@
AC
stones
tickets
oh@@
nezibhamu
kwa-@@
coordination
acele
updated
neqhaza
isel@@
Yurophu
bar
ukufakela
meaningful
aweni
ahleka
lies
intana
kweg@@
Protocol
angempela
ngesizathu
beth@@
wamaphoyisa
disciplinary
Heads
percentage
easily
yenziwa
ES
sokugcina
bomhlaba
yesterday
senziwe
ices
yanga
ukushaya
sing
guidance
inikezwa
negotiated
mention
Umgomo
eseduze
udl@@
promoted
helped
injured
dangerous
deb@@
umhla
chwepheshe
eyahlukahlukene
abangu
availability
elawula
Room
alulwa
eluleki
Day
Secondary
komoya
ombutho
Abaseshi
eminyangweni
nangokw@@
missions
igidi
anz@@
eziningana
replace
gwaqo
Zimbabwean
arm
unions
incidental
enti@@
othunyelwa
minyaka
awu@@
Northern
cwala
Tuesday
igq@@
izifunda
anjwe
izimakethe
abel@@
ukuza
ihamba
ihambe
variable
ME
ains
MK
usebenz@@
lwabo
olawula
sekube
ogunyazwe
andle
abused
ection
kuthathwe
aqoke
.87@@
egunyazwe
,9@@
siw@@
iseki
kwey@@
kwezinsizakalo
okhumende
minerals
imbangela
ette
unzi
Keep
nezingxoxo
enyezelwe
Izim@@
Mp@@
flo@@
nombolo
acquire
ngumphakeli
kokuv@@
kungase
ngow@@
nabe-@@
teacher
extra
discussion
nor
transition
tomorrow
nezindlu
lalowo
komgwaqo
UDF
UD@@
lokus@@
Coetzee
resolving
ngokul@@
Uhlobo
okuyis@@
Imizamo
cer@@
ukuboshwa
ezidinga
kokusetshenziswa
ukuqalisa
combination
hlanganisiwe
lungelo
ngokomnotho
ikelwa
ged
Emuva
knife
hard@@
yolawulo
iqhude
addresses
xenye
Ol@@
ceasefire
varies
profile
ikho
ukuxazulula
November
ku:
ku-
nokuziphatha
laid
ingcindezi
instance
low-@@
ebeng@@
esichazwe
initiated
necessarily
Governance
cards
iniswa
ezingama-@@
foot@@
xila
ichaze
village
machinery
nokukhula
ingathatha
uphold
leaving
kwamabhizinisi
mshwana
ebhishi
collectively
los@@
phela
kweBhodi
sase
odlela
imeme
uciko
akekela
Clearly
ahambisana
ukhulu
mazwe
andlululo
kuyaqhubeka
Joe
Ucwaningo
infections
18@@
Botswana
izi@@
ack
yizinto
ae
stated
URE
acceptance
firm
inflation
zisetshenziswe
yenqubo
ngamakh@@
publications
Mountain
blocks
establishes
authorises
neze
kulawo
shortage
bearing
atshalaliswa
166
okwelapha
lendawo
OB@@
izing
esiyiminyaka
subsidies
viable
article
moved
mathematics
etshenziselwa
ubulungiswa
obtainable
mag@@
esifo
tics
engamashumi
Ukuthuthukiswa
azanyiswa
ici@@
ash
Good
correctly
isiq@@
protest
Sydenham
sithi
Amanye
Nation
ambisa
ifakwe
athelwa
conciliation
notification
answered
Russia
oon
ine@@
je
sami
nezinhlobo
maintained
Tenders
importing
economically
Reg@@
kwesinqumo
seeking
everyone
transitional
spent
injuries
ivela
apprehended
aphakele
entshisekelo
lokuphathwa
Without
njengenhloko
nyango
nyanga
eso
zokun@@
path
aphak@@
izinselelo
Let@@
alists
ikhwalithi
boxes
elwanga
nencwadi
ls
alweni
you@@
oo
Ukuxhumana
omiti
policemen
Compensation
ards
Karoo
char@@
low@@
zokwakha
Nanotechnology
loading
unyazwa
Pinetown
naso
ging
ush
indwe
bhal@@
promptly
kwesilinganiso
obul@@
scre@@
ava
Imiphumela
ngaye
ebonakala
amatekisi
osebenzayo
esab@@
societies
damaged
Dolobha
okuvikela
uG@@
accelerate
stole
internationally
Brazil
franchisor
likaSomlomo
uko
sav@@
nokunikeza
yezikh@@
ea
umeni
ushwa
etshenz@@
pedestrian
ekhuluma
u:
classrooms
yiPhalamende
fresh
busy
abasebancane
Democratic
ition
acc@@
ukuchaza
fundisi
uchaza
ngokubonisana
transparency
ophela
head@@
creates
farming
exercises
ithetho
busuku
eneminyaka
osel@@
television
nokushintsha
IsiKhungo
linguistic
equivalent
spr@@
iphe
ngecala
Regulations
ahloniphekile
lesandulela
thenga
thr@@
senkantolo
til@@
ebhokisini
.2
afford
subsistence
INkantolo
believes
Lena
phakelwa
elingokomthetho
nezinselelo
nationals
idolobha
omubi
completely
humans
yam
uketshezi
eat
Broadcasting
Also
criminals
General:
irejista
zaseKhaya
wengane
lazo
une
sup@@
ezobuchwepheshe
manager
ites
oluy@@
ishiyagalolunye
dioxide
kweth@@
enem@@
embe
nezinkampani
sokushintsha
kwezenhlalo
oral
endlela
enzalo
recording
2005/06
migomo
abadlali
Mitchells
sebenzi
ezisemqoka
u-Inspector
reserved
okwaziswa
ichibiyelo
ngekh@@
ads
Offices
47
43
Juni
wath@@
nosuku
esaba
part@@
lodge
kwamaph@@
ingeniso
ukwamukelwa
elitholakala
Applicants
ovunyelwe
sisebenze
tig@@
ezibhaliwe
yibo
ables
inike
Alber@@
okhipha
qoqo
cin@@
proceed
olide
i-mission
Izimali
Italy
associations
aziphathi
Party
Uys
dependent
wale
kumbe
kwegunya
Ukung@@
hola
concepts
socio-economic
ibonakala
ahambi
occurring
consulting
ezisebenzayo
Wouter
ISI@@
ukuqapha
yang@@
ngoM@@
surveillance
renewable
solidarity
halwa
xh@@
eqhubekayo
input
andulela
kwengane
esilandelayo
preside
nezilimi
kungenziwa
ezombusazwe
leqembu
0m
Brigadier
mere
abazimele
Kudingeka
nophenyo
hlanza
akhulu
Biodiversity
IY@@
omlando
Makh@@
Are
naban@@
Crescent
umbu
izinkundla
landmines
okelwe
kuzokwenziwa
cat@@
highlighted
Renaissance
translation
dialogue
cimbi
co-operatives
AL
yizakhamizi
congratulated
watshela
ingekho
esifungelwe
undu
legitimate
ku-Somqulu
amiswa
conver@@
Blue
Sis@@
tap@@
eliv@@
izinkomba
BILL
tolerance
kwalawo
Building
sij@@
13@@
wesifazane
yomthengi
ukukhosela
nokubheka
DI
zokuv@@
ately
gates
aspect
ngifisa
Moon
ikez@@
ikelela
instances
awulwa
emini
visiting
upgraded
ephakathi
squ@@
okuc@@
weBhodi
oluchazwe
immovable
Naidoo
exceptional
bear
promotes
claimed
esikhundla
kusasa
Thus
ies@@
afakele
Bul@@
esitolo
ethembeka
hearings
containers
Abafundi
eziyingozi
October
kwamasevisi
isiz@@
ingas@@
ukuphazamiseka
uSihlalo
II
IN
yakhiwe
DEA&T
chungechunge
Communication
okukhethekile
wakala
isifunda
kukhishwe
hit
09@@
ayith@@
lokwakha
ngalezi
yokud@@
031
closer
Mashi
ngel@@
38@@
co-operative
fundo
angazi
music
ulumisana
welcomed
ashelwe
nesifo
PAYE
master
aKwaZulu-Natali
emhlabathini
inhlanganisela
intent
La
civilians
Lesotho
seriously
Impela
okwethula
child's
ambisene
olufanayo
tested
Gods
halisa
ozith@@
ehlangene
Protector
pipes
neM@@
binding
ngesicelo
Oh
esibhamu
abamhlophe
that-
njengento
Category
ukufika
length
okushisa
inyelela
concer@@
cour@@
engaphezu
aliswe
client
nenye
ayensi
attorney
gal@@
umvundla
ship@@
izimisele
introduce
Pahad
anti
ungulwe
exposed
avoti
gcini
KwaZulu-Natali
conviction
evening
ezibhekene
ukubuyiswa
vacancies
ipesheli
oqinisa
kwesimemezelo
ehlakalo
Doctor
Julayi
imfuyo
determining
engameli
ezint@@
operated
surface
Non-@@
advertised
CI@@
north
itolo
gain
ngomunye
initiate
amarekhodi
JOC
wage
trading
notho
kuqale
esebenzisa
wokugcina
ukhombisa
happening
Izing@@
ngamasevisi
Tel@@
measurable
merely
to@@
kuphendula
iswanga
tour
uzobe
ezilwane
komo
maps
impl@@
projekthi
public@@
ngumsebenzi
ifake
gomo
restoration
implied
presenting
relates
Themba
atshang@@
Dkt
kwezemfundo
Thursday
Return
vibrant
oluq@@
olud@@
MA@@
nokwehlisa
imu
nobuphofu
prof@@
Should
Siyazi
Embankment
obuhl@@
ameli
ando
lingase
ture
Louis
Queenstown
nokuthula
City's
co-ordinated
Imp@@
ories
amakomidi
engey@@
ma@@
amaphuzu
makers
encies
neth@@
i-franchise
whilst
holiday
agrees
emncintiswaneni
zokuthutha
ngifuna
dev@@
bhizinisi
ema@@
At@@
amafutha
uSomlomo
uzokwenza
alert
umbhalo
affirmation
sonto
Confederations
fairly
sectoral
kwezinqumo
sish@@
commonly
ethembisa
valued
seminyaka
Amaphepha
Bhunu
sesibili
entando
posted
CCMA
isihl@@
ah
ukene
Ed@@
isithembiso
geographic
Shayina
determines
aphumelela
iklamo
Ngithanda
demands
sight
Usizo
azith@@
linye
asylum
bhek@@
sister
Africas
ukushona
zokuba
appointments
lawulwa
inselele
de-@@
leng@@
ukuvota
thola
umculo
sikhombisa
Mission
fires
ex
ekwenziweni
surname
Wes@@
endaba
ngenelela
kulu
omkhandlu
storage
uziwe
capability
kwaz@@
Furthermore
kwemigomo
ren@@
everybody
77
councillors
stance
Smith
ukuthuthuka
Supreme
nokukhishwa
nokuhlinzeka
ephandaba
practitioner
searched
i-close
Lungu
i-Afrika
esingeqile
idivayisi
ezimb@@
medi@@
yosizo
for-
ulula
nezinsuku
exploitation
akus@@
imikhumbi
ping
ezimalini
Abenzi
pointed
killed
ukunq@@
killing
okomthetho
wemisebenzi
disconnected
kufakwa
HA@@
ingly
arts
refers
disabilities
ukuphendula
sesikhundleni
onjiswe
blood
wamaminerali
ides
Val@@
twenty
obviously
ky
MP@@
Umb@@
esikhalazo
plan@@
yan@@
kwalelo
res
ogo
Ama@@
Complaints
exploited
iphakathi
Friday
agcwele
hot
Sergeant
labaphethe
akwa-@@
theng@@
notified
Domestic
ni
okusho
okusha
closure
specialised
termination
walk
wezaseKhaya
kumakh@@
ion@@
strict
sor@@
xhumana
deeply
omp@@
iwaranti
ejensi
inequality
basolwa
unprecedented
ephalamende
yokufaka
Pakistan
cadres
ust
eziteshini
Amazinga
imiyalelo
abasebenzisa
conclusion
raise
urged
ungab@@
edelela
pursue
utilise
competitiveness
fre@@
Due
nokugcinwa
esez@@
ezokuphepha
FNB
owing
zokuhlola
axhumana
nesibopho
LE@@
screen
nzima
arded
inter
Dec@@
te
contributing
ezinhlelo
ubazeka
ulation
prosecution
seemed
licensed
Prior
Library
ngithi
eyaziwa
Isikh@@
yezindaba
funwa
exempt
airports
fundisa
ebudlelwaneni
software
ukuntuleka
interview
ethulwe
akash@@
anza
angeni
exceeds
agcwaliswe
amahl@@
guqula
producing
athini
ese@@
wezigidi
Sur@@
Iningizimu
nezoku@@
ayiph@@
osezingeni
izingcingo
nod@@
isici
stopped
wabona
Parliamentary
tri@@
kawonkewonke
nasezindaweni
shini
cellular
win
namal@@
bezempilo
aqhubeke
IFP
kwezifo
expired
decades
ezinq@@
ukuhlasela
iku@@
ukunakekelwa
iphumela
106
adult
minority
meat
iling
ceases
esula
Into
akwa@@
ukwandisa
wealth
gate
namafomu
agr@@
ikole
thina
buyiselwa
relative
enn@@
en-@@
Ngxenye
zinhlelo
weswa
drivers
ezithintekayo
qondisa
umendo
uation
ingwa
lease
abange
instrument
ampuli
ngemibuzo
amac@@
entengo
stationed
ngemoto
add
ngokuzithandela
selling
emahlombe
afakelwa
unesibopho
upho
method
yamathenda
oqhubeka
experts
Izindleko
Nging@@
leads
sokuhlola
esibizwa
angala
Family
Record
workshops
inika
aphelele
Mab@@
nesu
ivumelwano
kokus@@
wokun@@
abl@@
intombazane
ezimbi
kwesikhashana
elelayo
abashayeli
raising
generated
Official
sibheka
ondelene
instead
zase-Afrika
Tshwane
izitatimende
student
acile
possibilities
selungelo
qondiswa
isigungu
ngodaba
ugqozi
inherent
eyakhiwe
iziv@@
evumela
zaso
flooding
hwebelana
abaqashi
wavuma
besiKhungo
explored
ephuma
tshala
wesilisa
impendulo
preventing
enyuka
sokul@@
ngaz@@
halwe
ambis@@
loan
bazovela
ekuthuthukisweni
198@@
abuy@@
baku@@
broad@@
linkages
continuously
sebenzelana
kwezoku@@
wamasevisi
sokwakha
Moodley
aqondisi
strictly
Amakhophi
sokungenisa
Secretariat
etshenzwa
nonke
requester
ezivikelekile
chance
ubunjalo
eshisa
.4
izithelo
iyalelo
save
uzovela
omnyango
newspapers
Usuku
Abaphathi
oyisa
grading
Aman@@
izingxabano
write
ezimbonini
besh@@
ungas@@
yobusakazi
susa
izintombi
heaven
Ne@@
ezepolitiki
zakhiwo
Cor@@
apul@@
lie
sikhungo
ikelo
TE@@
ute
A:
farms
imithethonqubo
Ob@@
ekuphathweni
treat
ote
sithathwe
burden
museum
piece
involve
nok@@
Okwamanje
sev@@
inappropriate
grown
engase
IAEA
Z
bro@@
uselelwa
We@@
okusolwa
umkhawulo
ials
doctor
necala
Somalia
ihambisane
Obama
expl@@
destination
enele
izathu
ports
nokuvikela
contrary
whatever
solid
ewe
iation
usu@@
anikeza
lokuhlala
halalisela
athuthukile
engeziwe
esiphakathi
ngalolo
qond@@
PS@@
indeni
eKhabhinethi
jwayelekile
Various
Umg@@
clinic
ezilimi
okubambisana
neb@@
obheka
Gu
akuleli
ombise
Ministry
widespread
acknowledged
onzwa
ikuphi
ailed
Procurement
sebenz@@
wat@@
advanced
eted
alulwe
remarkable
branches
eas@@
accordingly
PDF
Violence
Additional
Ilayisensi
sona
qalasizinda
iness
Sections
likazwelonke
nenyanga
warranty
andakanyekayo
holistic
yokusebenzisa
ual
demonstrate
zokufunda
aboMnyango
Resource
Yet
ashiya
okuncane
kuHulumeni
ilimu
ngokulinganayo
concurrence
inal
two-@@
ungakwazi
lube
Imihlangano
Cap@@
yokul@@
MS
mak@@
Ukwengeza
unjust
-off
hajethi
aut@@
kwakuw@@
basebenze
continents
angaphezu
wetshiwe
haliso
gcizelela
doc@@
iseka
ciph@@
nohl@@
clients
ukuqashwa
yikomidi
ekusetshenzisweni
mer@@
abophe
ngiph@@
attacked
namad@@
andelo
nobuchwepheshe
electronically
Pres@@
aziswe
kwezingxenye
Intellectual
actively
ethiwe
kwabafundi
asetshenziswe
eZulwini
eyahlukene
sikhona
abala
asayine
arrears
Steve
womabili
alokho
utilised
lwezinto
kweS@@
alawulwa
eqinisekisa
entertainment
owaziwa
Eminye:
ziw@@
ked
Uhla
icabang@@
Nelson
amelwe
naturalisation
zindlela
soMkhandlu
ikhakha
hlos@@
03@@
Johannes
bafake
izink@@
isiph@@
atshangwa
lukh@@
wezezimboni
nokungab@@
Isabelo
kuMqulu
box
hambela
ongozwayo
WS
ebhola
ukuhlonishwa
FOR
namalungelo
avume
qhub@@
k-@@
ukuf@@
proportion
restaurant
proved
ngokwezezimali
elled
Nedlac
Bab@@
obulungiswa
ngakw@@
kwenqubomgomo
zithathwe
adingekayo
ileyo
globalisation
iboph@@
adingi
band
amasango
cheque
Obed
impartial
sed@@
Four
Prov@@
Khomishane
news
anye
faster
Izimpahla
ijima
zama@@
ilokhu
bamaqembu
gl@@
managing
lets
beautiful
isif@@
ubumbano
omishani
omishana
elibalulekile
shore
okungenziwa
kulolo
yathelo
Ithimba
ing:
Phini
wah@@
refused
yoM@@
mainstream
Former
pipe
ex-@@
embisa
environments
o/@@
Britain
kinds
Abbas
ngokwezimali
Hamas
2005/2006
Biko
wesikhalazo
engagement
Courts
PSL
Kuth@@
ers'
Co-@@
INI
ungisiwe
developers
walking
fakazi
ingeka
Umkh@@
ak
pilot
fucuza
keeping
clo@@
URP
threatening
alized
ngama@@
cod@@
umf@@
kwezikhungo
funa
zisetshenziswa
zibandakanya
umehluko
ewona
sides
exports
namag@@
balo
Leadership
zokum@@
nabahl@@
kusona
dissemination
sokubika
zifaka
Izithunywa
inselelo
Ebrahim
named
wuhlelo
ezeka
ungis@@
veterinarian
Ngifisa
eko
emig@@
impossible
quarters
nalolu
exported
izingozi
coverage
zezemidlalo
isikhashana
alethe
kwi-akhawunti
le-SARS
yobhaliso
encwadini
aqhamuka
acqu@@
ibambe
obukhulu
Green
reflects
ect
herself
communic@@
fundiswa
kuzol@@
mail
tw@@
catch
ifund@@
eNg@@
cal@@
messages
Consul@@
kunazo
DP
ukudalula
kuma@@
komidi
es'
Yoku@@
koMphakathi
bamazwe
ukumiswa
ISA
onze
ngamazwi
ja
cancel
thetho
Licence
wamanzi
izelele
shelter
cooperative
imiklomelo
litres
isekelwe
onjiswa
intermediary
abhekene
edinga
files
yenkampani
asathuthuka
Jimmy
asipala
abafana
patrol
ayelwa
emzini
Khayelitsha
gener@@
stamped
Area
Can
ezele
igciwane
Child
ecosystem
uleki
enzuzo
estimated
eseb@@
uAnanse
akhath@@
expectations
yezenhlalakahle
engaba
yeg@@
technological
core
accommodate
kwezempilo
kwalolu
Ohl@@
Uth@@
Mac@@
coordinating
begun
Amazwe
Ngenkathi
r
coal
wad@@
Wal@@
atheli
pul@@
ombandlela
strongly
subjected
limala
bokuba
measured
ukungabi
ps
xoxa
umholo
abangani
ather
nase
Stats
Okokuqala
78@@
iphutha
patients
eter
Document
nenhlangano
abasebenzisi
odini
fighting
ifanekiso
continental
ebenza
ebenzi
yezinga
namabhizinisi
11@@
imiklamo
ator@@
yst@@
omisa
zali
ngokumelene
nokweseka
ikayo
i's
consultants
umphathi
constantly
funded
ibhodi
pat@@
ingaba
scourge
itatimende
tariff
township
isisi
mass
eziyisikhombisa
joined
:@@
reserves
iving
okuhlobene
olweni
yalezi
Nk@@
kade
let@@
ayiv@@
esinqunyiwe
evu
ababambi
ezingu-14
Yomphakathi
uce
uca
hlola
ngamacala
ngomhlaka
olela
ahlukile
kuzomele
umqondisi
kuhlongozwe
improvements
September
responded
akuzange
2007-0@@
phambilini
Annan
namaSekela
abalandeli
ums
certainly
uniform
ayinwe
vikela
izila
esithi
Sc@@
dream
ikhiphe
athal@@
mkhankaso
ys
Fac@@
ummeleli
nane
y's
ikweni
emiswe
uva
assign
experiences
Note:
okuqukethwe
ofisa
khakha
wesifunda
judiciary
Sebenzisa
docket
retirement
TIONS
oniphekile
activ@@
Ukwenziwa
excluded
ukubandakanyeka
samanje
osebenzela
kumnikazi
ungise
viewed
nemibono
acked
olakale
nethuba
isanayo
ngani
lokun@@
ization
afiki
afike
eal
kugcwaliswe
umph@@
aging
commencing
crucial
yokun@@
leNkantolo
explain
Kimberley
ukubopha
sizo@@
nezwe
okudla
ians
guarantee
map
yokusiza
affordable
val@@
izes
yaleyo
speech
that@@
signing
lokubhalisa
Europe
nokusebenzisana
fana
iliva
alazi
Izinhlangano
Cross
initiating
helps
enyusa
veld
en-suite
elifanayo
izinkomo
Super@@
akasha
eyanele
Ngokuya
ethemb@@
yeni
zentuthuko
sesitifikedi
42
bezifundazwe
abelomali
organisms
Ngisi
penalties
detainee
chemicals
upha
insangu
ashisa
den@@
misleading
indodana
ayunithi
nama
Izivumelwano
urge
okoku@@
ikezwe
tur@@
ukuphawula
Together
reward
kwakuy@@
dem@@
rose
seems
IZIN@@
ka-2005
v
oyo
abangela
ibheke
isith@@
likaSihlalo
ijaji
flows
fe@@
grand@@
helping
resistance
amakhemikhali
wokukhuthaza
sibheke
sir
sit
reflecting
ukudilivwa
athemb@@
sichaza
dly
alisana
kwezakhiwo
realised
Mah@@
Rwanda
akudala
ukuch@@
internally
kuhambisana
kuhambisane
contributed
specialist
ekulweni
ithe
umn@@
Do@@
Thekwini
ngis@@
kwezolimo
ukwethembeka
X
posed
obulili
KZN
kulomnyaka
ne-Afrika
encazelo
destroy
adile
Identity
observe
summer
Ser@@
unjini
ngokulahlekelwa
select
ord@@
yezempilo
Muslim
Ndiya
onika
chase
ukufuna
sokukhishwa
luhl@@
emaf@@
gathered
qub@@
eseduzane
efficiently
Pal@@
edilobheni
Cllr
Iranian
off-@@
kwaziswa
emalini
Sector
owandulela
yomibili
akhula
ily
Roberts
Molapo
honoured
izinsimbi
ezingaphezu
interim
ater@@
wabonga
budedengu
Mthethosivivinywa
zingathatha
alleviation
emibandela
eyisisekelo
halisiwe
simbi
ngos@@
ahliwe
asikh@@
wu@@
Pi@@
mobile
cleaning
auditor
OAU
ilandele
okwesibili
Gender
inile
amap@@
Kungenzeka
Sifuna
privacy
Employers
silage
learnt
BA
abalimi
zokulungisa
emnyangweni
Eminye
akum@@
ikhandlu
CD
ukuncintisana
DNA
covers
restore
Australia
ebenzela
oqokwe
zezindiza
ambile
seat
Ubhaliso
diamonds
Sou@@
SANDF
nezithombe
ihambisana
Van
ezingaba
onyakeni
Uphiko
dlalo
liqoke
keys
bid
ikweletu
affects
somthengi
ined
warned
Maintenance
Grade
yangaphandle
iphuzu
ukunyeziwe
voice
Anyone
nezilwane
ezakhiwe
raw
explosives
enyis@@
tation
e-Afrikha
faces
ubisi
Qaphela:
wokuv@@
kumiswe
acabanga
nezikhathi
kusiza
Prom@@
wayi
waya
inclusive
ukwazisa
abelwe
toilet
waban@@
emasontweni
shortcomings
eqinisekisiwe
tively
doctors
namadokhumende
Kgalema
ara
Merwe
orientated
Bl@@
endeavour
violations
ent's
uMqondisi
extremely
ngokubeka
ukuku@@
olubalulekile
isiFundazwe
amaq@@
ezemfundo
Cour@@
ezemvelo
amabhokisi
aholi
icil@@
Magistrates
happiness
Fax
wolwazi
ngesinye
aqinisek@@
appropriately
andayo
komkhiqizo
ilimi
Tygerberg
cwasa
organisational
noph@@
lwemfundo
crowd
ofanayo
sephomedi
kwed@@
emith@@
Sit@@
umsindo
ball@@
boys
conywa
abhalise
west
wesi
photos
Death
satisfactory
ekwakhiweni
atives
abuses
ading
halise
xephezelo
Masipala
Knysna
iding
remedy
rejista
khokhelwa
lezihlalo
aziph@@
Intelligence
OR
Memorandum
Name
questionnaire
komkhakha
embarked
video
ezifundeni
kwezim@@
Scientific
subparagraph
icilelwe
techn@@
babambe
atic
tape
kab@@
zamacala
eziqondene
anyiswe
Lez@@
ofi
afufusa
exposure
kwesifundazwe
nakwezinye
Initiative
yimpumelelo
Ukum@@
renew
ihlale
kumb@@
ezibhedlela
angami
kumaviki
uzu
hlamvu
ukuzama
Jan
efunwa
R3
kwelungu
abonakala
isikhumba
ring
ibone
ukwanda
kuluhlu
lokushaya
emthonjeni
hav@@
ngamaqembu
Professional
basize
yentuthuko
ezishiwo
uhlolo
bazokwazi
akholelwa
ngocingo
okisi
alokhu
eziyis@@
TB
fol@@
alanga
aphenywa
links
isic@@
pay@@
zempilo
umngcele
buk@@
ulumela
kwakhiwa
lose
reaching
afuni
gunya
8000
abafanele
void
limiter
sign@@
izihlahla
hambile
nabaqashi
nd@@
fihlo
okulala
Sith@@
yezizathu
omo
omu
ezifundweni
-and-@@
mbhalo
wahl@@
ores
Unless
hijacked
full-@@
registrar
serves
derogation
wazwa
arranged
examine
FPE
Ukuphathwa
abelana
engeyona
izigebengu
To@@
saf@@
nokwethulwa
akhethekile
Sahara
Pele
0800
beq@@
amakhwalifikheshini
kwathi
ekhoneni
okwengamela
NO@@
basebenzise
ukula
kwemibandela
formulation
lehl@@
lwesi@@
kwamaqembu
faithfulness
ukusingatha
leaves
Ukuhlola
zokulawula
isaneni
amaningana
faith
ukukhiqiza
Departments
beneficiary
CC@@
shortly
Ensure
yezig@@
khokh@@
omndeni
akheni
picture
kumaph@@
impressive
It's
alli@@
Faka
YO@@
ezitolo
Ro@@
zokudla
jewellery
thengisi
thengisa
sifunda
hlanzi
lweng@@
version
agc@@
storm
ezicelo
efaka
inise
tionally
kaNgqongqoshe
breach
ukuxhasa
intellectual
kusuka
aphind@@
Est@@
izimpendulo
ezigabeni
remedies
endalo
nokubika
esekelwe
weather
kwentuthuko
ensi@@
aphulelo
onge
NOT
rac@@
engxenyaneni
yokuxhasa
ayelana
Seku@@
entrenched
akathi
andelwa
happy
baben@@
ayiphi
gun@@
love
wakalayo
arriving
altered
wesibili
isipiliyoni
efakwe
atholakali
tric@@
okuyodingeka
ukukhokhelwa
lesibili
solwa
Nyanga
izikhwama
petroleum
sibhekane
ukana
ophenyo
Ngq@@
khawulo
sokuthola
Ngang@@
garden
Isith@@
intangible
otshani
ibuy@@
abasebenzela
Under
sand@@
command
ikhumbi
quantities
akele
ika@@
olimi
zihambisane
chitha
eSikhulu
ashiwe
abeng@@
tha
qalabutho
Wezikweletu
revolution
impesheni
birds
hale
e'
oqinisekisa
lamazwe
isani
yamacala
Beng@@
ahlinzekwa
pur@@
sezi@@
sebenzisana
yesitifikedi
Amafa
Izikh@@
ngeph@@
enom@@
ibiyela
ration@@
So@@
Organised
ozama
nempilo
masishane
ancane
to-@@
bakhiphe
uNkk
parked
dre@@
eziyisisekelo
efully
uyiselwa
isixazululo
olis@@
appl@@
noticed
ezingena
ocansi
sezingeni
oshe
kwikh@@
recommend
Ngaleso
emukelekile
rivers
UK@@
wezeMpilo
zolimi
zokus@@
kodwa-ke
fell
ikhodi
ngobulili
1990
unyembezi
akhokhi
aziywa
sezwe
ayisi
pain
nomazisi
tshontsha
ngumphakathi
borders
audience
robbers
ngokuphepha
lando
kwenkampani
eshini
alinganayo
ided
cru@@
ukuvikeleka
khumbi
ett@@
examples
ALA
iziphi
ekhethekile
drawn
Med@@
ohlinzekwa
BI-529
uKimana
amm@@
supports
ms
ikezelwe
onjwa
idatha
ukhona
inganiso
/0@@
heat
injabulo
Ghana
zesikhathi
developmental
realise
iqhinga
risks
UP@@
namaf@@
amed
ekweni
ign@@
akwa-Israel
ow
umvuzo
by@@
amagunya
program
breeding
xhum@@
RES@@
geographical
generate
86@@
engama-@@
ngumenzi
Abaqashi
first-@@
ebhu
Umbuso
Siyabonga
xhumene
readiness
lomgwaqo
nezig@@
Failure
Credit
kwezinhlobo
acks
Argentina
emakh@@
Nkosi
analyses
enzeki
urges
engath@@
ngamathuba
angaphezulu
ra
ri
Fax:
okozela
yokuhamba
emcimbini
uthumela
unq@@
ubuholi
miphakathi
Onke
enyama
ushisa
Having
ubusuku
Imigomo
purse
ahluka
Refugee
ibonga
sempilo
mnumzane
banjwa
cable
ngeso
thereto
kwezing@@
ekuphatheni
asheya
abengezanga
Mer@@
unyaziwe
eqembu
Strategic
endabeni
ugebengu
iKhomishana
Church
esintu
admission
spring
okuphanga
Zwelonke
Ngo@@
ut
zokugcina
tra
ezifunda
eduzane
enzekile
ukuphikisana
yeng@@
strike
buyiswa
ino
road@@
eventually
egatsheni
onakekelo
Yunithi
alu@@
eqondene
wi
nenhloso
ail
kwezenhlalakahle
isik@@
zesi@@
isigatshana
indelwe
ezineminyaka
uthukise
atsha
severe
eyena
yp@@
ungeke
publish
awonye
okwazisa
alteration
protecting
yamahhala
War
Mul@@
yezing@@
ompuyutha
ezithathwa
Yil@@
ibiza
Ephreli
wac@@
Tur@@
scr@@
izethameli
blo@@
humane
ofakwa
ble
loluhlelo
104
FA@@
uzothola
angama-@@
sisho
bentela
kwezimboni
ayikhokh@@
Rel@@
nomphakeli
shift
talk
abehlukene
lezinyawo
ory
izithakazelo
ikiswa
lokuzalwa
Arch@@
yilungelo
Inc@@
anise
deep
film
angiso
eness
ukubeza
kunikeza
thuba
nokufa
stands
repairs
angwe
equ@@
obliged
isisindo
Web@@
kwabomthetho
Man
yempi
39
minimisation
cou@@
dlule
amaholo
ibhi
ancient
Coast
oning
finished
Ukuc@@
umntwana
ado
enk@@
assuming
rep@@
esobala
wemali
Isikhalazo
lit@@
afakelwe
oMthetho
asset
roles
iziqu
Po@@
Il@@
ukuphakelwa
Computer
uzoph@@
qinisekiswa
namasu
Chris
rising
dlulela
uShaka
ayed
parking
siye
nokubambisana
individually
cope
ideal
ezanele
Sim@@
NPPO
laseKapa
abalone
nokuqalisa
Ngaph@@
eziwe
elandela
GIS
kikuyu
thethosivivinyo
ka-2008
nokulawula
24/@@
disqualification
71
numerous
alulekile
holidays
bhala
innovation
row
Discrimination
CK@@
Inanda
oked
YOKU@@
kwehl@@
alerted
njengendlela
ngokukhululeka
gets
yileyo
isifo
lwisana
ayil@@
swear
Following
fertilizers
Bu@@
nezil@@
imicabango
floor
profeshini
falling
zokush@@
esithize
divided
umhlalaphansi
sampling
pollutants
do@@
ukumelana
climatic
awulo
isimiso
inhloko
noMnu
ubho
atshelwa
Ak@@
fitting
surprised
communications
izukulwane
akanani
torture
pas@@
nhlobo
traced
Farm
onc@@
yolwazi
esingaphezu
Idolobha
ashintshwa
mus@@
Ukulungiswa
oMnyango
wancoma
ahlangene
ezinjalo
directions
zinsuku
ofika
ethulo
lesizwe
Ipasipoti
cos@@
shaya
okungezona
yourself
zeziFunda
ibizwa
ongoti
kuzodingeka
syn@@
nezinhloso
fence
suffered
Telkom
kwaze
iB@@
okungaba
ngebala
abhalane
amavolontiya
Pat@@
increases
Empowerment
azi@@
buyisela
har@@
Wednesday
Closes:
Fair@@
masses
unda
yoBulungiswa
ALO
esibi
eMpumalanga
sithathe
hlanganisela
obudlelwano
seDolobha
abaphakeli
imfihlo
ecstasy
isiKhungo
RA@@
kulandela
ozayo
Angeke
ukunyezwe
pers
Awards
imisele
kwenyanga
DS
crow@@
conjunction
person@@
Ulimi
fulfil
manufactured
negama
anyolo
biological
wezimboni
oka
ivamise
atshwa
wokuq@@
adlala
rejected
akashele
solely
meteorite
cluster
Ith@@
Operations
eliminate
Ukulawulwa
intensive
dam
amvu
xhaswa
nokufunda
Del@@
plain
Registrar:
HERITAGE
uphiko
obene
kumas@@
Stadium
isipho
feeding
ibela
ezingxenyeni
grazing
zang@@
ock@@
yaleso
may-
clean@@
ukushisa
futho
dropped
ebhizinisini
nomthethosisekelo
kumphakathi
siyo@@
not@@
Kosovo
considerations
motion
Indoda
ukuhlelwa
playing
eseng@@
arrival
ukonga
indle
abakhulu
reminded
iziny@@
etshenziswe
yiwo
kuma
anniversary
olwenziwe
ngemvume
zasekhaya
wokuth@@
igc@@
ikisayo
windows
emithombo
comb@@
njenge
intense
resilience
ombisile
Skills
DL@@
Bureau
notes
imininingo
ashwe
axazul@@
Amadoda
oned
esibalulekile
privileged
ilele
sebhizinisi
Ber@@
ukhuni
ungela
umumo
inevitable
ombi
ombo
ukuzimisela
kwezindaba
akun@@
khokhwa
yokwenziwa
Tradeport
patient
August
ulume
civilian
nesikhungo
amatayitela
abandakanyeka
saving
spoken
ungum@@
amahle
eziyisishiyagalombili
ayam@@
kwezitshalo
advertisement
eGoli
ononda
andlu
ensimbi
abuye
ukuzalwa
West@@
ongum@@
ombazane
government's
UNG@@
kulungele
obhek@@
practicable
nobumpofu
okwamukela
idizayini
ezosetshenziswa
formulated
wokulwa
cool@@
inti
ahlam@@
okwenzelwa
ngumasipala
olampilo
esichaza
sekus@@
lock
sibona
fundamentally
phakamisa
Kwezinye
Cebekhulu
greenhouse
ethela
enyezelwa
eradicate
1-@@
inyelele
ezithebeni
ucayi
archaeological
ongoza
zezombusazwe
Ukukhula
wastes
emi
travellers
kukhulunywa
Mlilwana
arch@@
gratitude
ukuthumela
andele
olubhekiswe
nezis@@
battle
ezinganhle
umbano
ezifakwe
pe@@
professionals
nokuj@@
discovered
yidokhumende
ophathina
kwezepolitiki
nomndeni
foot
ungcweti
umth@@
isiswa
amat@@
eZimbabwe
mit@@
stars
nenhl@@
ukwesekwa
yiBhodi
atory
okuthola
advertising
msulwa
akhokhise
wasnt
andlul@@
nezinkomba
esikhashana
zidinga
reviewed
yikh@@
herb@@
Ikageng
emkhathini
othando
isincomo
ngemibandela
Statistics
kwezinjongo
role-players
okuphathwa
you're
ngoLwesine
kuhlangatshezwane
constitutes
Ntuzuma
nemizamo
ker
maphakathi
ongaphansi
imini
med
odeli
all-@@
sikhuluma
ecela
ngokuzikhandla
fanelekile
Imibiko
aquatic
okweni
yedwa
automatically
idakamizwa
zokuthola
aphezu
Their
200
WO
komzimba
wake
metals
hlanganyelwe
workplace
zisebenze
wosiko
funayo
amabhasi
aqinisekisiwe
ukuhlanganiswa
Inkinga
izokwenza
ium
eqh@@
yokuqhutshwa
akham@@
,00
womuntu
nezincomo
aining
ibonelo
isise
cut
mid@@
sama@@
exped@@
varied
Air@@
UT@@
haliswa
difficulties
ekuxazululeni
ngokocansi
led@@
year@@
Iraqi
sezikh@@
port@@
Part@@
ukhiphe
selele
advocacy
Shabalala
ukuzitshwa
ELWA
eshise
isize
olusemthethweni
independence
associate
alule
bridge
nec@@
Amath@@
Awukho
distr@@
Forms
vaccination
ezikhokhelwa
ephezulu
figure
Januwari
besilisa
Izibalo
kuyadingeka
okukhombisa
achazwa
Lawa
obuye
okunciphisa
Oth@@
grass
aring
ibanga
kwesishayamthetho
R93
ahhovisi
babhekane
ide@@
lighting
isampuli
breeder's
contributions
esuka
xil@@
Kintinkyi
refuses
okusezingeni
sokuvuma
Attach
Audit
dala
explore
tampering
investigator
perhaps
Cat@@
andlululwa
sizimisele
usage
rare
volume
kobhaliso
Appeal
composed
spoke
nezinhl@@
cy@@
esey@@
zokuvimbela
vary
endima
ehambelana
Prac@@
prisons
tshalwa
i-South
kampani
collections
kungcono
unecala
befuna
proven
abeb@@
cind@@
wumthetho
okuzokwenziwa
Wor@@
ext@@
zithi
umeli
fragmented
esic@@
nikazi
Directors
anta
onogada
thousand
abafake
kuqhutshwa
succeeded
ap
a'
likaNdunankulu
Canada
khiqizi
akath@@
lwase@@
sel
ngokubhalwe
esilisa
indigent
tioned
aminerali
igxile
sizakusebenza
R20
ues
Kodwake
azeni
esikhishwe
sokudla
designs
igatsha
rap@@
cultures
ekutholeni
wokwenza
esimeme
akelwa
ball
ikhishwe
KWEZ@@
indications
aphathe
print@@
Umkhankaso
Mos@@
ezebiwe
vessels
ukelekile
di
Stoman
anela
Forestry
okwenz@@
nokuhlolwa
sika-@@
4000
camps
Ngqungquthela
Izikole
permanently
kwaq@@
Mineral
enberg
expanding
buyisana
ste@@
ibhalo
akhethe
Forensic
fort
qwaba
poorest
theth@@
zebiwe
siphumelele
invites
felt
owayeng@@
witnessed
ezengeziwe
okwehla
North@@
obedience
elincane
wesimo
esithathu
elona
Ngcobo
evaluate
obhekene
harmon@@
yokuphathwa
sikaMasipala
achievements
hiding
onakali
zokukhokha
ification
solo
somphakathi
minimise
ified
Inspectors
ezokuvakasha
ngan@@
investig@@
right-
nezigameko
Phoenix
nomb@@
eqenjini
Alternatively
elungile
pesheli
esho
administrations
ir
im
burg
digital
ukethe
aband@@
ngokungafanele
imperative
ngokukhetha
Minerals
hlangane
ombusazwe
voluntarily
engav@@
broken
lands
lwakho
ukudlulisa
talks
eds
omningi
OSTS
controlling
ded
walls
Delta-G
azeka
azeki
ummangalelwa
Virginia
ki
athazekile
less@@
elane
elani
amalayisense
amalayisensi
sicelo
crop
bama-@@
ehlathini
alile
ngemizamo
ree
rit@@
deprived
nosizo
lwayo
kungal@@
ukukhulisa
eyigugu
supportive
ngokudla
esivumelwano
pen@@
ge@@
okucatshangwa
ngokusetshenziswa
filling
washer
Take
shots
ibonelelo
kwi
izayini
lokuvikela
escape
gqugquzela
kucatshangelwa
confer
aying
yokuhlola
eziqinile
ukuphila
kokug@@
e-based
Ukuqokwa
esingen@@
zokuc@@
kokung@@
nhlangano
buye
kunikezwa
wezaManzi
enomlando
communicate
memb@@
uhlose
somshado
Nigeria
People
Oliver
efu
heavily
nokudidiyela
endule
kunzima
ubani
xoxo
ukugwema
izixazululo
abaqhuba
looks
profound
Stat@@
Okus@@
wephalamende
ababaleki
Histor@@
qunywa
amaminerali
ography
R5
rapid
mines
column
owe
Tel
okusebenzisa
Five
nonderogable
onsela
Paul
mithetho
Chad
chemistry
bat@@
isaphulelo
ethweni
hlinz@@
entrants
okwakulwelwa
NEZ@@
olayo
tol@@
worth
ukelwe
umphenyi
facilitating
07h30
South-South
icated
tory
alled
yohl@@
ebonakalayo
ijab@@
KwaMashu
Melika
ayisikhombisa
UMthetho-Sivivinyo
Atlantis
15h30
kwemithombo
wid@@
isihlabathi
ngokukhokha
guest
adlule
Dugmore
Delft
contempl@@
factor
olisa
Nobel
Headquarters
icious
peacekeeping
u-
Indaba
onq@@
kwemikhakha
Nob@@
akuf@@
othize
saba
element
qonda
specifications
deceptive
abakwazi
imililo
bridges
omali
hlanu
kwamabhuku
iywa
ukuhumusha
izoph@@
Under@@
zamabhizinisi
lav@@
qualification
kwenqubo
akas@@
Ka@@
Guidelines
azelwe
inspired
selokhu
possibly
iswane
denied
accepts
lisetshenziswa
wa:
instruc@@
nesitatimende
eziyisihlanu
Jo@@
EMDC
ination
feeds
umbule
Through
Cre@@
elelesi
abahlukumezekile
ncintiswano
obufakazi
non-sexist
sokuthumela
uring
abaphila
yo
intervene
urgently
uveze
Way
Ukuhlinzekwa
gama
Han@@
lokungena
woMphakathi
account@@
.9
neziph@@
.6
kokwenziwa
Aff@@
Eku@@
Federal
literacy
awarded
Ge@@
ngokwebala
ukuzimela
kwethulwa
yabadala
Ungqongqoshe
ungaphandle
attr@@
capac@@
legatsha
ekhipha
okiwe
hlinzekwa
uLanga
umama
warm
venue
ngabasebenzi
mic@@
iminotho
isiko
tiles
07
Ukukhokhela
iqu
CIDB
Erasmus
nokwehla
kwehliswe
esiphathelene
cease
inkolelo
aboshwa
yokubh@@
akalayo
ondela
kolelo
cindezelo
empahla
Avenue
arg@@
kulethwe
Apostille
dolobha
wind@@
buth@@
izingubo
iziyo
kwinqubo
ubukhona
mad@@
nin@@
ahlekile
nokuthuthuka
Red@@
ampula
ehlela
ngokulingana
Ig@@
Ntsebeza
Manor
kumazwe
azif@@
ibala
insertion
alia
noz@@
ukuwethamela
azanga
obuciko
qhathanisa
omela
champ@@
unya
wakhipha
atho
biggest
nabesifazane
nokuqapha
stipulated
akashelwa
consci@@
rank
ordered
uphi
delays
mobil@@
atheng@@
nezimp@@
kwezindlela
ukuqoka
izinsalela
ikhuluma
indirect
adv@@
iled
ophi
neS@@
nezinzuzo
ukumezi
osizo
ezizayo
Identification
okuyimpoqo
collaborative
utshani
adhere
ngamalungelo
umhlanganiso
osebenzisana
angakhetha
akuz@@
ukux@@
zezezimali
highlight
enqabe
kombiko
enecala
nokuhlinzekwa
onegunya
Mont@@
ngokufanayo
tures
kuzobe
namaphepha
igg@@
osetshenziselwa
iveza
volumes
izimfuneko
iminwe
zindaba
Njengengxenye
Okwesibili
ngokwengxenye
ente
ranging
ombulula
ryegrass
unkosikazi
esibophezelo
Account
Isamba
nokufakwa
layenti
Olympiad
nokuthatha
LOC
creative
ement@@
yes
fika
okom@@
remarks
umbh@@
enhloso
jumped
engang@@
ukubhala
ekhokhwayo
nokuf@@
Small
technologies
yilona
ekade
Ukumiswa
acids
teen
objections
Accelerated
ebambisene
authorisation
nezinqubomgomo
directives
ongena
ubuntu
Bay@@
virtually
yokhetho
UR@@
zokuvikela
isikhangiso
timela
Madiba
Composition
athumele
kuzov@@
Prof
negatively
ayikh@@
Diligence
epulazini
idokhumende
recruitment
kwiN@@
imil@@
kolawulo
ngamazinga
kwezinkinga
ABSA
ayi@@
engam@@
meets
ushiya
LA@@
protocol
zokugqoka
character
Direc@@
ehlinzeka
okwakuhlalwa
centred
salute
ekhono
kuch@@
eman@@
nabaq@@
Estate
kokhelo
sincerely
club
ngokungen@@
umhlahlandlela
noth@@
ezingenayo
izakhi
idiy@@
Iran's
emiphakathi
restrictions
ababeng@@
uMasipala
centuries
Kube
ishado
UC@@
certificate:
hon@@
abula
me@@
fuyo
taxable
icul@@
colour
ukuqoqa
elindelekile
Circumstances
accessibility
anqunywa
ten@@
cike
memorandum
plays
osuchithiwe
nezikhulu
bars
esisebenza
magistrate
ahlekelwe
lulunye
zika@@
sithathwa
BE
izimb@@
nokutshalwa
ngokuziphatha
Morgan
yomphakeli
ent-@@
nokuy@@
isiphathimandla
bag
CE
ekum@@
ly-@@
Ngokuvumelana
nokulungisa
Uhlaka
nezinhlaka
ailing
erv@@
abhek@@
possess
Organisation
fast
certification
yokuphila
councils
sekh@@
ehlinzekelwe
lakes
aziqhenya
oku
ungal@@
Flag
abaku@@
obana
KANYE
flags
Mak@@
wakwazi
fed
iphak@@
ulise
xazul@@
consum@@
pasture
lena
Professor
limi
pil@@
JCPS
ning@@
CSA
zikhona
aywe
Inqubomgomo
329
ros@@
lokukhokha
stor@@
uKhomishani
nesitifikedi
inkinobho
incike
esimanje
azwelonke
lwemisebenzi
emvume
ezimo
nokulethwa
executed
ezenzweni
Kuthiwa
ezenhlalakahle
salela
1974
isolated
metal
commence
okungab@@
cross-@@
sokwamukelwa
abangakwazi
kwezinkantolo
ijabulisa
ikhokh@@
supplying
memory
ukwethulwa
izimbewu
inkomba
Obtain
obuhle
accorded
nend@@
Data
ebo
kosikazi
lukaSheduli
deposited
yilelo
ibhamu
alutho
super@@
Qh@@
njengendawo
symbol
ured
kwesizwe
eziphak@@
ukungenela
Joseph
amabhanoyi
endoda
kukhishwa
zamarandi
Fakelani
idiyela
du@@
Cont@@
Robert
por@@
KA
ngezimoto
Min@@
Shayamthetho
withdrawn
ezingxoxweni
yokuvuma
sebenzela
maize
amasonto
illegally
climbed
ity@@
wrong
lombuso
ukwe
onz@@
ACK@@
ogama
ful@@
Excise
employ
ezivele
aded
speakers
sofuba
othengela
counter@@
backlogs
ibekwe
okusakaza
26@@
Gugulethu
iver
ngemiphumela
imbeli
Out@@
h00
waqala
sane
ifying
humusha
astr@@
ngicela
linqume
abachazwe
sizwa
Names
kamantshi
thombo
ezejwayelekile
soco
sithola
Phoyisa
iSouth
Apex
lum@@
kwezomthetho
irrigation
we-franchise
yekh@@
ajaji
kwakw@@
yedolobha
nokuch@@
phakamiso
eyingozi
adalwa
engajwayelekile
conclude
avumelani
ajele
Bethlehem
Umhlaba
ngezinsiza
esiqinile
oniphe
taxpayer's
ongameli
ncazelo
ngabo
okuvimbela
dumping
refugee
ems
Jelf
abavakashi
counterparts
thanks
simemezelo
ubuliminingi
nanye
zav@@
regardless
ngokubheka
Comm@@
akade
implications
,6
aming
disclosed
kang@@
livestock
wezoHwebo
losses
isayensi
kwamal@@
ces
wokuphatha
anisiwe
ukubezeka
kukhonjiswe
uvakashele
amashumi
French
meli
kokum@@
Mama
abanamakhono
babaleka
consistency
competitions
Taylor
abheka
performances
TV
telling
zomphakeli
Off@@
ashintshe
nikeza
eziGungu
engamela
esiFundeni
okubhekiselwe
emaph@@
zikwazi
itable
accidents
lokuxoxisana
Stud@@
sorry
roof
Ukudluliselwa
ngabathengi
extra-@@
ubile
Ministerial
samazwe
UKhomishani
ukuhanjiswa
Lapha
Langa
ontilaki
imakethe
ukhombise
Highway
indodakazi
okwel@@
nobunzima
attract
mobilise
intekayo
ekun@@
amaqhinga
interesting
conventions
udokotela
facilitation
luyaqhubeka
wezifundazwe
inequalities
ayisihlanu
kunyaka
unjwa
promising
cancelled
sokwenziwa
yokususa
imikhuba
applic@@
malaria
vik@@
yesiBhakabhaka
ezitokisini
ehluka
babh@@
abele
wezigidigidi
Sep@@
ayimane
absolutely
langaphandle
isitshalo
situations
Ngiyethemba
YO
EC@@
applicants
MANAGEMENT
hunyushwa
thuthukiswa
effluent
qashi
assessments
Beach
akaq@@
R10
usayine
izik@@
Phezu
finalise
ikam@@
400
enganyelwa
ondl@@
nasemhlabeni
obuntu
uphuma
elanayo
scientists
spokesperson
Bar@@
eting
reiterate
unom@@
iKhabhinethi
marginalised
omhlangano
53
aha
Environment
ihlangano
phenyo
iyela
ekuqinisekiseni
fan@@
kepha
nomkhakha
kungakh@@
vital
Italian
izethulo
fought
sendalo
kokuthuthukiswa
Madame
Banks
lokwandisa
abeka
nokubulawa
ethulela
sequ@@
Amal@@
lokwamukela
ngokuqonde
esikhombisa
omishane
ozonke
ngelungelo
ezisebenzisa
amalitha
wezezimali
terrestrial
prejudice
inkohlakalo
Unfair
okuqondiswe
Proof
separately
departmental
handled
ashiswa
allowing
occupation
apo
lwezifundo
wezolimo
abahlang@@
unknown
noqeqesho
semfundo
ohlinzeka
decent
Ter@@
imbewu
ukudlala
zesiKhungo
Cashier
reliable
kakh@@
Presidential
amayunithi
athintane
emijondolo
obamba
hidden
structural
waso
021
awus@@
ebeb@@
ngokunikeza
ithombo
financially
Shaka
27@@
i-T@@
ahulumeni
privilege
ves
agcinwa
ips
ngokugcwalisa
ilomitha
apparent
onikwa
inkonzo
kona
ambela
breakthrough
inqwaba
kaMantshi
isethulo
Thethosisekelo
ibopho
Ukukhiqizwa
ebenz@@
railway
iphele
iphela
afterwards
contingent
eyayis@@
e/@@
installations
abus@@
okusetshenziswa
documents:
indicating
propose
transmission
expedient
njengokw@@
sizaku@@
optim@@
Prime
itholakale
uthando
Quality
Mbongeleni
ngesivumelwano
CPI
elekelela
othuthukisa
Lom@@
kweNkantolo
zosayizi
ministers
ngokukazwelonke
emapulazini
perpetrators
-out
colleagues
tortured
acisa
temporarily
fakwa
meleli
pho
okumbiwa
uKaputeni
Petroleum
semen
wet@@
ezinqala
ezile
-related
abayo
nokusesha
omakhalekhukhwini
rob@@
Cha@@
ijini
Izinkampani
incorporated
isiqondiso
notion
emukelwe
ukudala
ahlanganiswa
sakha
AGOA
kokulawula
delighted
izaziso
handle
window
em
cost-effective
aqondana
Ukugqugquzela
okhethwe
aka-@@
shortages
abafufusayo
qugquzelwa
withdrawal
udala
illi@@
nodes
witnesses
ukukhiqizwa
tendered
kweso
bushes
eyengeziwe
usile
gcina
wehl@@
amahhashi
komhlangano
quota
achaze
atheki
indondo
akhuthaze
amadolobha
athimandla
luv@@
we:
eR@@
Individuals
komba
Amagama
negunya
exclusion
build@@
fuels
thengiselana
umelelayo
ongwa
ezingamaGugu
zalesi
iNhloko
Sen@@
Adv@@
egcekeni
prominent
asosiyesheni
aqinisekiswe
evaluated
supporters
black@@
zasolwandle
is:
plains
umkhondo
simultaneously
imbandakanya
ubhalise
qiniso
'll
osikazi
ip
ig
Austria
gift
Njalo
esithunzi
ezihlukile
edelwa
otshaniswa
suspec@@
zimela
Gcina
sworn
Ngempela
beachfront
amaw@@
communicated
kwezifunda
whereabouts
amahhala
wezinkampani
lithathe
assessing
starting
ER@@
ehlo
den
Plans
Esikh@@
elec@@
Contin@@
carefully
egculisayo
zesiFundazwe
indl@@
ngoLwesibili
plani
recycling
qoba
Moh@@
kokh@@
ezinkinga
wholly
kwezinhlaka
Select
babhalise
inisekile
luph@@
Managers
disruption
izisebenzi
Anti-@@
ukulinganisa
uhlinzeka
Ikaneng
Cluster
cattle
elisemthethweni
Bobabili
progressing
Intsha
zangaphandle
1984
Chile
kwabathathu
biotechnology
ders
uhambisane
amakhambi
ukubukeka
idokodo
nabamele
e-ke
oriented
Khabhinethi
Khabhinethe
PUBLIC
nelungu
greatest
tif@@
NOKU@@
John
kungafanele
ich
nezimoto
ny
Sihalalisela
preceding
substitution
1st
Unusual
yiqiniso
ank
komhlabathi
Gandhi
connec@@
thengiswa
ngenkani
ngiyazi
dum@@
Isitatimende
nezifo
othenga
ngendawo
ezivumelwaneni
ukufundisa
Potgieter
Madikizela-Mandela
ukwenzela
esanda
gun
entsh@@
nong@@
yenhlangano
imuphi
okuyim@@
ANE
license
ENT@@
sort
kosi
ngalolu
,7
ezisogwini
Rennie
umklamo
ulekayo
eziye
zemidlalo
qa
olubizwa
nokuphoqelelwa
ene@@
exp@@
lePhalamende
Desk
i-Form
deprivation
Maritime
Natali
oo@@
yobu@@
kuZwelonke
yokusetshenziswa
ethuba
palatable
sepasipoti
launching
okutholakele
152
uyisela
activated
kwimvelo
afisa
97
ubeke
Bi@@
haliwe
zePhalamende
undertook
ukungal@@
esibili
convene
winters
nokuny@@
thamo
ehluk@@
evuma
ovumela
okubhek@@
Iwaranti
yobunhloli
okhetho
Izindaba
ethics
Michael
ondla
sentela
belief
rail
abhekana
abhalisiwe
yempahla
Limited
Totals
indali
ie@@
abe-SARS
yocingo
behlomile
Namuhla
amalevi
olishi
bodily
anika
slip
hawu
ezingu-12
kumsebenzi
izigidi
allegation
nominees
endi
yokuqinisekisa
ukwephulwa
DEAT
10111
Engineers
isikhalo
uphula
imaza
uqaphele
Moosa
asemanzini
isers
observations
kobudlelwane
enters
occup@@
ngoqeqesho
publicly
Imin@@
amasampuli
prove
ubunzima
kwek@@
vicinity
kers
ahlali
esingu
entrusted
sazi
obunikazi
ukusebenzelana
enabling
imfuneko
freely
ukukhanya
aziwayo
dlulise
setshenziswa
nobu@@
ngeposi
cows
bow@@
ngokukhipha
y:
yn
wuhulumeni
abax@@
inini
odana
complies
Was
Amaqembu
Govern@@
azul@@
ukubusa
.5
Bridge
nomnikazi
ekusizeni
za
esidi
kudingeke
ashaywa
practitioners
expires
kwamath@@
bases
enting
oyimpoqo
slowly
corresponding
ulwini
itsha
amathafa
townships
nokux@@
ukayo
namanani
ifakelwe
nezinhlinzeko
buyekeza
bond
abangasebenzi
umula
sanoma
decides
Uph@@
hloso
-to-@@
SO@@
ngokuvamile
ohlanganisa
auction
Mth@@
hotels
sustainability
kuthatha
ezingak@@
rot@@
okwamukelwa
workshop
POLICY
senziwa
mixed
kanj@@
empumalanga
iKomidi
amabhomu
weswe
prop@@
Recogn@@
returning
qondise
Organisations
ONKE
etshenzisiwe
khokhi
ukwehlukana
computers
iqala
SH@@
materially
electoral
ensured
College
sokuth@@
alazo
antly
constitu@@
yokuvikela
Gener@@
yomnotho
recreation
nezidakamizwa
decrease
waneni
phakama
drop@@
nabafundi
ibophezelo
Saturday
controls
liaise
kohlaka
qhubekisa
coherent
okungafanele
Mag@@
essed
nezindinganiso
Ukuchitshiyelwa
Injongo
031-@@
axox@@
kukhul@@
1962
wer@@
kuxhumana
ezimbewu
Cuba
bhekana
Sihl@@
shintsha
yahl@@
Eff@@
inherited
amalahle
ngokohlanga
SERVICE
avalwa
lokufunana
Wyk
engab@@
utshwa
agesi
ilobha
yiwona
oshelwe
olekisa
short@@
okunikeza
weaknesses
differ
ezibandakanya
decline
izikhala
Last
consist
characteristic
indicator
ezinzima
abahola
Amathuba
Wendy
84
kuqedwe
nenzuzo
met@@
Umphumela
ungena
acquired
esifundo
Associ@@
idiyelwe
cina
Galeshewe
Ukutshalwa
ombholo
asosiyeshini
Conciliation
ubhu
kwisikhungo
ekwazi
iMithethosivivinywa
othula
ushintsh@@
ngokwen@@
94
96
elij@@
viewing
Code
esty
ibhekene
yokum@@
ufak@@
imiqondo
onhlalonhle
mitigation
levies
mang@@
poses
zokuxhumana
disqualified
zokukhiqiza
:-
fer@@
validity
nabathengi
structured
graph@@
prime
abangab@@
lanes
bewu
emalokishini
actors
offenders
Vienna
Ti@@
lokush@@
ukuxazululwa
burning
Maiden
walks
emfundweni
ngalobo
ith
alls
suspects@@
kungak@@
u-R@@
act@@
ibhola
ngokuzalwa
bangene
iliyoni
quest
amph@@
religion
Leyo
Ul@@
yekhompuyutha
lar@@
Ambassador
etheni
ode
duplicate
wokwengamela
Afric@@
ezenz@@
sent@@
elibekiwe
produces
transparent
Directorate:
Ke@@
izinhl@@
zeminwe
wire
Qaphela
USihlalo
selayisensi
u-A@@
salaries
lamavoti
patri@@
Ukuqhubeka
ezinomlando
nobufakazi
iletha
ompi
pending
Adult
zesigatshana
Intela
wed@@
emphasise
lwezempilo
kwemibono
ukuphumelela
Thimba
properties
ngokunengqondo
Ukwes@@
Exp@@
WILL
downloaded
izimvo
isiy@@
zomthethosisekelo
aqokwe
contr@@
elivela
assumes
deadline
shintsh@@
akapheli
lit
ukaniswe
umfowabo
characteristics
throwing
Les@@
nokufinyelela
aphile
indlala
yesiFundazwe
umbandela
uxhumane
eating
block
sibeka
sibeke
ufaka
Mahatma
dissolved
hodlela
aqale
ompiyutha
attending
high-level
nezi@@
ethekile
sesikhathi
harder
wamukelwe
eMnyangweni
Assistant
ikhokhwe
ingqikithi
Technical:
Like
Izikhala
abekwa
lights
ezindala
landscape
ngokuthola
okufundela
utshungulwa
zamo
uthuma
aer@@
Planning
nabath@@
oyinhloko
Ill
ilisa
enter@@
iqondise
amathuluzi
wokuvikelwa
ngase@@
Early
kulawulwa
potentially
commit
litter
employees'
abangezanga
useful
lwentuthuko
requesting
went@@
audited
magama
yangempela
Judge
movements
fellow
Izig@@
Year
ukiso
ungiswe
initi@@
hlanz@@
ubuso
Ban
Construction
ishiya
ikelele
ahlukana
kunom@@
esikhona
responses
anakwa
zingxenye
obani
nemikh@@
bit
conducive
baqinisekise
Izwe
ukulahlwa
inikezwe
nokudoba
asin@@
nambili
south
enkinga
udu
observed
Izinsiza
ngokuxhumana
Bishop
after@@
define
kokwenza
ehlinzekwe
Airport
ukuphanga
sibh@@
inspectors
Ngoba
bangasese
Vehicle
hoxisa
ElBaradei
advances
eluleko
Mqulu
agcine
R8@@
yentengo
kuyingxenye
Okubalulekile
eziyisishiyagalolunye
doors
BO@@
detective
Wesiteshi
okunjalo
bhalisa
Ilayisense
omnyama
suddenly
olwenziwa
esem@@
eziw@@
departure
scientist
oyina
convinced
uL@@
Isikhwama
1014
ikijela
nokuqeqeshwa
improper
engena
ngomuntu
ezama
credible
sifake
echwebeni
amabhodi
inganayo
painted
zisuka
lomthethosisekelo
ngokumaqondana
wile
Hope
komthethosisekelo
rocket
flu@@
appointing
enywe
lokuthuthukiswa
ezindl@@
esenziwa
elashwa
Iziphakamiso
century
ukwa
isekile
mouth
ation:
recover
12:30
Elsenburg
ngenisa
Sonke
kudl@@
Children's
ahlanzekile
Kanye
SM@@
suspension
Eyobuchwepheshe:
nezitshalo
ont
knowingly
kwezikh@@
're
can't
nemidlalo
lenkampani
Blatter
ezu
intensified
avuselelwa
Kule
ceramic
seshi
zamasiko
aphakeme
alter@@
esheni
TR@@
amalala
oxolo
lomunye
ohlangothini
Addis
Tenderers
kolunye
uzisa
alization
laso
ngasese
haj@@
despite
Market
Resid@@
inations
barr@@
Os
lokung@@
tifikedi
thats
kusen@@
akala
ratification
nt@@
Oos@@
comprising
error
emag@@
kokubh@@
of:
abathengisa
umz@@
kwabaqashi
ngobuchwepheshe
nensangu
kwabasolwa
ngabi
okukhokha
R500
yobandlululo
Master's
ebusika
sakazo
ihlalo
waj@@
andelayo:
ingcebo
CIPRO
zezinto
uthazwa
estation
CMA
Ford
ithini
zenhlalakahle
CM5
didn't
Phiko
Asvat
Kwa@@
eziny@@
kanyekanye
sokubhalisela
ukunqoba
passenger
,8
ezolimo
Lwesihlanu
verbal
maqembu
math@@
ails
okeng
learner
mthengi
Radi@@
reject
@@@
ezimpilweni
ezitsh@@
lokubulala
France
R100m
zize
youngsters
ayeb@@
showing
ngalingani
UMasipala
obon@@
Kokulingana
silence
robust
nomlando
zokudlala
intuthwane
unabridged
MEM@@
bezindawo
hlolanja
olontiya
powerful
ngesihluku
bangenza
lwas@@
ngokwenele
sebenzini
speaker
yokuhlela
Internal
CON@@
Ehud
eSoweto
umeleli
fulegi
ovu
skins
sokushona
lokudla
begins
nemvume
Hos@@
oms
ezelayo
engazange
VA
VW
ells
oqokelwe
2005-0@@
ikisho
UWC
ziba
lokubhukuda
iously
DSR
Lotus
mil@@
143
ngay@@
enjini
isetshenziswa
speaking
incidence
reiterated
ISekela
ethayo
ision
le-CK@@
ukisa
elw@@
compiling
trus@@
kubi
convened
identifying
sou@@
lesifunda
zokulahla
images
outs
uzaku@@
nokugqekeza
ayidi
guards
heartfelt
inteka
ulum@@
Partnership
amahlombe
zesikole
nokuhlanganisa
oMkhulu
neBhodi
ezom@@
yicala
Okungenani
asihlalo
kuqinisekisa
fetch
fif@@
eses@@
okoph@@
yard
ahhotela
sibambe
nokuphanga
Tro@@
metered
Week@@
MAN@@
app@@
elev@@
Ins@@
okusemandleni
uhambe
uhamba
AF@@
incane
nay@@
time-@@
uhlungu
MT@@
umshini
nezimpawu
ezahlukahlukene
obuhleliwe
empower
wemoto
ufund@@
tion:
decision-making
izeni
kwizinga
eliya
substances
uzof@@
kweziy@@
goes
Investig@@
Eqinisweni
Ukubuyekeza
inganis@@
jwa
2007-05-14
xolo
ebe@@
ukuthunyelwa
commitments
iyunithi
obuya
enjoys
donations
PO
sak@@
intr@@
kwamasosha
ZOKU@@
abazekayo
ezentengiselwano
yemvume
kwesith@@
lifeguards
nokuqinisa
accommodated
avikelwe
HR@@
hill
fallen
aves
ingatha
voucher
yelungelo
founding
taxis
ing-
amadala
vaccine
fulfilling
gang
apa
SITE
SACNASP
justifiable
tenure
ezitholakala
iland@@
kwezohwebo
Areas
ebile
tshisekelo
IEC
Olmert
esiqiniseko
otshwa
vi@@
struc@@
waboshwa
amin@@
carries
promise
sihambisane
yezitshalo
yiN@@
KWAZULU-NATALI
bakhona
ukulungiselela
Consular
ngokuqhubekayo
ects
nomgomo
lift
ven@@
ndaw@@
zentela
ohluleka
lokum@@
zezibalo
agunyaziwe
kwikhompyutha
isan@@
Indians
ngic@@
okhuthaza
wherever
adingekile
marginalisation
counter-@@
ekhokhwe
Who
lokuthengisa
brut@@
ensangu
ukumisa
Strip
sih@@
reas@@
organ@@
globally
basemakhaya
64
uqeqesho
dlame
three-@@
inkokhiso
alamende
ozuza
archives
yemiphakathi
Umlazi
experiencing
ministerial
refusal
ondoloz@@
aphumelele
inamba
i-National
evamise
ukuxhaswa
bs
ACT
chith@@
kwimikhakha
Park?
inqobo
Khokha
Malungu
kwiS@@
Cato
esiphethe
briefing
wamacala
ce
fakwe
oqiwe
acknowledgement
accelerating
Umkhumbi
ekukhuleni
ezokwenza
celebration
athiwe
ondoloza
districts
zaba
wezingxoxo
hosted
zodlame
kwesiGungu
ePitoli
Lim@@
Epreli
Amad@@
kumazinga
WH@@
aneli
Worcester
imikhankaso
lokuqhuba
Bloemfontein
2007-
nokubamba
flat
amanje
anana
lase-Afrika
guqulwa
enquma
Ug@@
yoGu
summon
Paarl
sundu
Even
strengthened
sheet
eder@@
breakfast
fanelo
NATIONAL
iyamu
abisa
wokulawula
fruit
neziphakamiso
execution
onk@@
ABANTU
Director-General:
iziq@@
soldier
ubanzi
uningi
kuvele
environmentally
lendlela
ofu
salary
ezabelwe
ekutheng@@
engalungile
.348@@
Gar@@
oGwini
unenhloso
ngandlela
UNobhala
guarantees
lingana
Slovo
nefomu
mangalelwa
eligcwalisiwe
ases
Hamba
esisemthethweni
Len@@
Spatial
zokusetshenziswa
sha
sole
precious
effected
sibi
accurate
266
ililo
Ingqungquthela
Nokuvinjelwa
dynamic
elimele
emath@@
ezisemakhaya
yomthethosisekelo
assent
emabh@@
impimpi
kwemininingwane
intsh@@
angqondo
izoq@@
ngalowo
Sizaku@@
zokuhweba
SAN@@
sibala
qubuka
Kunoma
ops
esinq@@
Draft
ford
utes
Ibhodi
1991
Ngi@@
ally-@@
jugs
tile
ngokunye
inhabitants
Abesifazane
adi@@
zan@@
ISO
continuous
ivosi
Randburg
nenzalo
obunhloli
elimin@@
Bud@@
wokul@@
aziye
Island
alungile
kubhaliswe
,4@@
ngokubanzi
prosecutors
azimisele
kwama
oqelelwa
Ben@@
Officers
U-Aice
ivawusha
ko
Tol@@
bathathe
lokug@@
Lesis@@
cents
spend
e-A@@
yebhangi
ambuzane
minors
appreciation
Kuze
njengesi@@
lwangaphakathi
bokuqala
retain
ekahle
WENI
kwesig@@
kwamas@@
emaqenjini
UMA
wezi
essentially
iyalezo
consequ@@
ekeleni
kuhlinzekwe
1988
wok@@
estimates
lers
ml
izehlakalo
enu
UKW@@
Urban
ezinyathelo
Academy
Netherlands
able@@
eyiphu
ukweba
onzima
dlavuza
OC@@
thuthuka
ayine
Cer@@
na
ophelela
PAL@@
nezimboni
ogcwele
Oupa
profit
uphofu
esweleka
Geographical
surveys
indluzula
ukudiliva
ongaphambi
hardly
abaphuma
bylaws
ol
stre@@
worst
commits
ngomnyaka
accompl@@
amaholide
enganeni
bigger
elibi
ehlanganisa
nokuhlala
wezeMfundo
esesekwe
Mayoral
lama@@
newsletter
Corolla
examinations
enhlangano
parliament
iphathe
umbana
kabuhlungu
elithi:
Izifundo
Kin@@
amaqhawe
ngokwethembeka
ubun@@
optimally
liber@@
Ababa
eziphuma
cross
residing
R9
owa
ibhekele
sokukhokhelwa
maintains
ideological
recognises
ekuc@@
ekhangisiwe
imeyili
nemb@@
revenues
Blo@@
easier
yeph@@
won
ayisishiyagalombili
pressures
investors
ezizungeze
Kusolakala
kususwe
abhorethri
Personal
mostly
enyi
ukunakekela
ivele
amavoti
236
optimal
ebenzise
Klerk
nokuThuthukiswa
alekayo
Wabathengi
Minimisation
ngayiphi
memories
Mozambique
adjud@@
hed
hlolovo
ayatholakala
ongela
icating
Atlantic
ris@@
Siq@@
akazela
ein
ukukhubazeka
aphu
akwa-SAPS
suggestions
calm
199@@
olusebenza
educators
ohlukunyeziwe
accepting
revolutionary
gold
enhlanganweni
eman
spo@@
church
nencazelo
Methodist
uMbongeleni
Eyefeksi:
athand@@
sibhekene
akheka
counter
ambilini
eNgome
buyela
ngogesi
umuthi
Vi@@
bangaph@@
disaster
njengoMongameli
ukuma
reproduction
ezingu-10
Oudtshoorn
Sandton
ngezikh@@
Her
accident
va
vu
engal@@
okungena
password
Wit@@
aul@@
bott@@
Nayager
kuvikelwe
ungath@@
highlights
oluthe
zezindawo
ingcele
vikeleka
latter
construc@@
Wena
ukuqasha
andile
cut@@
besi@@
promises
nokukhuthaza
kheli
Fynbos
cwasana
Ukuhlolwa
vikeli
kohl@@
ngesimemezelo
Investigations
cubunguli
nokubeka
Leeds
mond
alandelwa
informer
eral
weS@@
zomgwaqo
waza
angu-48
anelisa
Brid@@
lwemali
nokuhlangana
ifu
occasions
bahambe
ukubuyisela
Transfrontier
ngezindawo
essing
unquma
awazi
unikazi
olungisa
ezingavamile
gathering
northern
despair
complied
generating
lilonke
thetho-sisekelo
uHlelo
draw@@
yaph@@
iqondiswe
.3
sizoqhubeka
iyaqhubeka
UG@@
xenophobia
ushokobezi
ille
ezip@@
amhlophe
acker
ophawu
ephulwa
ezindlela
ishane
azim@@
asemthethweni
SAOM
lwenqubomgomo
ean
Durban's
qalazinda
banikeza
UDkt
enta
osihlalo
nokuxoxisana
dep@@
ukudidiyelwa
DL1
wabanisa
kubalwa
ngokubonelela
izindiza
Albert
umulo
au@@
personally
kin
commemor@@
there@@
eyona
unnecessary
Arcadia
nengxenye
uzokw@@
TER
IBamba
esele
Presidency
nokwenyuka
yezentengiselwano
nguwe
undisclosed
ehlukahlukene
attorneys
signage
ora
Izimpawu
nkinga
Disemba
palaeontological
ubunikazi
lwanoma
eyisithupha
Lanka
embi
yezimoto
okukhul@@
900
avumelekile
Falati
baqale
ashed
afan@@
nokuhlanganiswa
ekhanda
yeminyango
Wil@@
Kuphinde
classes
sebenza
Ngifuna
kokuziphatha
Projects
bor@@
abize
forest
esses
u-Master
ngokuvuma
Servic@@
eleki
York
ekudleni
Transitional
match
yohlolo
nezithunywa
simpl@@
Izakhamizi
solemn
bah@@
Ud@@
Excellency
cle
siqinise
thethosisekelo
fat@@
okudala
eqa
1965
ezingxenye
yokwethembeka
onyane
Glen
above-mentioned
tak@@
weak
Umnikazi
suggest
James
rol@@
eld
marriages
elawayeka
kwemfundo
Grassy
obtaining
emnyango
wawung@@
cop@@
nsuku
Log@@
ehlongozwayo
male
furnished
Pandor
kubuyiselwe
koMnotho
rapidly
minister
expanded
ntambama
furniture
asikho
Oper@@
Namibia
kwempilo
Kuzoba
lentela
zokungena
influenced
oye
ANC@@
umhlali
nokuqokwa
nokukwazi
stampede
olakalayo
saleyo
liabilities
Germany
nezimiso
critically
kufake
uKh@@
wezindawo
ukucabanga
ininjela
Armscor
011
iphethishini
smaller
Acrobat
esisebenzayo
usiwe
zingenziwa
esinikezwe
enwe
lwama-@@
ibhekane
angle
ukudlula
zeng@@
thir@@
Ngokum@@
tured
Wokukhuthazwa
oludingekayo
nebh@@
lwase-@@
emezele
platforms
Pty
cross-examination
ruling
ranks
nemindeni
brings
weph@@
kon@@
beauty
abhizinisi
suspend
aseli
owethu
Izincwadi
blu@@
ulawe
yobugebengu
Aw@@
zase
-down
kwizinto
102
idilobha
abayishumi
levied
Kunesidingo
yizimo
tuna
iniseka
prison
consensus
devices
Six
elo:
inywa
essence
abalele
ukubanjwa
Elizabeth
emibono
yokudla
zohlelo
Indlu
eqeshelwa
codes
Sezwe
ongozwe
kweletu
Hon
ye-VAT
graduate
Remedies
nemihlangano
uyakh@@
osetshenzwa
guquka
ehlomile
brutal
Russian
kumnyango
bokwenza
FOR@@
yathi
retained
Prosecuting
ukwehluka
agugu
besimanje
endabuko
approaching
thengisela
hlonishwa
dead
indez@@
ngaku@@
izihl@@
invalid
beneficial
ngokwenani
scor@@
ody
odo
tools
ochithiwe
archival
umlingani
kwenhl@@
ofana
yenhl@@
ete
Prot@@
ation's
aphend@@
abanelungelo
zithole
eleleni
kusi@@
Botha
inqume
inquma
loans
yaqala
planting
ngesibhamu
wokuphathwa
uqalile
inkunzi
athathu
umbene
deducted
cinwe
nokuqeda
ikhokhele
ahlelwa
diesel
ufakazi
walowo
izamo
eries
ever@@
lad@@
catering
Night
endebe
Char@@
falsely
yayin@@
Arbitration
Igatsha
ngokwemvelo
yizin@@
ukuphela
izikhalazo
ezimile
ongasekho
enyisisa
Bang@@
Ndebele
alaz@@
Ukutholakala
zekh@@
Developing
propaganda
elisayo
okukhiqiza
ecishe
SAS@@
attributable
ezit@@
isifundo
lokuthula
ukan@@
angasese
ngomoya
kwezivumelwano
earliest
mkh@@
sentences
sesithathu
onayo
centr@@
sensitive
ngumbuso
ilandela
nabezindaba
obuth@@
yel@@
AN
Pos@@
othisi
iev@@
bio-@@
izabelo
zezolimo
KwaZulu-
testified
maph@@
isifungo
ezifaka
globe
Jud@@
Nez@@
itor
ngesiphakamiso
exactly
08600
nethimba
ezingezona
well-being
siyaqhubeka
career
nokuzinikela
wayen@@
recruited
cwalise
army
zama
Infrastructure
izihibe
responsive
olwayo
grade
participated
deep@@
Manenberg
sizob@@
wearing
onelela
olude
Given
targeting
threw
Cs
akaniphile
sehl@@
eter@@
Iqhaza
hy@@
abhalwe
ongas@@
ngezinguquko
Coll@@
SETA
school@@
ngamaphesenti
angaba
staying
Elihl@@
ukuhlonipha
uV@@
Zambia
upgrading
Rem@@
shopping
stabil@@
awini
eGaza
absor@@
institution@@
okuthula
abac@@
ikhuba
imihlomulo
compromise
esisele
Dem@@
awulwe
exhib@@
aircraft
uqulwe
sezib@@
kithina
contacts
nesipiliyoni
esishicilelwe
oncomekayo
female
kunokuba
journalists
emihlangano
bokuhl@@
confirms
phas@@
labe-@@
emhlophe
R30
dlulisele
nekhophi
xhaswe
psych@@
okwandisa
IZINHL@@
tremendous
appearance
ngesiqondiso
down@@
articul@@
guard
uxhaso
legacies
angazelela
esikhungo
kicked
forums
esikhumba
kuhlanganise
afakela
turing
ngokom@@
akile
ran
contacted
ock
faced
amn@@
posi@@
abatshali
combat
ncane
ubude
eluleka
ekwehliseni
ingidwa
constitutionality
BRT
eqhaza
oshelwa
kuleminyaka
sinika
quick
termin@@
ukuzwa
cant
secured
Citizen
Bhakabhaka
photograph
afinyelela
azwi
emeza
captured
mandla
enhlanhla
synthetic
stick
ilazi
yilokho
avunyelwa
Kileken
relate
edlulile
opposition
pharmac@@
abahlwempu
ekiswa
Power
nezizathu
Population
Functions
yeS@@
ediwe
iest
umbe
somhlaba
esikhala
Ot@@
weqembu
6-@@
sectional
Ikheli
undue
engaphezulu
nendima
shuwalensi
nomakhalekhukhwini
yezingxoxo
nosh@@
stadiums
privileges
kwesifunda
116
locate
herds
significantly
oured
imiqulu
ungelo
ngelinye
rebel
locked
wani
honest
nokuTshalwa
sizi
adapt
housebreakings
eliminated
ukuqeqesha
kr@@
imemezelo
deliberately
ukumela
hay
ongaph@@
net@@
beings
athiswa
bazo
Def@@
transported
Gardens
kubafundi
ivakashi
embark
Lang@@
ulelekile
acking
abalulekile
orch@@
ekuz@@
quarter
internet
incentives
ond
proactive
wokukhokha
imperatives
ezwenikazi
ibhek@@
Re-@@
co-ordination
verified
igwaqo
waleso
Ukusekelwa
basebenza
ukhokh@@
Dep@@
cithakalo
asize
Deeds
attendance
okungcebeleka
uqinisekisa
ababambiqhaza
ukubala
yithemba
roots
isigqoko
ungaz@@
tives
ikholelwa
iliphi
kunoku@@
kuse@@
empowering
counselling
pressed
ehlelwe
Ngu-@@
akamelo
petitions
world-class
baby
sibone
sporting
imizwa
ukuqonda
ature
compar@@
PA
nokulandelayo:
neminyaka
ilisana
Number
hloselwe
moves
izint@@
ots
reconsideration
uTh@@
oxh@@
elapha
nokuhamba
zenkampani
khetho
pointing
iziN@@
Marg@@
khathi
kuyacaca
ert
eri
ngokuland@@
resignation
okuchaza
trainers
emph@@
Correctional
shintshanisa
enhancement
nger@@
UMB@@
degradation
adap@@
IZIM@@
nokukhubazeka
humble
ukwelashwa
Durban@@
zamakh@@
eziphakathi
nkathi
beds
unankulu
zolwazi
nogesi
yakh@@
tries
caught
Mafikeng
se-franchise
kwehle
kwehla
ayisishagalombili
intimid@@
tropical
kokulandela
ngamanani
eyadlula
kuqalwe
isiswe
registry
iteleka
yokukhiqiza
USomlomo
Mash@@
excess
oqwe
qugquzele
vigilance
emad@@
INkampani
nesikh@@
settle
nezihl@@
breeders'
nhloso
zokugada
ukubandlulula
wamukela
asser@@
empty
zidingo
kuhlanganiswa
ithokoz@@
xoxisana
yomenzi
yokukhuthaza
23@@
noS@@
ebumbene
kukhokhwe
imith@@
enziwayo
legisl@@
washona
historically
i-M@@
ngiv@@
credibility
abaqondisi
isigunyazo
ipped
angath@@
kwisi@@
akhaya
efika
Nkampani
kwamukelwe
library
kuvamise
ebantwini
ingredients
Nyuvesi
unyaze
zamanje
ezohwebo
anie
Secondly
zwa
ngengxenye
eshintsh@@
ucabange
okhokhwa
UKhomishana
weekends
ushiswa
onhlalakahle
deeper
Process
ukungab@@
etting
ngibonge
uthathwa
ukuhlukanisa
buffer
eMisebenzi
Isib@@
Iphrojekthi
ikholwa
njengokungathi
week@@
tit@@
lokushintshisana
ashona
Af@@
lomb@@
isions
ngeb@@
wokush@@
izandla
abulela
Ekh@@
outdoor
Jordaan
sinikeza
sinikeze
olog@@
esengeziwe
axhasi
ukuhlanganyela
inyumbazana
Novemba
inwa
ikhokhelwa
engaging
call@@
izigidigidi
Administrative
awulayo
zoMnyango
enen@@
focuses
izindl@@
Processing
okubizwa
consolidation
Shar@@
Transactions
BI-73
kubeka
iqhub@@
nezinombolo
time@@
wezigele
ezingcono
cred@@
kwaw@@
engu-18
kwendalo
dluliselwe
ayele
anth@@
Kuv@@
ngemibono
explanation
zemikhiqizo
ezihlanganisa
Jord@@
nokuthathwa
hijacking
uzoqala
Tanzania
ubulelesi
boundary
Clean@@
demographic
akhokhela
mol@@
phatha
kwengxenye
discretion
nent@@
Japan
ubi
Mot@@
confid@@
olubekwe
Ngokwalo
nokwengamela
enquiry
(i)
enganyelwe
ngamath@@
ungiselwe
olulula
miphumela
company's
kwaph@@
ngezinkonzo
ipoti
onakale
atshela
escap@@
ukubizwa
proposes
yisig@@
adwa
ezizathu
kunawo
Gcwalisani
andelayo
ngesik@@
lokukhipha
lwesikhathi
anam@@
nendlu
month@@
posts
atheni
okwenzekile
separ@@
fers
ngudokotela
valelwa
pandemic
nabal@@
okuyiyona
neither
weNkampani
yiminyango
luk@@
atholak@@
okubangelwa
consultancy
kubekiwe
holwa
ing-@@
lok@@
ayisisekelo
ekelo
Certificates
dairy
Op@@
okuxox@@
naz@@
iden@@
izinikele
expropriating
yangaphakathi
ukwenyuka
isiphephelo
motivation
ethola
hlinzekela
abuyiselwe
tac@@
lying
BY
ingu
walithi
usekela
oswa
zam@@
ubhek@@
frozen
nokusungula
ession
zokug@@
ayise
ngon@@
eqond@@
alien
ngezinsuku
ekuthuthukeni
olungen@@
harmonisation
prec@@
olubanzi
executor
struggles
owenze
Mach@@
kulel@@
Bhalisa
ahluk@@
wesiFunda
yokuhlanganisa
onkontileka
kufinyelele
esiqinisekisiwe
zifakwe
izinsolo
abathanda
asuswa
odingeka
yabe
ukufundiswa
ention
Represent@@
weme
an-@@
waleyo
anyathiselwe
summons
organized
shores
alling
Petersen
Requirements
umfundi
okuj@@
umala
Ukususwa
ileni
kutholakele
abayisithupha
post@@
Programmes
bench@@
kwindlela
Statement
preserve
catchment
iminikelo
ophansi
Rajbansi
umi
nur@@
olush@@
manufacturers
ngokwem@@
izothatha
Katiza
Amanzi
sikaZwelonke
appreciated
set@@
aqeqeshwa
abekiwe
andlulula
right:
Why
angiswa
angiswe
negoti@@
Saf@@
revised
ressing
ukwelekelela
izimele
lanoma
ocela
ibisholo
elakhiwe
ikhiqizo
okuncike
ngencwadi
benkampani
Ngak@@
respects
accessing
eSudan
esikole
image
oho
ax
kakhulukazi
interpreting
Okungafanele
esiseduzane
Ukubh@@
starts
engu-21
nezikole
Zikahulumeni
thereafter
adlulisela
iyona
indikimba
wakhiwe
weRiphabhuliki
Club
kuzos@@
instituted
nokubuyisana
ibil@@
ulegi
nguHulumeni
uzile
ukuvumelana
umseshi
wakalisa
they@@
nesifunda
wokuba
unganquma
zihlolwe
Commonwealth
oyilungu
visas
esikhishwa
okujwayelekile
hoxiswa
ambezeleka
njengamalungu
yoLimi
washisa
olelwe
prohibits
imiyalezo
yisikhulu
ophinde
adjusted
azimele
orth@@
aphethe
moments
iqophelo
gained
Emhlanganweni
elisekile
plant@@
FUND@@
yinani
obug@@
Cur@@
andakanywa
yokwakhiwa
wokuphakela
somewhere
olimo
spec@@
Ward
akamisa
itshudeni
Sea
abagibeli
omule
okuyiz@@
packaged
plates
rain
eps
lisebenza
Vacancies
ingekile
clarif@@
wangu
ikhungo
balanced
amabhul@@
eliseka
basically
esingaphansi
anal@@
MECs
ebheka
ifundiswa
embeka
athembise
zinhloso
comprises
ekhishwe
ezingaphephile
PI
justified
nesig@@
uqonde
touch
lonyaka
Nginesiqiniseko
njengobufakazi
aphendula
operator
Meeting
Hotel
shiwo
illing
liphinde
discipline
isit@@
answers
holele
Immigration
abridged
amel@@
broke
Ezin@@
fines
onelelwa
emizileni
bezimoto
nhl@@
They@@
auctioneer
Thirdly
famous
Fish
macala
ani@@
hwebo
Learning
rus
asitiki
tre@@
eMzansi
washa
zebhizinisi
noshintsho
okugcina
ezingamagugu
click
arrive
vir@@
Mthethosisekelo
abanentshisekelo
yokwehluleka
intshisekelo
keen
distinguished
Rol@@
kwentengo
ecacile
120
ngumseshi
Isiteshi
evident
ezinkampani
objec@@
ubeni
Ukubheka
nurses
unikezwe
deposits
ilile
obulungisa
nangesikhathi
VE@@
reforms
ongeza
lish@@
tela
abahlukunyeziwe
ukungenisa
iss
izol@@
avamile
folder
Palestinians
Georgia
bamalungu
ekuletheni
ihlahla
okusemthethweni
kwizinsiza
ukwengeza
Survey
nalolo
zilimi
ohlola
ammonium
Second
ehlukana
transportation
plastiki
oot
ukugqekeza
TM@@
wobuphoyisa
abonelelwa
kwinhlangano
ezijwayelekile
abaqeqeshi
appreciate
summary
owamukelwe
checks
cancer
afakiwe
abangaphezu
ingani
amakhompuyutha
otha
angamashumi
Ukuhluleka
passports
nesikhulu
yokuvimbela
La@@
Standards
012
obile
nasekuph@@
none
yizwe
ility
kukhokh@@
incid@@
uthuk@@
azeke
abahlanu
inguquko
Egypt
kwa@@
okuthintana
eNkulu
rop@@
pet
Mechanis@@
EPH@@
phakanyisiwe
wounds
severely
kule-website
Turkey
Varney
kwabe-SAPS
Relief
imin@@
eminyango
ulwandle
defend
Angazi
yokukhokha
retail
ichaz@@
kuchaziwe
bak@@
attributed
ws
Ukukhishwa
alowo
esebenzela
elekeqe
afr@@
ashile
ukungcola
hous@@
anded
kwaban@@
85
athazeka
zasendle
pride
Som@@
erected
Sihlose
umnyaka
izinselele
mothers
Facilitator
kunen@@
enezinto
osom@@
ingayo
eni?
umuzi
sesiph@@
likwazi
uchungechunge
random
ahlandlela
ibandela
indistinct
pupils
rely
uphuka
his/her
alaw@@
Ukufa
asking
nesivumelwano
observ@@
ziyaqhubeka
sch@@
ezingama@@
izo@@
aqondene
kuhlala
amaGugu
akhele
akhela
correspondence
olwal@@
baseThekwini
pregnant
od
iphozithi
750
ouring
ngqangi
ICT
saseKhaya
texts
1906
izindinganiso
Ake
ngokwesekwa
sesikhashana
slave
realising
linking
defects
qondile
yisiKhungo
zeg@@
itifikedi
enjoyed
ePh@@
spir@@
clos@@
ucula
asini
sokufinyelela
okubamba
senkampani
kulona
ight@@
umholi
THETHO
engez@@
sokuHlunyeleliswa
naphakathi
ngusihlalo
kuzokwenzeka
lokudoba
indwa
izange
unt@@
courage
woMnyango
cess@@
arian
I'll
inamandla
ababhekene
25@@
Ukubambisana
oding
Isig@@
msolwa
conveyed
challenged
itshiyelwa
anje
emadolobheni
Until
yaq@@
kumasipala
hostels
zinyathelo
Fees
cony@@
bud@@
hab@@
Plat@@
survivors
ulunywa
jalo
Work
channels
njengokubeka
nutrition
Municipality's
alezo
long-@@
origin@@
kunomthelela
argue
Qondisi
THAN
ababhalisile
terminated
ukuqh@@
Charles
Umkhakha
abahluphekayo
hole
uselele
kwesibopho
Interpol
ekelayo
thereby
argument
wesikhathi
anjiwe
R110
caring
consultant
Superintendent
engeniso
bempilo
conditional
supplementary
Februwari
ekubhekeni
survived
Govender
tu
Hlaka
okhethi
nokwamukela
yaba@@
lokukhula
Ukhetho
yabaqondisi
Uk@@
edlalwa
milit@@
adluli
ebiza
ukeli
banned
reporters
intambo
Khal@@
oul@@
nezinsolo
ngumkh@@
wall
prioritised
ezifund@@
extreme
wokung@@
kwesaziso
yobuchwepheshe
commodities
outlined
procedural
kubanikazi
meant
wokug@@
ahambisane
enyangeni
nommeli
kunqunywe
350
Sk@@
ilw@@
isikhali
kwizwekazi
ink
okuhlosiwe
Izinyathelo
explo@@
abizwa
ophelo
Sol@@
ikhasi
ngog@@
plastics
nesandla
Siyaqhubeka
gi@@
ologies
ebanzi
ayey@@
ezincike
ethintekayo
calculated
zikamasipala
esakhiweni
amatheka
ifungo
azelwa
drafting
demonstration
kulandelwa
kala
Fol@@
sesiFunda
promised
Doha
emakethe
tified
Just
organizations
heart
okwehlukile
kukhuthazwe
sikhath@@
cars
uzayo
i-CC
Inter-@@
alingani
5-@@
upgrade
manuscripts
realities
person's
zokud@@
gwamanda
kobufakazi
inclusion
eluhlaza
akuk@@
Discus@@
RED
ift
-B@@
yokulwa
emacaleni
qeqesho
ordin@@
applauded
agon@@
ining
mp@@
Ukubuyekezwa
them@@
azamise
weRijini
vol@@
Ukuz@@
.:
.7
duly
guaran-
Mike
ungisela
umbambi
utshulwa
Fin@@
wakini
inikela
picked
uthukiswe
Endaweni
UHL@@
oze
Send
izimbangela
circular
ibophezele
nolw@@
Funda
credited
weN@@
WE@@
ukuchitha
sokwamukela
ekhodi
frequently
welo
claiming
ondi
eyethulwe
kanyezi
shwalense
40@@
ohlisa
persistent
lokuxazululwa
Thomas
-G@@
Professions
108
president
kwiRephabhliki
kwi-inthanethi
distance
enabled
PP@@
nokuvimbela
loaded
teen@@
tshonalanga
ngentuthuko
ees
short-term
Impumelelo
Sho@@
omthethosisekelo
yisi@@
ngeSonto
uhlakani
assists
izintatheli
confused
ethusi
Eph@@
zomdabu
orn
unayo
izisetshenziswa
ukubhekela
ump@@
entation
destroyed
ngokungekho
solve
TS
ngokud@@
grid
path@@
Society
isilwane
nokususwa
crimin@@
iyasebenza
bayamenywa
Cultural
imig@@
nemithelela
Award
readily
asts
ecting
khokha
ifihl@@
bhekisisa
qungquthela
picket
western
distributed
Thats
ensures
gap
kwempi
engo
angaw@@
sea-@@
ingakwazi
camera
iqiz@@
kad@@
KUL@@
salokho
avakashi
ukumezeka
Treatment
ibikho
ezitheng@@
ebhalisiwe
kwezinhlangothi
nakekela
ukudidiyela
oBuntu
abammeli
ngokomoya
unspecified
okukhona
ababoshiwe
Izinkantolo
ukunikezelwa
lizoba
ngobuhlanga
mit
kwesigungu
ethuka
enhanced
kuthola
imetheriyali
ab
-01
nenselele
azob@@
bhekene
yezifundazwe
xoxisane
yamaPhoyisa
abavunyelwe
preparations
repeated
obstacles
poorly
kweziguli
non-governmental
eshwa
yamakh@@
ogunyaziwe
ifula
kuyenziwa
ikhuthaze
izintambo
yinkinga
asses
izimba
udle
kwakh@@
predominantly
hot@@
ncamashi
kwezifundazwe
Survey@@
ukusebenzela
Ingane
enanini
59
INHL@@
ension
asetshenziselwa
ekuthini
faithful
zesifunda
iso:
Plettenberg
elabhorethri
hat@@
finalisation
yezibalo
logistical
amapaki
spotted
kubhek@@
aesthetic
mandrax
inks
arrested@@
izifiso
iqize
connections
neZ@@
bulala
ivers
yaseThekwini
decisively
Lw@@
kwalona
nokuthobela
eziwa
omedi
informing
ungiselelwa
wak@@
uma:
bush@@
samukelwe
nemig@@
explains
Umnotho
EMENT
lamaphoyisa
yenzelwe
pipelines
Inkulumo
ntengo
esting
ikithi
imicimbi
i-S@@
autom@@
ezikhombisa
izis@@
izikhalo
bhalo
tem@@
shaped
lwamagama
Usebenza
okukhula
filed
nkampani
rightful
wama-@@
senjabulo
examined
honestly
embele
nezinkonzo
88
vlei
Indonesia
ahleni
Games
watching
esizathu
ambana
ambane
consecutive
ekuhlanganiseni
cingo
yisona
besikhathi
tasked
ayi-@@
Hon@@
zamadwala
ested
granting
wokulungisa
CIAL
classification
hoping
bakhombisa
compet@@
moto
95
reviewing
feedback
eliw@@
idlala
enders
Siyethemba
similarly
ahlomile
eqhamuka
incomplete
busa
cles
multi@@
rolled
roller
player
ngxabano
ebhetheka
alindelekile
ease
signals
avile
ols
ngamagama
wezi@@
Squad
Luthuli
rolling
expropriate
eduction
ngomumo
ukuthini
prefer
logos
No@@
oqelela
singakwazi
Thala
formula
Lab@@
sifezekise
pages
meal
kwamadlelo
nezind@@
umongo
dissolve
analy@@
ded@@
dig@@
OG@@
loMnyango
kokuxoxisana
ngasohlangothini
iphakamise
ethathwa
HO@@
Enterprises
xushunxushu
IKhabhinethi
lentengo
nokwethula
approve
Sand@@
publishing
ubhe
elingaphansi
Vic@@
kwesikhungo
kulonyaka
Swart@@
fundela
hlinzeki
qinisekiso
ags
Lerothodi
Udaba
umuzwa
xenxa
Umthelela
ephe
ethelwe
Ish@@
ises@@
yokudoba
Reconciliation
njengezinto
obuz@@
ngezimp@@
baboshelwa
ayif@@
Ikhomishani
etu
tle
eti
umgwamanda
kohlobo
isehlakalo
Medical
bazo@@
KHOKH@@
icity
andakanyi
Loss
sesincephezelo
Ngiyathokoza
ukuguqula
colonialism
Reporting
ithunyelwe
cameras
.5@@
kuqhutshekwe
iron
alala
CKB
screening
asik@@
ITY
sakhamuzi
PROTECTION
wider
Ngingathanda
abaseb@@
eqinisa
hlanganyele
Ukwehla
Iphoyisa
pond@@
Ayikho
Restructuring
eqinisweni
cazelo
lug@@
tionary
trac@@
stimulating
ngokuthuthukisa
whenever
nezempilo
yer@@
appearing
accessed
nabahamba
slaves
ekush@@
Ukwamukelwa
ongemuhle
ehlukan@@
Fre@@
enjoyment
coordinate
laboratories
milestone
okufunwa
are:
ern@@
ebenzisana
organising
obunye
okwenziwayo
xazulula
zokwengamela
abule
forc@@
information:
ungahlinzekela
kaM@@
iqizwe
lusebenza
zok@@
ayitela
lokutholakala
ifanele
leMisebenzi
ukubhekwa
zeth@@
fle@@
atasatasa
Mkhize
correspond@@
Envoy
AT
Ow@@
ayiswa
singing
on-going
enayo
Imfundo
othumela
xhunyaniswa
alifa
engxenye
ngokufakela
niy@@
right@@
umelene
pi@@
uff@@
samaholide
nokufundisa
B:
shed
enamandla
isinxephezelo
cricket
kwamaBhizinisi
inform@@
moral
emabhukwini
BE@@
kubhekiswe
aggres@@
overcome
kwemishini
Abahlinzeki
sesigaba
vigilant
exc@@
Naledi
okukodwa
kubekwa
e-related
dict@@
okuyindawo
Can@@
tyres
ukweqa
anelekile
cooperate
sihlanganise
ull
ugcwalise
Abaph@@
omed
Meetings
ngezing@@
iqulu
sive
refugees
kah@@
contin@@
sinamandla
afundi
afunda
Kwenziwa
decisive
educated
multipl@@
ISIG@@
ngokuthintana
ums@@
okudalwa
emadilobheni
aqhub@@
inganiswa
qhuma
ezomthetho
detected
geared
divorce
Arab
separation
ukugcizelela
ehlinzekiwe
strength
zasetshenziswa
uqulwa
strongest
Kuw@@
izinkontileka
abangaphansi
hoped
ngasebenzi
yango
wendabuko
edingekile
Met@@
sosizo
yobudala
lima
mobilisation
coordin@@
ABA
Inspectorate
ngolunye
osuku
asing@@
affirming
419
yokuthenga
okuphokophelwe
gather
idiphozi
clearing
routine
fostering
zibekwe
Ts@@
etholakale
swift
futh@@
obeni
kuzosiza
soft
noise
Amaf@@
Flor@@
ikezele
qekeza
GB
iance
nohlaka
aqonda
book@@
ingal@@
atories
aji
kwinombolo
nominate
ths
sengane
EPHALAMENDE
uselwa
ngokubh@@
R6
passive
lukhuni
Okthoba
HE
esimile
ushulwa
differences
osayensi
tia
American
akhangise
Innovation
attainment
etshe
kweziGungu
kuletha
obuq@@
yesikole
Kenya
kuSheduli
alisiwe
DO@@
ngokuj@@
kokugcina
fi@@
ugq@@
siqala
nokuhlinzekela
Mogale
kwezikhali
scored
athumela
yokubhekana
yilesi
sons
attitudes
ukunika
yesikhundla
kwisifunda
mibhalo
domination
bakhokhe
emithetho
speeding
ecabanga
Isipingo
ukhuluma
assaulting
kwezikole
babuye
passes
interact
chair
enyoni
imports
andise
hid
yemfundo
Ik@@
Tik
rid
Umbono
negotiate
acwan@@
entrepreneurs
athuthuk@@
zihlanganisa
ukuqhathanisa
networks
abahlezi
iphumelele
ishilo
ific@@
offic@@
agqotshwa
enqunywe
ubhale
somthethosisekelo
silwe
se-yellow
ezabunjwa
Customary
enkingeni
choices
kokufakwa
searching
elisebenza
abutho
surge
luth@@
kwezinhlangano
okuyikho
Njengamanje
nezombusazwe
qondene
immunities
nezid@@
Ephakeme
Alderman
ohlinz@@
empesheni
ezingan@@
bekhona
ezona
nangezinye
andeni
Marks
ezithize
Work@@
endulwa
concluding
embh@@
advancement
yamaLungelo
valu@@
azz
ezifo
minute
Organized
abasemagunyeni
ezemidlalo
manif@@
refin@@
originally
Corporate
isiXhosa
kuzoqhubeka
abaneminyaka
trauma
on-
lwaba
bew@@
Afrika@@
sponsorship
handing
Ngobuchwepheshe
taliyane
Municipalities
abamb@@
ithikithi
emandleni
modern@@
sn@@
wokuzimilela
oyo@@
Berea
zokuqondisa
195
190
lein
fula
periodic
nobushokobezi
suswa
zezivumelwano
AMAGUGU
mizamo
Republic@@
zikhathi
qaliswa
otsha
ayizange
oland
bathumele
self
butho
ngokwakha
mendo
ugs
Des@@
ngummeli
Appointment
omisiwe
engezwa
ayeng@@
ibofuzo
Firearms
ahlangabezana
iji
short-@@
zamaqembu
gases
sezindiza
uranium
cultiv@@
methodologies
resourced
ithethosivivinywa
fewer
izikhumulo
etty
greatly
koHlelo
Emergency
thieves
ludluliselwe
Tutu
yokuzalwa
wenhlangano
jo@@
vigorous
iwili
ingqiwe
lwasekhaya
produc@@
oluyimfihlo
unyaziso
gang@@
zamakhono
patrols
we?
nanhlanu
nemfundo
okotshani
Sanitation
okuqondile
itor@@
eyenele
kwingxenye
ukuhleleka
lokusungula
machines
nokucwaswa
stressed
izingqalasizinda
ubuningi
Roelf
Ho@@
elibhaliswe
omdabu
igumbi
Gallery
ubuhlakani
Mid@@
tub@@
CB@@
Ireland
I've
fuse
icabangi
Pretorius
obuhlanga
namaw@@
kunika
bahlale
architectural
andeli
step@@
etafuleni
nge-email
Distinguished
abhekwa
ekuhleleni
njengama-@@
songs
igh@@
angalelwa
uspec@@
Portugal
wahalalisela
ekhelini
khadi
pret@@
Martin
1057
duc@@
ender
wayini
zokugqekeza
R4
R7
ro-@@
Abab@@
rini
ukuphi
ikwel@@
kuqaliswe
congratulations
kop@@
okwelashwa
Ukubika
ngekhophi
IPH@@
okhethelwe
athalogi
assembly
uthumele
kuqhubeke
607
kuqaleni
wokuz@@
coloured
learned
S:
uziyamu
coff@@
zosizo
lemibuzo
SS
SK
onyovu
othuthukiswa
yokufunda
,8@@
exact
zokuhlolwa
akunjalo
esen@@
alandeli
sezoHwebo
kubuy@@
itshwe
obonke
amabanga
eqolo
namakhophi
basebenz@@
alongside
peti@@
eDarfur
Okw@@
enkampani
ongwe
Identify
eed
engakadluli
Mofokeng
intra-@@
abese
ehlose
sick
arej@@
ukhethe
convert
airspace
recession
Allow
okunika
bafundi
ululiwe
ener@@
ophakela
nezincwadi
yokuthengiselana
enforced
nemikhakha
Flying
relatives
efanelekile
elibekwe
Shepstone
akalise
Conserv@@
ammeli
ezikhokhwayo
zingela
nomnyango
found@@
diligently
noKhomishane
ofoza
Identifying
Bro@@
mncintiswano
metadata
survive
lelithuba
zikw@@
wakw@@
ukuzibophezela
emnandi
sikhulume
@parliament
Abazali
umtheli-ntela
resume
ton@@
wokuthola
azikho
disciplined
emajele
yokubamba
cli@@
ngokufakwa
iers
enduduzo
umelane
sephoyisa
nomenzi
zokusiza
tina
lovely
sithunyelwe
oqokelwa
SALGA
swearing
ahlinzeka
abanjeng@@
qumo
Improv@@
Missions
ezihloselwe
signal
elika
Bor@@
Seb@@
Lourens
ulane
Drive
kwemibuzo
annuity
anel@@
babike
buc@@
but@@
abuza
jock
eziqhamuka
nokufundiswa
edluliselwa
Deposits
my@@
okhuluma
angakapheli
sheets
WC
1R7@@
icela
treasury
amamitha
wasem@@
conce@@
rew@@
bavunyelwe
nal
ukubekwa
ekuvimbeleni
conven@@
winning
lezindaba
shareholders
ital
socially
Fraser-Moleketi
zibalulekile
kosazana
inzekwa
etsi
alimboleko
kl@@
immigrants
lomkhandlu
umfakisicelo
aspir@@
expensive
Prison
lowing
Occupational
Notary
lwendawo
kobungcweti
subsidiary
seas@@
constant
PARLIAMENT
presently
implicitly
nesith@@
aleso
alesi
okophele
healing
ukudlulisela
athwayo
Answer
idlanzana
inkolo
ondawo
automatic
engumuntu
limaza
procure
Cent@@
obekiwe
unconscionable
he/she
sobandlululo
basebenzisa
Intuthuko
imizuzu
Ukunikeza
edlulisela
kawoyela
mitigate
Prosecutions
esilingana
Lusaka
interdependence
esizweni
ubo
whatsoever
izingodo
ukhipha
cint@@
motor@@
ngif@@
zingakadluli
esanele
ohlakeni
proceeds
zokungenelela
ngesivinini
lair
sizakala
bikho
ivoti
thorough
apologise
uleleka
uleleke
yebo
agx@@
izikhiye
nangapha
kwezentengiselwano
Town's
accessories
Metrorail
-General
kokuhlawuliswa
Sig@@
afundisi
kumthengisi
prosperity
football
abalimele
okoz@@
.04
sponsors
Stand@@
uphela
mphakeli
ijimi
illed
corridor
aqondiswa
platform
aleke
namagama
likhokhelwe
ahanjiswa
ungezile
isidlo
ubuz@@
Koloni
Okung@@
aphenya
inability
Ukushona
corrup@@
oyela
Liaison
ukude
ezisele
Nkulunkulu
ehlise
Izimoto
gardens
okube
iliza
ezihlinz@@
carr@@
weight
remed@@
KOM@@
kubhekelelwe
ingxoxo
bangaphandle
abuyiselwa
dealers
ezisetshenziselwa
ezilwaneni
ukuvumela
Spring@@
prerequisite
demarcated
impede
emerge
kwehlisa
yomqashi
Olunye
atshiswa
okwethulwa
san@@
zakudala
lwebhizinisi
phakanyiswe
abazange
Based
ummeli
swe@@
asekelayo
njengoNgqongqoshe
acid
ingida
aps
obum@@
empela
uqule
Australian
schol@@
year-@@
kwengu-@@
tenant
aqoshiwe
sokuvuselela
seq@@
buq@@
apayipi
ululeka
wabuye
eyiph@@
ngomhla
esidlule
bought
ukuhlaselwa
ngumnikazi
overcrowded
zinikela
Okwesithathu
yokuc@@
nokuvikeleka
mir@@
webhola
kulungwane
Yingakho
beneficiation
saso
desired
charter
kuyindlela
writ@@
officio
TER@@
Brian
preferably
machine
elikhethekile
Mang@@
preceded
ngeqiniso
uF@@
somkhiqizo
sabathengi
Cle@@
zezinhlanzi
entail
Williams
engu-R@@
angekho
elikhona
olekayo
balabo
akolishi
yamakomidi
pest
level@@
khi
Frank
oneminyaka
yers
prepaid
solved
complain@@
sesith@@
continu@@
ukunukubezeka
andlululi
application:
obuph@@
ezitaladini
teries
umeluleki
isahluko
esetshenzisiwe
zaphinde
mand@@
okushaya
kwamabhomu
undermine
weleka
Chairpersons
vacant
clay
oselwe
ach
olisisa
politically
af
ukeni
lokukhetha
ekusungulweni
fairness
broaden
Wolf
kontileka
ekwenza
renov@@
Viol@@
BMW
okuvuma
ext
abhuku
Against
trav@@
inyunyane
nezint@@
owed
Khwama
ukungezwani
izakale
relevance
deg@@
ungeze
guideline
Ingqikithi
ihlose
okuya
okuye
resolutions
Learners
wheel@@
ziya
bagcine
yib@@
legitimacy
operative
Firstly
igcwele
custom@@
lezikh@@
challenging
Ngokulandela
amafa
competence
amabalazwe
Registered
ngokulungisa
lale
aced
ound
phy
izingalo
footage
edly
weg@@
aphathi
ukuqedwa
okokugcina
zokuphila
omayelana
evoti
elizayo
Verulam
aku
abaphezulu
Legislation
.86@@
ukuziph@@
azana
intekile
ngikhuluma
lingaqoka
enhancing
yomgwaqo
ezoz@@
akuhl@@
Sub-@@
negotiation
Khulu
esipiliyoni
comparative
Mina
yetayitela
webe
okubh@@
store
esona
Lam@@
ifakele
lud@@
i-afidavithi
awukho
elisiwe
ebheke
Scho@@
bonds
liberalisation
progressively
nitrogen
nesizwe
akhetha
ukucwaswa
silent
breed
ezo@@
Fab@@
Okuy@@
undertakings
njengezindawo
okhethwa
224
iphomede
ambu
seekers
dangers
bias
nov@@
mentally
ethelo
Nhlangano
unithi
umbala
struck
zamagama
lady
exporter
Archives
kubuye
characterized
Lomsebenzi
describe
Estates
escal@@
Brown
watholakala
Lucia
Registr@@
nezihlinzeko
wethula
wethule
ights
efund@@
micro@@
wempahla
obil@@
ecotourism
eduli
exempted
artefacts
kubhekwa
Clar@@
bib@@
describes
wait
Siyajabula
ebhangi
lingani
drove
cwaningwa
anywhere
Thintana
Department's
ooi
ngehora
asit@@
Denmark
nokwes@@
Specific
ahlanganisa
occupied
Curr@@
ondolozwa
Managing
ajabula
ained
aqondakali
121
Beaufort
fynbos
Fouriesburg
uyiselwe
extends
ungekho
racially
tip@@
ULU
abike
insec@@
Makeba
ukuvakasha
heading
ubucwebe
ney
ukuvuza
yebhola
neighbours
etheng@@
ezithunywa
jele
dawo
kulung@@
amaphayiphi
thirds
integrate
abasiza
ezi-@@
ngokwawo
briefed
ethical
omthwalo
proceeded
lomkhumbi
cwaswa
womsebenzi
ithathwe
Kanjalo
ulule
aragrafu
antathu
office-bearer
ngokunabile
aphendule
anxuswa
unding
akhokha
ukwemukela
ool
olanda
kod@@
kok@@
ukuphakamisa
extr@@
kwiSheduli
kaNdunankulu
dwelling
corporations
ibeni
zila
ezinhlanganweni
iphelele
okutshala
etshenziswayo
lweNqubomgomo
iziyalezo
08:00
sums
ingelela
ehle
izimila
ochwepheshe
sion@@
bekukhona
amadlelo
othe
nemvelo
ezimvilophini
wasn't
ezimpesheni
evumelana
airport
bazobe
kokuhamba
bokukhokha
Offences
purchased
elekayo
insurance
kwezibhamu
wuMnyango
spot@@
utilized
idigidi
R125
iziboshwa
freedoms
iSakhiwo
qhubekela
enziswa
critic@@
ekung@@
noMongameli
abalandelayo
bill
imbonelelo
assignment
ahlinz@@
uyena
pel
Shared
batt@@
cebeleka
well-known
omeni
zakuleli
esifingqiwe
enkonzo
putting
wekomidi
Diepsloot
Status
Prospec@@
Stor@@
kwenzekani
Scheme
abahlukunyezwe
kuboshwa
ekise
otsheni
whites
lobuqambi
toothfish
Chesterville
rey
Aud@@
ogu
132
asukela
zinhlangano
divisions
okuthuthukisa
herbage
weza
Jacobs
respected
abandakanya
lokuzama
esu
worthy
es-
nezakhamizi
eing
billione
1989
Major
partially
POR@@
yingakho
Ngosuku
khokhiswa
includ@@
dor@@
onia
onic
mm
eziswa
Uhlu
thor@@
kumabh@@
rub@@
kwentando
lonkana
lasting
tshwala
iziteshi
kufak@@
okophelele
Kar@@
bamagama
elibon@@
ephambili
ipei
concep@@
ezifudumele
isikweledu
ty@@
leMeya
Kob@@
Counc@@
ivunyelwe
Certain
zokukhokhela
ica
uvele
ahlukunyezwa
EKW@@
phytosanitary
ophelele
Rephabhliki
broadly
nehl@@
German
lanywe
omishini
lokufuna
oper@@
Marketing
kunokuthi
zad@@
wit@@
stock@@
rendering
kulungile
Abasebenzisi
ENI
(ii)
zombala
eziqhubekayo
ubuhlobo
gar@@
nenqubekela
umdlavuza
Ordinance
ukungaph@@
izwi
kunikezwe
umin@@
entwasahlobo
nokukhiqiza
lwesibili
ufike
assemb@@
aqondile
hlobonhlobo
othulwe
Aliwal
catal@@
indlebe
tea
ru@@
okubhalwe
combating
ngethemba
madokhumende
breaking
IRP6
co-ordinate
oluhambisana
sithuthukise
year's
circuit
yeb@@
yokulawula
show@@
succeed
ezisemadolobheni
ANO
ANI
eqesh@@
Bring
yokulahla
ukuqamba
aliseni
lanyelwe
abilities
exclusively
understood
oqokwa
ephepheni
umbutho
drinking
Ki-moon
ngephutha
yezindlela
ezikhethwe
depicted
infection
Cla@@
singena
amagatsha
defining
Carnarvon
ngakunye
restrictive
obuthi
ceme
imigudu
harmful
adolobheni
Unity
wazise
budgeting
iR@@
nokh@@
radiation
nguyena
Pierre
Bob@@
fudumalo
zokugezela
analysed
akhawunti:
ngodlame
mid-@@
ater
ikhombise
okuhlala
kuwukuthi
ovula
wezokuThuthukiswa
iJaji
alleg@@
Word
Technikon
speedy
Land@@
Cl@@
izihlalo
showed
alezi
PHATHWA
layout
leKhabhinethi
cipha
izelwe
uzela
aqhube
aqina
ngokuxoxisana
ungenza
zohulumeni
Lin@@
liye
wezeZindlu
zokuxazulula
forever
eous
eminent
98
92
haqwe
haqwa
ngokungakhethi
olunabile
langa
Appl@@
passengers
Inj@@
abheke
hlali
239
constituted
drow@@
icongo
entengiso
klomelo
ibhekelele
kusungulwe
okhiqiza
infected
Businesses
wine
zoGu
Naphezu
Umthethosisekelo
gcinilwazi
Streets
say@@
mabhuku
Dal@@
pow@@
analys@@
emabhishi
kungaholela
experim@@
Expanded
ukukhuthazwa
origins
anjelwa
Rood@@
yoluhla
inst@@
nged@@
tain
kwaholela
breaches
kwahl@@
Timbuktu
ebaluleke
ezokuthutha
nokuzibophezela
kumaphrojekthi
obulelesi
izinyoni
nomoya
ukuncishiswa
adlula
onqunywa
okuqondiwe
eJ@@
electrification
okufunda
inqunywe
enjabulo
gen@@
esiqala
aleveva
waranti
harvesting
ngokomthethosisekelo
output
Kho@@
womkhumbi
ubone
welana
resign
inthanethi
esendaweni
consistently
encike
penetr@@
Ngemva
hawe
ezinhloso
qonde
dispose
2012
ababamba
Ukubhekana
omm@@
clus@@
Anglo
decade
xilwe
ukwesaba
ekani
ifiki
estuaries
chairs
march
ngamehlo
ciphise
lokukhishwa
ukuhlonza
enkampanini
udedengu
ivimbela
hambisani
wayeb@@
yokulingana
cher
Up@@
esangweni
okuhlongozwayo
esidingekayo
uculwa
Stainton
lakithi
Labantu
yenani
aguqule
Korea
amalambu
ibal@@
baseZimbabwe
cription
by-@@
ezimbiwa
wenkambiso
?@@
emithonjeni
ism@@
1975
card@@
Ukudla
abe-South
Proc@@
medication
brothers
governed
nokucwasa
amahlathi
Berg
Usihlalo
Thina
kukaSheduli
atshana
Cam@@
,4
Gatsha
Dokotela
kwezinhlanzi
ezisuka
Cros@@
alindele
kwabezindaba
phesheya
wach@@
atshe
Ev@@
Kwisimo
orientation
commander
ward@@
ingcindezelo
eu@@
spectacular
ibophez@@
recipient
kuziphatha
alungiswa
esetshenziswayo
somyalo
zonyaka
suited
omvu
R500m
Lehohla
offender
ubuthakathaka
CAS
Kal@@
pot@@
if-
yl
recover@@
hlabeni
tear
ifo
itheshwana
Izingxoxo
unqume
kwaqala
ngamaqoqo
hands-on
Mahlangu
onziwe
izip@@
ithiwe
Abe-SARS
wentuthuko
bemvelo
UmNyango
ummese
welonke
viol@@
describing
namasheya
deliverer
kwim@@
Victims
.8
kwentsha
obho
unreasonably
Bir@@
THENDA
sikaNdunankulu
radi@@
inikele
zo
triplicate
CCTV
abayisihlanu
wakha
pain@@
utshelwe
Imibuzo
khankaso
SAB@@
Body
nezinselele
crossing
olakali
abaqhamuka
kwezib@@
ingqungquthela
ous@@
amakhala
walezo
senzo
nokubulala
zokufundisa
ngase
camp@@
Approach
Pillay
e-South
sleep
sokuvala
ity-@@
Parys
105
kwakuyisikhathi
Merc@@
adopting
kulen@@
esiGungu
ithwa
onenhloso
ATE
Investigation
izimayini
ofakazi
cindezi
kwezigaba
80@@
onakele
uzonikezwa
MENTS
adluliselwa
unconstitutional
lazi
ilasi
SP@@
thengwa
nokubuyiswa
assassination
okuvakasha
Kuhl@@
wezomnotho
angelwe
bethola
ifenisha
erves
ukufanele
truc@@
weTheku
hear@@
imigoqo
funeka
funeko
wishing
Ink@@
undermines
bafuna
placing
akhethwe
1:
ikethi
lingaphansi
ithanda
lama
spruit
safekeeping
owayey@@
Christ@@
ngend@@
life-@@
wezindaba
Ngokuhlanganyela
umzabalazo
ezikhokh@@
centralised
841
Ngiyaxolisa
combined
bun@@
lwamalungelo
ezinyanga
entit@@
duction
ezibekiwe
Reserv@@
zitholakala
agan@@
Dog
Sisulu
ZA@@
achemile
zi
umthethonqubo
mediation
ingabazi
ezinkundleni
forthcoming
complementary
ithokozisa
nezingxenye
consular
engi
azalwa
neo-@@
omthelela
uZ@@
ampu
post-conflict
frames
Matters
entshi
Tunisia
maqede
oqhamuka
ibalo
Orr
bakkie
kokuchitha
zitholakele
olulandela
zokunciphisa
nakekeli
collabor@@
Caribbean
0112@@
summar@@
apparently
ngalunye
unyane
okuqondene
ble@@
umlomo
inferior
ngoLwesihlanu
cycles
pattern
Prepar@@
Hambisa
tiveness
asungulwa
angazange
Venus
adu
ngamatshe
a)
LRA
4:
watholwa
unded
yezezindlu
ekunakekeleni
sebey@@
ivume
kwamathuba
esaz@@
abaqeqesh@@
idiphozithi
isibhakabhaka
ukuhambela
eGauteng
eyisikhombisa
III
Japanese
theme
emide
ikade
ukwehl@@
appeals
Volkswagen
eqi
organis@@
advising
1964
iqonde
devastating
watch
grad@@
ngokuthatha
wombuso
ukuyo@@
suburb
singathatha
nemibiko
akhishwe
elibizwa
ywe
ngensiza
okungeyona
izinq@@
elibh@@
shintsho
ilit@@
bacteria
opho
engenalo
amaphakethe
olulandelayo:
siya
nokuletha
liquid
abonise
Cal@@
tery
ht@@
kwezithunywa
zezomnotho
Foot@@
alif@@
follow@@
circulating
ekhokhelwe
Grobbelaar
emagcekeni
elasonto
okusheshayo
lesis@@
afihli
ishiswa
budgetary
adop@@
sekuz@@
ACSA
knows
neSekela
style
amizwa
kwehora
sulphate
angweni
reconditioned
nesibongo
basebenzisane
nengqalasizinda
slower
teargas?
Siko
Archbishop
koyedwa
STR@@
uRichardson
akahle
My@@
apheli
ulukazi
Diaspora
micro-@@
aqiniso
aqinisa
ahlukaniswa
okuyi-@@
nesibindi
trainees
Fund@@
013
ishumi
Hen@@
a-R@@
lenqubo
thelela
ma-@@
sig
shayeli
erc@@
Women's
button
iziph@@
89
83
87
esitokisini
Thousands
luc@@
exporting
Inhloko
aqashiwe
ukushintshwa
Particulars
ungene
ibhekise
uC@@
stories
injustices
osetshenziswayo
Ekuqaleni
Never
onqenqemeni
zokuvikelwa
enkohlakalo
tactics
Wel@@
zokugqugquzela
ezinc@@
yokwesikhashana
incurred
zakwamanye
ngesikweletu
tired
fingers
solwazi
Basin
uzosebenza
ukudluliswa
temperatures
ibiy@@
uzokwazisa
zokungenisa
obhothi
eshinali
ombululo
onjiniyela
abenzi
Amalungiselelo
naloku
ebeka
eastern
nar@@
Holmes
aveni
remind
oloz@@
eseNingizimu
forming
talents
ezincwadini
ezithunyelwa
SAL@@
Ngu-R1
yokwenze
angathi
NS@@
atriots
nezibonelelo
GE@@
enqatshelwe
kukaKhomishane
lithi
ekushayweni
sat
bempahla
tears
aphoqelele
athuthukiswa
emibukiso
onkolo
ezikhathini
prevalence
zalezo
zalezi
218
countrywide
Glenda
akwenziwa
abanakekeli
contribut@@
yomnikazi
imelwe
i-credit
ito
zibhalwe
asemakhaya
bezikh@@
Sono
interface
ayib@@
WSA
atshelwe
expropriations
human@@
BI-1738
ISA@@
onela
nokunciphisa
axolisa
ngithathe
zokufundela
yokudluliselwa
repository
proliferation
coops
ezihlukahlukene
athintekayo
earth
nezimfuno
reinstated
djani
komendo
ngokushaya
amble
yash@@
incorporating
wounded
izungezile
ngokuyinhloko
Any@@
kwezindleko
sisebenzise
itions
Initi@@
nemboni
onald
twenty-@@
aningi
elijutshwe
siqephu
iNkampani
we'll
nokungabi
Ukuhlanganisa
ukuvala
ahlonishwa
esiyizinyanga
nekhwalithi
eliyinhloko
okwaba
lah
Ocean
cinwa
satisfies
Uganda
SECTION
CF@@
Idilobha
fabr@@
extending
fitted
pursuing
Orkney
analytical
izama
Izingxenye
akuyona
eqiniso
perimeter
qamula
zuzo
ngiyabonga
okuvalwa
kokuvela
ukwabelana
lowest
njengel@@
nokuhanjiswa
101D
govern@@
elingen@@
salowo
olwengeziwe
bawo
izil@@
isid@@
.10
aqokwa
ukeza
ebekwa
zenze
asc@@
Uhl@@
Political
aine
akayo
ohamba
emincane
wakwa@@
ethenj@@
oded
gentlemen
earth@@
ukuqhubela
forwarded
lawfully
including-
izinisi
bhaliswa
ukongiwa
likaHulumeni
izimemezelo
uquka
retention
esaph@@
zomthengi
oqhuba
esiqeshaneni
engenza
obuchule
akusona
Imiphakathi
enduke
lin
negligence
ayid@@
Expropriation
zokukhula
angawo
enjongo
zikhulu
nelanga
ubusika
lwezikh@@
ukuzinza
Wom@@
Mz@@
tracing
reel
objection
wetshwe
electrical
womfula
izoba
Jalimane
kukazwelonke
ayiswe
vo@@
ugcine
danger
ngamas@@
Priorities
sibonga
eyakho
eyakha
iNhlangano
ayisebenzi
illustr@@
lined
ukugula
qhubeke
142
ubizwa
kuzokwenza
unds
oloji
nit@@
Ian
winner
Nobhala
esihlongozwe
amaminithi
dlel@@
kuvumela
yalela
Shanghai
esibe
nokukhipha
awul@@
IDZ
artists
nezivumelwano
offensive
ongaphezulu
umzamo
Sasol
Continent
embhedeni
sezombusazwe
idekile
zami
lokuz@@
Civic
unregistered
afforded
Includ@@
Piet
imela
Umenzi
POP
urgency
Illegal
purports
bad
banelungelo
kwamalunga
bub@@
eseph@@
kwid@@
bengen@@
erra
Description
ungqongqoshe
Kulomnyaka
bezindlu
abhalwa
ahoxiswa
imikh@@
institute
licensing
sokhetho
umyeni
Ukuch@@
eliswa
nya
elinganayo
uThabo
abahlukunyezwa
transforming
eseg@@
Stilfontein
bev@@
Annexure
okungahambi
Regulation
DR
Dlame
innovations
afiny@@
Jour@@
pap
zenziwa
izinkambiso
amanyuvesi
Commissioners
iyadingeka
kuhlolwe
Ukuphatha
aster
yokusakaza
Hart@@
aqhath@@
ongumnakekeli
tribute
buses
Ap@@
Core
lenhlangano
kwezenzo
ye-Afrika
.58@@
Amaminithi
ient
ubusa
oks
ishiye
EQ
nenkathi
Desert
umelelisa
pre-existing
adlale
chester
narrow
Hill
ijondolo
kwesiKhulu
orship
nings
zokusebenzisa
rid@@
obane
bib
entengiselwano
Nothing
ukumezekile
lip@@
yemithi
%
uyakwazi
atshangelwa
kwiminyaka
lomelisa
Details
emshinini
summers
onisana
kuzaw@@
tow@@
inkontileka
abliki
dal
tension
CK2
co-ordinating
wangen@@
obuv@@
nowesifundazwe
isigameko
chment
327
ngokwehlukana
i-B@@
iyatholakala
COUNCIL
arming
phakam@@
lokhetho
ukuny@@
apol@@
ukuhluleka
Private
Carr@@
ocwaningo
committing
yesifunda
ithinta
adjacent
Hills
ukubuza
yesimemezelo
aja
yog@@
nesikhundla
yereferense
Ukukhomba
Mohamed
cir@@
stair@@
ngikwazi
engelona
susiwe
futha
Gl@@
wesishayamthetho
oniph@@
okubonakalayo
Uitenhage
ilindele
1941
High@@
yezomthetho
chaired
Visit
tribunal
stream
angalisayo
swana
eja
laboMnyango
strengths
multiple
Kusetshenziswa
trafficking
cancers
como
emotional
dupl@@
continuation
sosuku
corpor@@
IP
IV
acwaningi
imbo
kill
nokuqoqwa
izokw@@
ukuvuselela
KHANDLU
ungq@@
incorrect
-term
ment:
sle@@
fat
ayikhokhelwa
ngezidingo
appliances
inorganic
e-m@@
ngobugebengu
zezimboni
ukubiza
onakalayo
assumption
andisi
esakhiwe
nemibuzo
iDolobha
distinctive
libraries
initially
izos@@
Ukusiza
nezinsizakalo
2005-02-23
likaZwelonke
esencane
ngihl@@
Fire
ngokuphindelela
Siyaz@@
emibiko
nokho
yaBantu
abahloli
basezinkantolo
Line
Seh@@
ngiw@@
initials
ichazwe
tap
tal
siyazi
bursary
xivizo
interrupted
sesikweletu
kuMthetho
lid@@
Arts
Smuts
ukusekela
sued
generations
Yini
Esinye
adverse
ukukhuphula
oting
itshele
CR
dependency
ilela
ilikithi
lezwe
ground@@
gaz@@
isango
negciwane
zeNkantolo
oseku@@
Lik@@
nemis@@
abangamalungu
amafasitela
Beku@@
kam@@
yezandla
osis
ungathatha
IE@@
isioning
ababes@@
i-H@@
bangal@@
uzwayo
akuq@@
bod@@
irs
wase-Afrika
iklomelo
kweminyango
avulwa
indeleka
Maybe
ham
bhalwe
induc@@
prophy@@
ingizimu
mklamo
bazi
lomnyango
Parliam@@
nakubantu
oso
favourite
yokuthuthukiswa
Date:
aphambili
ufinyelele
abase
akhululwa
ibukiso
eyab@@
kungena
kwamaf@@
ekhasini
imi@@
abayisikhombisa
sponsor
concentr@@
BI-29
Math@@
agulwe
Kahulumeni
akekelwa
opposite
olawulo
uhlaziyo
Government's
Ngqangi
okuhamba
uligcwalisa
fel@@
precipitated
nokuhlaziywa
ukubon@@
ived
ives
eline
subsid@@
kokungqubuzana
uded
ezimfushane
olandela
pir@@
condem@@
Ubugebengu
NA
implies
Build@@
cream
Read
faxed
thorn
andekayo
lufaka
buyekezwa
Febhuwari
ukwesabela
focussed
child@@
enezin@@
pum@@
e-North
imihlaba
ngokwakho
ngokwakhe
virus
eliqokwe
rend@@
uthint@@
moun@@
nasekus@@
ayikhulu
ngamanxusa
kubazali
ehlelwa
couple
emanating
I-C@@
intu
Umcimbi
uyacelwa
yingozi
ovamile
Temporary
eqeshiwe
kuhlangana
dynamics
ukugqugquzelwa
Occup@@
Ukwenyusa
joy@@
athokoz@@
lenkantolo
integrating
uMnuz
edwe
Results
Amalunga
insight
zomasipala
protests
oshaka
hweb@@
uLeonard
ukulw@@
baka@@
Reb@@
abafundile
festival
Pass@@
worldwide
iwomali
placement
Adoption
destiny
Ying@@
hlangabezane
tible
unamandla
amaSulumane
Diplomatic
lwesishayamthetho
Similarly
'un@@
ezazing@@
wet
RESOURCES
Breed@@
kugc@@
kunakekelwe
2005-06-01
biology
ngokwes@@
wekh@@
swimming
excitement
Amag@@
searches
participatory
speci@@
reaction
arch
ter's
principals
ka-1997
Ugu
yik@@
Hhovisi
onyuka
nemikhankaso
kwekomidi
deliberative
esitatimendeni
oll@@
leminyaka
draws
Monitoring
ihlinzeke
Leonard
behlala
lomo
ulated
ogqugquzela
ezehlukahlukene
kunesikhala
uthazwe
kokuqokwa
o'clock
esizwe
yokuletha
Umbuzo
sending
Ukufinyelela
ibi
ekuhlaselweni
bursaries
alisi
Europe@@
ukugxila
thumela
yohulumeni
yamaJaji
bot@@
TA@@
amera
Malaysia
ules
kubanjwe
FUN@@
maternity
Deleg@@
azokh@@
Frank@@
't
appe@@
etholwe
2006@@
kuqhubeka
yokuthatha
koxolo
esibhek@@
lokusula
ana:
nesib@@
fourth
upheko
sizathu
entrepreneurial
elevishini
akholwa
kulandelwe
abonwa
yokweseka
nokuthuthwa
conventional
yizifo
Banking
pri@@
ekuziphatheni
eyunithi
buyisa
ngevoti
productivity
ngekusasa
nezenhlalo
Theku
Lu@@
uyayeka
housed
Ukuziphatha
omakhelwane
Price
qinamba
ibhaliswe
multilingual
okile
celebrates
vulcanised
engu@@
pace
communal
displaced
ngokujotshelelwa
ukuthobela
eer
ozone
igcina
wouldnt
njengomqondisi
chr@@
nog@@
Edward
TA
kuvulwe
zokuthatha
igqila
okulandela
odoba
isas@@
woM@@
ations:
confessed
ires
layezo
angu-24
iswene
esibekwe
engeyomthengi
ukuphazamisa
ofakelwa
neMpahla
drunken
Rands
imiz@@
tifiketi
minim@@
tens
interfere
ket
eleza
ekwayo
akaliso
shoulders
smoking
ucele
uthakathaka
ulumeli
Types
Kuzo@@
kwamukelwa
Victim
pahla
limitations
mac@@
ngesin@@
victim@@
recuse
disasters
amp
Ngiyazi
Arab@@
okulawula
erup@@
eqhuba
GOVERN@@
ezibalulwe
Ukuphucula
exceptions
foods
ubanjwe
ukugq@@
ziqh@@
kungeke
kal@@
ucabanga
sihlinzeka
observation
wafika
xhuma
izibonelo
namalunga
ebu@@
igatshana
cho@@
ugly
evidiyo
13:00
aneous
programs
year-old
ahlinzeke
ahlinzeki
yer
Art
elderly
eliphathelene
abahleli
formalised
Sulumane
clinics
angeniswa
isikhumbuzo
faction
yaze
eBh@@
zithombe
ezehl@@
lwed@@
yokunciphisa
uzane
zenhlangano
icabangela
we-2010
emdlalweni
eyis@@
esiswini
o's
noma-ke
ovele
DING
kweny@@
thethos@@
invalidity
ompompi
privately
Sawubona
nazi
esides
imag@@
Prepaid
compounds
ukushaywa
AMB@@
ngokwalesi
lasekhaya
DTP
overcrowding
awana
isisombululo
uwonkewonke
engiw@@
purported
uthisha
isifiso
RRO
pastures
kwamapayipi
equitably
ever-@@
aqhinga
ungulwayo
IP@@
radiological
business@@
bagcwalise
kuvimbela
Ngizocela
graduates
i-ANC
nokwabiwa
micro
Philippi
ehluko
ohlangene
Ukuhlelwa
Ezikhathini
somkhandlu
welungelo
lubandakanya
serviced
rebels
lokukhiqiza
zasemanzini
esisilele
PORT
nokuqhubeka
ukwesabisa
abhekiswa
preference
afunwa
nek@@
okuch@@
ezikhishwe
employ@@
tify
avumel@@
curb
cater
matr@@
osayathi
yenkantolo
nokudiliva
anoyi
East@@
elise
zabelwe
Sm@@
symbols
nokuhlelwa
gudu
ulating
kulayini
qinisek@@
kubukeka
que
munye
detection
ongolose
Amash@@
ukwenganyelwa
anqabile
ziqu
iqond@@
asks
reproduced
elet@@
ephansi
welcoming
nezik@@
ngokobuzwe
sisters
zezepolitiki
resolves
kunal@@
happens
sokulungisa
Don@@
onak@@
Pan@@
disciplines
ukuqoqwa
blue
complaint@@
AFR@@
lwesimo
prints
aphoyisa
ukuqedela
Ukulungisa
iqinisekiso
ayili
transit
aled
pert@@
okhethekile
yokusungula
eKhomishana
tourists
ibly
bail
discovery
umlayezo
Roads
yimali
okumnandi
umshayeli
ngqongqoshe
ezisa
abazokwazi
mbuzo
ennis
Again
ogr@@
ngesit@@
dinner
namakomidi
Beukes
iction
izigwegwe
clarification
iqu@@
njengeqembu
portr@@
attained
usolwa
zalowo
farmer
ezintaba
outbreaks
multilateralism
usuke
usuka
somnotho
isitshalo:
aqaphele
kwesiKhungo
quiet
omanda
Open
Sound
mpikiswano
author
akishwe
aphenye
ayitsheni
olekwa
enenhloso
justify
ishelwe
slaughter
esenta
ukuda
wholesale
khonto
Whilst
as-@@
ukumez@@
qondisi-Jikelele
piracy
Tshabalala-Msimang
okuvota
bebonke
UNaisa
Luk@@
evalelwe
nokukhathazeka
ushane
andani
ekuthathweni
interviews
Wezempilo
ukwakheka
capit@@
luyatholakala
esikhethekile
obuphakathi
kini
ethole
exed
inconvenience
njengomkhokhi
wolimo
KWAZULU-NATAL
ief
kwezidakamizwa
oversee
nokulahlwa
xeka
zokweseka
ezobuciko
onemvume
impressed
yezemfundo
elay@@
oqwana
yemizamo
awusebenzi
Wesifunda
Iy@@
eshayo
ababeb@@
ast-@@
accrued
sehlakalo
ys@@
ezivamile
ikhawulo
nobh@@
ilawulwa
edin
fingerprint
Gudluzela
Constitu@@
sokuvikela
MON@@
nezinyanga
Mnumzane
GPA
ukugada
lwezokuphepha
aspirations
converted
azw@@
afun@@
qualifies
engabuyiselwa
kwimvume
Care
ofake
kwemithi
afinyeleleki
ostela
Wabe
CHA@@
sinelungelo
kwengqalasizinda
sekuph@@
ehlukanisa
cel@@
kwashaqwa
ukusabalalisa
ngokwemigomo
wuhlobo
akekele
Lo@@
Inyanga
isimangalo
linganisa
auth@@
Website
listen
uneni
jec@@
ingenza
bomo
Papers
Ukwamukela
statistici@@
vumelekile
requ@@
ithombe
extraction
Inv@@
inated
iphupho
consolidating
trustee
nentela
amazwekazi
plight
Apart
Facilitate
abakhi
um?
ahlale
wezikweletu
panels
lwaseKhaya
hungry
proves
qhamuke
veterans
educate
TIONAL
reclaim
onyamalele
sifune
ukusebenz@@
dar@@
Yem@@
nobuhle
Tal@@
unacceptable
ukunc@@
matches
kusifundazwe
nokusimama
adluliselwe
siyaz@@
obuliminingi
oS@@
Incazelo
scrut@@
nezibalo
wokunquma
ezinezigaxa
Cedara
alisebenz@@
Win@@
aca
buying
njengoM@@
doub@@
ekholelwa
bet@@
ngempilo
Cameroon
Lib@@
contrast
Presid@@
misuse
wacela
ayeke
yamagugu
zokuxhasa
ngemfundo
alien@@
leKhabinethe
leKhabinethi
bhu
amaphupho
YE@@
lentuthuko
alungise
eping
engahambisani
bamacala
Rate
yisigatshana
wildlife
soci@@
integral
angama200
yokunika
ezinamandla
Parks
ohlukile
lifelong
walked
shrugged
ekubopheni
logistics
ontraki
Izinjongo
leg
ler
nokubaluleka
wokus@@
IHhovisi
Religious
debts
izindeni
yiw@@
imib@@
inhib@@
athaza
angaphambili
siyal@@
neqiniso
lokwengamela
oleni
zones
uthatha
esabela
osini
acise
exchanged
eziveza
Goodwood
xhumanisi
ezwakalayo
zenkantolo
picking
zokuphathwa
nenjabulo
Ukuphenya
ikhishwa
ezibaluleke
Unfortunately
ballot
protects
oppression
kanje
Kuzokwakhiwa
consolidated
Lodge
Ib@@
ubuth@@
indices
kweRiphabhuliki
isixaka-xaka
Xol@@
SAC@@
abanj@@
ebhula
azane
classified
Impahla
people's
akamise
ingeni
Cela
plas@@
iliv@@
elichazwe
kant@@
nguMnu
aPh@@
kubiza
ngoLwesithathu
ukubuyekezwa
elidala
kwezobulungiswa
tonight
nombono
ukukwenza
transformed
arekhodi
neZimboni
Zombili
Har@@
dlulile
ifakela
Global
athuba
professionalism
kwinkampani
ild@@
eku
AKA
Mount
laug@@
tapo
LePhalamende
uRegional
emiz@@
nokuchaza
esingaz@@
sanc@@
Nu@@
Volunte@@
kwilungu
Okul@@
befa
phawu
expropriated
senk@@
tradition
asilithi
nokungathuthuki
eliq@@
Klerksdorp
ungweni
sculp@@
403-@@
gaining
Myanmar
izingadi
boMnyango
mild
ungav@@
anselwa
Ubandlululo
recruits
Director@@
cong@@
fu
Syria
nokubuyiselwa
ezenzekayo
Peoples
nakekelwa
Bambanani
Imibono
nozakwethu
Nature
revit@@
Douglas
colile
quote
erral
poorer
sethemba
clinical
partly
lokubuyiselwa
ester
egxile
olisayo
bavakashele
oyisipesheli
recogn@@
Okukh@@
ushumbisa
abesilisa
ekukhethweni
yokuvuselela
IKomidi
anyayo
Brig
wokuxhumana
nokudilivela
aria
Umyalelo
oug@@
oking
Greek
examining
esiteshi
emas@@
ngemininingwane
yase-Afrika
ech
zemindeni
bakhipha
anyelwe
Mathematics
ukujabula
findings
uml@@
shintshwa
Could
besebenza
ukuzuza
perpet@@
nokuxhasa
therein
kwezokuvakasha
outlets
Imig@@
thethweni
esisanda
enrich@@
ilabhu
rejist@@
engag@@
finances
terr@@
entuthukweni
people-centred
interpret
unyel@@
expose
Ngalesi
ologist
men@@
surcharges
interruption
hydro@@
surprise
amanq@@
destinations
nokufuna
khokhela
isb
commerci@@
zingene
incts
deliberate
engi@@
yakhona
nokuqeqesha
enani
bottles
Klip@@
ingena
odidiyelwe
classif@@
onquma
socioeconomic
isayinwe
burn
anwe
bury
Evidence
uted
KHONA
qualifying
yn@@
nokuxhaswa
icelo:
oos
esiyizinsuku
ngezigaba
remanded
Dutch
YOUR
cuts
differs
unyaziswe
nezingen@@
Public@@
licenses
athengise
Phezulu
Phatha
asungula
ikhambi
kosizo
kwamaphrojekthi
zisebenz@@
programm@@
eqhubeka
nets
Oath
rehabilitated
Minors
compile
bathi
enzani
kuyenzeka
umsinsi
aphakeli
Kulungile
endiwe
eziqh@@
kubaphathi
emingceleni
Ban@@
ukucela
namaHlathi
okungukuthi
okuthunyelwa
finalized
oqelelwe
fakiwe
nengane
iselo
adver@@
zenqubomgomo
KUM@@
ehola
ubum@@
sohlelo
alo?
been@@
yisibonelo
creativity
igolide
alize
Kwezimali
alignment
ezindiza
istikhi
i-A@@
signature
Change
anyisiwe
zezakhamizi
zokuvikeleka
ngemithetho
ajini
WHAT
itap@@
EPWP
yokudobela
SMS
ebopha
obungozi
Manager:
ezol@@
manufacturer
VAL@@
ayelwe
ivumile
kuboshwe
ikisane
imic@@
namafutha
roughs
wathatha
eradication
oqobo
ogy
Ukubeka
esimame
atus
diagnos@@
ebuy@@
conform
yokubeka
commend
ngithanda
unjalo
weapon
osebenz@@
lendlu
izingqinamba
okwedusayo
esh
yaseS@@
symbol@@
COMM@@
anini
igcinwe
Festival
ais
wamaPhoyisa
visible
ihambeli
Imithelela
iziqondiso
discrepancies
Houses
casualties
zokuthathwa
nokusekela
Lord
demanding
nano-@@
ivumela
millennium
tool
lwang@@
knitted
fashion
musical
oshaywe
angana
lawula
Wynberg
iqhumane
namaphrojekthi
Gross
ubhekele
low-income
Species
yad@@
cork
basemazweni
osemncane
sesif@@
Rev
Red
Fiscal
retroviral
ukuqubuka
stic@@
awumb@@
ahlelekile
Nav@@
rescind
opera
door@@
ishiywe
divorced
convention
anu
commissioning
kuhlale
Exco
Precinct
zizoba
Mitch@@
lezinhlelo
Imithethosivivinywa
forthwith
kwezokuthutha
wezeZimali
indiza
ken@@
ership
okujulile
eyisi
of-@@
servic@@
buya
komhlaka
far@@
guided
guides
Debt
njengezwe
emukele
wayele
priv@@
esiya
op
okhenketho
wudlame
ezilungele
ezingase
ngokukhulu
yendlela
cohesion
Mog@@
griev@@
wenqubomgomo
xhumane
fire@@
lunqunywe
eligibility
akuy@@
compensate
People's
oshintsho
Ukuxoxisana
debates
debated
-A@@
sebenziseni
Supplier
ukugcinelwa
where@@
kwendima
ukwethamela
achiev@@
the-@@
youre
shareholder
only-
ngokutholakala
ezibh@@
anti-personnel
toilets
Buy@@
singenza
yesigungu
AD@@
ndenini
Permanent
mans
ekezwa
Bhodi
grenades
WEZ@@
inqamula
zangaphakathi
ebhe
Intro@@
maladministration
luw@@
groupings
calculation
restitution
arrow
,1
kunakwe
,9
commod@@
abameli
yokubambisana
nemic@@
yokukhipha
convey@@
okuvikeleka
kwezinkampani
wenziwa
superi@@
gudl@@
urg@@
kulaba
disparities
Units
emlandweni
asebenzisana
fishery
okwakwenzeka
hlaw@@
ave
esotho
kwezihl@@
lobuchwepheshe
esakhiwo
elik@@
othembisa
mined
kuholele
owo
LAW@@
Islamic
energy-@@
akusho
ukuland@@
Olympics
opponents
Visitors
bebhola
aving
unlawfully
Masiphumelele
efakelwa
iRiphabhuliki
imv@@
omiso
suggestion
THETHOSIVIVIN@@
zale
DURBAN
klamo
ngeth@@
zenunzi
leKhabhinethe
adherence
Departmental
ogela
uthaka
ekulimaleni
itated
overcoming
ukuqwashisa
harassment
ezinsiza
nitrate
uNelson
Childhood
cwaningi
models
unela
Ball@@
ezikhethiwe
ambekayo
spate
ezisencane
Rand
ukukhethwa
kungabe
yiel@@
Islam
wakhombisa
kwaphinde
ographic
ehlukahlukana
ott@@
anelungelo
neighbourhood
ezulwini
brib@@
wing
scarce
izihlinzeko
concentrate
andaganda
waqweni
exec@@
wagwetshwa
resh
nokuphuma
explaining
ecture
nobulili
khaya
zigatshana
vocational
tight
unalo
fertil@@
ngesu
ngokuxhasa
onolwazi
on's
sifanele
okobezi
lezimayini
blacks
ukuphoqelela
conditioning
abhekane
warmly
nomzabalazo
lezithunywa
reliance
ibandakanye
Isu
design@@
freight
Lic@@
enqub@@
hospit@@
ibonile
zizohl@@
races
asil@@
hosts
Stock
kahl@@
velaphi
Odinensi
eqeshwe
Four@@
ezokuvikela
If@@
yamasiko
endlala
twelve
Claims
acwasi
kaningi
elingekho
ngokumayelana
zika
fud@@
bol@@
yaying@@
pedestrians
tro
ivalwe
pledge
okwanele
Ummangali
we-United
culisayo
iplani
exciting
Lou@@
bush
zothile
kwezimayini
:30
uous
emigwaqeni
osela
ifting
esiKhulwini
coaches
lokulawula
zezokuphepha
HIV@@
ightly
collecting
ngamag@@
segment
mechanical
zamalungu
Meanwhile
kohlakalo
ziphatha
streams
Bus@@
obukh@@
komthamo
Irrigation
zasemadolobheni
zokukholelwa
kunqunywa
adapted
drawing
azele
irresponsible
nanotechnology
ukuzikh@@
econom@@
Speakers
EX@@
CIC
okuf@@
Siphinde
okungas@@
Wesifundazwe
nokungena
uchaze
unrest
organisers
I-NCOP
alisayo
motivate
Tri@@
indic@@
emaz@@
medicine
isola
ukufezekisa
Ukuchibiyelwa
kufakelwe
gear
essness
kwezinhlanu
encing
dokhumenti
othengisa
vikelwa
Comprehensive
supplementation
year-end
oxoxisana
condemned
humankind
agcwaliswa
authorise
sasekuseni
nangaphansi
belongs
water-@@
isekayo
azali
obi
ukwabiwa
bufakazi
zokuthengiselana
ombala
qhudelwano
hora
NGA@@
ashushisi
ekuqhubeni
nalelo
propor@@
Imitheshwana
lemisebenzi
territories
ancint@@
Ukuqala
okuqond@@
firmly
Mir@@
View
zalabo
Metropolitan
izitifikedi
ishintshe
u-Registrar
yokulungisa
amusement
album
aB@@
ishiyagalombili
Cu@@
adoptions
ePosini
elelekayo
halls
anx@@
kunzi
concentrations
physically
laseAfrika
elokhu
Engineering
perceptions
kho
closest
FINAN@@
kin@@
ngemp@@
removing
by-laws
angomakhelwane
ukubuyisana
yalabo
namalungiselelo
yinqubo
atmospheric
promoter
Hot@@
advisable
izinqubomgomo
Ukushintsha
sobugebengu
invasion
okuhlinz@@
engabuy@@
kwamathenda
ify
Legalisation
arbitration
qeqeshi
zomuntu
isethembiso
okusekelwe
lot@@
tal@@
registers
dominant
Nokho
underlying
bomb@@
zed@@
recomm@@
lake
TM1
kukhu
ekuf@@
eziza
aziy@@
weSifundazwe
bakhokhele
yokuland@@
State-@@
Irish
nentando
convey
yomasipala
Pirates?
WEL@@
independently
uvesi
edidiyelwe
alekela
shack
engeniswayo
ohlale
May@@
wamagugu
kwakul@@
imbuyiselo
ebeni
esingesihle
kuzuzwe
competing
Grant
intim@@
amnyama
obhekele
kudingwa
ngokuphoqelela
izigwebo
ukuthathwa
nokungalingani
violation
sokushushisa
Walk
kl
ezaziwa
presentations
ezishintsh@@
lew@@
NEM@@
24@@
wokudoba
mistaken
ivinywa
komsolwa
Jamaica
sokuhlala
sub-tropical
consultative
compatible
weNingizimu
ikelelwa
ki@@
kwend@@
avikelekile
four-year
iHhovisir
uits
govern
Mkhandlu
101
e-Iraq
nozakwabo
yendabuko
yasekhaya
okhi
suspect's
igqa
ukunweba
araji
accum@@
Od@@
eqeshi
jongo
enables
sees
Patrick
prohibition
dom
stud@@
Washington
architecture
oyisakhamuzi
abanekhono
unu
Ment@@
yilezi
ung
anzwa
zinhlobo
emuk@@
wamanje
Prince
Broad
emabhizinisini
akuphika
Luc@@
yize
HOW
iminy@@
kokuzwa
NP@@
wepasipoti
okudinga
enzele
vel@@
kuhlelwe
nokunakekela
ukusetshenzwa
iniswe
nearly
nokulimala
okubanj@@
Oaths
ezingu-60
Chwepheshe
bamarediyo
lwabavoti
conferences
main@@
diversion
indile
kwabantwana
ngokungab@@
dat@@
ansi:
maj@@
womthethosisekelo
smear
hang@@
Corridor
anisi
strikes
USA
arbitr@@
zezimoto
ukulondoloza
compilation
lokuphela
elithola
Parliaments
offs
ukhetha
ngeN@@
kwezinyathelo
baqala
waninga
nesakhiwo
commissions
akhubazekile
babeng@@
ezal@@
Boards
supposed
nominee
kuvinjelwe
babeke
acceptability
zabaqashi
ngeyamahhala
nomthwalo
ached
Ste@@
amps
demarc@@
ehleli
foreigners
wanikeza
nesigamu
ukho
Nyango
amavukelambuso
kwabe-South
nabad@@
babopha
Asian
salokhu
ngenza
abonakude
vele
mibiko
nor@@
sodaba
obele
abiza
ngeniswa
Develop
enziwanga
learnerships
bing
komngcele
elivamile
zeph@@
adli
ibha
adla
adly
usiza
nenkampani
yenu
uvimbele
milestones
azinga
inspiring
ezitifikedi
aqashwa
Design
Japh@@
enezela
yilawo
ilities
qhubekisela
inhlonipho
ideals
Cote
vegetables
rav@@
ilizwe
uyay@@
ukubezwa
kwamagatsha
ventures
okweba
nguNobhala
unilateral
complexity
precisely
ulumile
sizokh@@
Ndlunkulu
okushiwoyo
inhle
catalogue
games
itheng@@
eleleke
Lebanese
ngesheke
kuny@@
ePhumayo
idaluli
nokulahlekelwa
proceeding
colisayo
kwezimbewu
transform
sidingo
whereas
okusolakala
imifanekiso
fowabo
oletha
siphele
njengesith@@
census
isiNgisi
ezidayisa
ophuma
okuphawulwe
elidlule
obhekwa
Parties
manani
abalingani
avalwe
ashintshayo
populated
emigomeni
childhood
Petros
basayine
ezilula
specify
akhayo
esifubeni
CITY
carb@@
omnyaka
6kl
eyakh@@
XH@@
yaseKapa
Phil
dispos@@
ayiwe
ukuzivikela
uthumayo
andulo
briefly
enqabela
odakazi
oyis@@
QO@@
limeme
Amajuba
Class
icimbi
abatsh@@
ezingenazo
kumaqembu
laseThekwini
Spe@@
Tom
Echaza
IRP@@
glad
ovalelwe
yokushintsha
delivers
oyi
angewona
kwezicelo
conspic@@
engikazi
kunez@@
litholakala
inhlabathi
hotel
suspicious
obuhlakani
iSaziso
Kwaboshwa
GENERAL
obuyiselwa
reply
opposed
we-Domestic
entally
pon@@
kukhokhelwe
nengcindezi
ekusebenzisaneni
Mv@@
CONT@@
tables
mpumalanga
NEPAD
Isakhiwo
emzabalazweni
ezinyathelweni
ezakha
ubekelwe
Corpor@@
i-N@@
edy
aziphathe
ed:
ekelelwa
nokuphakelwa
yesehlakalo
siyachitshiyelwa
Suppliers
recycl@@
86
akwenzi
straight
isolation
Bri@@
sitatimende
queries
abansundu
asuka
uluhlu
DI@@
ilebuli
abasuka
ngezibhamu
kuke
non-proliferation
corners
ayiy@@
nobungako
Students
izikhumbuzo
wasePalestina
ukukhangisa
masipala
qondiswe
othule
nanokuthi
psychological
ivisa
elelwayo
elungele
youths
backdrop
zoning
spider
neminyango
battlefield
managerial
bekwe
yakwa-@@
ato
ocelwa
seNkantolo
PHAK@@
asemqoka
oqe
ngokwedlulele
comprise
wesiteshi
sexism
yisifo
umgudu
buso
pofu
PER@@
axoxwa
thatha
okuvunyelwene
nezivakashi
sebenziswa
occupational
tings
kokwamukela
Jul@@
sama-@@
suitably
ngobuningi
Responsible
ikhule
wenkululeko
east
yamukelwe
kukhula
locwaningo
Sir
Kum@@
esifanelekile
ambul@@
anti-apartheid
uwoyela
out-@@
Umqondisi
baphathe
egq@@
zima
weMfundo
amalele
ahlukan@@
lesikhashana
amazing
decreased
ples
08:30
emithi
obhalisile
ongacwasi
kwabokufika
ahambisa
slow
intokozo
odwana
reflective
Whenever
kafushane
Unyaka
briefings
abangenawo
kulumompikiswano
yosiko
ukudlwengula
Production
direc@@
nakanjani
CONSUMER
canv@@
aphambilini
bekuy@@
shops
viz
ngokungaqondile
8-@@
ongekho
Abashayeli
Bandung
mbandela
iphakamiso
attitude
aguqulwa
amadayimane
olwaziwa
befika
Currently
secretariat
abathintekile
zinsolo
tshele
Sizwe
i-oda
yejenethiki
eyabelwe
shoshaphansi
pallet
ezisungulwe
ephephandabeni
afunge
evaluating
Kaputeni
isiBhunu
ukusheshisa
aerospace
onelo
yesiKhungo
verification
Ngokunjalo
weth@@
GM@@
aga
oqela
timely
fanekiso
marry
nabac@@
delivering
Cath@@
defeat
lengamele
angaleso
ebukeka
ou
mark@@
ezibon@@
Nqakula
yokuqeda
ezimhlophe
sizobe
ini:
ons:
bedroom
eminingana
Ta@@
uit@@
horr@@
wesintu
resear@@
suggested
okuhambelana
co-ordin@@
sohl@@
conserve
nokushaya
selayisense
adingeki
Low@@
yokulima
insufficient
baseKhaya
Isigungu
ikimba
DATE
nesamba
Culture
ukwel@@
Ihl@@
esithathiwe
worm
threat@@
ishiy@@
ojwayelekile
hur@@
ly@@
kuncane
halisela
nangaphezulu
osanda
nokuqhubekisa
Izic@@
bebe
kwabal@@
rog@@
Ren@@
insul@@
ilt
ngokuqondisa
ayo?
zich@@
zuzu
emibala
demolished
Hop@@
sifund@@
ply
ukubuyela
atshalwa
researchers
Lek@@
back-up
asogwini
dance
upper
brave
rough
alini
anding
Deal
isihlalo
-N@@
TRO@@
familiar
nokuhleleka
heroes
ikuth@@
umbini
kani
zenza
enyisiso
inspected
uzwile
Flats
zomzimba
wetshelwa
alelo
kwizindawo
Funding
amakhasi
Isifundazwe
abol@@
ehlola
glob@@
discontinue
orph@@
non-profit
akush@@
Adv
Fundazwe
are-
Obuhleliwe
equkethe
yesintu
Assistance
ozob@@
entweni
abaqokwe
Imboni
yalapho
ezinhlakeni
umdwebo
ekhishiwe
viability
uting
liaison
expecting
financed
lokubheka
okuyi@@
zivikela
kas@@
sombuso
ikeli
bear@@
angi:
ison
ebekelwe
Not@@
fulfilment
cemetery
translated
intwa
yokuncintisana
iGazethi
babanjwa
zezingane
esisungulwe
yezepolitiki
uth
apulazini
uyakw@@
athunyelwe
reportedly
attackers
informers
ubuciko
engenakususwa
phakany@@
ugcina
zokuhlela
ride
sokuthengiselana
nokwesaba
bit@@
Hy@@
Nksz
Ukweseka
facilitated
cruise
Az@@
masters
kweb@@
undo
sively
ukugcwalisa
eTh@@
ungumuntu
days:
IMISEBENZI
ukuzibandakanya
Afrikan@@
okozo
discouraged
Ungakwazi
contravenes
aledi
zifakelwe
naseM@@
sithatha
networking
reservations
namaholo
ubuka
convenience
Kuyacaca
cwalisa
amiswe
broadcasters
belong@@
lengthy
women's
deck
esiKhulu
donors
abaleka
lemfundo
nezangasese
lika-Master
ikaze
iKapa
chest
treaties
ngiphinde
aling
emorandamu
onelelo
wesiKhwama
Sydney
Imishini
ensiza
ukubonisana
Polic@@
okulula
lobulungiswa
Ukuhlakazwa
sokuqeda
grows
eligunyazwe
i-ke
lwab@@
erry
uzakwethu
zakul@@
streaming
occupiers
or-@@
ongiwa
ezigq@@
apology
sihlanganisa
themes
omulisa
kulungiswa
ababuya
monies
lokusebenzisana
athikhili
imission
avoiding
okhulisa
nye
inputs
Removal
ikijelwa
uselelwe
Mel@@
zikole
discharged
Bak@@
ibuka
wonder
indezela
kuyodingeka
ngenela
ulekwa
esiphuma
unusual
iphile
ikebhe
carbohydr@@
i-E@@
strive
non-referral
careers
itch@@
bazob@@
Madib@@
shoplifting
Week
sitifiketi
thile
cables
ukusabalala
star@@
Proced@@
tial
ukuzith@@
distinct
tual
shark
Tshep@@
zezigatshana
zer@@
inding
amalebuli
obel@@
eNyakatho
ifinyelele
acing
aqeda
adlali
organism
joining
directorate
ulini
ukhokhe
QU@@
iphansi
imis@@
ezingenhla
Brothers
yokukhangisa
wezo@@
izintandane
Advis@@
proportional
obiso
obisa
abakhethwe
e-NCOP
halalisele
emgwaqeni
ondliwa
failures
arrange
shock
Lona
komkhandlu
Phepha
ezingu-20
sizana
Written
ayez@@
Conven@@
native
pockets
yezimboni
Kloof
Ukuvikela
Baba
Wokuxhumana
establishments
reaffirm
Pat
idal
ungwa
sophisticated
kwendlu
reti@@
Kusobala
phased
agasi
womkhandlu
Heav@@
eziseduzane
tampered
Product
Mayor's
wesilungu
ted@@
Documents
njl
yonkana
aphuc@@
Seychelles
emang@@
qatshelwe
assembled
Campaign
methane
wokhetho
Jerry
mikhakha
acknowledges
yokubuyekeza
olutholakala
prohibit
celebrating
perception
engan@@
deregistration
revival
depend@@
ashiyana
Compl@@
Mine
accelerated
sens@@
Ucingo
afidavithi
oca
Big
uzekile
large-scale
Performance
Yileso
dedication
kwamathathu
Ur@@
hlol@@
craft
deliberations
namav@@
rig@@
dlweng@@
liqinisekise
UIR
uzweni
checkbox
vand@@
kulindelekile
ile:
kwisikhathi
booking
buthule
amisile
nenkinga
icandelo
solar
uthaze
itate
tis
ekulethweni
Dam
agcini
lingas@@
ional
anamuhla
i-learnership
kusekelwe
cha@@
beNdabuko
attain
lifaka
abalalise
oluqondiswe
remov@@
zanoma
ubudala
commissioners
esibindi
epulazi
generality
Magistrate's
ithumela
deserted
Insurance
kokukhishwa
eHhovisi
mortgage
afinyeleli
samandla
nangokuz@@
ekelweni
unjuzwa
zihlale
e-filing
isibongo
lwethulwe
beya
we-Plant
inspect
uzwana
okuyisisekelo
ysts
kutholwe
isted
abulisa
Suc@@
kuj@@
align
umNyango
lokushintsha
Sa@@
ezilawulwa
eziphethe
Eziph@@
ngezindlu
ukhulume
okunakekela
apaki
ipul@@
Sport
ngokwengqondo
imvula
180
sethula
DEB@@
alike
Scientists
ousness
eligcwele
rumen
200@@
leth@@
yr@@
widely
ekiswe
intervals
iyetha
helpful
idiyele
vacate
Clubs
yisisekelo
abangena
repeatedly
entrance
ikelekile
kwezimpilo
Ubus@@
ague
realistic
engine
ubika
amaphutha
Cong@@
UMvikeli
ngezinhloso
administrator
abhale
ethnic
sokusebenzisana
idingongqangi
Adam
KAN@@
by-
isenta
KO
ocwaningweni
lesikhathi
ngabomnyango
kwik@@
entary
ebhalise
sezifundazwe
sus@@
declining
tiers
kumabhizinisi
hib@@
sevisi
iyingxenye
oludidiyelwe
imanje
Equ@@
abelo-zimali
Kofi
Bantu
ukungakwazi
111
leak
shipping
Implementation
ahlele
ekubuyis@@
baqaphele
eSouth
kwabang@@
yeRiphabhuliki
ukuzethemba
emlonyeni
staffed
yokubhalisa
kubonelelwe
deferred
designing
Foundation
absolute
LC
LA
ukwengamela
LS
ulumisane
sentencing
isidi
vouchers
akwethu
esingenalayisensi
burial
Senze
odlame
cros@@
rewards
atsha:
okusem@@
Colleges
idlo
avalelwe
uqhubeke
spectrum
kwamagesi
ilive
banq@@
Hor@@
nezinsizakusebenza
flowers
ebusweni
7-10
ephumayo
evulekile
ira
timber
tor's
Sitting
iliz@@
koz@@
izigxivizo
omabili
emibuzo
evel@@
stream@@
nokubekezela
FC@@
har
istan
ingini
survival
dIvoire
bhalwa
zezenhlalo
imisa
imise
Cooper@@
amaLungu
wagwaza
iphathwe
baze
okwemvelo
umhlabathi
ost
summon@@
kwezimakethe
ivosile
boost
kwabazali
ngobungcweti
ngak@@
MP
influx
Lankan
Proposals
kwemib@@
nobudlelwano
nobudlelwane
litre
conscious
pulled
zezemfundo
idge
2005/@@
aqashi
wadutshulwa
BI-24
collectors
wakuleli
yizindawo
akekelwe
lesig@@
Kuningi
Deleted:
ISE@@
ibini
kwamabh@@
awaiting
Wolmar@@
eshumi
concentrated
allowance
Phalestina
newspaper
imbelo
SAFA
iqukethe
ezingafanele
obekung@@
retains
pig@@
Sithole
NO
lezizaziso
adewabo
Lady
refunded
esekayo
Kulo
kuzofuneka
eziyi-@@
esingangonyaka
displays
lwezimpahla
njengas@@
benef@@
Kuwait
Ilunga
Ukudidiyela
lomnyaka
corrected
3-@@
knocked
enakho
imbini
ilung@@
akuc@@
ENingizimu
ekuvikeleni
Serv@@
elaborate
unyush@@
qondweni
Recreation
wording
ukunt@@
okuyinto
atively
bazoqhubeka
bundling
forec@@
abahlinzeka
ekhiqiza
ikezi
lasi
oqokiwe
safer
wamasiko
Kubonakala
kuyatholakala
umbukiso
krini
climb
e-MK
certif@@
owesilisa
Wind@@
Ukulawula
osili
akukaze
terrorists
considerably
Mout@@
Hermanus
iholele
sigcine
yezokusakaza
nokuhlukunyezwa
ukwelulwa
Organ
ebhodini
kwezindiza
eqesheka
accommod@@
KWELE@@
ezithathelwa
Ezingenayo
Constables
yokusimamisa
hijackers
UMEL@@
kwiminyango
ekungen@@
akulungele
xway@@
tot@@
yesikh@@
uyiswe
dishes
atin
ekugqugquzeleni
OKH@@
ogwadule
indis@@
SABS
Inxusa
jan
molasses
Rating
elibukhali
downward
ngamalunga
yebiwe
Isidingo
akeni
hydr@@
aseMzansi
Sched@@
ukunikela
UKU
ubungule
preclude
Phase
Yesishayamthetho
uated
omgomo
kuyimfihlo
peac@@
BCEA
wangasese
Khumalo
roadblock
ingaph@@
yasolwandle
sokuqhubeka
Nkosazana
ier@@
egunyaziwe
kwesikh@@
ulisayo
Awekho
sesivumelwano
nuts
ephuca
Umhl@@
ezigamekweni
ungatha
Meyer
ka-1993
kokusebenzisa
public-sector
dogs
emi@@
lomnikazi
onana
Siyaphinda
Thohoyandou
ukusatshalaliswa
zokufinyelela
wabanjwa
secretary
kwezobuchwepheshe
Brazil@@
ithethonqubo
yeqembu
ukufakelwa
phuzu
koMbuso
retrospec@@
COR@@
sebeb@@
traditions
icabango
emihlaba
PROVISIONS
Philli@@
trustees
akhohlwa
peer
emeyo
NJ@@
nakwamanye
:00
encompasses
update
ithelela
ubungozi
surv@@
uyekeziwe
layers
angalelwe
ezithathelanayo
isikhumulo
claim@@
yeM@@
Complaint
Diep
ibo
eBeijing
zoz@@
Blacks
kaNkulunkulu
Ukwenyuka
esingakanani
njengem@@
Requ@@
importantly
ezithombe
attempting
boy@@
kwe-Afrika
Ukukhethwa
ephathekayo
imihlambi
state-of-the-art
ukukala
lang@@
thuizen
inquiry
Ngiyajabula
kubanjwa
purpos@@
elibhekene
geograph@@
amo
conducts
nanembeza
son@@
bokuz@@
Buyekeza
Itsoseng
stark
Zamb@@
zikhokhelwe
INTE@@
uguleka
600
emikhiqizo
vo
ukuvuselelwa
monopol@@
overseas
qalile
cabango
cabanga
ngezinsizakalo
ukuphinde
embula
reira
zomlando
Sik@@
uhlola
remnants
territorial
cellul@@
surro@@
nombuso
Ey@@
UKimana
besuka
okungal@@
stay@@
ababhalise
azikwazi
Late
uthuke
UMthethosivivinywa
oluya
stored
phosph@@
olubekiwe
pictures
esilinganisweni
maduze
forgotten
obekwa
Racism
kokucubungula
echaziwe
idluliselwe
empowered
UTH@@
ipp@@
capacity-building
AMA
akisha
ocks
ettlement
ngokuch@@
Kock
valid@@
yezincwadi
lokuc@@
ukuguqulwa
fears
sokuhamba
ENZI@@
ekulahl@@
ngesizotha
othanda
ongaba
Sooka
biophysical
advis@@
lapse
aphenduka
certainty
Osse@@
nokukhokhelwa
defective
kulisa
nokufakela
zokugqekezwa
bafunde
emnyama
aklayenti
CEI
yakwazi
ipikitela
kunezizathu
je@@
undleni
lesine
ecabangela
ngapha
000-00
ngculaza
asayiniwe
trucks
tend
tyre
one-stop
okwaziwa
esivele
likanobhutshuzwayo
ethuthukile
suppl@@
wedwa
Avoid
ekweny@@
unyweni
instability
UV
UK
saKwaZulu-Natal
Austr@@
itis
acinge
Delivery
izinhlawulo
baye
yokuqinisa
zicelo
rej@@
utmost
nesilinganiso
uzimisele
unyazo
okuveza
exploring
fear@@
tra@@
elihlelwe
othuliwe
ikopi
nemiyalelo
commun@@
War@@
crew
anic
Wa@@
commuters
uries
bangena
etted
ibuyiselwe
yenqubomgomo
etary
eziseduze
i-esidi
equip@@
lezingane
alterations
Ye@@
neutr@@
detrimental
ontline
kwezibopho
subs@@
ondweni
i-aphili
igazi
ella
yisiphathimandla
lokuxhumana
uthathwe
kungumsebenzi
aphephile
kukaNdunankulu
ikisha
air-@@
paki
assented
iTheku
080
nomkhandlu
Izibonelo
DSW
rug
isiZulu
ngaphesheya
we-2014
enxa
magistrate's
valley
Ngo
shoek
Ukuhlala
Minimum
assurance
frequent
ill-@@
,5@@
Rugby
204
rad@@
ikhumbula
Ws
onkewonke
Large
Vis@@
seas
kusebenz@@
elekelelwa
dramatic
umfaki
ezazib@@
sci@@
yesitshalo
rental
avale
zulu
abhekele
aqed@@
kwabelwe
sekwedlule
olving
AR
RRC
ofanelekayo
practising
igx@@
Workers
kuzwe
oun@@
isivimbo
banning
asib@@
zibuye
zero
ambanweni
liqu@@
uniformity
Pieter
Americas
afanelekile
imihlahlandlela
amboz@@
sacred
kwamaviki
Chair
i/@@
pasteur@@
Abafake
Iziteshi
sterling
inteke
enforcing
ongezwe
emathubeni
nezokuVakasha
kuyokwenziwa
inkunkuma
ikhankaso
ihlolwe
ihlolwa
.com
zesicelo
Isifunda
cholera
njengomphumela
kwabe-SARS
Richards
ingqiwe:
uguquko
wokushayela
exual
honorary
bearers
Easter
cus
nemikhumbi
Glenrand
terkfontein
ulumeni
ababencishwe
yeth@@
Kuyinjabulo
clou@@
turn@@
Israelis
ukuncoma
Olimpiki
okungamanga
inqubekelaphambili
kuMnu
packing
engu-10
YA
aThwa
uyaz@@
ahlangany@@
Stallion
Ensuring
Ngaphakathi
Maj@@
Umkhokhi
lokwethembeka
labelling
stag@@
kaph@@
consul@@
introduc@@
minimising
engayo
aker
Ukugcina
intensity
EMENTS
ezinezinto
emak@@
ukuphinda
Izingc@@
Panel
ziphilisa
Senate
ency's
Total
ikhathi
delegations
Kuyicala
R13
jen@@
lokwaziswa
cwalis@@
introduces
oqinile
lonyeni
ABLE
ngaboMnyango
fundwa
ubu
activism
resist
wakwa-@@
Wokuphathwa
qunyiwe
ZA
okodela
museums
kushaywe
anch@@
Sobukwe
Muslims
enquire
toxic
kwash@@
nesithunzi
PARLIAMENTARY
Antarctic
kucatshangwe
attractions
ngesilinganiso
econdary
njengembonelelo
lweminyaka
Jouber@@
obuningi
exico
ebonisa
clock
sizoqinisekisa
spite
Thwa
afaneleki
yakwa@@
Non-Aligned
ashicilele
Adams
Alexandra
yokumiswa
zalokho
ethulile
godlelwa
ubeng@@
circum@@
nekhasi
unyiswa
esimiswe
erated
burns
stra@@
broadcaster
RSVP
kowenze
osewuhlaka
owakw@@
ibhini
phenyi
agcin@@
kwase-@@
fos@@
Robb@@
vigorously
remarked
ebisa
Bra@@
Stud
trend
ezinsizakalweni
ashana
awuzange
wachaza
gqek@@
entarians
ebhisi
etamine
ithamo
ilungiselela
ilungiselelo
vitae
inisekisa
Ethekwini
entsheni
occas@@
neposi
Sup@@
zibekelwe
ongejwayelekile
tensions
Jager
acacile
Sign
aseg@@
shebeens
IMA
olunikezwa
nokuphoqelela
ububi
Icala
-year
engant@@
sciences
ezifuyiwe
izimfa
forage
Stratcom
oluc@@
PRE@@
Lee@@
Chat@@
eyisinqumo
rumours
acquiring
amaqoqo
frustr@@
minds
relies
tshontshwa
oxox@@
underp@@
Isipiliyoni
imende
abahlengikazi
sokunikezwa
Individual
Wezemisebenzi
elisemqoka
ontilaka
kwezingu-@@
ngenz@@
obonhlobo
izic@@
olim@@
spac@@
alleges
acosheli
iMinyango
sibekwe
trip
feedlot
MD@@
emfuleni
novel
thintana
uBhambatha
Ubung@@
kwalapho
eyikhulu
abayis@@
agunyaze
Immediately
zilawulwa
Thompson
rivier
bayaz@@
supervision
somebody
ngokubamba
okubulala
anks
hlanhla
ukuhlaziya
Investigative
've
Randera
amaco-operatives
iel
Uthi
CITES
yeBh@@
canis@@
uyoba
flight
50@@
restraint
cement
athekayo
ondolozeka
recapitalisation
highlighting
advocate
alloc@@
qhathaniswa
nezwekazi
rown
Exclus@@
Fer@@
awuz@@
fore@@
maximise
kufane
buffalo
ubulungisa
yekheli
axhaph@@
bezimpahla
concludes
kuthinta
ape
group@@
Integration
ozobe
inkambiso
emikhumbini
engela
inaccessible
angabazeki
ilungiselele
ziyi-@@
interpreted
bezinhlelo
injwa
lwawo
nezokungcebeleka
ukuncipha
waning@@
secre@@
cover@@
nemibhalo
seconded
izuzu
Chemical
akilabhu
ascertain
crude
joy
kwabaningi
osebeni
respondents
Pur@@
porting
ontsh@@
Perumal
acific
otshwe
2005-07-01
excessive
yokungakhokhi
afakwanga
smoothly
ivuzo
kubal@@
Bhala
njengezithunywa
ukuqag@@
graphite
lwenziwe
CHI@@
auxiliary
001
aculi
i-agent
BEE
ongi
kwakumele
wokuthuthukiswa
kuNdasa
azophakelwa
benefiting
hurt
sikaMazisi
Bika
yeminwe
othishanhloko
nokwenzeka
destined
Bellville
encomekayo
MRM
queues
zesikhungo
njengososayense
sms
yeSahluko
epidemi@@
Excellencies
olungelona
Tobago
ama-ejenti
Agreements
kuvikeleke
ekulaw@@
releases
responsibly
ngokudidiyela
nel
lokunikezwa
yengane
se-prepaid
conceptual
ethwesa
akhulum@@
Sinxusa
okuphikisana
Ngokufanayo
exter@@
ler@@
dlini
opinions
CE/@@
YEL@@
Author@@
OC
counts
faneleka
iwane
odingekayo
feet
posting
Bos@@
astama
abaseNingizimu
ved
wengula
trail@@
deliverables
studied
okusetshenzwa
defer
EXECUTIVE
okungaph@@
hides
inzo
ngohlaka
eposi
izidingongqangi
avuni
Umklamo
lingamisa
yiNkosi
rounding
Consent
kwamahlathi
titleholder
yizinkinga
Amasu
kokufinyelela
Jewish
ukuzwelana
Portuguese
surplus
open@@
Mnyango
robber@@
ation-@@
deduction
olintshi
ante
u-Obed
amang@@
onelwe
Hilux
civil@@
izog@@
awuvume
Ungenza
ration
aboni
elichaza
wakhuluma
sidale
itokwe
Harry
Guide
olitiki
unzini
angazayo
ac
au
mandated
sokulawula
jaji
ngaleli
accompanying
Ismail
zicelwe
zilungiswe
ihlinz@@
Sekuyisikhathi
Kwamalungelo
sibhekana
entrepreneurship
radios
Polokwane
Polo
LOM@@
ukane
missed
conting@@
ologists
rough@@
Sibonga
Gambia
Zwe
eland@@
bha
oluhlanganisa
Kyoto
wood@@
abil@@
ukucula
avoidance
yezidakamizwa
ezingazange
lock@@
prefer@@
ahoxisa
bafakele
kumthethosisekelo
sinciphise
umbai
Ngokung@@
uthanda
Engelbrecht
imbili
emindenini
homeland
lany@@
yokugunyaza
uphendula
ngokujulile
inhal@@
Pitoli
angama@@
bazothola
omkhakha
lwamaphoyisa
ungeza
ubulana
yobulungisa
yobulungu
okuphenya
Owesifazane
ihibe
depletion
senu
hanj@@
ngamabili
ngokusemandleni
wokud@@
Staff
Kanti-ke
lokungenisa
labelled
ukulindela
kathathu
Several
Clayton
friji
aveze
Rend@@
anentshisekelo
lisayinwe
Mnc@@
interactions
surely
mininingwane
stimulate
e-Ellis
uzothatha
medal
imisakazo
kulindelwe
Alleg@@
promo@@
Izith@@
exchanges
ingazange
nomsolwa
injustice
.durban
umede
Ukushaya
,5353
kukaMnu
ngegama
ajaha
lokwenziwa
olwazini
dust
fav@@
nokuphenya
habitat
anzana
olufakwe
Semenya
esiqokwe
ne-T@@
Clinical
fakele
agri-@@
esicelweni
kwemakethe
yeNkantolo
ozoy@@
aqinis@@
acid@@
nombh@@
churches
Ngendlela
zihambisana
installs
imeyli
employing
airs
imikhandlu
Set
sezinyanga
ababa
binds
nokunakekelwa
Organisms
Honorary
mut@@
rationalisation
Publ@@
efumula
Libr@@
omulo
dy
irregularities
Taljaard
uously
akubona
accord
Khula
Groups
lweM@@
crim@@
singekho
wellendam
oekemoer
kwamanani
adding
wokusetshenziswa
izini
lapsed
sends
manual
productions
courtesy
onyama
pays
balances
,8620
kokufika
okuhweba
akavunyelwe
kubuyekezwe
anani
ngokufana
epho
bold
Lowo
2005-02-24
Sweden
ishoshovu
esihlalweni
ihlaba
witzerland
ehambisanayo
asika
liw@@
kwiwebhusayithi
neighbourhoods
Swartz
athembisa
for:
ogcwalisa
Parkweg
entirely
ep
kubhekwane
inevitably
kuqashwe
akhethi
Trichardt
ajwa
simele
ezihambela
wetsh@@
New@@
disrup@@
packed
Mbombo
ukuhlukumeza
sinyathelo
lamathenda
esikiselwayo
Nikki
iphomedi
ekwane
ekwana
exwayiso
obenziwa
/08
OKUZ@@
ovalwa
observers
asipoti
angany@@
self-defence
aqukethwe
Centenary
reat
combus@@
deficit
Interface
kwezikhulu
ahlinzekwe
abaqashwe
esibalweni
ngokwenziwa
parcels
ukukhulumela
uzibophezele
nobung@@
Lind@@
akazo
Kruger
lwezwe
ngokwenqubo
etshenziselwe
Mt@@
yeNkampani
EKA
homel@@
Ann@@
Lekgotla
ngathi
ongweni
exclude
ratified
Wood@@
alethi
roadworthy
pipeline
olufaka
Hugo
malini
awarding
sympathy
nezingozi
slo@@
probability
eziphathekayo
.50
shotgun
Expl@@
igqugquzele
edelwe
leposi
itious
assistants
istiwe
olufakelwe
hehayo
transform@@
Ukusungula
ingsburg
niz@@
Mhlawumbe
emiphumela
weMisebenzi
spatially
ezesayensi
omude
cith@@
yaseM@@
78
ayisela
eletha
Ever@@
spectators
lokufinyelela
gt
apped
ugqila
akusiza
yokuthula
ezezela
sophenyo
nurture
okungakh@@
pools
aqukethe
underpinned
possessing
updating
ukweni
41@@
kwesifungo
q
ers/@@
threats
okungaholela
nezinyoni
wor@@
entr@@
UKUVIKELWA
ngengqondo
okungey@@
ukuzilibazisa
yoMthetho-Sisekelo
nomthamo
Izindlu
zaleso
unikezwa
izinja
ifies
nomhl@@
R200
isithupha
sobuntu
ondoloziwe
ukuqondisa
inzeke
cial
ulokhu
vulnerability
ohlokong
alib@@
imitha
ensions
bemisebenzi
ster@@
ukubuyekeza
ikhokhe
kunkuma
okhiye
inqaba
taught
dawn
decree
loud
afula
inkulu
ngobuchule
Priority
scrap
bavuma
comeka
2007-04-0@@
ii
ik
zamandla
iliviwe
jikelezo
ukugunyazwa
iver@@
assie
ope
07@@
nonkosikazi
asith@@
islands
nokuhlonipha
world's
prot@@
anian
fora
fireworks
esingaba
lokuy@@
vent@@
emez@@
Ukungab@@
smooth
yokusebenzela
yokwelapha
Ukwabiwa
kambiso
imbamgwaqo
Conduct
kwangempela
congestion
requirements:
stro@@
uzz@@
regeneration
okungahambisani
zomnyango
athenge
Ben
aben@@
ke@@
eziyingi
outline
ansom
Kuyo@@
okomnotho
Juda
kokungabi
igalelo
Winder
undl@@
venture
Kukholakala
ingwe
Nama
ukusesha
ukuphenyisisa
000@@
ngezig@@
pump
Johnson
kwisicelo
union@@
criptions
ocal
certify
middle
anyisa
anhle
yokulimaza
zokuletha
amongameli
ukushintshisana
ngokomzimba
ezidingwa
drums
kwisivumelwano
fast-track
facilit@@
gqugquzelwa
wezokuPhepha
athinti
12/@@
Ngokuphathelene
anethi
brands
occ@@
gangway
numeracy
applicant's
Caprivi
profiles
stood
abunga
ukuhlupheka
norm@@
olungiswa
atshal@@
kil@@
lato
eMb@@
leaf@@
projected
lap@@
Algeria
paint
kop
enced
yesilisa
rowed
awuliswa
medium-sized
ukuhola
generators
Okwesine
ovulekile
kwencazelo
Gardiner
QES
kwenzekile
kathi
encountered
iselwayo
kubheka
kubheke
NAAIRS
Kg@@
aguqula
ections
abanokukhubazeka
zokwelapha
Khutsong
Imidlalo
sigcwaliswe
avumele
avumela
yilayisensi
rejection
mnyango
ationally
dispensation
prevail
best@@
Scott
IKhomishani
isc@@
zobulungiswa
kokuland@@
azo@@
ABATHENGI
okwaholela
ngokwabo
praise
kwamarekhodi
PanSALB
uqambi
ezidlule
nesithupha
wokunakekela
Adobe
angamaphesenti
rich@@
yokwengamela
uhlinzeke
oga
isiNdebele
Burton
round@@
elishiwo
ongqoza
udlwana
I-N@@
supporter
oxid@@
maw@@
sesigatshana
owasebenzisayo
efield
uyise
Uyacelwa
ogcina
ammed
ukukhokhwa
otshwala
kuMeyi
oPh@@
Ukusukela
yalolo
nezemfundo
esiyis@@
Computicket
tong
Dagga
KHO
bec@@
ografi
LC@@
foramu
yenhlekelele
ander
andakanyeke
1986
expan@@
81
Impilo
rehabilit@@
uhambisana
distinc@@
uthuthu
ka-1964
kuMininjela
Prosecu@@
shook
charging
anaki
akomiti
akakwazi
ivumele
igqaja
emadlelweni
ballistic
ukuhwebelana
lwamabhizinisi
kow@@
opted
nokunc@@
curr@@
nabaph@@
ovunyelwa
ifino
Iminyaka
Emb@@
ngcele
inobho
Ukushintshwa
yokuxazulula
inganisa
weNdawo
ukulimaza
ough@@
depos@@
bezentengiso
leKomidi
embodied
ict
ibuza
resc@@
thoughts
lokulungisa
dim@@
ezoba
hlawulo
athemba
enyathelo
ehlangabezana
ugc@@
REVIEW
PETI@@
Inkonzo
coup@@
sincike
nemini
kulum@@
eknikhali
motorists
ongad@@
worth@@
izimfihlo
e-building
oholwa
differential
wodwa
ENT
Senegal
infrastructural
1000
ty-@@
lokucela
hut
diligence
festivals
thre@@
imivuzo
senator
kuxh@@
Outcomes
ament
Uyazi
ayeg@@
fuleni
lich@@
inhlekelele
lec@@
isikhulumi
Arms
MINIS@@
esiyo
ok
oe
wobumbano
aqinile
nokuthengiselana
hazards
racist
yakw@@
Phal@@
How@@
announcements
ICC
ukuvalwa
igr@@
sakh@@
worse
induce
bangas@@
abasebenzayo
tel
Ukugxila
Khumbula
killings
kokudlula
chlorinated
zezing@@
scep@@
besifundazwe
Ezinyangeni
ABA@@
play@@
Sikholelwa
iphikisana
finyeleleka
yeseka
naleli
Mali
dres@@
ezimpahla
amafemu
eft
efo
emtholampilo
gunyathi
eRephabhliki
pe
athembekile
Bitterfontein
illbrow
learn
izinkokhelo
Governor
asebenzeli
banikezwe
banikezwa
ubane
vendors
warning
overseeing
big@@
R250
encomp@@
Bloemspruit
yiso
nokulandela
eksi
CBD
ukuqulwa
Fil@@
azwel@@
lodging
boasts
fer
(i-@@
iphatha
wayel@@
umongameli
ooth
besayense
Warwick
Ukuthuthuka
,2
awub@@
ilavu
ihora
nezikhukhula
ected
amalgam@@
infectious
philosoph@@
rous
exwayiswa
discourage
Zan@@
eziya
qi
RO@@
wazisa
desc@@
nemigwaqo
okuyisipesheli
apolog@@
njengezin@@
ajenda
tshontshiwe
ivayisi
desertification
WIS
sokuhlela
ESIFAZANE
BUYEKEZA
Does
Lot@@
sjamb@@
ukufaneleka
aqembu
subscrib@@
saleso
nezigatshana
cocaine
Wayes@@
caution
Genetically
cigarettes
ili:
ezihlangene
bid@@
sitsh@@
recognising
wesikhashana
iqhamuka
enormous
Laure@@
yezindlu
willingness
Ask
organization
arity
izici
sazo
sittings
iphind@@
(021)
lwezezimali
rings
debe
Mong@@
Isizathu
Sorry
ekukhul@@
eMelika
aphathwa
desire
Baf@@
utter@@
enemies
uT@@
Imikhiqizo
Ukwakheka
adiba
155
156
steady
Viljoen
eko@@
lokwel@@
yalawo
arriv@@
ezingu-90
kwezimvume
fake
237
abagulayo
s)
s-
Xit@@
FNL
avid
icates
Added
owaz@@
R7@@
intermediaries
ukuxhumanisa
Seven
bolwazi
wafaka
Systems
sokum@@
ushisi
okazi
worried
lisebenzisana
iziz@@
chap@@
Spider
mann
adjudication
sibhalwe
Carol@@
luff
zeziMantshi
ningside
Round
yakuleli
kokukhokhelwa
alungelo
iva
ivi
ca@@
ress
unika
contesting
dare
SANEF
avula
weSiteshi
anjelwe
amaphrovinsi
homeless
desert
reloc@@
emis@@
Tembisa
KHA@@
amanisi
anced
couldnt
yengeniso
eziyi@@
eNkonzo
sikhulise
okungaqondile
assured
idlalo
kubani
Finland
nemitheshwana
kubikwe
yisithunzi
med@@
esicongweni
scam
musicians
today's
leigh
termed
COZ@@
ombazanyana
elanele
oludingekile
zesimo
izoqhubeka
e-Angola
demonstrations
aan
concurrent
CMPs
esekela
bebhodi
Leone
nenkantolo
beno@@
qhak@@
inganekwane
odayirektha
Izinhloso
theatres
culprits
Steyn
conclusions
okungenasidingo
FA
zokubheka
Alikho
Logie
isiphoqelelo
umkhalazi
ud
ub
isti@@
arranging
Groote
ekeleka
zakw@@
bekumele
ngokuprinta
expresses
itifiketi
eyovulwa
anike
sabe
ingakhishwa
Fo@@
Phelps
ashiy@@
monitha
outlines
kunalokho
stabilisation
evacuation
regulators
wamalungu
Frans@@
reacted
sourcing
therewith
antal@@
nentsha
yisikhungo
abatholakala
olak@@
textiles
izikhukhula
strides
Campus
ekomidini
Girls
hloli
esinamandla
meningitis
CM44@@
Westville
pits
industrialisation
ingab@@
izinkulumo
emotionally
drink
agibeli
bezilwane
amasela
Purpose
koMhlaba
qugquz@@
ekelana
uthukayo
selecting
sikamazisi
iywe
ishes
Parole
wezempilo
LW@@
sett@@
bakul@@
olele
renowned
trials
mobilised
desirable
bika
aminithi
EKILE
zemvume
shut@@
zokubeka
551
Okh@@
Interim
emsakazweni
kwamasu
frequency
qondwe
baggage
Kuils@@
lifted
gqugquz@@
namasekela
Ungathola
wild@@
Wezokuphepha
scenes
emvula
Welkom
ezibekelwe
paral@@
Ry@@
deepest
asiphothi
zokuqapha
vikelwe
Nan@@
yencazelo
roc@@
ngokwehlukahlukana
edlul@@
featured
wokudweba
groundwater
3817
uzwini
ngokuy@@
gearing
templ@@
Tax@@
capita
kwezebhizinisi
necessitated
kungazange
grateful
factories
ankuwa
sikaNgqongqoshe
entries
din@@
2005@@
abuhlangene
scarcity
cargo
akunika
SC
Reservoir
abor@@
Kenn@@
iholwa
commissioned
engenabulungisa
,3
aphoqa
eziqondile
ishintsha
[...]
